#version: 0.2
ï ¼
ä ¸
ï¼ Į
ã Ģ
ç ļ
çļ Ħ
ä º
ãĢ Ĥ
æ ľ
å ı
å ħ
ä »
å ¤
å ®
å Ī
ãĢ ģ
å Ĳ
å ľ
ç Ķ
å ¹
ä ½
è ¿
å Ľ
æ ĺ
æ ĸ
ç »
ä ¹
å Ĭ
å į
æ Ĺ
æ Ī
å °
å Ń
ä¸ Ģ
ä ¼
è ¯
å¹ ´
è ®
â Ģ
æ Ŀ
å Į
åľ ¨
å ¸
æĺ ¯
å ·
å Ĩ
å º
é ĩ
ä¸ Ń
ä¸ º
æľ ī
å ¼
äº º
æ ī
å ĩ
ç §
é Ģ
ç ī
å ¾
å ±
è ¡
æ ķ
å¤ §
è Ģ
å Ĵ
ç Ľ
åĽ ½
åĴ Į
å ¯
ç º
è µ
ç İ
å İ
æ ł
æ °
é Ļ
ä¸ į
è ´
å ¥
è §
äº Ĩ
é ĥ
å ½
æ Ń
æ Ķ
æ Ĭ
ä» ¥
åŃ ¦
ï¼ ī
æ Ģ
ï¼ Ī
äº İ
æ ³
æ µ
è ĩ
è ĥ
çĶ Ł
ç Ĳ
é Ĺ
å ĳ
ï¼ ļ
æ ²
æĹ ¶
ä¸ Ĭ
é ĺ
é Ŀ
å ¿
çĶ ¨
ä ¿
æ ŀ
ä½ ľ
ç Ń
æĪ Ĳ
æ ĭ
ä¼ ļ
ç «
è ¾
2 0
ä¸ ļ
ä¸ ª
åľ °
å Ł
æ İ
è ½
åı ĳ
åĩ º
å ī
åĲ İ
å ĵ
âĢ ľ
æ ¯
æ ¸
è¡ Į
âĢ Ŀ
åħ ¬
æľ Ī
æ ±
¦ ģ
å® ¶
æ ´
æĹ ¥
å· ¥
é ķ
ç ¬
åĪ Ĩ
è ¦ģ
åı ¯
é ¢
ä¸ İ
ä¹ ĭ
èĥ ½
åĪ °
ç ½
ç ľ
æ Į
æ Ľ
é ģ
ä ¾
æĿ ¥
è¿ Ļ
éĥ ¨
æĸ ¹
ãĢ ĭ
ãĢ Ĭ
é «
ä» ĸ
å¯ ¹
1 9
çĲ Ĩ
å¤ ļ
é« ĺ
ç ®
ä¸ »
çŃ ī
å »
é Ľ
æľ ¬
åħ ¶
åĬ ¨
è Ĥ
ä¸ ĭ
è ī
æ ¬
ç¬ ¬
åŃ Ĳ
èĩ ª
æ ĥ
å¸ Ĥ
è ·
æĸ °
åĮ º
åĮ ĸ
è¿ Ľ
åĲ į
å ¦
ç» ı
æ³ ķ
äº §
å¼ Ģ
æľ º
ä½ ĵ
åı Ĭ
èĢ Į
æĸ ĩ
çİ °
æ Ħ
ç Ł
éķ ¿
ç ¾
åĲ Į
è¿ ĩ
åĲ Ī
è ģ
é ¡
çĶ µ
åħ ¨
æ Ļ
è Ĭ
éĿ ¢
åĵ ģ
ç ±
å» º
ä¹ Ł
å §
é £
å Ŀ
ç ¨
è® ¾
çī ©
åĬ ł
æĢ §
åĨ ħ
åĬ Ľ
è °
å° ı
æ ı
ç Ĥ
ç Ļ
ä¸ ī
æī Ģ
å® ļ
ç ©
æĪ ĳ
ä½ į
ç ¤
æ° ´
é ¦
åī į
å¾ Ĺ
è ¥
è ¢
è ĭ
æľ Ģ
åĪ ¶
å¹ ¶
åº ¦
èĢ ħ
è¥ ¿
è ¶
ç ł
ä» ¬
éĹ ´
äº ĭ
ç ³
éĢ ļ
ï¼ Ľ
çī ¹
å® ŀ
æķ Ļ
é ļ
å ģ
åĳ ĺ
åľ º
æ į
å¤ ©
ç§ į
å¿ ĥ
åħ ¥
è Ĳ
æĸ ¯
å° Ĩ
ç ķ
éĩ į
åį Ĺ
éģ ĵ
å £
ç ¥
å ¢
äº Į
å° ±
ä» £
å¤ ĸ
åı ¸
å¹ ³
è¢ «
å± ±
é ħ
åĬ ¡
çĶ ±
åį ģ
éĩ Į
æ ģ
ä¸ ľ
åħ ³
åĽ ł
ç§ ĳ
è Ī
ç¾ İ
å± ķ
ç³ »
0 0
åĪ ©
æ Ł
éĩ ı
éĥ ½
é ©
æľ Ł
é ĵ
æ ¶
å¦ Ĥ
çĽ ®
ä½ ¿
è İ
æı Ĳ
ä» »
çĽ ¸
åĮ Ĺ
é Ķ
å® ī
å½ ĵ
æµ ·
æ° ĳ
æķ °
æľ ¯
ç® ¡
è½ ¦
ç ¼
è¡ ¨
è· ¯
è į
å Ģ
æŃ ¤
Â ·
å° Ķ
éĩ ĳ
å ²
åº Ķ
æ ¡
ä¿ Ŀ
è® ¡
åĨ Ľ
ç Ħ
æĶ ¿
ç Ī
ç¨ ĭ
æĺ İ
ç ĥ
ç ²
ç ģ
å¼ ı
æ¬ ¡
åŁ º
å¥ ½
é ľ
ç Ŀ
å ŀ
èµ Ħ
æ¯ Ķ
çĤ ¹
ä¸ ĸ
é Ĥ
èĩ ³
æĪ ĸ
ä» İ
åħ¬ åı¸
çĲ ĥ
ç Ĺ
éĻ ¢
èµ Ľ
ä¸Ģ ä¸ª
æĹ ł
ç« ĭ
æ ·
é Ĵ
ç ĸ
ä¸Ń åĽ½
æ ¼
æĬ Ģ
çº ¿
ä¿ ¡
åİ Ł
è £
å¸ ¸
èµ ·
æĥ ħ
ä½ Ĩ
ç ´
è¯ ´
åı °
ä¹ ¦
èī ²
åħ ĥ
å¾ ·
æŃ £
é »
åŁ İ
ç ¦
éĺ Ł
20 1
çĦ ¶
åħ ĭ
æĪ ĺ
æĦ ı
ä¸ ¤
æĽ ´
ç» Ł
å ķ
ä¸ ĵ
20 0
åĽ Ľ
é ª
çľ ģ
æ º
ç» Ħ
æī ĭ
è´ ¨
å· ŀ
ç» ĵ
ç ¡
çł Ķ
è¿ ĺ
è¿ Ĳ
æ´ »
æµ ģ
æł ¼
èģ Ķ
é Ł
åŀ ĭ
éĹ ¨
ä¼ ł
ç½ ĳ
é£ İ
äº ¤
æ £
ç§ °
æİ ¥
åĲ Ħ
å½ ¢
é© ¬
åı¯ ä»¥
æľ į
æ² »
çº §
å¹ ¿
äº ļ
æŀ ľ
éĽ Ĩ
çİ ĭ
å¤ Ħ
æ ®
è Į
å½ ±
å¸ Ī
åĲ ĳ
æ »
åı £
å¸ ĥ
ç± »
è Ħ
è º
è¾ ¾
å Ķ
ç« Ļ
æĢ »
ç¤ ¾
å·¥ ä½ľ
åį ķ
åı ·
éĢ ł
åķ Ĩ
æł ĩ
1 0
éĢ ī
æ° Ķ
æł ¡
å ĸ
åİ ¿
ç± ³
å¯ ¼
æį ®
ä» ¶
è§ £
è¯ ¥
æ ¹
èº «
æ¸ ¸
ä¸ ĩ
å¥ ³
å· ²
è ĳ
åĪ Ľ
å Ļ
æ ¢
åħ ·
æĭ ī
çĿ Ģ
æ Ĥ
åħ ±
é ¥
èĬ Ĥ
é¡ ¹
äº Ľ
å¾ Ī
åı Ĺ
ä¹ Ĳ
æ¼ Ķ
å ¡
å£ «
è§ Ħ
çĻ ½
åħ ī
æĮ ģ
åħ Ī
ä¼ ģ
æĶ ¹
åĻ ¨
åı ĺ
åĽ ¢
çķ Į
è Ļ
æĸ Ļ
å¼ º
è§ Ĩ
âĢ Ķ
äº Ķ
åıĳ å±ķ
çŁ ¥
çĽ ´
åı Ĥ
æĮ ĩ
æĶ ¶
è£ ħ
æĿ ĳ
åį İ
å¤ ĩ
åİ Ĩ
åı ²
åİ »
åĮ ħ
èĤ ²
ç© ¶
å° ĳ
æ¸ ħ
é¢ ĺ
çº ¦
åĮ »
é ¾
èİ ·
æ± Ł
æĬ ¥
é¦ ĸ
ä¼ģ ä¸ļ
åĪ «
é¢ Ĩ
ç© º
çĹ ħ
ç ĭ
æ± Ĥ
æŀ Ĺ
æ ¨
ç¥ ŀ
åĽ ŀ
éľ Ģ
ç Ĭ
è¿Ľ è¡Į
è ±
çŁ ³
æŀ Ħ
æĶ ¾
æº Ĳ
å± ŀ
å¤ ´
ä½ ł
æĬĢ æľ¯
ä¾ Ľ
æĦ Ł
è° ĥ
ç½ Ĺ
æķ Ī
èĬ ±
ã ĥ
åı ª
èĲ ¥
åĪ Ĺ
çłĶ ç©¶
åĽ ¾
ï¼ī ï¼Į
å¸ ¦
çİ ¯
ç®¡ çĲĨ
èĭ ±
æ² ³
æ² ¡
æł ·
æĿ ¡
æĪĳ ä»¬
åı ĸ
è¯ Ń
çľ ĭ
æĪ ·
å® Į
æľį åĬ¡
å ¨
éŁ ³
åĬ Ł
ã ģ
å® ¹
æī ĵ
åŃ Ĺ
è® °
æ Ĵ
ä½¿ çĶ¨
ç² ¾
ä¼ ĺ
å§ ĭ
è® ¤
ç» ´
è® º
å¤ ª
åĬ ŀ
åĪ Ļ
éĹ ®
è½ ¬
çī ĩ
è§ Ĥ
æģ ¯
åı ¤
å® ĥ
éĻ ħ
å· ±
æ¯ ı
ç¤ º
è¾ ĥ
1 2
ç ı
å® ¢
è ı
åĩ Ĩ
ä¹ ī
åı Ī
èģ Į
è¿ ĳ
å ĭ
å± Ģ
åģ ļ
ä» ·
è¯ ģ
ç ħ
æĥ ³
å¢ ŀ
å§ Ķ
äº ¬
èĢ ģ
èĢ ĥ
è ħ
éĿ ŀ
æĶ ¯
åĽ½ å®¶
å¼ ł
å¤§ åŃ¦
å ł
èī º
åº ľ
ä» Ĭ
çĥ Ń
å¤ į
çī Ī
çĪ ±
æ ĳ
é¾ Ļ
æĬ ķ
ä¸» è¦ģ
èĩª å·±
è® ©
åħ °
åĳ ¨
è§ ģ
1 8
éĺ ²
éĻ Ĳ
äº§ åĵģ
éĤ £
æķ ´
è® ®
é¦ Ļ
æİ ¨
æ· ±
ç» Ļ
ãĢ į
ãĢ Į
é£ Ł
æĸ ½
æĬ ¤
åĨ į
éĢ Ł
åĨ ³
åĽ Ń
e r
åį ³
å¢ ĥ
éĺ ¿
å Ħ
æ³ ¨
è´ ¹
æĺ Ł
ç§ ¯
ç® Ģ
çľ Ł
æł ¹
åī §
éĺ ³
éª Į
è¿ ŀ
å¥ ĸ
è¶ ³
æĺ ĵ
çİ ĩ
ç½ ®
1 1
åĳ ½
åı į
åĪ Ĵ
æ¨ ¡
ã Ĥ
åĬ ©
éħ į
è®¾ è®¡
å° ¼
è¯ ķ
ç¬¬ ä¸Ģ
æĪ ı
å¼ ķ
çĶ »
ç¼ ĸ
æĹ¶ éĹ´
æĽ ¾
æĿ ĥ
ä¹ Ī
ç³» ç»Ł
ç Į
æµ İ
æī į
çĻ ¾
é ²
æ¸ ¯
å¥ ¹
ç ª
æŃ ¥
ä» ĭ
19 9
åĦ ¿
æ²¡ æľī
æľ ª
éķ ĩ
æĻ ¯
éĩ ĩ
é» Ħ
ç ¢
ç» Ń
éĵ ģ
éĿ Ĵ
åŃ ĺ
å· ´
è¶ ħ
åį ĩ
ç¦ »
è§ Ĵ
æĪĲ ä¸º
ç ¿
æ¸ ©
ä¿ ®
éĢļ è¿ĩ
æµ ĭ
1 5
æĽ ²
æĿ Ĳ
a n
åį ¡
æŁ ¥
ç« ł
åħ Ń
åľ Ł
å® ¤
è Ĵ
æ® µ
ä¸ĸ çķĮ
åį ı
ç ĵ
æ ¥
æ¶ Ī
èĳ Ĺ
çĬ ¶
ç¡ ®
ä½ ķ
ä½ İ
åĨ ľ
çº ¢
çļĦ ä¸Ģ
ä¸ Ķ
çº ª
ä»¥ åıĬ
æĪ ¿
å® ĺ
åĩ »
éĻ ¤
çģ «
ç´ ł
èĩ ´
ï¼ Ł
å ĥ
æŃ ¦
i n
éļ ı
æķ ħ
è¯ Ħ
ä»ĸ ä»¬
æ² ¹
å± Ĥ
åŁ Ł
æİ §
é ¸
å¿ «
åħ »
æ¡ Ī
åĪ Ŀ
æĢ ģ
å¤ «
æĬ Ĭ
çĶŁ äº§
æŀ ģ
è¶ Ĭ
ä¾ ¿
æıĲ ä¾Ľ
o n
èĮ ĥ
æ ļ
ä¸Ń å¿ĥ
å¹ ²
æĺ¯ ä¸Ģ
ç» Ĩ
æİ Ĵ
æĸĩ åĮĸ
ä¿¡ æģ¯
æĿ İ
çĸ Ĺ
åİ ĭ
å± ħ
æķĻ èĤ²
ä¼ Ĺ
æĹ ı
è® ¸
è Ĺ
ç¾İ åĽ½
æ ħ
å½ ķ
è¾ ¹
åĳ Ĭ
è ¨
åħ ļ
åĵ į
åħ «
ä¸ ¾
å¾ Ģ
çī Į
è¨ Ģ
åŃ £
ç¦ ı
èį ¯
å·¥ ç¨ĭ
æĻ ®
å¼Ģ å§ĭ
èĭ ı
è´ £
è± ¡
ä¾ ĭ
æĸ Ń
âĢĿ ï¼Į
ç» Ī
æĢ Ŀ
é¡¹ çĽ®
æľ Ŀ
åĨ µ
äº ²
åĲĮ æĹ¶
ä¹ ł
çŃ ĳ
å¿ Ĺ
åĽ½ éĻħ
ç» ĩ
ï¼ ģ
æ³ ¢
è¯ Ĩ
ç¤¾ ä¼ļ
æĭ ¬
éĢ Ĥ
å¸Ĥ åľº
æĺ ¾
ä¸Ń çļĦ
æ ¤
ç»ı æµİ
åĢ ¼
åĿ ĩ
èĲ ½
çº ³
åį ļ
ä¸ĵ ä¸ļ
è¯ Ŀ
åĽ ´
è¯ ·
åĩ ł
åı Į
å² Ľ
æŃ Į
éĥ¨ åĪĨ
çĶŁ æ´»
æ£ Ģ
é¥ °
åľ° åĮº
åº ·
äº ĳ
éħ Ĵ
æ» ¡
æ¸¸ æĪı
æ¹ ĸ
æ± ī
å»º è®¾
åį «
æľ ¨
åĮħ æĭ¬
éĶ Ģ
åħ¶ ä»ĸ
ä½į äºİ
3 0
1 6
éľĢ è¦ģ
çĶ °
éĹ® é¢ĺ
ç¬¬ äºĮ
å£ °
ä¹ ¡
çħ §
åħ ´
éļ ¾
å¥ ¥
âĢĿ ãĢĤ
æĶ¿ åºľ
å¯ Ĩ
äº ī
æĿ ¿
æī ¿
ï¼ī ãĢĤ
åĥ ı
å¤ ±
é¦ Ĩ
å¿ ħ
çĽ ĳ
åŃ¦ æł¡
åĽł ä¸º
è´ Ł
æ Ĳ
çļ ®
æ´ ²
åº §
ä» ½
ä¸į åĲĮ
a r
ä¸ ĥ
åİĨ åı²
åĪ ĩ
ä½ ı
åı ĭ
é¢ Ħ
äºº æ°ĳ
åĬ ¿
ä¹ Ŀ
ä½ľ ä¸º
æ ĵ
æĹ ©
åŃ¦ éĻ¢
åħ µ
æ ¦
åį °
å¯ Į
å® Ĺ
ç¾ ¤
åı¯ èĥ½
å°± æĺ¯
åī ¯
èİ· å¾Ĺ
å»º çŃĳ
æŃ »
åĨ Ļ
æ´» åĬ¨
çĭ ¬
æ ½
æľ Ľ
çĶ ·
å¿ µ
æĴ Ń
ç® Ĺ
é Ń
19 8
ä½ Ļ
åħ¶ ä¸Ń
è¿ ľ
ä» ħ
è ŀ
æĹ¥ æľ¬
çļĦ äºº
å® Ŀ
åº Ĺ
æ¯ į
è¡ Ģ
ä» ¤
ç ĳ
å¸ Ŀ
ç Ĩ
åħ· æľī
åģ ¥
å½± åĵį
è¿Ļ ä¸ª
e n
éĻ į
æľī éĻĲ
é» ĳ
åį ĥ
åį Ĭ
é º
èµ °
1 7
ãĢģ ãĢĬ
é£ ŀ
2 2
ä¾ Ŀ
ãĢĤ âĢĿ
å· Ŀ
åĢ Ļ
æł ¸
éĩį è¦ģ
ç»Ħ ç»ĩ
æĻ º
çı Ń
ä» Ģ
éĵ ¶
æĹ ħ
å ©
çİ¯ å¢ĥ
æĮ ī
å®ī åħ¨
æĭ ħ
èĤ ¡
åŁ ¹
çĶ± äºİ
å² ģ
æ¬ §
ï¼ļ âĢľ
å¾ ĭ
1 4
åİ Ĥ
éĻ Ī
å¸ Į
æ¥ ¼
è®¾ å¤ĩ
5 0
æĺ ¥
ç ¯
æĸ¹ éĿ¢
åĶ ®
å¦Ĥ æŀľ
çĪ ¶
å¥ ĩ
å¾ ®
åı ¦
çķ Ļ
èĥ ľ
æĶ »
æŃ ¢
2 1
ä½ľ åĵģ
âĢĶ âĢĶ
äºº çļĦ
è½ ½
åľ £
åº ķ
å® £
å¤§ çļĦ
åĲ «
æİ Ī
èī ¯
åĨ ł
åĽł æŃ¤
ç» §
éĻ ©
å° Ħ
å¨ ģ
åĸ Ħ
æĥħ åĨµ
1 3
çŃ ĸ
ä¼ Ĭ
åĮĹ äº¬
è¯ »
æł¹ æį®
è Ľ
èĪ ª
è½ »
å¾ ģ
åŃ¦ çĶŁ
ä¸ ´
å¡ Ķ
æ² Ļ
åħ ¸
è¯ Ĺ
è® Ń
o r
çĽ Ĭ
åı ¶
èĪ ¬
åĲ ī
å ĺ
å ³
æ¬ ¾
è¿Ļ äºĽ
åį ł
æ¡ ¥
åĩº çİ°
åł Ĥ
è¦ģ æ±Ĥ
åħ ħ
å® ģ
é¦Ļ æ¸¯
åį ´
ä¸ ¥
æī ¹
è¡ Ĺ
a l
åħ¨ åĽ½
æľīéĻĲ åħ¬åı¸
çļ ĩ
äºº åĳĺ
èīº æľ¯
ç§ Ģ
åħ į
è¿ °
åıĳ çİ°
åĪ ĺ
æķ° æį®
åįķ ä½į
ãĢĭ ãĢģãĢĬ
è¡Į ä¸ļ
åĳ ³
é ±
åĸ ľ
åŁİ å¸Ĥ
çĽ¸ åħ³
æī ĺ
Ġ *
ä¹ĭ ä¸Ģ
ç« ¯
é ¼
å·² ç»ı
çĶ ²
åĨħ å®¹
ç £
è´ Ń
çĶµ è§Ĩ
é± ¼
çĻ »
ä¸ °
è¯ į
æ ¿
æ¹ ¾
æ´ ¾
å¼Ģ åıĳ
åĩ ı
å· ¦
çĶµ å½±
çł ´
ç§ »
é ½
æł ĳ
ä½ Ľ
èĹ ı
ä¸Ĭ çļĦ
çĽ® åīį
è¾ ĵ
ä¹ĭ åĲİ
ç§ĳ åŃ¦
è¯ ¾
ä¹Ł æĺ¯
ç§ĳ æĬĢ
æĭ ©
èį ī
éĽ ·
äº Ĵ
åĩº çīĪ
ä¼ ¤
è®¤ ä¸º
æĸ¹ å¼ı
æĿ Ģ
èĥ½ åĬĽ
çľ ¼
éĻ Ĩ
æ° ı
è´ ¢
åº ĵ
æī §
æĸ¹ æ³ķ
âĢ ¦
éĢ ģ
äº ¦
a t
æīĢ ä»¥
ç´ ¢
ä»£ è¡¨
å Ĥ
é ¹
èŀ į
ä»Ģ ä¹Ī
å± Ĭ
å¼ Ĥ
åı ³
å¯ Ł
è§ ī
å¥½ çļĦ
çģ µ
è´¨ éĩı
åºĶ çĶ¨
æĿ ¾
2 5
çª ģ
ç» ľ
å¤ Ł
æĬķ èµĦ
ä½ ³
åıĳ çĶŁ
ä»ĸ çļĦ
æīĢ æľī
æ¤ į
å° ½
å® Ī
åĵ Ī
è¿ĩ ç¨ĭ
ä¸ ½
å° ģ
æ´ Ľ
çķ ¥
ä¸Ĭ æµ·
åº Ħ
æĭ ¥
æį ¢
é¡ »
äº ¿
æłĩ åĩĨ
éĻ Ħ
éĢī æĭ©
å ´
çŁ Ń
å§Ķ åĳĺ
æĬ Ĺ
æĤ £
éĽĨ åĽ¢
ç» ĥ
e s
å¤ ı
ç»ĵ æŀĦ
ç ĩ
ç¬¬ ä¸ī
æ²» çĸĹ
è Ĩ
å® «
è½ ®
éĿ ©
00 0
ä¸Ģ äºĽ
åĲ ¸
åŁº æľ¬
æĿĲ æĸĻ
éĴ ¢
åĲĪ ä½ľ
éĴ Ł
è® ²
åĬŁ èĥ½
èĲ ¨
æ° ¸
è¡ ¥
åĪ° äºĨ
å¹´ çļĦ
è¿Ĳ åĬ¨
åº ı
å¤Ħ çĲĨ
ä¿Ŀ æĬ¤
åŃ¦ ä¹ł
æĪĲ ç«ĭ
èį £
Ġ (
ç» ¿
è ĵ
ä¸Ģ èĪ¬
å® ³
æ¬ ¢
ç®Ģ ä»ĭ
åŃ ©
æŀ Ĳ
æ£ ®
å° ļ
å® ¡
éħ ¸
åº Ĩ
åıĤ åĬł
è´ §
ä¼ ¯
éĩĩ çĶ¨
ä¹ ħ
2 3
æİ§ åĪ¶
çĵ ¦
éĿ¢ ç§¯
ç» Ŀ
ä½ľ çĶ¨
äº§ ä¸ļ
å®Į æĪĲ
æľº æŀĦ
é¢ ĳ
èĩªå·± çļĦ
å¡ ŀ
æ¯Ķ èµĽ
é² ģ
éĿŀ å¸¸
ä¾ §
Ġ S
å¯¹ äºİ
ä½Ĩ æĺ¯
éĩ İ
ä¼ ¦
åĶ Ĳ
ä» į
ç¤ ¼
è½ ¯
éŁ³ ä¹Ĳ
çĿ £
çĽ Ł
æ¶ ²
æ¿ Ģ
å·¥ ä¸ļ
åĿ ļ
æ¯ ķ
ä» ª
æĤ ¨
æ± ½
ï¼ī ãĢģ
ä¸ª äºº
å· ®
ç» į
ä¸º äºĨ
åĵģ çīĮ
åĪ¶ ä½ľ
è®¡ åĪĴ
åŁº ç¡
çļĦ æĺ¯
éĹ »
èĻ ½
åİ ħ
èĥ Į
åĪ »
è¯ º
ä¹ĭ éĹ´
åŁºç¡ Ģ
i c
è ľ
ç¥ ĸ
å¸ ®
ä¼ ¼
åģ ľ
è´Ł è´£
æĿ Ĥ
èģ ļ
ç³» åĪĹ
æŁ ĵ
æ´ ĭ
è´ µ
èı ľ
æĭ¥ æľī
é¡ º
æ¯ Ĵ
19 7
ç½ĳ ç»ľ
æĵ į
æıĲ é«ĺ
å¸ Ń
çī Ľ
ãĢĭ ï¼Į
åĽ º
å½¢ æĪĲ
åº Ń
æ ¾
çİ° åľ¨
ç² ī
2 4
ç¥ ¨
åħ¬ éĩĮ
æĸ Ĺ
éģ Ĺ
èĤ ī
æ³ °
çĶ ³
ç» ¼
åī Ĥ
éĢ Ģ
i s
è¡¨ ç¤º
å½ Ĵ
è¿Ļ ç§į
åħ³ ç³»
èĮ ¶
çĽ ĸ
è´ ¥
è¿Ľ åħ¥
è¿Ļ æł·
çİ ī
å®ŀ çİ°
å¾Ī å¤ļ
æķ £
è ĸ
æ¯ Ľ
æľĢ åĲİ
å» ¶
èĭ ¥
æĹ¶ åĢĻ
æģ ©
åĨ ²
ä¸į æĺ¯
èµĦ æºĲ
å½ ©
æī ¾
åĨ ·
e l
èĩª çĦ¶
Ġ C
çĶ¨ äºİ
äº «
é¢ Ŀ
åĬ ³
19 6
è¿ ½
é Ĩ
çī Ļ
åĭ Ĵ
19 4
å¹³ åı°
åĲĦ ç§į
çĹ ĩ
åį ·
å¯ º
ï¼ į
å®¢ æĪ·
å¥ Ĺ
åĵ ¥
æĭ Ľ
é¡ ¶
å ª
ä¸į èĥ½
éª ¨
çł ģ
äºĨ ä¸Ģ
è Ń
åĶ ±
çĽ ĺ
åĿ Ĺ
æĭ ¿
éĥ¨ éĹ¨
ç« ŀ
åĮ» éĻ¢
æŀ ¶
éĥ½ æĺ¯
èĪ ¹
æĿ¥ çļĦ
äº§ çĶŁ
èİ ±
åĽ½ åĨħ
æľī ä¸Ģ
å¾ ħ
åĲ ĥ
å½ĵ æĹ¶
ãĢĭ ï¼Ī
åĪĽ æĸ°
çİ ©
èŃ ¦
æĿ ¯
éĽ Ħ
æĳ Ħ
19 5
ä¸ Ŀ
åĪĨ æŀĲ
ç¨ ³
è´ Ŀ
- -
æĻ ļ
åĲ ¬
æİ ¢
äº¤ éĢļ
ãĢ Ģ
æĪĲ åĬŁ
èĥ½ å¤Ł
èĴ Ļ
æ¦ Ĥ
åĪ© çĶ¨
çĶµ åŃĲ
åľ° æĸ¹
ä¼ł ç»Ł
è¡Į æĶ¿
æĽ ¼
æĿ ¨
å»º ç«ĭ
æĶ¯ æĮģ
ç§° ä¸º
å¤ ®
Ġ -
èĪ ŀ
i t
å® ĭ
2 8
ä¸ĸ çºª
ä¹ °
æľī åħ³
åģ¥ åº·
å±ŀ äºİ
1 00
å¼ ¹
å¼ Ł
æķĻ åŃ¦
¤ Ĳ
éĢ Ĳ
ä»¥ ä¸Ĭ
æį Ł
æľ «
åĺ ī
åĲ ¯
ç» ©
éĴ ±
æĹ §
ç»ı èĲ¥
çĳ ŀ
é½ Ĳ
é¡ ¿
éĢ ı
ä¸ ģ
ä¸į æĸŃ
æľŁ éĹ´
éļ ľ
è¿Ļ ä¸Ģ
åľ Ĩ
ä¸¤ ä¸ª
æ¢ ħ
éģ ĩ
è¾ ĳ
å®ļ çļĦ
è®¸ å¤ļ
è· Ŀ
çĮ ®
äº Ī
åģ ĩ
ç¯ ĩ
å§ Ĩ
çİ° ä»£
æĪĸ èĢħ
ç»¼ åĲĪ
éĩ Ĭ
å¤ ľ
çĶ¨ æĪ·
ä¸ļ åĬ¡
è¿ ª
åĲ ¦
å© ļ
çī¹ åĪ«
éĽ ħ
ä¸ ¹
éĺ ¶
æĮ ¥
éĥ ¡
ä»ĭ ç»į
4 0
éĴ Ī
å¢ŀ åĬł
è° ·
çĸ «
ç´ §
è ª
çĽ Ľ
çļĦ å¤§
é² ľ
åŃ Ļ
åŃĺ åľ¨
ä¹ Į
6 0
é¢Ĩ åŁŁ
æ¯Ķ è¾ĥ
æŁ Ĳ
è½¦ ç«Ļ
æĦ ¿
ç½ĳ ç«Ļ
ç« ¥
çĶ ļ
ï¼ İ
æĶ¿ æ²»
è· Ł
é¡ ¾
å§Ķåĳĺ ä¼ļ
éļ Ĩ
éŁ ©
åª Ĵ
åĲ ´
ç¼ º
åĪ¶ éĢł
èģĮ ä¸ļ
å¹³ æĸ¹
éĵģ è·¯
æĭ į
ï¼Į âĢľ
ç»Ħ æĪĲ
æ´ Ĺ
ä¿ Ħ
æ³ķ åĽ½
è¿ĺ æĺ¯
ä¸Ģ èµ·
Ġ M
çĶŁ çī©
åıĤ ä¸İ
æķ ĳ
æ´ ¥
éĿ ł
æĭħ ä»»
ç¨ İ
èĭ± åĽ½
çŁ ¿
ç¬ Ķ
å® ½
åŃ© åŃĲ
å¤§ å®¶
å¿ħ é¡»
çŃ ¾
åı° æ¹¾
æ¯ķ ä¸ļ
æķħ äºĭ
é¥ ®
æľĢ ç»Ī
åĨ Į
l e
æ· ·
èĻ½ çĦ¶
æ±½ è½¦
ä¼ ĳ
æ± ł
äºĮ åįģ
æĸ° çļĦ
å³ °
èĦ ĳ
è Ķ
éĽ ¨
æŃ£ å¼ı
åĩ Ģ
2 6
èĥ ŀ
åĪ ¤
åħ ¼
ä¸Ń å¤®
éĽ ª
æ¢ ģ
å± ĭ
æĹ¶ ä»£
æī ©
æĹ¶ æľŁ
çĲĥ éĺŁ
æ¢ ¦
æĤ£ èĢħ
201 0
è§Ħ åĪĴ
çĽ® æłĩ
ç§ ĭ
äº ®
ç»ı è¿ĩ
a m
æĹħ æ¸¸
èĮĥ åĽ´
å² ©
åĪ º
è§£ åĨ³
èĢĮ ä¸Ķ
æĿ °
éĺ µ
çº ¸
åĨł åĨĽ
æ² ¿
äºº çī©
æĢ ¥
å¹´ ä»£
çĽ´ æİ¥
èĥ ¡
éĿ Ļ
åĪĨ åĪ«
è° ¢
2 7
è¿ĺ æľī
ç»ĵ æŀľ
çĸ ¾
Ġ A
ä¿ ĥ
èĽ ĭ
éľĢ æ±Ĥ
å· ¨
åĢ Ł
ï ½
ä¼ļ è®®
åİ ļ
a s
åŁ ĥ
è¾¾ åĪ°
æ¶Ī è´¹
èİ «
åįı ä¼ļ
éĥ İ
èª ī
æ± ¡
ç²¾ ç¥ŀ
åĿ Ģ
åº Ĭ
å® ľ
å° ¾
æ¢ °
åĪ ļ
ä¸Ģ çĽ´
éĶĢ åĶ®
æĻ ĭ
c h
ç§ ĺ
æľī æķĪ
èĥ ¶
èĦ ±
ä¸į ä¼ļ
æĿ¡ ä»¶
u s
æĳ ©
r o
çĨ Ł
çŁ¥ è¯Ĩ
å¯¼ èĩ´
ç© ¿
8 0
æ¨¡ å¼ı
æ³ ī
Ġ ãĢĬ
ä» ĺ
å¾Ĺ åĪ°
è¡ £
åĬł åħ¥
è¿ İ
ä»» ä½ķ
åĨ³ å®ļ
å¸® åĬ©
äºĨ è§£
éľ ²
ä½ľ èĢħ
éĢł æĪĲ
èģĶ åĲĪ
é ¤Ĳ
è¯ ¸
èı Į
ä»· åĢ¼
. .
æ± ĩ
éº ¦
çĥ Ī
å¦Ĥ ä½ķ
è¿Ļ æĺ¯
éģ ¿
é¢Ĩ å¯¼
æ¸ Ĳ
éĢ Ķ
æĺ ł
ãĢ Ĳ
è§Ħ å®ļ
äº ¡
åıĸ å¾Ĺ
æĢ Ģ
å¹¶ ä¸Ķ
èĩª åĬ¨
i l
è¡¨ çİ°
ä» ģ
åį ±
åĪĨ éĴŁ
è® ¯
ãĢ ĳ
å®ŀ éªĮ
201 1
æ¾ ³
åº Ł
è®¡ ç®Ĺ
æĹ Ĺ
e t
è® ¿
æĿ Ł
åĲ Ľ
éĶ Ļ
ç³ ĸ
ä»¥ ä¸ĭ
ä¸Ń åįİ
è¯ ī
æĢ§ çļĦ
éĵ¶ è¡Į
æ° §
ãĢģ âĢľ
åħ¨ çĲĥ
éĶ ®
æ°´ å¹³
ç¬ ¦
ä¸» ä¹ī
çĽ Ĳ
æĶ¿ çŃĸ
ç»ĵ åĲĪ
å² ¸
æıĲ åįĩ
Ġ P
ä¹ İ
å° ¤
å¾ Ħ
æĵį ä½ľ
å¸Į æľĽ
åł ¡
å®ŀ éĻħ
æķĪ æŀľ
éĩį çĤ¹
è¶ħ è¿ĩ
ä½ĵ èĤ²
ç©º éĹ´
ä¹ ĺ
æıĲ åĩº
åıĹ åĪ°
å¡ ĳ
2 9
è° Ī
o l
åŃ Ķ
åĮº åŁŁ
æ³ Ľ
èĪ °
ï½ ŀ
åıª æľī
åĿ Ĳ
± ä¹Ĳ
åŁ¹ è®Ń
èĵ Ŀ
èĦ ļ
æľ ±
è® ¨
Ġ B
ä»· æł¼
åħ³ äºİ
19 3
âĢ¦ âĢ¦
ç Ĵ
ç»§ ç»Ń
æ³ ½
æĹł æ³ķ
åĳ Ī
æĺ¯ åľ¨
äºº åı£
è ¸
çģ ¯
åĿ ¦
åı «
åĨ °
è¯ ¢
ä¸Ģ æŃ¥
éĽ ¶
è¯ ĳ
å¼Ģ å±ķ
å®ŀ æĸ½
äºº ä»¬
ç¼ ĺ
ä¸į è¿ĩ
çŁ¥ éģĵ
è¿ ģ
ç»Ĩ èĥŀ
201 2
ä½ĵ çļĦ
èģĶ èµĽ
ä¼ĺ ç§Ģ
åĲİ æĿ¥
æĺ Į
r e
çĹ Ľ
ç¡ ¬
200 9
åĬ ª
åįģ äºĮ
æķĻ å¸Ī
20 22
200 8
Ġ é¥°
æĽ´ å¤ļ
æ¼ «
åĲį ä¸º
çĲĨ è®º
çļĦ ä¸Ģä¸ª
äº ķ
çĪ Ĩ
æ» ĳ
èĨ ľ
è® ¢
æ³¨ æĦı
ä¸Ģ ç§į
éĺ ´
æķĻ æİĪ
æĥ ł
å®¶ åºŃ
å¹ ¼
ä¸° å¯Į
èµ µ
æľ Ĺ
èĬĤ çĽ®
èĭ ¦
è¡Į ä¸º
è¶³ çĲĥ
æľº æ¢°
æĺ¾ ç¤º
èĢ ³
åĪ Ĭ
è ļ
æĿ¥ èĩª
éķ ľ
å¾· åĽ½
çĥ §
èĩ £
æĸ¹ æ¡Ī
åĤ ¨
é¸ Ł
éŃ Ķ
è¾ ĸ
ç± į
æľĢ ä½³
ç§¯ æŀģ
ï¼Į ãĢĬ
ç¬¬ åĽĽ
ä¸Ģ æ¬¡
æ± ¤
æľ ĭ
æ´ ŀ
i on
è§ ¦
éļ Ķ
ç« ¹
æĻº èĥ½
ä¸ĵ å®¶
è¯ Ĭ
åıĺ åĮĸ
å «
é¸ ¡
ç ĺ
å¸ ģ
åį ĸ
å¢ŀ éķ¿
åıĳ å¸ĥ
åķĨ ä¸ļ
çļĦ æĹ¶åĢĻ
åħ± åĲĮ
çĤ İ
å½¢ å¼ı
éĥ ĳ
å® ĩ
å¯ »
èĳĹ åĲį
è®¾ æĸ½
æĮģ ç»Ń
ä¸» ä»»
åĨľ ä¸ļ
è¯ ļ
ç»ı éªĮ
åĪ© äºļ
ä½į ç½®
ç½ ª
èī ¾
åı ¥
æĺ¯ ä¸Ģä¸ª
åĽ °
ä¸º ä¸»
æĸĩ åŃ¦
æħ ¢
ä¸Ģ å®ļ
è§ Ī
åĬ¨ çī©
æ³ķ å¾ĭ
ç¤¾ åĮº
å½ĵ åľ°
ä¸ĩ åħĥ
åĩº çĶŁ
å¹ ķ
æµ Ļ
æİ Į
åİŁ åĽł
å¯ ¿
å® ¾
ç¼ ©
æķ Į
è§Ħ æ¨¡
æº ª
äº¤ æµģ
20 20
ä¸Ģ æł·
èĢ Ĳ
æĪĲ åĳĺ
èµĦ æĸĻ
çĥ Ł
å±± ä¸ľ
ç§ ģ
äº¤ æĺĵ
) ï¼Į
éļı çĿĢ
æĪĳ åĽ½
20 00
æ¤į çī©
æľĢ é«ĺ
åĢ Ĵ
é ³
æī ¬
èĤ ¤
æ¶ ¦
æĺ¯ä¸Ģ ç§į
çĶ³ è¯·
éĢļ å¸¸
å½ ¹
çī¹ çĤ¹
å§ ĵ
å¼ Ĺ
ç ¦ģ
ç¿ »
è´£ ä»»
åĨ ¬
20 19
è´ ¸
æı ı
æĸ¹ åĲĳ
é¡ µ
å¹ ¸
éľ ĩ
åĬł å·¥
çĦ¶ åĲİ
å°ı æĹ¶
ä¸į ä»ħ
èĴ Ĥ
åĪĨ å¸ĥ
çĶļ èĩ³
æ¨ ª
å¢ Ļ
éĤ ¦
æī§ è¡Į
âĢĿ ãĢģâĢľ
è± Ĩ
Ġ T
ç® ±
200 7
200 6
ä¹ ±
æģ ¶
è¾ Ĩ
å¾ ¡
ä¿Ŀ æĮģ
å®Į åħ¨
çī¹ èī²
è¿Ļ éĩĮ
åħĪ è¿Ľ
éº »
ä»¥ æĿ¥
åĵ ª
éĵ ¾
å·¥ èīº
çı ł
çº ¯
æ¬§ æ´²
æľī çļĦ
è¶ £
ä» Ļ
æĸ° éĹ»
çĸ ĳ
èı ²
åĬŀ åħ¬
åĽ¢ éĺŁ
çİ Ľ
ä½ĵ ç³»
éĻ¤ äºĨ
è½¯ ä»¶
èĦ ī
çŃ Ķ
èĻ «
æĢ İ
ãĢĭ ãĢĤ
åıĳ è¡Į
ä¸¾ è¡Į
æ½ ®
åħ¬ è·¯
åĳ ¼
% ï¼Į
èµ ı
å·¦ åı³
æĭ ľ
é£Ł åĵģ
ä¼ ´
20 21
è¯Ń è¨Ģ
æİ¥ åıĹ
éĤ£ ä¹Ī
æ¡ £
å°ı è¯´
çļĦ é«ĺ
åį Ī
éĺ »
åħ¬ åĽŃ
æ¹ ¿
æĬ¥ åĳĬ
201 8
è¾ ħ
ç ¹
é¢ ľ
åħ¨ éĿ¢
è¿ĩç¨ĭ ä¸Ń
å¤§ éĩı
è¿ ·
åĩº çļĦ
éļ Ĳ
ç½ ²
æĿ ľ
å¤ º
åħ± åĴĮ
o m
æ² ī
åĿ ı
åĮĸ åŃ¦
æľĭ åıĭ
ç½Ĺ æĸ¯
é¼ ĵ
èį ·
æľª æĿ¥
è¿ ¹
æĪĺ äºī
ç´ ¯
æĮĩ å¯¼
çĩ ĥ
æ´ ģ
7 0
çĭ¬ ç«ĭ
a c
çĶ ĺ
å¦ ĩ
ä»İ äºĭ
åĮ» çĸĹ
ä¼ĺ åĬ¿
h e
æ¼Ķ åĳĺ
æĢ§ èĥ½
éĶ ¦
ç§ Ł
åĪĨ ä¸º
å¹¿ ä¸ľ
è¯ ¯
ä»» åĬ¡
æĹ ¢
u r
åĲį ç§°
ç¹ ģ
åĪ¶ åº¦
å¾ Ĳ
åĶ ¯
èĢ ¶
èĤ ¥
å¢ ¨
äºº æīį
å° º
ä¹ĭ åīį
èĻ ļ
æ£Ģ æµĭ
åĲİ çļĦ
æ¯ «
åĿ ¡
ä¹Ł æľī
åºĶ è¯¥
å¹ ħ
é© »
å¦ »
çĶŁ æĢģ
æĿ¥ è¯´
åĩºçīĪ ç¤¾
è´ ¡
éģ Ń
çļ Ĩ
å¥ ı
ç§ ¦
åªĴ ä½ĵ
9 0
3 5
æ¶ ī
éª ĳ
Ġ L
äºĭ ä¸ļ
èµ· æĿ¥
äº¿ åħĥ
ä¸Ń åŃ¦
201 7
æ® ¿
æ² Ł
çĶ º
è½ ¨
å®¹ æĺĵ
çģ Ń
çĸ¾ çĹħ
å¹´ åº¦
åį ¢
æķ° åŃĹ
ãĢĤ âĢľ
æ½ ľ
è¿Ľ ä¸ĢæŃ¥
æ® Ĭ
å¿« éĢŁ
åĩ ¯
æĬ ĺ
æ£Ģ æŁ¥
å·ŀ å¸Ĥ
æĮī çħ§
çĬ ¯
æĪĲ ç»©
ä¸įåĲĮ çļĦ
201 6
çĻ ľ
åľ Ī
æĮ ¯
å®ī è£ħ
åĲ §
æĹ ĭ
åĩº äºĨ
è§Ĵ èī²
ä¸į åı¯
ãĢĤ ï¼Ī
éĻ µ
å¹¿ æ³Ľ
åº Ļ
éħĴ åºĹ
ç¬ ĳ
æµĻ æ±Ł
ç±» åŀĭ
æĽ´ åĬł
åıį åºĶ
åĩı å°ĳ
çĻ½ çĻľ
çĻ½çĻľ é£İ
éĺ¶ æ®µ
æĽ ¿
ä¿ Ĺ
å¿ ł
æµ ª
in g
æ°ĳ æĹı
åĸľ æ¬¢
äºĭ ä»¶
200 5
åı¦ å¤ĸ
åĪĽ ä½ľ
éĵ ľ
éĽ ķ
çº ¹
åŁº åľ°
å¹´ æĿ¥
åį« çĶŁ
æ¥ ļ
æŃ¤ å¤ĸ
èµ «
åĳ ¢
æļ ´
éŃ ı
çĬ¶ æĢģ
éĶ ħ
åĪ Ģ
å£ ģ
æķ ı
ä¾ĭ å¦Ĥ
å° Ĭ
éĩĳ èŀį
è¿Ĳ è¡Į
åŁº éĩĳ
è½ ´
è´ ´
èĻ ĳ
æĭ Ł
è¯¾ ç¨ĭ
u n
èµ ŀ
éĤ ®
éķ¿ æľŁ
æĸ½ å·¥
Ġ R
èĩª çĶ±
åī ĳ
ä¹ Ļ
æ´ ª
èĻ İ
ç» ĺ
201 3
çļĦ åıĳå±ķ
çłĶ åıĳ
201 5
åħ±åĴĮ åĽ½
æ³ ¥
é ī
éĻ ¶
æĪĲ æľ¬
å¥ ī
åĽ¾ ä¹¦
ç´ «
çĦ¶ èĢĮ
æĺ¯ åĲ¦
åĭ ĩ
åŁ¹ åħ»
æĶ¶ åħ¥
èĪª ç©º
ç®Ģ åįķ
Ġ G
è° ĵ
çº ½
åħ Ħ
æŀ ª
è¡ ¡
èĳ £
â ĳ
æĮ ĳ
åįģ åĪĨ
% ãĢĤ
éĢŁ åº¦
è°ĥ æŁ¥
æķ´ ä¸ª
è ķ
ä¸ĭ çļĦ
èģĶ çĽŁ
é£İ æł¼
ç² Ĵ
Ġ H
æ¸© åº¦
å®ĥ ä»¬
ä¸¥ éĩį
é» İ
çĲĥ åĳĺ
èº« ä½ĵ
æĪ ª
åı ¬
è®¾ ç½®
è Ŀ
è¡¨ éĿ¢
åĨħ çļĦ
æ²³ åįĹ
éī ´
æļ Ĺ
æı ´
æŁ ±
æ® ĸ
è¯ ¦
ä¿Ŀ è¯ģ
èĪ į
ç¨³ å®ļ
ç»ĵ æĿŁ
ç£ ¨
åįģ ä¸Ģ
åĬł å¼º
è¿ Ķ
çļĦ æĸ°
æ ©
å» ·
éĤ »
å¢ ĵ
æł¸ å¿ĥ
åģ ı
ä¼ °
å¹³æĸ¹ ç±³
åħ¨ éĥ¨
ä¸ī å¹´
éĹ Ń
æħ §
201 4
ä¿ĥ è¿Ľ
æĶ¹ éĿ©
è· ¨
æµ ĵ
äºº ç±»
çĲ ´
å®£ ä¼ł
æİ ª
å»º è®®
ä¾ µ
3 1
åħĪ çĶŁ
çľĭ åĪ°
åĬª åĬĽ
è¾ Ľ
åĳĺ å·¥
åıĳ è¡¨
é ŀ
è£ ģ
å°¼ äºļ
ä¼ Ł
é«ĺ éĢŁ
Ġ D
åĬ ±
åĩ ¤
åĮĸ çļĦ
åĽĽ å·Ŀ
èĦ Ĥ
éĩĳ å±ŀ
éĿĴ å¹´
æĪĳ çļĦ
å¾ ½
ä¸¾ åĬŀ
å· §
ä¼ į
æĪ ´
å¼ķ èµ·
çģ °
çĪ¶ äº²
èĤ ¯
å¿ĥ çĲĨ
èµĽ åŃ£
æĻ® éĢļ
å¦ Ī
æĢĿ æĥ³
ä»İ èĢĮ
éģĵ è·¯
èµ ¢
ä¹ ĥ
200 4
o s
ä»ĸ åľ¨
çİ° åľº
å· ¡
æ³¨ åĨĮ
èĥ½ æºĲ
ä½ł çļĦ
å°Ĩ åĨĽ
æ³ ¡
æĻ ¶
ä¾ ¯
çĶŁ åĳ½
åĦ¿ ç«¥
æīį èĥ½
è ¦
å² Ĺ
éļ ¶
è± ª
ä¹ ³
åĪĽ éĢł
åİĭ åĬĽ
æľĢ å¤§
4 5
äºİ æĺ¯
æĪĳä»¬ çļĦ
æĸ ĳ
å¾ Ĵ
è· ĳ
çĮ ª
åįļ å£«
å¼ ±
æĪĺ çķ¥
åĩ ¡
çĽ® çļĦ
æ¶ Ĥ
æľº ä¼ļ
çģ ¾
åĿļ æĮģ
çī© è´¨
è£ Ĥ
åħĪ åĲİ
èµĦ éĩĳ
æģ Ĵ
æĭ Ķ
a d
æĸ¯ çī¹
çĲĨ å¿µ
è° ĭ
ç¼ ĵ
ç«ŀ äºī
ãĢĤ ãĢĬ
è¿ŀ ç»Ń
åĪ ĳ
æĽ °
è´ ¯
è°ĥ æķ´
æĲ Ń
çı į
çħ ¤
è¿Ĳ èĲ¥
ç¯ ®
i d
éĺ ħ
çļĦ å°ı
ä¸ī ä¸ª
å¤§ åŀĭ
å¹¿ åĳĬ
Ġ F
ä¸į å¾Ĺ
èħ Ĳ
ä¿Ŀ éļľ
æ»¡ è¶³
æĺİ æĺ¾
æĥ Ĭ
åĿ Ľ
è¿Ĳ è¾ĵ
è¿ŀ æİ¥
æ² ĥ
æ¡ ĥ
çī¹ å¾ģ
ä¸į è¦ģ
åĩ Ŀ
ãĢį ï¼Į
ç¢ ³
å¸ ķ
åĢ į
çļĦ ä¸»
åīį å¾Ģ
æ® ĭ
å¼ ĥ
åĩĨ å¤ĩ
é¾ Ħ
æį ·
å¯ Ĵ
æķ° éĩı
åıĬ æĹ¶
ç¨ĭ åºı
ä½ Ĳ
é¦ĸ æ¬¡
æı ¡
åį° åº¦
è¡Į åĬ¨
å¼Ģ æĶ¾
åħ¬ åħ±
ç ŀ
æĶ¹ åıĺ
åľŁ åľ°
è· µ
æŃ£ åľ¨
æĬ µ
åĴ ¨
è¿ Ŀ
ä¹ Ķ
æ ĩ
çĽĳ çĿ£
éĢ ĥ
éģ į
é» ĺ
è®Ń ç»ĥ
åħ¬ å¼Ģ
æİ ī
ç¾ ½
éĩį æĸ°
èģĶ ç½ĳ
å¨ ľ
è·Ŀ ç¦»
èģ ĺ
éĻį ä½İ
èĭ Ĺ
ç¾İ åħĥ
è¦ Ĩ
åľ ³
æĺ¯ çĶ±
åħ ¹
æľº åľº
å¹¶ åľ¨
åĮ» åŃ¦
å± ı
æĭ ĵ
ä¸ľ åĮĹ
åĲ Ĺ
å¦ ¹
åĪ ¸
çī¹ æ®Ĭ
ç»ı å¸¸
o f
çļ® èĤ¤
ä¸» æĮģ
åĬĽ éĩı
ç£ ģ
å¹³ åĿĩ
ä¿Ħ ç½Ĺæĸ¯
I S
ç¾ Ĭ
æķ ¬
çª Ĺ
ç» ķ
é½ ¿
åĲ ¨
é© ¾
è¾ ½
è° ±
ä¸ľ è¥¿
ç¨ĭ åº¦
ç»¿ èī²
é£İ éĻ©
èĢħ çļĦ
5 00
æĸĩ ä»¶
ç¡® å®ļ
æ±Ł èĭı
åĸ ·
é«ĺ çļĦ
åįļ çī©
æģ ¢
èħ ¹
å®£ å¸ĥ
åĽł ç´ł
åħ³ æ³¨
èĢģ å¸Ī
ä¹¦ è®°
åı¦ ä¸Ģ
æº ¶
åħ³ éĶ®
çĪ µ
å¤ļ ç§į
e d
ä¸ľ åįĹ
å¹¶ ä¸į
an d
éĩįè¦ģ çļĦ
3 6
200 3
å¾ ª
åħħ åĪĨ
éĥ½ æľī
äº ©
ç¬¬ äºĶ
åĴ¨ è¯¢
åħ¶ å®ŀ
çİ »
æ¶ ¯
æīĵ éĢł
çĽ¸ å½ĵ
åĪ ·
é¥ Ń
æ·± åľ³
å°ı åŃ¦
ç§» åĬ¨
ç¿ °
å® ¿
åĨį æ¬¡
æµĭ è¯ķ
ä¿Ŀ éĻ©
è®¾ æľī
æ» ¨
ä¸» å¸Ń
åĪĹ è½¦
æİ¨ åĬ¨
æī İ
æµ ®
ä½ ©
çĤ ®
æŃ£ å¸¸
t er
æĽ ¹
è¯Ħ ä»·
è®° èĢħ
èĢĥ è¯ķ
å´ ĩ
éģ¿ åħį
ç¬¬ åįģ
åĬ³ åĬ¨
é© ±
ä» ĵ
å±ħ æ°ĳ
é ¬
çĴ ĥ
èµĦ äº§
éĻĦ è¿ĳ
è· ³
æ· ¡
è¿ĩ åİ»
åĨ³ èµĽ
æ¬ ²
çºª å¿µ
åŃ¦ æľ¯
æģ Ĳ
åĬĽ çļĦ
èģĶ ç³»
æ¦ ľ
åıĬ åħ¶
éĥ¨ çļĦ
éĻ ·
ï¼ī ï¼ļ
æĸ¹ ä¾¿
çİ© å®¶
åıª æĺ¯
é«ĺ çº§
æĮ Ĥ
åĪĨ ç±»
çº ·
ç¢ ĳ
çĶŁ å¹³
å¥ ¶
æ¯ı ä¸ª
3 7
èĳ ¡
æĪĲ æŀľ
å¹¿ å·ŀ
æĿ¥ æºĲ
19 0
çĤ ¸
çĵ ľ
å¤ļ ä¸ª
éĴĪ å¯¹
çĦ ¦
æģ¢ å¤į
ä¹ĭéĹ´ çļĦ
ä¼ ı
æŃĮ æĽ²
éĹ ²
å®ĥ çļĦ
å¤ļ æķ°
åįĹ äº¬
çĶ¨ çļĦ
åºĶ å½ĵ
ãĢį ãĢĤ
é¢ Ĺ
å¤§ åĪ©
æ² Ī
æľº åħ³
èĪ Ĵ
ãĥ »
æĹ ¨
æļ ĸ
è¾ ŀ
å¤ª éĺ³
ç¾İ æľ¯
åľ° çĲĨ
ç§ĳ çłĶ
ãĥ ¼
è¥¿ åįĹ
ç©º æ°Ķ
æµ ¦
ãģ ®
ç© Ĩ
å§ Ĳ
æīĭ æľº
ç» ª
çļĦ æĥħåĨµ
ç¬¦ åĲĪ
æĦı ä¹ī
åĵ ²
è¿ ħ
æĢ ª
åŃ¦ å®¶
ä»ĸä»¬ çļĦ
èį Ĳ
å¯¼ æ¼Ķ
æĬ ĵ
å®ŀ è·µ
çĽ¸ å¯¹
æķ ¦
ä»Ĭ å¹´
èµĦ æł¼
è§Ħ èĮĥ
åŃ¦ ä¼ļ
çļĦ éĩįè¦ģ
å£ ®
å°± ä¼ļ
åĩº åı£
éĶ ĭ
æ¡ ĳ
æ¸ ¡
åħ· ä½ĵ
å°¤ åħ¶
èĸ Ħ
ç»ı åİĨ
çİ¯ ä¿Ŀ
7 5
åĭ ¤
4 8
æİ¨ è¿Ľ
è®° å½ķ
çī §
éĢĤ åĲĪ
å® ħ
æ¼Ķ åĩº
èĭ± è¯Ń
ä»Ĭ å¤©
æĺ¯ æĮĩ
åĲĮ å¹´
ç»Ł ä¸Ģ
éĤ Ģ
) ãĢĤ
å» ī
å¥³ æĢ§
çļĦ äºĭ
o t
æļ Ĥ
è¥¿ åĮĹ
ä¼ļ åĳĺ
æķ´ ä½ĵ
a y
èĢĥ èĻĳ
èİ ī
åįļçī© é¦Ĩ
å°ĳ å¹´
å¸¦ æĿ¥
éĶ ģ
ä¼ ¸
åıĳ æĮ¥
ä»¥ åĲİ
éľ į
è®º æĸĩ
ä½ĵ éªĮ
200 2
æ §
èĢ Ĺ
å·¥ åħ·
è¾ ī
7 8
æį ķ
èĤ Į
æŁ ı
è¢ Ń
ä¸» æķĻ
æ£ Ĵ
å¤© æ´¥
èĹ ¤
æģ ĭ
åķĨ åĵģ
ä¸ī åįģ
å½ »
å¥¹ çļĦ
æİª æĸ½
çº µ
i g
è ¹
æĪĺ æĸĹ
å° ĸ
æĮĩ æĮ¥
æ¯ ģ
æĢİ ä¹Ī
èĴ ¸
3 8
åĲĪ åĲĮ
åĩ Ń
å®Į åĸĦ
ä¸Ģ å¹´
æ±¡ æŁĵ
ç¿ ¼
æľĢ å¤§çļĦ
æ¹ĸ åįĹ
éĢĲ æ¸Ĳ
èĤ ł
æĺ Ĩ
åı· çº¿
æ°§ åĮĸ
ä¸į å°ĳ
ä¸» é¢ĺ
éĥ½ ä¼ļ
çĶŁ æ¶¯
èĽĭ çĻ½
å¤§ éĻĨ
èµ ĸ
æ£ ĭ
Ġ W
çļĦ ä¸»è¦ģ
è®¾ ç«ĭ
åĶ¯ ä¸Ģ
åĵģ è´¨
æĿ Ĩ
å¤ļ æ¬¡
çŃ ¹
é© ¶
éĻ ķ
æľī äºĽ
èĲ Ħ
Ġ I
åŃĲ çļĦ
èİ ²
æŁ ³
çĤ ī
Ġ E
å¹´ éĹ´
çº ¤
èĥĮ æĻ¯
èĳ¡ èĲĦ
ç½Ĺ é©¬
æŁ Ķ
éķ¿ çļĦ
å¡ «
çļĦä¸Ģ ç§į
3 00
éĥ Ń
æĲ ľ
éĿ¢ çļĦ
çİ° è±¡
åķĨ åĬ¡
çİ» çĴĥ
å¤ļ çļĦ
çĽ¸ åĲĮ
åĩº æĿ¥
ç¡® ä¿Ŀ
å¹ »
è§Ĩ é¢ĳ
éĿ© åĳ½
è¯´ æĺİ
åĢ º
å¦Ĥ æŃ¤
ç»Ł è®¡
è° ģ
è¿ «
å½¢ è±¡
éŁ© åĽ½
è´ ¤
è¥¿ äºļ
å Ĺ
å±ķ ç¤º
äºļ æ´²
é¢ ģ
éĽĨ ä¸Ń
æĭį æĳĦ
çŁ¥ åĲį
è´¸ æĺĵ
ä¾Ľ åºĶ
çĩ ķ
i r
å¹´ è½»
è¯ķ éªĮ
i a
ä¼ Ļ
èĩ³ ä»Ĭ
å½ ¼
ç² ®
æİ¨ å¹¿
s t
æĶ» åĩ»
åľ° ä¸ĭ
åĮħ è£ħ
çľŁ æŃ£
åĮħ åĲ«
çĸ« æĥħ
en t
å° ĺ
åĨħ éĥ¨
å² Ń
ç¡ ķ
é¬ ¼
èĤ ¿
åĲĦ ç±»
ä¿ ±ä¹Ĳ
éŁ ¦
åĩ ī
å¥ Ī
éĶ ¡
æĹ ģ
æ¯į äº²
çī© çĲĨ
ä¸Ń æĸĩ
Ġ d
ä¼ĺ è´¨
å®¶ æĹı
i m
èĤ¡ ä»½
åŃ Ŀ
æı Ĵ
âĢ ĵ
éĩį åºĨ
åľ¨ æŃ¤
3 3
ç¢ İ
èĲ¥ éĶĢ
æĽ¾ ç»ı
æ¡ Ĥ
ä¾ į
åİ ĺ
200 1
çļĦ å·¥ä½ľ
å¸¸ è§ģ
æĺ Ń
æŀ Ŀ
ç»ı çĲĨ
çīĪ æľ¬
ç¦» å¼Ģ
æĬ ½
æķĪ çİĩ
æ¬¢ è¿İ
ä¹Ł ä¸į
è´¡ çĮ®
ç»´ æĬ¤
æł¼ åħ°
çĶµ åĬĽ
ç½ ļ
ç¥ ¥
åĨľ æĿĳ
å¤§ ä¼ļ
è´ «
èĲ¥ åħ»
u l
å¥³ åŃĲ
4 6
è½¦ è¾Ĩ
èº« ä»½
åģ ¶
éĥ¨ éĺŁ
ä»į çĦ¶
åıĳå±ķ çļĦ
åĲĦ åľ°
æµ· åĨĽ
èĩª æ²»
3 2
âĢ Ļ
æ¯ı å¹´
æĸĩ æĺİ
è£ħ ç½®
è¶ ĭ
è ²
éĺ ģ
åħ ½
ç¦ı å»º
å£ ¤
éĵ º
å¿ Ĩ
å¹¿ åľº
æĸĩ çī©
åĨ Ī
åĦ¿ åŃĲ
æĬķ åħ¥
åĲĪ çĲĨ
å® ı
æĤ ī
çº¿ è·¯
åıĤ èĢĥ
çĹĩ çĬ¶
æĪĲ äºĨ
åĨĽ äºĭ
çļĦ éĹ®é¢ĺ
ä¸´ åºĬ
çĶµ è¯Ŀ
æĦŁ è§ī
èµĽ äºĭ
èį¯ çī©
u t
è¿Ľè¡Į äºĨ
é£Ł çī©
åİŁ åĪĻ
a g
æ· »
åİ ¦
åĬ¨ åĬĽ
åĲĪ å¹¶
æľº åĻ¨
ç« Ł
äºĴ èģĶç½ĳ
ä¸ĵ è¾ĳ
èĬ ¬
ãĢĭ ãĢĬ
ä¸º ä¸Ģ
m m
èĩª èº«
æĻ ĵ
Ġ N
èį£ èªī
éĿ¢ å¯¹
a p
åĽĽ å¹´
ä¸ª æľĪ
ç±» ä¼¼
çĤ ¼
éĵ Ŀ
åħĭ æĸ¯
èµ ¤
é¦ĸ åħĪ
å¨ ±ä¹Ĳ
è´Ń ä¹°
åĮº çļĦ
æĿ Ń
å¥ ĭ
åĪĨ åŃĲ
è¶Ĭ æĿ¥
è£ħ é¥°
åŃ¦ ç§ĳ
åį³ åı¯
æĦı è¯Ĩ
éĢ Ĵ
ä¸ ĺ
åį ĵ
è¯ģ æĺİ
åĮ ¹
å¹´ åľ¨
è¶ĬæĿ¥ è¶Ĭ
æĦŁ æŁĵ
æł ı
çļĦ å½±åĵį
çĹħ æ¯Ĵ
æīĢ åľ¨
è¡¨ æ¼Ķ
æĦı å¤§åĪ©
å¸Ŀ åĽ½
å¯ ¸
æĹ© æľŁ
äººæ°ĳ åħ±åĴĮåĽ½
åģļ å¥½
çĶŁ çļĦ
èµ ł
æİĴ åĲį
å®ī æİĴ
å§ ľ
èī² çļĦ
çĽ´ åĪ°
åĲĮ æł·
æ» ¤
äº Ń
æľº åĪ¶
å¦ Ļ
åĲį åŃĹ
èħ Ĭ
å¸Ĥ éķĩ
çĶµè§Ĩ åı°
ä¿±ä¹Ĳ éĥ¨
åĪĽ å»º
çĻ Į
éĨ Ĵ
æĹ ¦
çŃī å¥ĸ
4 7
è¡Ĺ éģĵ
èī¯ å¥½çļĦ
å¹´ èĩ³
9 9
å¹¿ æĴŃ
at ion
ç¥ Ŀ
åŃ¦ ä½į
åĢ ¾
æ¦Ĥ å¿µ
éĩį å¤§
è®° è½½
ç®Ģ ç§°
æĭ Ĵ
çĭ¬ çī¹
i v
ä» Ķ
çł Ĥ
èĥ İ
æ¯Ķ å¦Ĥ
åħ¬åı¸ çļĦ
æ²³ åĮĹ
è¥¿ çıŃ
åıĮ æĸ¹
é«ĺ åº¦
çķ ª
é¥° æ¼Ķ
ä¹Ł åı¯ä»¥
è¥¿çıŃ çīĻ
ä¹Ł ä¼ļ
çĸ ı
æŃ» äº¡
ç¥ŀ ç»ı
æĸĩ ç«ł
æ¶Īè´¹ èĢħ
äºĶ å¹´
æµ ħ
æĴ ¤
æĿĤ å¿Ĺ
éļı åĲİ
ä½¿ å¾Ĺ
ãĥ ³
å±ķ å¼Ģ
5 5
Ġ ï¼Ī
æİ¨ èįĲ
å¤§ å°ı
æĮĩ åĩº
Ġ of
è¿Ļæł· çļĦ
çĵ ·
èŀ º
æī¹ åĩĨ
åħ± æľī
åĬŀ æ³ķ
äºĨ ä¸Ģä¸ª
çĮ «
æĢ ķ
èĴĻ åı¤
u m
éĩĮ çļĦ
åıª è¦ģ
æĪĲ éĥ½
ä» ¿
ç»Ħ åĲĪ
éĺ¿ å°Ķ
æĬĢ èĥ½
ä¸¥ æł¼
è§Ĥ ä¼Ĺ
æĪĲ çļĦ
å¤© çĦ¶
è®¤ è¯Ĩ
æĭ Ĩ
ç¥ Ń
çĶŁ éķ¿
å®ī å¾½
æ¢ ¯
åŁº äºİ
åħ¬ åħĥ
èĤ Ŀ
æ³ķ éĻ¢
â Ħ
ç¬¬ åħŃ
ä¼ł æĴŃ
è®¡ç®Ĺ æľº
o w
åĬŀåħ¬ å®¤
å¤§ éĥ¨åĪĨ
ä¸Ńåįİ äººæ°ĳåħ±åĴĮåĽ½
æİ¥ è§¦
o d
è§£ éĩĬ
åħ¬ å¸ĥ
åĬ¨ çĶ»
ç¾¤ ä¼Ĺ
ç² ĺ
3 4
âĢ ĺ
åĩł ä¹İ
è¿Ĳ çĶ¨
æĶ¹ åĸĦ
çºª å½ķ
å¤į æĿĤ
æľ¬ ä¹¦
èĭ± æĸĩ
äºº å£«
æĥ ¯
çłĶç©¶ æīĢ
è´ ·
è´¹ çĶ¨
åıĳ åĬ¨
èĥ ¸
åįı è®®
Ġ K
åĿ Ĭ
åĲ ķ
æĦı è§ģ
æµģ è¡Į
çĤ Ĵ
æĺİ ç¡®
èĦ ı
å§Ķ ä¼ļ
199 9
ä½ľ å®¶
8 5
æ£® æŀĹ
æİ¨ åĩº
åľ° ä½į
çĶ ľ
çĬ ¹
èĮ ¨
å£ ³
è· ĥ
è² Į
è®¤ è¯ģ
ä¸Ĭ å¸Ĥ
æħ Ī
æī ¶
åİĺ ç±³
ä¸Ģ ä¸ĭ
åĽ½ çİĭ
æĮĳ æĪĺ
ä¿ Ĭ
çĬ¶ åĨµ
çļĦ è¯Ŀ
æıı è¿°
åľ° åĽ¾
èħ ¾
ä¼ Ĳ
åĪĽ ä¸ļ
æĪĲ éķ¿
é«ĺ çŃī
èĤ º
çī© æµģ
æĹ¶ çļĦ
å¿ ĺ
èħ Ķ
æµĭ éĩı
éĢ Ŀ
ç¬¬ä¸Ģ æ¬¡
çļĦ çłĶç©¶
èĳ£ äºĭ
åľ° äº§
çİ Ħ
éĻķ è¥¿
è´ º
çĶµè§Ĩ åī§
å¤Ħ äºİ
åħĥ ç´ł
æĪ Ī
äºº åľ¨
å°½ ç®¡
æľº çļĦ
å° ¿
å¢ŀ å¼º
åıª èĥ½
çŃī çŃī
èĬ ³
åĵģ ç§į
ä¸Ģ ä½į
è§ī å¾Ĺ
ï¼ļ ãĢĬ
å° Ŀ
å¹¿ å¤§
ç§ Ĵ
çģ Į
äºĳ åįĹ
æĤ ¬
æĹł è®º
ä¸ĭ éĻį
äºĭ åĬ¡
æ·± åħ¥
o p
æĦ Ī
çĲĨ è§£
ä¹ĭ å¤ĸ
3 9
e m
199 8
èĥ ĥ
çļĦ åľ°æĸ¹
æī¾ åĪ°
ä¸ĭ æĿ¥
èµ ĭ
å±± è¥¿
åŃ Ł
åľ° çĲĥ
âĦ ĥ
åĽ½ æ°ĳ
æ¯« ç±³
åħ ģ
èĲ §
åĬĽ äºİ
èĦ ¸
åĮ Ģ
ç¼ĸ è¾ĳ
æ¹ĸ åĮĹ
æ¸ ł
ä¿¡ åı·
è§Ĥ å¯Ł
åŀ Ĥ
åįı åĬ©
çĿ ¡
ç² Ĺ
çļĩ å¸Ŀ
æĶ¹ ä¸º
åĪ¶ å®ļ
é¼ ł
æĳĦ å½±
æĹ¥ å¸¸
åľ¨ ä¸ŃåĽ½
æ¯ı å¤©
å¤ª å¹³
æĻº æħ§
è¿ħ éĢŁ
çĶµ èĦĳ
å¤ļ å¹´
åģ ¿
æĬ ¢
èĳ ¬
æľº è½¦
å¼ ĺ
èĢĮ æĺ¯
æĭ ¼
å±ħ ä½ı
æ¶ī åıĬ
éĩĩ åıĸ
è¿ Ī
åŃ ķ
ä¸į è¶³
åĨĽ éĺŁ
éģ Ĥ
å®ŀéªĮ å®¤
æŃ¦ æ±ī
6 5
æĬ¥ éģĵ
æĳ ĺ
å®ĺ æĸ¹
æŁ ´
çĨ Ļ
åħ· å¤ĩ
åį µ
è¦Ĩ çĽĸ
åŃ¦ èĢħ
åħĦ å¼Ł
å¯ Ħ
çĵ ¶
æ¬ £
ç¢ į
ä¸¤ ç§į
æľī æīĢ
ä¸ľ äº¬
çĺ ¤
åĲ¸ å¼ķ
è¿ĲåĬ¨ åĳĺ
é¹ ¿
æķ ¢
æ¶ µ
çķ ħ
e c
èµĦ æľ¬
äºĮ å¹´
èĤ ĥ
åī ²
çī µ
æľī æľº
Ġ t
èĭı èģĶ
éħį åĲĪ
è´¢ æĶ¿
çļĦ æĸ¹å¼ı
æ±Ł è¥¿
âĢĿ ï¼Ī
åħį è´¹
çĲĨ äºĭ
ä¸Ń åĮ»
è§£ æĶ¾
æ± Ĺ
çĪ¶ æ¯į
ä¸į åĪ°
çļĦ åīį
æľī äºº
å®Į æķ´
å¨ ĺ
åĬł æĭ¿
æĢ» ç»Ł
äººæ°ĳ æĶ¿åºľ
æ¤ Ĵ
-- --
éĺŁ ä¼į
å¢ĥ åĨħ
è¿Ľ å£«
ä» ²
åĽ° éļ¾
ç¨ ¿
åįĩ çº§
å¡ ĺ
é¢ľ èī²
ï¼ ı
åĮ» çĶŁ
çľŁ å®ŀ
åĽº å®ļ
è´ ¦
å°ı ç»Ħ
æĹ¥ åľ¨
1 000
æĬ ļ
ä¹ ı
éĻĲ åĪ¶
Ð °
çĨ Ĭ
éĩı çļĦ
éģ µ
ç»ı åħ¸
æĺ¯ ä¸ŃåĽ½
æīĭ æľ¯
é¼ »
åĬ ²
é£ŀ è¡Į
ä»£ çĲĨ
éĥ¨ éķ¿
åħ¶ å®ĥ
éĤ£ äºĽ
è¢ ĭ
å¥³ åĦ¿
åħĥ å¹´
åĨ Ĵ
åı¤ ä»£
èĬ Ŀ
å»º éĢł
æŀ ļ
æ¼ ı
èİ İ
ç® Ń
çĶµ æ±ł
ä¹ ¾
åĬł ä¸Ĭ
ä¸Ģ åĪĩ
èĳĹ ä½ľ
çĽ¸ ä¿¡
åĽŀ åĪ°
èµ¢ å¾Ĺ
æ·· åĲĪ
èµ ´
æĸĩ åŃĹ
å»º æĪĲ
éĺ Ģ
å·¥ åİĤ
è¡¨ è¾¾
åĿ ĳ
9 5
ä¸Ģ åĲį
o g
a v
åĬ¨ ä½ľ
å¤© ä¸ĭ
éĢļ çŁ¥
è´ ¾
éŃ Ĥ
å¾ª çİ¯
æ³ µ
å¯¹ è±¡
199 7
ä¹¦ æ³ķ
åĳĬ è¯ī
åŀĭ çļĦ
åī§ æĥħ
æĶ¹ éĢł
éĢ Ĩ
åŃ ¤
çĭ Ĥ
è¶ħ çº§
å³ ¡
æłĩ å¿Ĺ
æľī çĿĢ
åĲĮ åŃ¦
é£ŀ æľº
å¹ ½
20 23
â Ĩ
æī °
åĴ ¸
æĳ Ĩ
åº¦ çļĦ
æĺ Ĥ
èĲ½ å®ŀ
åħļ åĳĺ
èµ ¶
çĽ Ĺ
åīį çļĦ
æ¶Ī æģ¯
ä¸¤ äºº
èļ Ģ
äº§åĵģ çļĦ
è£ħ å¤ĩ
çº¦ ç¿°
åįł åľ°
å®ļ ä¹ī
åİ» ä¸ĸ
åİŁ æĸĻ
çļĦ æĹ¶éĹ´
çº¢ èī²
è¥¿ éĥ¨
åįģ å¹´
è§Ħ åĪĻ
çł ĸ
ä¸°å¯Į çļĦ
éĺ² æŃ¢
æĲ º
èĽ ĩ
æ¼« çĶ»
æī¿ æĭħ
äºº å·¥
é¸ £
è¡ °
çĮ İ
ä¸ľ æĸ¹
è½¨ éģĵ
å¹¼ åĦ¿
æľ¬ èº«
åĬłæĭ¿ å¤§
é¢Ĩ åħĪ
åıĪ ç§°
æī© å¤§
åĳ¨ è¾¹
çĽ® å½ķ
çļĦ åŁºç¡Ģ
çħ ®
éĢĤ åºĶ
é«ĺ ä¸Ń
äºĭ æķħ
ä¸ĵ éĹ¨
æİĮ æı¡
å®¶ çļĦ
åĪĨ äº«
åĩł ä¸ª
æ°ĳ éĹ´
ä¸į ä¹ħ
å½ĵ çĦ¶
åľ° éĵģ
åľ¨ è¿Ļ
æ¯ķä¸ļ äºİ
æľĢ åĪĿ
æī «
å² ³
éĩį è§Ĩ
æĢ§ åĴĮ
æ¶ ¨
ç§į æ¤į
è¢« ç§°ä¸º
æĻ ¨
i e
çº ²
åįģ åħŃ
æĸ¹éĿ¢ çļĦ
æĭ ³
æĿ¥ çľĭ
æĥ³ è¦ģ
æĸ ¤
çĸ Ĩ
éĿ ĸ
æµ ©
çŃī åľ°
è¯ ŀ
æŀĦ æĪĲ
çĻ½ èī²
æķĻ ç»ĥ
æĹł çº¿
æĤ ²
o c
æ¯Ķ ä¾ĭ
199 6
æħ ķ
å¤§ èµĽ
çĽ¸ åºĶ
åĩ» è´¥
å°Ĩ åħ¶
èŀį åĲĪ
éĺħ è¯»
è¯ģ åĪ¸
æŃ£ ç¡®
å¾Ģ å¾Ģ
æĪĲç«ĭ äºİ
åĩ ½
åľ¨ çº¿
ä¹ĭ ä¸Ń
æĬ ĳ
è¿Ľ æŃ¥
æĴ ŀ
æĸ ľ
æĴ Ĵ
å°± ä¸ļ
åĬŀ çĲĨ
çĶŁ äºİ
ä¸» è§Ĵ
åĽ Ĭ
çİ° å®ŀ
â Ĺ
èĭ± éĽĦ
æ» ļ
ç¬¬ ä¸Ģä¸ª
ç¡ķ å£«
æĬ ±
æĴ °
ä¼Ĺ å¤ļ
æĹ¶ å°ļ
éĺ Ķ
èģĮ å·¥
ä¸º ä»Ģä¹Ī
æľĢ æĹ©
å®ŀ è¡Į
æ· ®
åĨľ æ°ĳ
èĶ ¡
4 4
çĽ¸ æ¯Ķ
çªģ çł´
è¿½ æ±Ĥ
Ġ J
èĥ Ĩ
éĢī ä¸¾
çľģ çº§
çļĦ äº§åĵģ
æİ¢ ç´¢
åĸ Ŀ
è¯Ħ ä¼°
ï¼ī ï¼Ľ
å® ª
æµ Ĩ
æł ª
è¯¦ ç»Ĩ
ä»¤ äºº
ä¸Ģ å®¶
0 1
èĮ Ĥ
åįģ åħ«
åĭ ĭ
çº¤ ç»´
æŃĮ æīĭ
å¿ħ è¦ģ
ç¾İ ä¸½
çĻ» è®°
ä» °
è° Ĳ
è¯Ħ ä¸º
åĻ¨ çļĦ
åŁºæľ¬ ä¿¡æģ¯
199 0
å¤§ çº¦
çĪ± æĥħ
8 8
ä¼ł è¯´
åĪĻ æĺ¯
èĳ Ľ
èĢ ķ
å®¤ åĨħ
æ¼Ķ åĶ±
åĮĸ å·¥
å»º äºİ
æİ ĺ
æī £
åĬł çĽŁ
çĶ· åŃĲ
ä¸Ń éĹ´
ç³»ç»Ł çļĦ
æĸ¯ åĿ¦
åĮĹ éĥ¨
éĵ ¸
çĳ Ł
è´¢ åĬ¡
å°± åı¯ä»¥
åı¯èĥ½ ä¼ļ
å¿ §
ç»Ļ äºĪ
å¹¿ è¥¿
èĤ ¾
åĲį çļĦ
ä¼ģä¸ļ çļĦ
éħį å¥Ĺ
éĢ Ĭ
å¹² éĥ¨
çĭ ±
ä½Ĩ åľ¨
æł¡ åĽŃ
åĽ½ çļĦ
æ°Ķ åĢĻ
199 5
ä¼ĺ åĮĸ
éģ £
ç¤º èĮĥ
å¤§ å¤ļæķ°
éĴ »
åł Ĩ
èľ ľ
æ¨¡ åŀĭ
å¿ ½
å¥¥ è¿Ĳ
ç¬¬ ä¸ĥ
åįı è°ĥ
çº½ çº¦
ç§° åı·
åĽ¢ ä½ĵ
æĻ¯ åĮº
åĲ¸ æĶ¶
åİŁ çĲĨ
å¥ Ķ
ä»¥ ä¸º
åıĳ çĶµ
å±ķ è§Ī
æĭĴ ç»Ŀ
è¸ ª
Ġ O
åŁİ åĮº
å¸ ħ
4 00
æ° ¨
æĪĲ å°±
çİ° æľī
æĮ ĸ
çł´ åĿı
å¸Ī èĮĥ
æ¸ Ķ
æ± ģ
å¹´ è¢«
åĨ ¯
çĭ Ĺ
ç¨ į
åħħ æ»¡
åľ° åĿĢ
6 6
èģĶ éĤ¦
åħ´ è¶£
æľī ä¸Ģä¸ª
éŁ µ
ãĢ ı
æľī æĹ¶
å·¥ä½ľ çļĦ
ãĢ İ
Ġ V
èħ ¿
åı Ļ
éĥ ģ
è¾ £
æĶ¯ ä»ĺ
äº« åıĹ
çĽ¸ äºĴ
å¼º åº¦
15 0
å¿ į
å½± çīĩ
å°Ķ æĸ¯
å¤ ¹
çļĦ æ°´
åıį æĺł
a b
åĳ¨ åĽ´
æĽ´ æĸ°
å®ŀ åĬĽ
åį ¿
ç»§ æī¿
é©¾ é©¶
ä½ĵ çİ°
æĪĲ çĨŁ
å¹¸ ç¦ı
èĬ ¯
éĢī æīĭ
ç»´ ä¿®
çĭ ®
ä¸Ń åħ±
çĲĨ æĥ³
ä¾Ŀ æį®
èİ·å¾Ĺ äºĨ
ä¸» ç®¡
åĩ Į
åĽ½ åĬ¡
ä¸į åĨį
åŁº åĽł
åľ°åĮº çļĦ
æĭī æĸ¯
4 9
ç¼ Ŀ
åĩĨ ç¡®
åī ª
åįģ ä¸ī
èħ º
éĤĢ è¯·
å¯¹ æĸ¹
çĩ ¥
ä¸ Ī
199 4
éĢļ ä¿¡
åį ľ
åĺ ´
å¦Ĥ ä»Ĭ
éĽ ¾
éĹ ª
äº ¨
éŀ ĭ
å µ
éĨ ĩ
æµ· æ´ĭ
Ã Ĺ
æĹ º
æľ¬ ç§ĳ
æ· ĺ
æį Ĳ
äºº çĶŁ
ã Ħ
å¹´ é¾Ħ
åĥ §
åľ° éľĩ
åĲ¯ åĬ¨
å¼ ¯
å¯¹ æīĭ
è¯Ħ è®º
é«ĺ æł¡
å© Ĩ
æĺ¯ ä»¥
ä¹ł æĥ¯
7 6
èĢĮ è¨Ģ
åı Ķ
å¹³æĸ¹ åħ¬éĩĮ
ç¾İ çļĦ
æ°ĳ ä¸»
çªģ åĩº
åľº æīĢ
ä¼ļ è®¡
çĶµ åĬ¨
é¢ Ī
è¾ ¨
Ð ¾
åį Ĵ
æĲ ¬
å¼ ¥
åĪ° è¾¾
éĩĮ æĸ¯
ä¸ĵ åĪ©
æĪ Ĵ
æľŁ çļĦ
åį³ ä½¿
å¦Ĥ ä¸ĭ
è Ł
ä¸» æ¼Ķ
æĶ¾ åľ¨
çī¹åĪ« æĺ¯
æıĲä¾Ľ äºĨ
æķ° åŃ¦
æĤ¨ çļĦ
ä¸ĩ äºº
æĦı æĢĿ
è¯ģ ä¹¦
é»ĳ èī²
æľ ´
è®¨ è®º
çĶ¨ æĿ¥
çī© ç§į
è¡ Ķ
å®ļ ä½į
ç¨ Ģ
ä½¿çĶ¨ çļĦ
_ _
éĤ ĵ
éħ ±
çĦ Ĭ
çĽ Ĩ
èį Ĵ
èµ Ĳ
åĪ° çļĦ
å¹¶ äºİ
r a
åįģ äºĶ
åķĨ æłĩ
æĹ¥ èµ·
èĩ´ åĬĽäºİ
æĳ ĩ
r i
é«ĺ æķĪ
å¸Į èħĬ
å¼º çļĦ
æı Ń
è¡¨ æĺİ
åľ¨ äºİ
çº¿ çļĦ
æĪ¿ å±ĭ
èħ °
ç¼ ´
å½ĵ ä¸Ń
å½¢ æĢģ
æĪĲ åĪĨ
çŁ³ æ²¹
åıĺ å¾Ĺ
æĿ¥ åĪ°
å®Ĺ æķĻ
å¯ ĵ
199 2
åħ¬ ä¸»
éĢı è¿ĩ
ä¸ĸçķĮ æĿ¯
å°Ĩ ä¼ļ
å½ °
B A
å§ĭ ç»Ī
æł· çļĦ
æĭ Į
t h
å± ¥
éģĹ åĿĢ
æŃ¤ æ¬¡
æµģ ç¨ĭ
èľ Ĥ
å¿« ä¹Ĳ
4 2
å¤§ éģĵ
9 8
å¦ ®
çĽ ¾
ä¸ Ľ
åĽł èĢĮ
ç§ĺ ä¹¦
å¤ĸ çļĦ
é¥® é£Ł
åĲĦ ä¸ª
æł ĸ
æĶ¾ åħ¥
å¿ Ļ
ä¸Ģ æĿ¡
199 3
åĵª äºĽ
æ½ ĺ
æĦŁ åĪ°
ä½Ľ æķĻ
çļĦ å¤ĸ
æ³ ³
èĥľ åĪ©
æĢ Ĵ
æł¡ éķ¿
) ãĢģ
æŁ ¯
é³ į
éĶ Ī
æľī äºĨ
ä¼ļ çļĦ
è¿Ľ æĶ»
åįĹ éĥ¨
æĶ¶ èĹı
é¢Ħ éĺ²
çĲ ³
ç¦ ħ
ä¼ĳ éĹ²
æľĢ è¿ĳ
é¢ĳ éģĵ
å£° éŁ³
çļĦ æĸ¹æ³ķ
åį° åĪ·
N A
åĲ ¹
åī ©
ãĢį ï¼Ī
åĲį åįķ
å¥ ĳ
åĲĦ é¡¹
å¹³ è¡¡
èĩª è¡Į
éħį ç½®
æ²Ł éĢļ
èĳ ±
å¤§ æĪĺ
ä¸ §
äºº ä½ĵ
é¥ ¼
è§Ĵ åº¦
çī© çļĦ
å¯» æī¾
å® Ļ
C h
åĲ Ĳ
åįĹ åĮĹ
åı ī
è¶ĭ åĬ¿
å·´ é»İ
åŁº çĿ£
é¢Ħ è®¡
éľ ¸
èµĦ è®¯
.. ..
Ġ ç¬¬
æ» ©
ä¾ ł
çĤ Ń
åĢ¼ å¾Ĺ
ä¸Ģ çĤ¹
çŃī çº§
èĩª æĪĳ
èĢ Ģ
é Ħ
æ£ ī
é©¬ æĿ¥
æĴŃ åĩº
ä¸Ĭ ä¸ĭ
å© ´
æĮĩ æłĩ
çĻ¾ åº¦
æ° ¢
åı¯ éĿł
çļĦ æľįåĬ¡
5 6
ä¸ ²
å½ Ń
åĩºçĶŁ äºİ
åĽ¾ä¹¦ é¦Ĩ
å¦» åŃĲ
å°ı çļĦ
é»Ħ éĩĳ
er s
ä¿Ŀ åŃĺ
åĭ ĥ
S t
åľ° è´¨
åıĺ æĪĲ
ä¸» åĬ¨
å¯¹ å¤ĸ
å·¥ç¨ĭ å¸Ī
å¥ ´
ãĢ ī
åĮĹäº¬ å¸Ĥ
åĳĪ çİ°
ç»Ł æ²»
ä¸ Ļ
è¯Ĭ æĸŃ
æ³ķ è§Ħ
el l
åĽĽ ä¸ª
æī ®
è¢ ģ
æķĻ åłĤ
é¡º åĪ©
é¢ ĩ
èĢĮ ä¸į
ar d
è¿Ľ åı£
æŀ ¢
ãĢ Ī
è¿Ļ æ¬¡
æīĭ æ®µ
o u
æ¼ Ĩ
il l
åľ° çĤ¹
æĽ´å¤ļ çļĦ
åĽ½åĬ¡ éĻ¢
ä¸Ĭ è¿°
æĢ§ è´¨
è¥¿ å®ī
æľĢ æĸ°
éĶ¦ æłĩ
æĶ¶ éĽĨ
æİĪ äºĪ
é£Ł çĶ¨
ï¼ļ ãĢĮ
æ¹ ĺ
å¯ ¨
æŃ¤ æĹ¶
çļĦ çĶŁæ´»
çĽĳ æµĭ
çľŁ çļĦ
è´ ŀ
çī¹ æĢ§
ç¿ ł
Ġ åľ¨
åħį çĸ«
å¡ĳ æĸĻ
ç¡ «
æµ ¸
åį± éĻ©
åģļ åĪ°
çĪ ¸
ä½ı å®ħ
åı ł
åı Ľ
å» Ĭ
ä»ª åĻ¨
äºĭ å®ŀ
éħį éŁ³
éĩĩ è´Ń
æŃ¦ åĻ¨
æİ¥ è¿ĳ
å°¤åħ¶ æĺ¯
çļĦ è®¾è®¡
èī² å½©
æ ª
åĨ »
æįŁ å¤±
æĴ ĳ
æĪĺ å½¹
è· Į
çłĶç©¶ çĶŁ
æ¾³ å¤§
éĿĴ å²Ľ
å¹¶ æ²¡æľī
äºº æķ°
æĪĸ æĺ¯
æīĢ è°ĵ
åıį å¯¹
åĪĨ ç¦»
åĪ¶ åĵģ
çŃī äºº
ä¸»è¦ģ æĺ¯
æľ¬ æ¬¡
å¤± åİ»
éĻ¢ éķ¿
ä¿Ŀ çķĻ
åıĤ èµĽ
åĬł åĿ¡
6 8
æ°Ķ ä½ĵ
å¤§ å¸Ī
èĩ³ å°ĳ
âĨ Ĵ
åĿ Ŀ
å²ģ çļĦ
åİ ¨
æĵ ħ
æ²» çĲĨ
ç´ł è´¨
ä¹¦ çĶ»
åħļ å§Ķ
å¤ļ å°ĳ
æĽ´ æĺ¯
è®º åĿĽ
åĪ© çĽĬ
æĹ¥ æľŁ
åħ± äº§
è´Łè´£ äºº
çĲĥ åľº
è¿ Ł
åľ° éĿ¢
Ġ çļĦ
åıĳ å°Ħ
5 8
çĽĳ ç®¡
è£ Ķ
èĥ½ éĩı
æĻ¯ è§Ĥ
èį£ èİ·
æľį è£ħ
éļ¾ ä»¥
o v
è´Ŀ å°Ķ
ä¸Ģ ä½ĵ
a k
ĠS t
å¹¿ä¸ľ çľģ
Ġ ï¼Į
èĩª ä¸»
é¸ ¿
ç»Ī äºİ
éĺ¿ æĭī
ä»¥ åīį
èĳĹåĲį çļĦ
çº º
åĲ« æľī
ä½ľ æĪĺ
ç¦ Ħ
èĢĮ æĪĲ
ä¼¦ æķ¦
è°ĥ èĬĤ
æīĢ å±ŀ
å´ İ
åħ¶ åĲİ
èī ĩ
éĢĤ çĶ¨äºİ
ä¸Ń æľī
å¦ ĥ
4 3
æ¡ Ĩ
è¾ °
æ£Ģ éªĮ
ä¸ĵä¸ļ çļĦ
æĻ® éģį
æĸ° åĬłåĿ¡
åįģ åĽĽ
æ» ´
åı¯ä»¥ åľ¨
åľ° çļĦ
åĪĽ åĬŀ
éħ ¶
ä½ľ ä¸ļ
ç¿» è¯ĳ
B N
éļ¶ å±ŀäºİ
çĥ ¤
ä½ľ æĽ²
æ¡ Į
9 6
æĿ ī
ä¸ī è§Ĵ
æĿŃ å·ŀ
åľº æĻ¯
æĢ» éĥ¨
å¼º åĮĸ
æĩ Ĥ
åĬł å¿«
èĭ± æł¼åħ°
è¾ Ĳ
ç¢ §
åģľ æŃ¢
ä»ª å¼ı
èĶ ¬
æľ¬ æĸĩ
èĢĮ åľ¨
åĳ½ åĲį
å¾Ī å¤§
è®© äºº
ç»´ æĮģ
c e
çļĦ ä½ľçĶ¨
éģ ¥
ä¸ľ éĥ¨
ç½ĳ ä¸Ĭ
æĤ ł
å¸ĥ å±Ģ
æŁĲ äºĽ
éĺŁ çļĦ
å½ĵ ä»£
çĮ Ľ
ä¸Ģ çº§
èī¯ å¥½
èĪŀ åı°
ç °
åĽ¾ çīĩ
è·¯ çº¿
å±ķ çİ°
ä¼ļ åľ¨
T C
ç¡ ħ
æµģ éĩı
æ¾³ éĹ¨
âĢĿ âĢľ
åĲ Ĭ
199 1
æ· Ģ
åĤ ħ
åİŁ æľ¬
å¸¦ é¢Ĩ
çĪ± çļĦ
åħ¥ éĢī
Ð ¸
åı¯ è§ģ
å°ļ ä¹¦
éĢļ éģĵ
åĲĮ ä¸Ģ
å¾ĭ å¸Ī
åķ Ĭ
å¦ Ĩ
ç»ĵ å©ļ
in e
åĪº æ¿Ģ
è®¿ éĹ®
ä¸ª æĢ§
è®¸ åı¯
ä¼ļ éķ¿
çħ§ çīĩ
ãĤ ¹
åĴ ĸ
è¯ ±
ä»¬ çļĦ
ç¢ ±
çļĦ åĲĮæĹ¶
åħ¬ ä¼Ĺ
çĤ¹ åĩ»
ä¸ ¸
åĪĽ æĦı
çĽ Ī
åįģ ä¸ĥ
æ³ Ĭ
ãģ Ħ
å¼º è°ĥ
å§ ¿
ç¡® è®¤
ä¸Ģå®ļ è¦ģ
è£ ķ
çİ° ä»»
æĬ¥ åĲį
åı¯èĥ½ æĺ¯
åĲĮ æĦı
çĭ ¼
èĦ Ĭ
åĽ½åĨħ å¤ĸ
æŁ ľ
è¾ĥ ä¸º
æł¹ æľ¬
çļĦæĥħåĨµ ä¸ĭ
4 1
æĽ¾ åľ¨
ï¼ ħ
åĿ ª
æ¶Ī éĺ²
åħģ è®¸
å¹´ èµ·
åı¸ é©¬
æĥ ľ
æĪ¿ åľ°äº§
o k
çĶ¨ éĢĶ
æĺ¾ èĳĹ
æ¯Ķ äºļ
ç¦» åŃĲ
åħ¥ åı£
ä¸Ĭ åįĩ
é«ĺéĢŁ åħ¬è·¯
åıĳ çļĦ
çĪ ·
I N
æŀĦ å»º
çļĦ æķħäºĭ
ä¹Ł å°±æĺ¯
è¾½ å®ģ
æ¯ĶèµĽ ä¸Ń
é¡¾ éĹ®
å®ĩ å®Ļ
çļĦ å¿ĥ
æ¡Ī ä»¶
èĬ± åĽŃ
åĦ Ĵ
åı¬ å¼Ģ
èµ° åĲĳ
é¹ °
æĽ´ ä¸º
èį· åħ°
è§£åĨ³ æĸ¹æ¡Ī
å±±ä¸ľ çľģ
æ¾³å¤§ åĪ©äºļ
éļľ ç¢į
å°Ĩ åľ¨
çŃĸ çķ¥
è¿ĳ å¹´æĿ¥
çªģ çĦ¶
çĬ¯ ç½ª
çº¿ ä¸Ĭ
å·® å¼Ĥ
çļĦ æĬĢæľ¯
çĥ ¯
ç² ¤
æĺ¯ä¸Ģ å®¶
ä¼Ļ ä¼´
å± ¯
åĵ² åŃ¦
is t
æĺİ æľĿ
è´µ å·ŀ
åĲĮ æ¯Ķ
èĲ¥ ä¸ļ
ä¸Ģ èĩ´
7 7
Ġ 1
å¿ĥ çļĦ
IS BN
åģ ·
æĤ ¦
å¹´ åĲİ
198 8
æ° Ľ
åł ª
èĬĤ èĥ½
æķ´ åĲĪ
ç¬¬ åħ«
åŀ Ĵ
ä¹Ł åľ¨
è¸ ı
æµ ´
åľ¨ ä¸Ģèµ·
æĵ ¦
ä¸Ģ æ®µ
çłĶç©¶ éĻ¢
çĥ ¦
ç½ ķ
è¡Ģ ç®¡
ï¼ļ ï¼Į
ç¼º ä¹ı
åĲ ¾
ä¸Ń å±±
o b
æ¼ Ĥ
å¼ķ è¿Ľ
åı° åĮĹ
è¯» èĢħ
æ© ¡
ä¾Ŀ æ³ķ
æĹħ è¡Į
åĪ© æ¶¦
éĻ¢ æł¡
æĥħåĨµ ä¸ĭ
ä¹¾ éļĨ
æ·» åĬł
åĪ¶ çļĦ
ä¸Ĭ äºĨ
åĴĮ å¹³
éĢł åŀĭ
çľ ł
æĶ¹ ç¼ĸ
ç«ŀ èµĽ
æµ· å¤ĸ
çĶµ æ°Ķ
è¶Ĭ åįĹ
æ¸ Ĺ
ç§į ç±»
éĥ½ åľ¨
é¼ĵ åĬ±
ä¸Ĭ æľī
å° ī
æīĢæľī çļĦ
æ½ Ń
ä¸Ĭæµ· å¸Ĥ
æĶ¶ å½ķ
é¼ İ
Ċ Ġ
å°ĳ æķ°
ç» µ
æĽ´ å¥½
ä¼ ª
èĪ Ł
å¼ ¦
çĽ¸ ä¼¼
æľĿ é²ľ
è¿Ļ ä¹Ī
çļĦ å¥½
æĪª èĩ³
æĿĳ æ°ĳ
éĿ¢ ä¸´
äºº åĴĮ
è®¤ çľŁ
æ¸ħ æ´ģ
Ġ Ð
å¾Ī å¿«
è ©
åģļ æ³ķ
æ» ĭ
å° ¸
äºĭ é¡¹
çĶŁ ç´ł
ç¬¬äºĮ æ¬¡
å¹² çĩ¥
éĺ³ å¸Ĥ
ï¼ģ âĢĿ
ä¸ĭ åįĪ
åĲ« éĩı
I P
Ġ å¤§
198 0
ä¸Ģ å¸¦
æĸ¯ ç§ĳ
ç© ·
åŁ Ķ
ç Ģ
ç«ĭ åį³
åĲĪ æĪĲ
åĪĽ ç«ĭ
çİ¯ èĬĤ
æĸ¹ çļĦ
ç¼ĸ çłģ
éĢĲ æŃ¥
ä¸» ä½ĵ
äºĭ æĥħ
åĬł çĥŃ
I I
åı¯ æĺ¯
å¯¿ åĳ½
çĶŁ åŃĺ
9 7
åįģ ä¹Ŀ
æ· ĭ
i p
å¤± è´¥
8 6
å½± è§Ĩ
åĽŃ åĮº
Ġ 2
ar t
æīĵ å¼Ģ
ä¿® å¤į
çŃĸ åĪĴ
ï¼Ł âĢĿ
æĺŁ æľŁ
æĸĩ çĮ®
å²Ĺ ä½į
çļĩ å®¶
å¹´ åīį
äºĴ åĬ¨
åĳ¨ æľŁ
æĥħ ç»ª
ä¿¡ çĶ¨
ä¸Ģ åľº
ä¾Ŀ çĦ¶
éĺ³ åħī
è¹ Ī
ä¿Ŀ åģ¥
ä¼ļ æľī
éĥ½ å¸Ĥ
é¹ ¤
ç¾İ æ´²
å·¥ åķĨ
æĺİ æĺŁ
è´· æ¬¾
198 9
æĢĿ èĢĥ
èį ¡
å¿ Į
æĭ ĸ
çļĦ ä¸į
T he
åĬŁ çİĩ
çļĦ ä¸Ń
1 20
æ¡£ æ¡Ī
u b
éĤ ª
æĸĩ èīº
çº ł
198 5
an g
å§ »
èĲ Ŀ
äºº ä¸º
èĤ¡ä»½ æľīéĻĲåħ¬åı¸
è© ¹
å´ Ķ
å¦Ī å¦Ī
çĽ Ĵ
å¤į åĲĪ
åı¸ ä»¤
æµģ åĬ¨
æĢģ åº¦
ç®¡ éģĵ
æĤ Ł
åħŃ å¹´
éħ ·
åĪĨ éħį
T V
æ¸¸ å®¢
æ·± åº¦
198 7
æĮĩ æķ°
äº§çĶŁ çļĦ
à ¸
æĿĥ åĪ©
çĶ± æŃ¤
åħļ çļĦ
æĪı åī§
ç© ´
å½ ¦
ç¬ ¼
è¯Ĺ äºº
å¤ª åŃĲ
5 7
æ»¡ æĦı
èĸ ª
å°º å¯¸
å½ĵ å¹´
åģļ åĩº
8 2
è ¤Ĳ
æĸ° åŀĭ
éĽĨ ä½ĵ
æĹ¥ èĩ³
å¼ķ å¯¼
çŃ Ĵ
å§ ĳ
éĿ¢ åĲĳ
åŀ ĥ
èĩªæ²» åĮº
èĤ ©
é¸ Ń
åľĨ å½¢
æĽ¾ ä»»
åıĳ æĺİ
è½¬ ç§»
ä¸Ĭ æĺł
6 4
åľ ¾
åħĭ åħ°
æľĪ ä»½
æĬĢ å·§
å¹´ å¼Ģå§ĭ
æĺ¯ ä¸ª
æĦŁ åıĹ
åĲ ı
æ¸ł éģĵ
åŀĥ åľ¾
çļĦ ä¼ģä¸ļ
å®ļ æľŁ
ä¹Ł åı¯
å¡ŀ å°Ķ
åŁİ éķĩ
å« ģ
éĥ Ĭ
ä¸Ģ ä¸ĸ
ãĥ «
åŁ ĭ
çĥŃ å¸¦
ä¼ļ ä¸Ĭ
æ Ĩ
198 6
è¾ĵ åħ¥
å®Ĺ æĹ¨
åĪĿ æľŁ
Ġ 3
è®² è¿°
çķĻ ä¸ĭ
æħ İ
çļĦ åİĨåı²
å®¶ éķ¿
åĴĮ åħ¶ä»ĸ
Ġ s
å¥ĸ é¡¹
åĿĩ åĮĢ
èĻ ¾
æł ĭ
åıĤ æķ°
çĬ ¬
èī ³
åĽ´ ç»ķ
æĶ¾ å¼ĥ
0 2
å± ĳ
çĽ´ æĴŃ
E D
ä¸Ģ å¤©
è¾ ©
ç¢ °
è§Ĥ çĤ¹
çĿ Ľ
ä¼¼ ä¹İ
æĢ» ç»ĵ
èĤ¯ å®ļ
Â °
æ¸ħ æ´Ĺ
æľ µ
éĢļ è®¯
æł ½
è¡ į
ç§ ī
åį §
çĪĨ åıĳ
éĵģ éģĵ
198 4
èĵ Ħ
é¢ ĸ
å®ŀéĻħ ä¸Ĭ
å® ´
æĭ ¨
è£ħ ä¿®
æ¢ ¨
æĲľ ç´¢
æ¶ ħ
æ¸ħ æ¥ļ
æľī åĪ©
5 2
6 7
çļĦ é¦ĸ
æ±Łèĭı çľģ
6 00
æĬ «
é«ĺ æ¸©
æĦı åĳ³
è¿ĺ è¦ģ
Ð µ
éĵ Ń
è¾ĥ å¤§
e b
æĺ¯ ä»Ģä¹Ī
å± Ī
éĢ ¢
è¾ Ī
èĤ ĸ
æķĪ çĽĬ
âĢ ĭ
äº§ æĿĥ
é¾ Ł
éģĩ åĪ°
éĥ¨ ä½į
ç¨ »
åİĤ å®¶
åľŁ å£¤
å® ł
æľ¬ ç«Ļ
Ã ©
äººæ°ĳ å¸ģ
èĻ ¹
åĬ¨ æĢģ
å¾Ĺ åĪ°äºĨ
åĳ¼ åĲ¸
æµ· æĭĶ
æŃ£ æĺ¯
çĻ¾ å§ĵ
éĶ Ĳ
è¿Ķ åĽŀ
ä¸Ń å°ı
åĤ ¬
ãĤ ¤
æŃ¤ åĲİ
å¤ ķ
ä¸» åĬŀ
éĨ ī
å¤« äºº
åķ ¡
å¨ ĥ
éĻ ª
éķ¿ æ±Ł
éĻ Ģ
çİĭ æľĿ
æĸ° æĬĢæľ¯
é»Ħ èī²
A n
æ¿Ģ åħī
å¤§ èĩ£
å®ŀ çĶ¨
åĲĪ éĩĳ
çĶµ æºĲ
åĲĪ æł¼
åįķ æĽ²
æĸ¯ çļĦ
èİ· åıĸ
è®¤ åı¯
å·´ è¥¿
ç¿ Ķ
æĬ¤ çĲĨ
ä¹ĭ ä¸ĭ
è¯ ı
æİĪ æĿĥ
åĽ½ å¤ĸ
æ´» æĢ§
å¤ ·
al l
ç£ ·
è½» æĿ¾
éī´ å®ļ
éĩį å»º
å¿Ĺ æĦ¿
èĥ ģ
éĹ´ çļĦ
èĤ¡ ç¥¨
çĶ» éĿ¢
n e
è§Ĩ è§ī
é©± åĬ¨
å¼º çĥĪ
æĢ» ç»ıçĲĨ
è¾ħ åĬ©
åī¯ ä¸»ä»»
é©¬ åħĭ
åį« æĺŁ
æĹ¥ çļĦ
èī ĺ
åĴĮ è°Ĳ
å¹´ åºķ
æĶ¯ æĴĳ
çĥ Ĥ
èĪŀ è¹Ī
äºĮ ä¸ĸ
å¤ı åŃ£
éĤ£ éĩĮ
å½¢ çĬ¶
ç§į åŃĲ
ä¹¡ æĿĳ
è¾ĵ åĩº
æĪĲä¸º äºĨ
æ³ ª
ä¸į çŁ¥
5 1
åŃ¦ åĲį
èĬ ½
èĥ Ģ
ä¼¤ å®³
è®° å¿Ĩ
ä½ľ åĩº
å¤§ ä¼Ĺ
è´Ń çī©
å¤§ å¤§
ä¾ ¦
åĿ İ
è¡¥ åħħ
æ²³åįĹ çľģ
ç´¯ è®¡
é£İ æĻ¯
e p
è§Ĩ ä¸º
æ±¡ æ°´
èĤ ¢
â Ķ
es s
çļĦä¸Ģ éĥ¨åĪĨ
ä»¥ ä¸ĬçļĦ
éĵ ĥ
ç§ĳ åŃ¦éĻ¢
é©¬æĿ¥ è¥¿äºļ
æľª èĥ½
æ§ ½
åıĳ åĩº
åħ± äº«
ä¸º P
éĶ¦æłĩ èµĽ
éļ §
åħ Ĩ
æ³ Ħ
èĭ ĳ
å·² æľī
çŃ ĭ
é¤Ĳ åİħ
åĬł éĢŁ
è´§ å¸ģ
çī ł
æ° ¯
éĿŀ æ´²
å¥³ äºº
æĶ¶ è´Ń
es t
åİŁ å§ĭ
ä¸ĭ éĿ¢
èĶ¬ èıľ
è¡ĮæĶ¿ åĮº
éĢĿ ä¸ĸ
å§ ļ
ç¾¤ å²Ľ
Ġ m
çļĦ ç¬¬ä¸Ģ
èĭ į
å¹¶ éĿŀ
æĺ¯ ä¸į
å¸Ĥ æ°ĳ
ä¸Ń éĥ¨
A P
ä»» åĳ½
å¾· éĩĮ
åıĸ ä»£
æľĢ å¥½
ä» ĩ
èī °
åİ» å¹´
è¯Ĩ åĪ«
ç¿ ģ
æµĻæ±Ł çľģ
Ġ c
çļĦ è¦ģæ±Ĥ
æģ °
çļĦ åİŁåĽł
æ°¸ è¿ľ
çī ¢
ä¸ĩ åĲ¨
èĤ¿ çĺ¤
Ġ U
ä¸ĵ çĶ¨
éĶĻ è¯¯
5 3
éĺ² æ²»
å»¶ ä¼¸
èĩ Ĥ
å½ĵ åīį
è° ¨
ä½ł ä»¬
éĢĤ éĩı
åĴĸ åķ¡
ä¾¿ åĪ©
ç¤¾ä¼ļ ä¸»ä¹ī
åĢ ¡
èģ ª
å· ¢
æĹĹ ä¸ĭ
ä¸Ģ ä»£
èĹ ©
å®¶ åħ·
åĪĹ è¡¨
å¯Ĩ åº¦
éĢ ¸
åĲİ æľŁ
å±Ģ éķ¿
é¡¾ å®¢
ä»ĸ æĺ¯
æĦŁ æĥħ
æ¡Ī ä¾ĭ
ĠC h
åħ¬ äº¤
æ¢¦ æĥ³
åĬŀ äºĭ
Ġ Ġ
è®® ä¼ļ
åįķ åħĥ
çĻ £
åĲī æŀĹ
ç§ĺ å¯Ĩ
åĨħå®¹ ç®Ģä»ĭ
Ġ p
åº ŀ
æĵ İ
åĪº åı²
éĩį éĩı
æĢĿ ç»´
å°Ķ å¾·
äº¿ ç¾İåħĥ
ç¿ ħ
ä¸ĸçķĮ ä¸Ĭ
å®ĥ æĺ¯
å°± èĥ½
åĽĽå·Ŀ çľģ
çĽ¸åħ³ çļĦ
å¨ģ å»ī
éĥ½ ä¸į
æ³¨ éĩį
ä¼łç»Ł çļĦ
åĮ» å¸Ī
èĢģ å¹´
Ð ½
an t
æ¨¡ æĭŁ
è¢« è®¤ä¸º
éģĹ äº§
ç¼ĸ åī§
è¾Ĳ å°Ħ
7 2
ï ¹
å±± åĮº
çķ ľ
çİĭ åĽ½
éģĵ å¾·
çľ ī
çĶµ è·¯
è¯· æ±Ĥ
åĽ½å®¶ çº§
æĸ ĭ
åĪĨå¸ĥ äºİ
æĬ Ľ
E R
åī Ĭ
èŃ¦ å¯Ł
åºĶçĶ¨ äºİ
ç¥ ł
èĭı å·ŀ
ç©º è°ĥ
éĻĨ åĨĽ
ç½ĳ åıĭ
è¥¿ æĸ¹
åĮº åĪ«
åĪ« äºº
çī© åĵģ
åĬŀ åŃ¦
é¥ ±
I C
çĭ¬çī¹ çļĦ
Ġé¥° æ¼Ķ
å»ºçŃĳ éĿ¢ç§¯
æľ¬ åľ°
è¿ĺ åı¯ä»¥
æĹ¶ åĪ»
æ¦Ĥ è¿°
ï¼ī ï¼Ī
æ³ķ åħ°
A C
è½¬ æį¢
å¼Ĥ å¸¸
éķ¿ åº¦
å®ĺ åĳĺ
èģ Ĭ
ä¸´ æĹ¶
è¯ļ ä¿¡
æĬ ¼
8 9
æ°´ åºĵ
åĻ ª
å¤ĸ åĽ½
æĸ° å¢ŀ
æķĪ åºĶ
æĢ» æĺ¯
åľ¨ ç¾İåĽ½
å¼ Ħ
åĮ» èį¯
æĥ Ł
åħ¬ æĸ¤
è¢ ĸ
åĲĪ çī©
åıĸ æ¶Ī
5 4
éĿĴ æĺ¥
çĹ ķ
æĭĽ èģĺ
ä¸Ģ åĲĮ
æ¸ Ĭ
éĽ Ģ
å¤© ä¸»æķĻ
èį Ĩ
è¯´ æ³ķ
çŃī æĸ¹éĿ¢
æķ´ çĲĨ
èĩªåĬ¨ åĮĸ
ç½ Ĳ
A R
åİŁ æĿ¥
é¥ ²
çĶµ æľº
éľ ŀ
ä¿® æĶ¹
æĲ ŀ
å¸Ĥåľº çļĦ
ãĢĤ ãĢį
æĴŃ æĶ¾
ç» ³
å®¶ äºº
å¾¡ åı²
äº¤ æį¢
å°ĳ å¥³
éĤ£ ä¸ª
åĩº åıĳ
åĩºçİ° åľ¨
5 9
å±Ĥ æ¬¡
åĮĸ çŁ³
åŃ¦ åİĨ
çŁ ©
èĢĥ çĶŁ
å¼ķ åıĳ
é¤Ĳ é¥®
æĢ» ä½ĵ
çļĦ ä¸ī
åıĳåĬ¨ æľº
è¯¾ é¢ĺ
åı¸ æ³ķ
æºĲ äºİ
i f
éĩĮ éĿ¢
æĮ ¡
6 2
æĢ§ æł¼
ä¸¤ æ¬¡
çĶĺ èĤĥ
æĲ ħ
èĢĥ å¯Ł
éĢ ¼
å¤§ åĬĽ
çľ¼ çĿĽ
è§Ħ æł¼
äº§ éĩı
éĤ ĳ
u p
åİĨåı² ä¸Ĭ
å¤§ åİ¦
è®® åĳĺ
å¥¥ æĸ¯
å¾Ĺ ä»¥
çī© ä¸ļ
å§Ķ æīĺ
å°Ŀ è¯ķ
æ·· åĩĿ
åĵĪ å°Ķ
èĴ ĭ
æľĢ ä½İ
åĳ¨ å¹´
â ĸ
è½ °
å¤§ æ¥¼
åĪ¤ æĸŃ
18 0
ä¸Ģ æĹ¦
ç³ Ĭ
Ñ Ģ
åĨ² åĩ»
å¸Ĥ åĮº
å¸ ½
åĬ Ŀ
æ¶ Į
çĶ· æĢ§
å¤© æ°Ķ
èĿ ¶
ç¢ Ĺ
åĨ ¶
å©ļ å§»
åĶ± çīĩ
ç¼ĸ åĪ¶
å¦ĩ å¥³
ç»Ŀ å¯¹
æĻļ ä¸Ĭ
æĹħ å®¢
æ¯ı ä¸Ģä¸ª
O S
èĮ ħ
çīĽ çļ®
èĤ¡ ä¸ľ
ä½İ äºİ
å·¥ä½ľ äººåĳĺ
æĸ ©
æĻ °
çĪ ½
å¤ļ åħĥ
åľ¨ è¿ĻéĩĮ
è ¤
è½¬ åĮĸ
198 3
Ġ å¹´
ç¬¬ ä¹Ŀ
éĢĤ å½ĵ
åħ» æ®ĸ
æķħ éļľ
äºī è®®
åıĪ åĲį
æĳĺ è¦ģ
èĩ³ äºİ
I n
åħ¬ åĳĬ
9 78
åħ¨ ä½ĵ
Ñ ģ
éģŃ åĪ°
å·¥ äºº
çļĦ ä¸ĵä¸ļ
èľ Ģ
å· ·
åĽ½ æľī
ä¸Ģ åº§
e v
æĽ´ åĲįä¸º
å¼Ģ è®¾
çĸ ¼
éĽĨ æĪĲ
å¤© çļĦ
åĨ· åį´
è¡Į çļĦ
æ¤ İ
çļĩ åĲİ
ç»Ħ å»º
éĩĬ æĶ¾
8 00
åįĹ æĸ¹
æ³ Į
ç¾İ å®¹
èĬ ¦
æĹ¥ æĬ¥
æ°´ çļĦ
ç¼ĸ åı·
åĽ¾ åĥı
ãģ Ĺ
å¤ªå¹³ æ´ĭ
éļ§ éģĵ
èĪĴ éĢĤ
åİ¿ åŁİ
èĢģ äºº
åı¦ ä¸Ģä¸ª
198 2
è¿ĩ çļĦ
æľĪ åı°
åĩº ä»»
* *
6 3
èħĲ èļĢ
éĥ¨ ä»¶
19 50
å§Ĩ æĸ¯
ä¼ł æĦŁ
åĨ³ çŃĸ
èı ©
ä¼Ĭ æĸ¯
åıĳ çĹħ
u d
çĽĳ æİ§
éĿĴ å°ĳå¹´
èĢĥ æł¸
çļĦ åŁºæľ¬
éĥ½ èĥ½
æıĲ åīį
åį± æľº
åįģ åŃĹ
æ²³ æµģ
éĢ »
æĶ¹ è¿Ľ
æīĵ åĩ»
è½¬ åŀĭ
å¤§ æ¡¥
ç»´ çĶŁç´ł
èµ Ķ
åĽŀ åºĶ
çļĦ çĥŃ
æĮ ¤
ä¹Ĳ åĽ¢
éķ¿ æ²Ļ
i an
èīºæľ¯ å®¶
åĭ ĺ
å°¼ æĸ¯
ç»Ļ äºĨ
çº ±
é¹ ı
è¿ĩ æ»¤
ç¼ Ĩ
èº« ä¸Ĭ
æĭĽ çĶŁ
éĽ Į
è° Ĭ
èİ· å¥ĸ
åİĨ ä»»
å°± åĥı
æĽ´ å¥½çļĦ
æĥħ æĦŁ
èĭ ¹
è´§ çī©
çļĦ åĨħå®¹
åĽ½å®¶ éĺŁ
å« ©
ä¸Ģ å®ļçļĦ
Ġ f
A S
å»ºç«ĭ äºĨ
åĩŃ åĢŁ
ç³ ķ
æĶ¹ åĪ¶
è® ¼
åľº æ¯ĶèµĽ
æĸ° çĸĨ
çĶµ åİĭ
æľĢ å¥½çļĦ
èĮĥåĽ´ åĨħ
èį¯ åĵģ
ä½ı æĪ¿
è±¡ å¾ģ
æĶ¶ çĽĬ
é¢Ħ æµĭ
æ··åĩĿ åľŁ
åħ¬ çĽĬ
æĹł äºº
å¥³ åŃ©
ä¼ĺ çĤ¹
ä¿ ±
èģĮ è´£
8 7
åģľ è½¦
å¾Ī éļ¾
æī ĩ
åħ¨ å¸Ĥ
ä¸ĭ è½½
å¸¸è§ģ çļĦ
çļĦäºĭ æĥħ
ä¸Ģ æµģ
6 1
å¼ı çļĦ
åľ¨ å¤§
æ¯ı ä¸Ģ
åį³ å°Ĩ
çŁ Ľ
æģ ¨
ä¸ŃåĽ½ äººæ°ĳ
åĩº èº«
æīĢ éľĢ
A T
å½¢æĪĲ äºĨ
æµ· åįĹ
åı ¹
è¥ Ħ
åĨ¬ åŃ£
è¶³ å¤Ł
æİĴ æĶ¾
ä½Ļ äºº
å»¶ éķ¿
å¼ķ æĵİ
å¨ģ å°Ķ
å¼Ģ éĢļ
c m
å§ ¬
ä¹ĭ åŃĲ
åŃĺ åĤ¨
ä¸º äºº
ä»£ çłģ
çŃ¾ è®¢
åį± å®³
éĴ ¦
i k
çĻ» åľº
ãĢĤ (
åĨħ å¤ĸ
åŃ¦ å£«
æµ· å²¸
6 9
å¹³ éĿ¢
å®¡ æŁ¥
å°ı åŀĭ
åħ Ķ
ç²¾ å½©
çĽ´ èĩ³
ä¸Ĭ éĿ¢
è± «
ä»Ĭ æĹ¥
ç»´ å°Ķ
ä¸Ĭ åįĪ
æ°´ åĪ©
æĹ ¬
å½ĵ éĢī
åĨĻ ä½ľ
äºĮ çº§
åıĤåĬł äºĨ
ic h
çı Ĭ
è´ ¼
èŀį èµĦ
æ¯ ħ
èĳ£äºĭ éķ¿
é² į
äºº å¤§
å¤§éĩı çļĦ
åİ Ħ
åįģ å¤§
åŀ «
ä¸¤ ä¾§
åħ¬ å®ī
ä¸ ĳ
çļĦ åħ³ç³»
åĬŁ æķĪ
åĳ½ ä»¤
çĹħ äºº
è¿Ĳ ä½ľ
Ġd e
ä¹Ŀ å¹´
ç¥ĸ çĪ¶
å¤ļ æł·
3 000
çĶ³ æĬ¥
å°± åľ¨
æĮĩ å®ļ
çĲ ¼
éĶĪ éĴ¢
æ¼ ł
ä¼ł åªĴ
åĩº åľº
éĹ ¹
é«ĺ è´¨éĩı
å¹¶ ä¸įæĺ¯
å¦ ĸ
å°ı åĮº
åĲĦ èĩª
åį¡ å°Ķ
åĩº æĿ¥çļĦ
çĨ Ķ
æĦı å¤ĸ
æ¯ı æ¬¡
åĮĹ æĸ¹
çĽ´ å¾Ħ
å¯Ĩ å°ģ
æĶ¶ è´¹
åħ´ å»º
P C
è¡Įä¸ļ çļĦ
éŃ ħ
é«ĺ åİĭ
çľģ ä»½
é¦ĸ éĥ½
å¤§åŃ¦ çĶŁ
ç¦ģ æŃ¢
è®¾ å®ļ
åĨį åº¦
è¾¹ ç¼ĺ
é¾Ļ æ±Ł
éĢı æĺİ
éĢĢ ä¼ĳ
è´¯ å½»
ä¿Ŀ æ¸©
çİ°ä»£ åĮĸ
ç»Ĩ èĬĤ
ç¥ŀ ç§ĺ
æľ¬ äºº
å´ ĸ
æķĻ ä¼ļ
ç»´ å¥ĩ
ç§» æ°ĳ
S E
æ¸ħ æľĿ
è´¢ äº§
ãĥ Ī
éĽ¶ åĶ®
éĥ¨ ç½²
ä» ķ
éĢĤ çĶ¨
éª ¤
æķĻ æĿĲ
åıĳ èĤ²
çĶ ¸
ä¸¤ å¹´
éħ ¯
çª ĳ
åĪĹ ä¸º
çĶ» å®¶
çİ°åľ¨ çļĦ
äºº åĬĽ
çĶµ åĻ¨
å®Į ç¾İ
r y
åĭ Ł
çĶµ åı°
ä¹Į åħĭåħ°
æĸ¹ ä½į
è½¬ åıĺ
éĴ Ļ
âĶ Ģ
èĤ ª
å® °
æĬĳ åĪ¶
æıĲ äº¤
é«ĺ è¾¾
é¢Ĺ ç²Ĵ
è¾ Ł
çļĦ ç¾İ
çħ Į
èĽĭçĻ½ è´¨
ä¸į èī¯
7 9
æ± ª
éĺ² å¾¡
èĦĤ èĤª
å¸Ĥ æĶ¿åºľ
æŁ¥ è¯¢
Ġ ãĢĤ
èĸ Ľ
æ³ķ çļĦ
å®¢ è¿Ĳ
éĺ² æĬ¤
æľĢ å¤ļ
éħ ¿
é¢ĨåŁŁ çļĦ
P S
åĩºçīĪç¤¾ åĩºçīĪ
æŀĦ éĢł
åħ¬ å°º
èı Ĭ
éªĳ å£«
å¤§ å¤ļ
è¾¹ çķĮ
æĮ º
é£ ĺ
å¤§ å¹ħ
åħ¶ ä½Ļ
åı¯ è¾¾
ç½ ©
è¯ģ æį®
å¹¶ å°Ĩ
ç»ĺ çĶ»
é¢Ħ ç®Ĺ
å¤Ħ çļĦ
çĶµ æµģ
0 8
ç½ ¢
æ£Ģ å¯Ł
å·ŀ çļĦ
å·¨ å¤§
0 9
I T
éļ ĭ
ä¹ĭ æĪĺ
éª Ĺ
çĲĥ ä¼ļ
ä¹ĭ ä¸º
çļĦä¸Ģ äºĽ
çĶŁæ´» ä¸Ń
æ± Ŀ
é³ ŀ
çļĦ ä½¿çĶ¨
ç»´ äºļ
Ġt he
æ¸ħ æĻ°
ä»ĸ äºº
åħĪè¿Ľ çļĦ
ä¸ļ ç»©
æ·± åĪ»
çŁŃ æľŁ
ä¸ĵ æ³¨
èģĮ åĬ¡
ãĥ ©
è·¯ æĺĵ
ç¥ Ģ
ä¾ ¨
åºĶ æĢ¥
ä¸ĵ ç§ĳ
éĥ¨ ä»½
å·ŀ åĪºåı²
åĮ Ī
åıĸå¾Ĺ äºĨ
r an
æĢİ æł·
C O
æģ Ń
è½ ©
0 5
æī© å±ķ
åħ« å¹´
æĹ© å·²
æī ģ
in d
æĦıåĳ³ çĿĢ
æľºåĻ¨ äºº
å¸¸ åĬ¡
ç©º åĨĽ
æĦ¿ æĦı
ä» ĳ
çĶ¨ åĵģ
æķĻ åĮº
çīĽçļ® çĻ£
ä¸ĥ å¹´
è¾ĥ é«ĺ
åĲĮ æŃ¥
ç»ĥ ä¹ł
å¤§ èĩ´
æĿ¥ äºĨ
197 0
æĥ ĳ
en s
å¨ģ èĥģ
ä¼ĺ æĥł
ä¸Ī å¤«
çĶŁäº§ çļĦ
æľīæķĪ çļĦ
æĸĩçī© ä¿ĿæĬ¤
æĻ¯ çĤ¹
ç¾¤ ä½ĵ
çĳŀ åħ¸
æĬĢæľ¯ çļĦ
å¾Ī å¤§çļĦ
æ¶Ī å¤±
è¯» ä¹¦
çģ« ç®Ń
èĭ¹ æŀľ
åŁ¹ èĤ²
åİ Į
åįĬ å¹´
q u
é¢ĳ çİĩ
å¸¦ æľī
Ġ æĿİ
è®¤ å®ļ
è¡Ģ æ¶²
éĶ »
å¤º å¾Ĺ
åº· çĨĻ
åĲį äºº
196 0
æī® æ¼Ķ
å¸¦ çĿĢ
åĽŀ æĶ¶
èĬ Ĵ
è¡Į æĺŁ
æĦŁ è°¢
æ¶ Ľ
å¸¸ å¸¸
i o
ĠI n
æµİ åįĹ
ä¹Ł èĥ½
è§Ħ å®ļçļĦ
it y
æ°´ æ³¥
æī¹ è¯Ħ
åİŁ åĲį
åĬ «
ä¸ĭ äºĨ
æľĢ ä¸º
æī ĳ
æ³¢ åħ°
æ¨ ±
åħ¨ çľģ
æĳ ¸
ä¸ŃåĽ½ çļĦ
æĬķ ç¥¨
çĪ± å¥½
ä¸į éĶĪéĴ¢
æ±Ł åįĹ
è¾¾ æĪĲ
å¯¹ æŃ¤
å¹¼åĦ¿ åĽŃ
ä¸» åľº
æķĻèĤ² éĥ¨
å®ģ æ³¢
ãĢĭ ï¼ļâĢľ
å¼º å¤§çļĦ
çİ ²
å¤ĸ äº¤
çļĦ èĥ½åĬĽ
ä¿® å»º
çĳŀ å£«
äºĴ çĽ¸
ä¸į çĶ¨
éħį å¤ĩ
éĤ® æĶ¿
æĸ¯ åŁº
çļĦ ä½ľåĵģ
éĹ ¸
èĭ ¯
195 8
æĽ´ æį¢
å¤ļ å®¶
å¼Ģ åĲ¯
æĺİ æ²»
åĵ Ń
åĴĮ ç¤¾ä¼ļ
é¡ ·
u c
å¥ĸ åĬ±
7 3
å¤§ å¤«
ä¸º æŃ¢
è¿ĺ åľ¨
å¼ķ åħ¥
çĭ Ń
ä¸ī å¤§
èĦ ¾
é¡¹çĽ® çļĦ
æ¤ ħ
æ³° åĽ½
A l
ä¸Ģ ç³»åĪĹ
çĹħ æĥħ
èĪ Į
åħ³ éĹŃ
ä½¿ åħ¶
æĭĵ å±ķ
ä¸Ģ æĺ¯
æĿ¥æºĲ äºİ
åįł é¢Ĩ
å¤ĸ è§Ĥ
ç®¡çĲĨ å±Ģ
é«ĺ ç«¯
ç®¡ è¾ĸ
è¯ī è®¼
å¯¹ åºĶ
æ¯ı æĹ¥
æľĪ åĪĿ
ä¸į éĶĻ
åį° è±¡
åĽŃ æŀĹ
C D
ãģ ĭ
æĢ ¨
å¦Ĥæŀľ ä½ł
9 2
åĩº å¸Ń
å¯¼ å¸Ī
ä»İ æŃ¤
æ°Ķ è±¡
ç²® é£Ł
éĺ² æİ§
å®¡ æł¸
å¤ļ äºº
éļı æĹ¶
ãģ ª
æ©¡ èĥ¶
å¸Ĥ çļĦ
åįłåľ° éĿ¢ç§¯
å¤ļ é¡¹
æķĮ äºº
äºĮ äºº
è§Ħ å¾ĭ
ç¡® å®ŀ
åĩºçİ° äºĨ
æĬķèµĦ èĢħ
éħ µ
å°± è¯»
g e
çĨŁ æĤī
çŃ Ľ
äºº æĸĩ
å¤§ å¥ĸ
æŃ ĩ
ä¹ĭ å¤Ħ
å°Ķ çī¹
çĶŁæ´» çļĦ
éĥ½ åı¯ä»¥
194 5
åĲ ŀ
åĬ© çĲĨ
èĪª å¤©
åĨ² çªģ
çĻ½ æĸĳ
ä¸Ģ åº¦
ä¸Ģ è·¯
æľī å¾Īå¤ļ
æ¸ħ æ°´
èĴ ľ
B S
åĿĩ ä¸º
æ± °
èĮ İ
éĹ ½
å¹´ åĪĿ
7 1
ç¾½ æ¯Ľ
è¯ķ åĽ¾
åĪĽ å§ĭ
è¾ĵ éĢģ
åĽ½ éĺ²
åĩ ¶
åĲĪ éĢĤ
åĬł å¤§
8 3
æĹĭ è½¬
æľĪ èĩ³
æļ ¨
çļĦåŁºç¡Ģ ä¸Ĭ
å·¥ èµĦ
åħ³ èĬĤ
ç±» çļĦ
çª Ŀ
åĹ £
å½¼ å¾Ĺ
è®¾è®¡ çļĦ
å¹¶ åħ¥
ä¸ī åĽ½
ä¹ī åĬ¡
è®¾è®¡ å¸Ī
éº Ł
å·¨ å¤§çļĦ
197 8
åĸ Ģ
é© °
çłĶ åĪ¶
éķ¿ çº¦
åı¤ åħ¸
æĲŃ éħį
æĭ ±
èĢĥ åı¤
æĿĢ æŃ»
A M
æī¿ è¯º
Ġ 4
198 1
194 9
7 4
ç±³ çļĦ
æľĿ å»·
å¤§ æ°Ķ
åįĬ å²Ľ
å½ĵæĹ¶ çļĦ
ä¹Ķ æ²»
åŁº å±Ĥ
åĲ¦ åĪĻ
ãĥ ª
æ£ ļ
ä¼¯ çī¹
197 9
ä¸ ŀ
éĻ¶ çĵ·
æľŁ å¾ħ
åĸ »
æĺ¯ åĽłä¸º
% ï¼Ľ
åıĳ èµ·
åĩº æĪĺ
èı ĩ
æĶ¿æ²» äººçī©
åį ¸
åıĹ ä¼¤
ãĢį ãĢģ
ãĤ ¯
çŃ¾ çº¦
å¾Ĺ çŁ¥
ä¼ł è¾ĵ
åİļ çļĦ
on g
ç¯® çĲĥ
æĢ» è£ģ
é£İ æľº
èº« è¾¹
ãģ ¨
æĿ ı
åĲİ èĢħ
ä¸ ¢
åħ±äº§ åħļ
æł¡ åĮº
å°Ķ çļĦ
è° ¦
å£« åħµ
åĬ £
æī Ń
åİ¿ äºº
çģ« å±±
åİĭ ç¼©
åľ¨ ä¸Ģ
æİ¥ å£¤
éĩį å¤į
çĶ «
5 000
è¯Ħ å®¡
æĸ° åĮº
ãģ Ł
ä¸ĩ åİĨ
èĩ Ń
çĵ £
çĻ¾åº¦ åľ°åĽ¾
æĥ §
ä¸İ åħ¶ä»ĸ
èĵ ¬
éĽ ĩ
ç»ĦæĪĲ çļĦ
ä¸į çŁ¥éģĵ
çºº ç»ĩ
å°± æľī
å¤ª ç©º
æĺ¯ä¸Ģ ä½į
ä¸ŃåĽ½ å¤§éĻĨ
æ¡ Ĳ
ãĤ ¢
ä¸» ç¼ĸ
çĶ· äºº
å®ļ ä»·
ä¼ł éĢĴ
éĺ¿æĭī ä¼¯
æĺ¥ ç§ĭ
æĭī åħĭ
ç²¾ åĵģ
ç»ĵæĿŁ åĲİ
åĽŀ å½Ĵ
å¸ Ĩ
è¾ĸ åĮº
å¸ ĸ
æİ§ èĤ¡
å¸¦ æĿ¥çļĦ
è¿Ļ ä½į
æ¼Ķ å¥ı
åī§ éĻ¢
å« Į
çī¹ å®ļ
ç§ĳåŃ¦ å®¶
å½» åºķ
æ¯ķä¸ļ çĶŁ
ä¹¦ ç±į
çİĩ é¢Ĩ
ãĤ ĵ
åľ° ä¸Ĭ
å¾Ī æľī
åĮ Ļ
éĻĦ å±ŀ
åħī ç»ª
ä¸ī åĪĨ
èķ ¾
åĽ½å®¶ çļĦ
æĶ¶ åĪ°
9 3
é»ĳ é¾Ļæ±Ł
0 3
æĶ¯ éĥ¨
æľįåĬ¡ çļĦ
æ¹ĸåįĹ çľģ
Â ł
é¢ģ å¥ĸ
çĸ ²
èĥ º
èĮ Ħ
ä¼ĺ èī¯
Ð¾ Ð
å¸ Ĳ
ä¹ĭ è·¯
æ°´ ä¸Ń
å¯Ĩ åĪĩ
åĮĸ å¦Ĩ
çĶŁ æĪĲ
åıĺ å½¢
èĨ ı
å¤§ è¿ŀ
èĦ Ĩ
å° ¹
å¸ĥ é²ģ
çļĦ åĲİ
éĺŁ éķ¿
çģµ æ´»
æµ ı
8 4
çİĭ åŃĲ
æĿ¡ ä¾ĭ
éĹ®é¢ĺ çļĦ
ä¸ĵ é¡¹
æĺ¯ä¸Ģ åĲį
å®īå¾½ çľģ
çłĶç©¶ ä¸Ńå¿ĥ
åĲĮ å¿Ĺ
å¤ļ å¹´çļĦ
ç»Ĩ èıĮ
åŃ¦ çļĦ
æŁ´ æ²¹
åĿĲ èĲ½
åĩł å¹´
æ°ĳ åĽ½
éģĹ ä¼ł
ç±» åĪ«
å¼Ģ æĭĵ
å®ĮæĪĲ äºĨ
è° Ń
æĸ° å»º
çļĦ æ²»çĸĹ
å¯¹ åħ¶
éĶ Į
æ¶² ä½ĵ
æ° ®
çŁ £
ï¼Ľ ï¼Ī
é¦ĸ å¸Ń
ä¸ĵ é¢ĺ
åħ¬ æ°ĳ
éĢī çĶ¨
æ¨¡ åĿĹ
ä¼łæĦŁ åĻ¨
åİ¦ éĹ¨
å¢¨ è¥¿
åĪĹ åħ¥
å®¹ éĩı
æıĲ ç¤º
åŁĥ åıĬ
åį ĳ
0 7
æĻ Ĵ
æµĵ åº¦
åĮ ł
çĪ ¬
ç§¯ ç´¯
ãĢĭ (
ä¼ł å¥ĩ
åħ» èĢģ
å¸ĪèĮĥ å¤§åŃ¦
åŃ£ åº¦
çĻ¾ å¹´
or t
åĪ° åºķ
éĩĩ è®¿
æŁ Ħ
å®Ŀ å®Ŀ
å¾Ī å¥½
æ°ĳ ä¼Ĺ
åĵ Ģ
æī§ æ³ķ
ä¹Ł è¢«
ç²¾ åº¦
æĻ ´
åıĤ è§Ĥ
é¦ ¨
A N
çĥ ĺ
e g
ä¼° è®¡
å°½ éĩı
çķ Ķ
åĽ¾ æ¡Ī
æĥ³ åĪ°
æ¶Ī éĻ¤
ä¸º æŃ¤
ä¿¡ ä»°
çĭ Ĳ
è§£æĶ¾ åĨĽ
ä¸İ åħ¶
å°ļ æľª
ç§ĳæĬĢ æľīéĻĲåħ¬åı¸
æĢ» çĲĨ
o h
è¿Ľ çĲĥ
åľ¨ åħ¶
å®¶ å±ħ
ä¸ĩ å¹³æĸ¹ç±³
1 10
æ¡¥ æ¢ģ
ä¸į ç®¡
å±± å¸Ĥ
ç¼ ħ
æī¿ è®¤
æ¾³ æ´²
æĮĩ åįĹ
æľĢåĲİ ä¸Ģ
æħ °
æĵħ éķ¿
åīį åĲİ
æ¶Ī åĮĸ
é¹ ħ
æĸĩçī©ä¿ĿæĬ¤ åįķä½į
åĨħ èĴĻåı¤
æĶ Ģ
ä¸ĩ ç¾İåħĥ
åĩ½ æķ°
å¸¸ è§Ħ
äºļ åİĨ
è¯´ æĺ¯
éķ¿ æĹ¶éĹ´
ä»¥ æŃ¤
æ¸© æ³ī
å°± è¦ģ
9 4
åŃ¦ åĳĺ
è¿Ļ éĥ¨
ãĢĭ ãĢģ
è¤Ĳ èī²
a in
åĩ ¸
ä¼ł æī¿
è®¾å¤ĩ çļĦ
çĶ¨ ä½ľ
å± ¿
éļ Ļ
Ġ b
ç» £
çĪĨ çĤ¸
å¾Ī å¥½çļĦ
0 6
èĢĮ ä¸įæĺ¯
å·¥ä½ľ èĢħ
æĹł éĻĲ
åĩº æ¼Ķ
èĳ¡èĲĦ çīĻ
åĺī éĿĸ
éķ Ģ
éķ¿ å®ī
åĲĦ çº§
åĽ¢ ç»ĵ
çľĭ è§ģ
ig h
æĹ ±
åĩĢ åĮĸ
åŃĲ å¥³
éĥ½ è¦ģ
åĲĮæĹ¶ ä¹Ł
éĽ į
éĢļ çĶ¨
åºĶ å¯¹
åĸľ çĪ±
è¿Ŀ æ³ķ
æĹ¥ åĨĽ
ãĥ ĥ
çļĦ åħ¨
0 4
I D
çº ¬
æŀ £
è¿ĳ æĹ¥
èķ ´
er t
å¾Ī å°ĳ
æº ĥ
æĸĩåĮĸ çļĦ
å¸Ĥ æĶ¿
æľŁ åĪĬ
æıĲ åĲį
ç«ĭ æĸ¹
èĪ° éĺŁ
E S
åł µ
åľ° å¤Ħ
èĹ »
å¢¨è¥¿ åĵ¥
çª Ħ
æĭħ å¿ĥ
åĪĨåĪ« ä¸º
æĿĲ è´¨
åıĳ åĶ®
åĭ ¾
æĪ¿ éĹ´
æŃ¦ è£ħ
æĺ¯ å¯¹
åĶ ¤
on e
åħ¥ ä¾µ
éĥĳ å·ŀ
é«ĺ äºİ
æ£ ķ
çļĦ ç®¡çĲĨ
åıĳ è¾¾
çĽ ²
ä¸ª ä½ĵ
åī§ æľ¬
å¼Ģ å·¥
æĭī ä¸ģ
åŃ£ èĬĤ
æŃ¦ å¸Ŀ
æ¸ħ ä»£
æ´» è·ĥ
195 6
ä¼ĳ æģ¯
æº ¯
å¹¶ æľª
ä»¥ å¤ĸ
æĹ¥ åŃĲ
åĲĪ æ³ķ
å¥ ł
æĸ° èĥ½æºĲ
ä¼ĺ åħĪ
åľº åľ°
æıĲåĩº äºĨ
åĽĽ å¤§
çĻ¾ åĪĨ
9 1
ä» Ĩ
æ·ĺ æ±°
å°Ĩ äºİ
è¯´ éģĵ
ä¸į ä½Ĩ
èĢģ æĿ¿
ç¾İ é£Ł
éĦ Ĥ
è¶ħ è¶Ĭ
éĺ ª
ä¿¡æģ¯ åĮĸ
æİ¥ æĶ¶
ä¹Ł æ²¡æľī
çĭ Ħ
éĢĶ å¾Ħ
åľ° å¸¦
åľ¨ è¿Ļä¸ª
æĿĥ å¨ģ
çļĦ éķ¿
æİ ©
å£ ¶
ç¤¾ äº¤
çĩĥ çĥ§
æľŁ æľĽ
æ¾ Ħ
åİŁ åĪĽ
éĶĢ éĩı
æĪĸ è®¸
çĹħ ä¾ĭ
çħ§ æĺİ
æ²³åĮĹ çľģ
çº¦ ä¸º
è¿ĺ èĥ½
æ¸¸ æ³³
åĲ¯ çĶ¨
åĩº åĶ®
æļ ĳ
è§Ĥ çľĭ
æĽ¿ ä»£
æł Ĺ
å¤© æĸĩ
æľ¬æĸĩ æĳĺè¦ģ
çļĦ çī¹çĤ¹
æī§ å¯¼
åŀĭ åı·
æ² ª
äºº ç¾¤
çĲĨ å·¥
èĤ¡ æĿĥ
å¹´ æ¯ķä¸ļäºİ
å®ļ åĪ¶
Ġ âĢľ
éĢĢ å½¹
å¼ ĵ
çļĦ éľĢæ±Ĥ
å¯¹ æ¯Ķ
éľ ľ
çļĦ æµ·
ä¸º åĩĨ
äº² èĩª
8 1
å±± æ°´
èµ ļ
åİ ¢
æ·±åľ³ å¸Ĥ
é¡µ ç¬¬
å®ŀçİ° äºĨ
åĪ¶ æĪĲ
çĪ± å°Ķ
a h
U TC
è¿Ļ å°±æĺ¯
çĮ ´
å¾® ä¿¡
çŃī å¾ħ
æĴ° åĨĻ
å²ģ æĹ¶
å¼Ģ åħ³
æ¸¯ åı£
æľĪ çļĦ
æĲħ æĭĮ
èĢĮ è¢«
çĽ¸åºĶ çļĦ
ä¿¡ å¿ĥ
ç»¿ åĮĸ
èĵĿ èī²
æķĪ åĬĽ
ï¼ ĳ
çĶµ ç«Ļ
åīį è¿Ľ
æº ¢
å©´ åĦ¿
çŁĽ çĽ¾
åİŁ åŃĲ
åµ Į
æĺ¯ æľī
äºİ ä¸Ģ
ç§ģ äºº
åĳ½ åĲįä¸º
è§Ĥ å¿µ
è¾ĥ ä½İ
æĬµ è¾¾
åĳ³ éģĵ
å¤§ ä½¿
åħ¸ åŀĭ
é¦ Ī
åŁºç¡Ģ è®¾æĸ½
æĿĥ çĽĬ
å¤© åľ°
å¥ İ
åł ¤
çĩĥ æĸĻ
è®© æĪĳä»¬
æīĢ å¾Ĺ
ãĤ Ĭ
æ²Ī éĺ³
è·¯ åı£
æĢ ¡
éĴ¢ éĵģ
çĦĬ æİ¥
çĤ¹ çļĦ
æīĵ åį°
âĢĿ ï¼Ľ
ä¸ĸçķĮ å¤§æĪĺ
çļĦ ä¸¤
æĥ ¨
æķ° åįģ
æ¡ ¶
çļĦ å½¢å¼ı
å¹´ åı·
çº· çº·
ä¸Ń èį¯
æħ¢ æħ¢
æĥħ èĬĤ
æ¬§ åħĥ
è§Ĥ æµĭ
éĩĳ é¢Ŀ
åº¦ åģĩ
çĸ ¯
ç¦ıå»º çľģ
æĶ¿ æĿĥ
è´¢ å¯Į
çº§ çļĦ
ä¹Ł è®¸
ç¼ĸ åĨĻ
èģĶåĲĪ åĽ½
èµ· äºĨ
äººæ°ĳ æ³ķéĻ¢
ä¸Ģä¸ª äºº
åŃ¦çĶŁ çļĦ
åģļ äºĨ
ä¸į å¥½
s h
ä¸º æĤ¨
B C
èĻļ æĭŁ
ar k
çŀ ¬
å± ¡
è¿ĳ æľŁ
ä¿Ŀ ç½Ĺ
äºĪ ä»¥
å¹² åĩĢ
ä¸Ģ äºº
ãĢĭ ï¼ļ
æŃ¥ éª¤
æ¯Ķ åĪ©
å®ī å¾·
è¿Ļ ä¹Łæĺ¯
åıį å¤į
ä¸»ç®¡ éĥ¨éĹ¨
å®¶ ä¸Ń
æ¹ĸåĮĹ çľģ
åĮº ä¸º
å±¥ è¡Į
æ°´ æŀľ
ç¥ ¸
èĲ¥ éĢł
ä¾ĽåºĶ åķĨ
äºĶ ä¸ª
æ¯ķä¸ļ åĲİ
å· «
Ð º
åı¤ èĢģ
åķ ¦
å±Ģ éĥ¨
èµ ģ
å¼ķ é¢Ĩ
çļĦ æĹ¶
æĥ³ æ³ķ
çħ İ
ä½¿ åĳ½
èµ· åĪ°
åı² ä¸Ĭ
ç»ıæµİ åıĳå±ķ
ä»¥ ä¾¿
æŃ» åĲİ
çĽĳ å¯Ł
åľ° åĪ©
çĺ ¦
äºĮ æĺ¯
ç¥ŀ è¯Ŀ
ãĤ ĭ
çĶµåŃĲ åķĨåĬ¡
èŁ ¹
äºļ åĨĽ
éĩį çļĦ
éģ ®
åģ¥ èº«
åİ ī
æīĵ çł´
ac k
å¼Ģåıĳ åĮº
çķĻ åľ¨
éŃĶ æ³ķ
å®¡ è®¡
åĽŀ çŃĶ
ä¹Ł è¦ģ
åı¯ åľ¨
åı¯ æĮģç»Ń
ç§Ł èµģ
ç¦ ½
çĶ· å¥³
åĸ ī
è¿Ļ æĹ¶
åĲĪ çº¦
å¥¥ æŀĹ
èīº äºº
æıĲ éĨĴ
æ´»åĬ¨ çļĦ
n g
å¤§ äºİ
å£° æĺİ
ç¹ģ æ®ĸ
æįŁ å®³
ä¾Ŀ æīĺ
å´ ©
æĹ¶ä»£ çļĦ
åľ° åŁŁ
èº« ä¸º
å±± èĦī
å®ŀ ä½ĵ
çİĽ ä¸½
å± ł
çŁ ¶
èĸ ĩ
åĨĴ éĻ©
åĩ °
æĪĺ å£«
æįŁ ä¼¤
çİ° å·²
æį ī
ä¾į éĥİ
ä¼ ½
åı¦ä¸Ģ æĸ¹éĿ¢
çľŁ ç©º
éľ ī
ä¸» å¼ł
i b
åıĹ æ¬¢è¿İ
ä¸ĭ åİ»
Ġ æĸ°
ä¾¿ æĺ¯
åĪĨ æ³Į
æĢ» çĿ£
æĺ ¨
çĹħ çļĦ
åĽŀ å®¶
æĹ¨ åľ¨
åįĵ è¶Ĭ
çļĦ çĶŁäº§
å¹³ åİŁ
ç« Ń
ä»£ è°¢
çŁ¥ åİ¿
195 5
åī§ åľº
ä¸Ģ çŃīå¥ĸ
ãģ Ĩ
ãĢįãĢģ ãĢĮ
å¥¹ ä»¬
â ĺ
æĶ¯ æı´
çĸ« èĭĹ
ä¸º ä¸ŃåĽ½
åĪ ł
åĿ Ĥ
è½¬ åĲĳ
or d
æĦı ä¸º
çĶŁ çĲĨ
å¾Ĺ åĲį
åĽŀ å¿Ĩ
æ°Ľ åĽ´
åĮĹ æµ·
çľŁæŃ£ çļĦ
æµı è§Ī
Ġ l
èģĮ èĥ½
å¢ŀåĬł äºĨ
ä¸» äºº
æĺ ı
æ¬ ł
å±Ĥ çļĦ
ç¼ ¸
åľŁ èĢ³
è¿ĺ ä¼ļ
çİ° çĬ¶
è¯´ çļĦ
æķ°åŃĹ åĮĸ
æľ¬ åľŁ
æĽ´ æľī
æ®ĸ æ°ĳ
æıĲä¾Ľ çļĦ
çĵ¦ å°Ķ
å¾Īå¤ļ äºº
èı© èĲ¨
åĲĦ å¤§
èĪ ±
éĢ» è¾ĳ
ç®Ģåįķ çļĦ
éĽķ å¡ĳ
å¸¦ åĬ¨
ä¸ĭ è¾ĸ
è´µ æĹı
æ£ ĺ
çĳ °
å®ŀ æĹ¶
o ur
æĸ ¼
å¢ ħ
åįĥ ç±³
åħ¬åħĥ åīį
èİ ŀ
å¥½ è¯Ħ
M P
èµĦ è´¨
ç¡¬ ä»¶
æłĸ æģ¯
çĲĨ çĶ±
åľŁèĢ³ åħ¶
æĮĸ æİĺ
é©¬ å°Ķ
å»ºçŃĳ çī©
çķĮ çļĦ
æĺ¯ ä¸º
åı¥ è¯Ŀ
å¯ Ĥ
è¸ ¢
åı¯ä»¥ éĢļè¿ĩ
æķ ²
æ¶µ çĽĸ
è¥¿ èĹı
ç§° ä¹ĭä¸º
çĥŃ æĥħ
æĪĲ å¹´
åĬĽ åĴĮ
åĽ½ éģĵ
æ¬£ èµı
çĶ¨ æ°´
2 50
çĥ ¹
èĲĿ åįľ
çĬ¹ å¤ª
æĺ Ķ
è´ ª
çī ²
éĩĩ éĽĨ
ä¸Ĭ ä¸Ģ
m an
æ¶Ĥ æĸĻ
å¹´ èİ·
å½¢ åĬ¿
åĬ© äºİ
æĢ» çĽĳ
æĺ¯ ç¾İåĽ½
è¾ħ å¯¼
åĽ½ ç«ĭ
åĲ »
p h
ä¸į å¦Ĥ
å¿ĥ èĦı
è¿ĲåĬ¨ ä¼ļ
æĺİ çĻ½
æĬ ¹
æĪĲ äºº
åĬŀäºĭ å¤Ħ
ç« £
åıĳçİ° äºĨ
ç´§ å¼ł
æīį æĺ¯
ä¸Ģ çĶŁ
æ´Ĺ åĩĢ
åħ³ å¿ĥ
çº§ åĪ«
ç©º ä¸Ń
çĲĥ è¿·
âĳ ł
åħ¨ åĬĽ
å¼Ł å¼Ł
åĽĽ åįģ
è¢« è¯Ħä¸º
as t
éĤ µ
éĢļ è½¦
ä¹ĭ åľ°
çĪ±å°Ķ åħ°
å¥¥è¿Ĳ ä¼ļ
æİ¢ è®¨
åľº çļĦ
å¹³ æĹ¶
æĪĺ åĲİ
æµģ ä¼ł
çŁ¥è¯Ĩ äº§æĿĥ
åŀĤ çĽ´
èħ »
æĦ ¤
è®© ä½ł
åħ¬ å¯ĵ
æ° Ł
at e
å¤ļ å¹´æĿ¥
çŃ¾ ç½²
Ġ Y
ä»» èģĮ
èµĦ åĬ©
çĻ¾ ä¸ĩ
è¿ ¦
åĵį åºĶ
Ñ Ĥ
ä¸º å®¢æĪ·
ä¸ī ç§į
éĺŁ åĳĺ
ãģ ¾
åħ¸ ç¤¼
æ² ¦
æ¹ Ľ
å¯¹ æĬĹ
åħ¨ éķ¿
éĩĳ çīĮ
æĸ¯ æĭī
éĢ ¾
äºĭä¸ļ åįķä½į
æĺİ ä»£
äº ı
æĮģ æľī
æķ°æį® åºĵ
å¹³ å®ī
äº¤ åıī
çīĪ æĿĥ
éĥ¨ èĲ½
çİī ç±³
æ´Ľ éĺ³
ä¿¡ ä»»
ç²ī ä¸Ŀ
æµ ĳ
æĹ¶æľŁ çļĦ
ãĢĤ ãĢĲ
æĶ¹åĪ¶ ä¸º
æŃ¥ åħµ
èĴ ²
æłĩ æľ¬
ç»Ħç»ĩ çļĦ
çĽ¸ ç»ĵåĲĪ
é¢ Ĥ
åĿ¦ åħĭ
éĴ ł
çļĦ æīĭ
Ġ ä¸Ń
èĨ ¨
å¼ §
åĳ½ è¿Ĳ
åıĪ æľī
å¤ĸ ç§ĳ
çļĦ çİ¯å¢ĥ
è¿Ļ åº§
æĺŃ åĴĮ
å¸¸ çĶ¨
èµ· ä¹ī
9 00
çĲ ī
éĺ¿ éĩĮ
éĴ¢ çĲ´
åįģ æľĪ
å½¢æĪĲ çļĦ
ãĥ¼ ãĥ
é»Ħ æ²³
é©¬ æĭī
æĮ ª
ç§¯ åĪĨ
è¥¿ æ´ĭ
ä¸ī æľĪ
çŃī çļĦ
èĤĮ èĤī
æ´ Ĵ
æľīåĪ© äºİ
äº² çİĭ
æ¦Ĥ åĨµ
å¯¹ è¯Ŀ
æķĳ æı´
å¤© çļĩ
æĺ¯ä¸Ģ éĥ¨
åįİ äºº
äºļåİĨ å±±
çĪ ª
åĮĸ åĲĪçī©
çłģ å¤´
äºĶ åįģ
æĬĬ æı¡
ä¸Ģ ä»½
ç² ¹
æ¸© æļĸ
Ġ and
L ED
åĪĨ è§£
åĤ ²
U S
æĢ ĸ
åŁİ åł¡
åĴ ı
éļ¾ åº¦
äº¦ æľī
èĬ¯ çīĩ
æīĵ ç®Ĺ
çļĦ ä¸ĸçķĮ
æŃ¤ åīį
è½´ æī¿
è¿Ŀ åıį
æĸ° é²ľ
æ·± åıĹ
ç¨İ åĬ¡
è½¬ ä¼ļ
åĩ¤ åĩ°
åįķ çĭ¬
å¥¥æŀĹ åĮ¹
åī¯ ä¸»å¸Ń
ä¸º åħ¶
e w
ä¹¦ ä¸Ń
æıĲ åĪ°
æľº ç»Ħ
k m
å½¼ æŃ¤
æĥħ å½¢
ç«Ļ åı°
å®¡ æī¹
éĿ¢ ä¸Ĭ
on t
æĺ¾ å¾Ĺ
åŁİ ä¹¡
ç²¾ åĩĨ
ç§ĺä¹¦ éķ¿
éĿ¢ åīį
åı° ä¸Ń
è¡£ æľį
çļĦ åŃ¦çĶŁ
æ» ŀ
ä¸¹ éº¦
ä¸¤ ä½į
è¿ŀ éĶģ
éħ ¬
èĭı æł¼åħ°
äº¨ åĪ©
è®© æĪĳ
å½± åĥı
æĬ Ħ
åľ¨ ä¸Ģä¸ª
ä¹Ĳ éĺŁ
C C
åĨĽ çļĦ
å¤Ħ ç½ļ
Ġ 5
çħ§ é¡¾
çļĦäºº åı£
ä½ľ çī©
âĳ ¡
15 00
Ġ /
æ¶Ī èĢĹ
O N
åĪĿ æŃ¥
éļĶ ç¦»
åĬĽ åº¦
å¤ı å¤©
äºĮ çŃīå¥ĸ
åĬł ä»¥
å¹´ çĶ±
çļĦ ä½įç½®
e y
çļĦ æľºä¼ļ
âĢĿ ãĢģ
æ¡Ĩ æŀ¶
è¢Ń åĩ»
åľ¨ æĸ°
æĸ¯ åħĭ
é¢ĺ æĿĲ
æĻ® åıĬ
è¯Ĺ æŃĮ
å¼Ģ æľ¬
æĺ¯ æĹ¥æľ¬
å¸Ĥ å§Ķ
çĶµ ç¼Ĩ
æľĢ åħ·
æ· ³
çłĶç©¶ åĳĺ
ä»¥ åħ¶
æľ¬ åľ°åĮº
éĺµ å®¹
è¿Ľ ç¨ĭ
æ¬¡ å¹´
ä½ĵ åĨħ
ä¾Ŀ éĿł
å¥¥ åľ°åĪ©
åģļ çļĦ
ä¸į äºĨ
éĤ£ æł·
ä¸Ģ æī¹
é¾Ļ çļĦ
ä¸¾ äºº
åĲĪ èĤ¥
Ġ 18
ä¹Ł å°±
èī² åĪĹ
äºĮ æ¬¡
éĢļ é£İ
åĲĦ åĽ½
ä½ĵ åĪ¶
æĢ» éĿ¢ç§¯
é« ĵ
å¾® åįļ
æĿ¿ åĿĹ
æº¶ æ¶²
æ® ·
ä¸»æĮģ äºº
åľ¨ è¯¥
åħ¶ æ¬¡
ç¨ £
æĭĽ æłĩ
ç§ĳåŃ¦ æĬĢæľ¯
åħ¬ é¡·
ä¾Ŀ èµĸ
æĶ¶ è§Ĩ
å¹¶ ä¸İ
ä½ĵ éĩį
ä¸ĭ åĪĹ
åįı åĲĮ
éĻĨ ç»Ń
å¤§ è¡Ĺ
æĹ¥ åīį
åĨį çĶŁ
æĶ¶ èİ·
ç§ ©
å¸ĥ æĭī
æĹ© å¹´
âĢ ķ
çĶµ ç£ģ
çĶŁ åĬ¨
ç²¾ å¿ĥ
æħ¢ æĢ§
åįģäºĮ å¹´
ä½ľ è¯į
æľīéĻĲ è´£ä»»
é¢Ħ æľŁ
æ¡ ĵ
èĮ¶ åı¶
ç®¡çĲĨ çļĦ
æ¿Ģ çĥĪ
åŁºéĩĳ ä¼ļ
ä¿ ĺ
o ok
æ¸ ´
çº³ åħ¥
èģĮ ä½į
æĹ Ń
åĪĨ æĶ¯
è°ĥ çłĶ
u e
å·¥ä½ľ å®¤
ä¼Ĭæĸ¯ åħ°
é¢Ĩ è¢ĸ
æİ¢ æµĭ
èĢ¶ ç¨£
æ¶¦ æ»ĳ
è®© ä»ĸ
ç¥¨ æĪ¿
ç´§ æĢ¥
æ¬ º
ä¸Ńå¿ĥ çļĦ
ç»Ī ç«¯
å¤© ä½¿
çĲĥ åŃ£
åį« è§Ĩ
as s
æľī ä»Ģä¹Ī
æĢ§ åĪ«
èı² å¾ĭ
ä¸į éľĢè¦ģ
ä¸į åľ¨
æĸ¯ å¡Ķ
å¯¹ éĺµ
éĨ ĭ
å½ķ éŁ³
æ· ĳ
a i
æİĴ åĪĹ
é½Ĳ åħ¨
èĬĤ åº¦
è° ľ
G B
ä¸į å¤ļ
Ġ åĴĮ
åº· å¤į
åĭĭ ç«ł
æŁı æŀĹ
o un
ä¸İ æŃ¤
é«ĺ èĢĥ
æĮĩ ç¤º
ä¿Ŀ åħ»
èı²å¾ĭ å®¾
e x
è¿Ľ å±ķ
æŁĲ ç§į
è¡ ¬
éĺ Ĳ
æĪĲåĬŁ çļĦ
æĺİæĺ¾ çļĦ
åįļ è§Ī
äºĮ æľĪ
ç±³ åħ°
å¯¼ å¼¹
çļĦ åĨħ
éĻķè¥¿ çľģ
åħ¼ ä»»
åĶ® åĲİ
åįĥ ä¸ĩ
å½ĵ äºĭ
è§Ĥ éŁ³
çĮ ľ
å¸Ĥ éķ¿
åĶĲ æľĿ
çļĦ å®īåħ¨
çļĦ ä¿¡æģ¯
å°Ķ å¤«
ç¡® è¯Ĭ
çĻ» éĻĨ
åŁİ çļĦ
è¯¥ åħ¬åı¸
æĪĺ èĥľ
åįķ ä¸Ģ
å®ŀ åľ¨
æĴ¤ éĶĢ
æľª æĿ¥çļĦ
éĺ² æ°´
èģĮä¸ļ çĶŁæ¶¯
åŃĹ æ¯į
æł½ åŁ¹
æľī åĵªäºĽ
æĪ¿ åŃĲ
äºĶ æľĪ
éĻĦè¿ĳ çļĦ
çīµ å¼ķ
å® Ľ
åĨ Ģ
æģĲ æĢĸ
a u
ç±³ å°Ķ
èµ· çĤ¹
å¤´ éĥ¨
èģļ éĽĨ
ç»ıæµİ åŃ¦
æį ŀ
éĢĢ åĩº
éĩĮ äºļ
éĢı éľ²
iv e
åī ĸ
è¿Ļ é¦ĸ
Ġ 19
Ġ v
æŀ ¯
çķ ı
åİĤ åķĨ
ec t
å¼Ł åŃĲ
å®¶ åįıä¼ļ
æĿĥ åĬĽ
åĩ ¹
åĬ¿ åĬĽ
ä¹¦ éĻ¢
åĬ© æĶ»
è§Ĥ èµı
A I
æĹłè®º æĺ¯
æĺİ çļĦ
æĺ¥ èĬĤ
ä»ĸ è¯´
195 4
åĪĽå§ĭ äºº
æ² §
å·² æĪĲä¸º
æĻĭ çº§
æ² ¸
å±ŀ æĢ§
åĪĳ äºĭ
èŀį åħ¥
éŃħ åĬĽ
ä¹¡ éķĩ
èĬĤ å¥ı
ãģ «
çļĦ åħī
ä¸ľ èİŀ
Ġ çİĭ
éħį ä»¶
çĶµ åķĨ
åħ¨ æĸ°
å¾Ī å®¹æĺĵ
æĥ³ è±¡
å¹¶ ä»¥
é¦ĸ å±Ĭ
åĨħ æľī
éģŃ éģĩ
äºĭå®ŀ ä¸Ĭ
æĥħ æĬ¥
åº ¸
æĲ ı
ç¼ĸçłģ ä¸ºP
çī© æĸĻ
å¤§åŃ¦ çļĦ
åľ¨ ä»ĸ
s on
çļĦ æķ°æį®
å®¶ éĩĮ
èĪ ¶
å§ Ĭ
æİ¥ å¾ħ
åĸľ åī§
å±± åİ¿
é¥® æĸĻ
Ġ å¼ł
ä¸į åıĹ
è¯ģ å®ŀ
ç¥ Ī
æłĩåĩĨ åĮĸ
èĲ¥ è¿Ĳ
æĽ Ŀ
å±± çļĦ
ä»¥ èī²åĪĹ
åĢº åĬ¡
å· ¾
åĪĨ æķ°
å®¹ åĻ¨
çĸ¼ çĹĽ
å¼º å¤§
æĬĹ æĹ¥
è¾ĥ é«ĺçļĦ
æİĴ æ°´
éĢłæĪĲ çļĦ
è§Ĥ åħī
195 9
æľī åı¯èĥ½
æ¸ £
æ¯ Ĺ
åħ¬ åĬ¡
éĴ ©
ä½ĵ ç§¯
åĪ¶éĢł ä¸ļ
ä¸»è¦ģ çļĦ
åĢĻ éĢī
ä½Ĩ ä»ĸ
æķı æĦŁ
çī© èµĦ
å½ĵ å¤©
f f
æĦ ģ
å¥¹ åľ¨
çĽ¸ è¿ŀ
ä¸Ģ æĶ¯
éĻ¢ å£«
197 5
196 4
åħ¨ èº«
æ± Ģ
äºº äºĭ
åī ¥
196 3
æĭĽ åķĨ
æĤ£èĢħ çļĦ
è¢«è®¤ä¸º æĺ¯
éĵ¶ å±ĳ
åľ Ń
åķĨ åľº
ä¸ĸçķĮ çļĦ
ä¸Ģ çĻ¾
åĽĽ æľĪ
196 2
åĮ» åŃ¦éĻ¢
å°Ĭ éĩį
å¾Ĺ åĪĨ
çģµ éŃĤ
ä»£ æĽ¿
æŁ¥ çľĭ
æĢĿ è·¯
çİ «
èİ« æĸ¯ç§ĳ
è½¦ çļĦ
195 2
å§ĵ åĲį
ç«£ å·¥
è¿Ļ ç±»
å¸ĥ ç½®
ä¸»è¦ģ æľī
å½ķ åıĸ
äº§ åľ°
â ħ
ä¾ £
è¿Ļ ä¸¤
é¸¡ èĽĭ
åĵª éĩĮ
çļĦå¤§ åŀĭ
å±ı å¹ķ
197 6
196 5
ä¸» åĬĽ
æµģ éĢļ
è£ħ çĶ²
èģĶ ç»ľ
éĻ· åħ¥
è¯Ħ éĢī
åĩº åİ»
æĹ¥ çĽĬ
å·² è¢«
çļĦ æķĪæŀľ
åħĭ æĭī
æħĪ åĸĦ
ç´§ å¯Ĩ
ä»ħ æľī
äºī åıĸ
ä¸įå¾Ĺ ä¸į
ä¾¿ æį·
çļĦ ç²¾ç¥ŀ
æ¸ħ åįİ
ï¼ļ ï¼Ī
æ°´ åĪĨ
æĶ¿ åįı
æĬ¥ å¯¼
ä¸Ģ çº¿
ä¹ĺ å®¢
Ġ 6
ä¸į æĺĵ
åĴĮ æľįåĬ¡
çŁ ¢
è·Ł éļı
æ¨¡ åħ·
å²© çŁ³
ä¸Ĭ æ¶¨
IS O
èĭ¥ å¹²
å¤§ è§Ħæ¨¡
æŀģ ä¸º
æµª æ¼«
èĸ ¯
è® ·
è¿ĩ äºİ
è¿ĩ äºĨ
ä½Ĩ çĶ±äºİ
æĬķ æłĩ
è¿ľ ç¨ĭ
çĲ ª
åŃĺåľ¨ çļĦ
è®® éĻ¢
éŁ §
å¼Ģ å¹ķ
çħ¤ çĤŃ
çļĦ è¿ĩç¨ĭ
è¾¹ çļĦ
äº« æľī
å¼Ģ ä¸ļ
å§ĭ å»ºäºİ
åŁºçĿ£ æķĻ
åħ¬ çĪµ
èĳĹ æľī
æĦı å¿Ĺ
æ²¿ æµ·
æľīéĻĲè´£ä»» åħ¬åı¸
ç¦ı åĪ©
åħ¨ åİ¿
ä¸¾è¡Į çļĦ
æĿ¡ çº¦
æıĲé«ĺ äºĨ
å¤§ åĮº
æĸ° çĶŁ
æĢ» å±Ģ
è¯¾ åłĤ
æĸ¹ éĴĪ
å·¥ ä¼ļ
åĪĨåĪ« æĺ¯
194 0
çĹĽ èĭ¦
å¼¹ æĢ§
æ¶ ¡
æŃ£ æľĪ
è¯¸ å¤ļ
çĽ¸å½ĵ äºİ
ç½ĳ é¡µ
196 1
åıĳçĶŁ åľ¨
ä¸ī ä¸ĸ
æŀĹ ä¸ļ
ç» ĳ
å¹² æī°
çĢ ĳ
åŃ©åŃĲ çļĦ
èĲ Į
å¤© åłĤ
ç«Ļ åľ¨
Ġ å°ı
æīĢåľ¨ åľ°
æµ· ä¸Ĭ
è± ¹
en d
ä¸¥éĩį çļĦ
ãĢĤ âĢĿãĢĤ
çļĦ ä»·æł¼
çľĭ çľĭ
ä¸Ģ åıª
å¤į åħ´
å¸Ī çĶŁ
æĺ¯ æľĢ
C P
çİ° éĩĳ
éĿ¢ è¯ķ
ä¸į åıĺ
æĪ· å¤ĸ
å®Įæķ´ çļĦ
æĸ ¥
åıĤ è°ĭ
åĶĲ ä»£
çļĦ å¥³
å®¶ ä¹¡
åķ ¤
å· ©
æŃ£ è§Ħ
è¿Ľ èĢĮ
é¥ ¶
è£ģ åĪ¤
æµ ĩ
ä¹ĭ éĻħ
N BA
çĸĹ æ³ķ
æįŁ åĿı
åĿ ¤
å®¶ åºĦ
ç¬¬äºĮ èĬĤ
éĺ» æŃ¢
éĥ¨ å°ļä¹¦
é» ı
è¦ģ ç´ł
è· ĭ
åĪ« å¢ħ
ä½ľèĢħ ç®Ģä»ĭ
æ² «
çłĶ è®¨
r ic
çļĦ æľī
æłĳ èĦĤ
è´§ è¿Ĳ
éªĳ åħµ
åĲ¬ åĪ°
é¡º åºı
ä¾ĭ åŃĲ
è¾ĥ å¤§çļĦ
åĿ ł
in a
çĶ¨ åľ°
æ´¾ éģ£
å¤Ħ ç½®
æ¶² åİĭ
å¥¥æŀĹåĮ¹ åħĭ
åĲį ä¹ī
ç«ĭ æ³ķ
éĻĦ åĬł
éªĮ è¯ģ
åħĭ éĩĮæĸ¯
åİļ åº¦
é¦ĸ ä¸ª
éĢĶ ä¸Ń
è·¯ ä¸Ĭ
197 2
ç¨İ æĶ¶
çŃĶ æ¡Ī
ç¨³å®ļ æĢ§
æģ ¼
æľº åĬ¨
æ¢ µ
ä»ĸä»¬ åľ¨
ä¸į å¤Ł
éķľ å¤´
æĿĲæĸĻ çļĦ
åĶ ĩ
æ² ¼
ç»¼åĲĪ æĢ§
ä¸Ģ çīĩ
.. .
å°Ħ åĩ»
åıĳ éĢģ
æ¸Ĺ éĢı
åĩº åľŁ
Ġ é«ĺ
ç«ĭ ä½ĵ
E T
ãĢ ķ
èĢĮ æĿ¥
æĺĨ æĺİ
æĹł éľĢ
æĿ¡ä»¶ ä¸ĭ
æĲº å¸¦
ä¸º åŁºç¡Ģ
æľŁ éĻĲ
é¾Ļ å¤´
ä¸Ń æľĢ
éĺ³ åİ¿
åĪĩ åī²
ç» Ĵ
ç¼ ł
åľ¨ åħ¨åĽ½
èĵ ī
è´µ çļĦ
åħ¬ åĪĨ
å¦ ¥
å³ »
åĩı è½»
195 7
åĲĪå¹¶ ä¸º
è´¢ ç»ı
æĬµ æĬĹ
ãĢ Ķ
çĸ ¹
æĿ° åĩº
æī© å¼ł
å¯ ĩ
å¾Ī é«ĺ
éªĮ æĶ¶
194 6
éķ¿ è¾¾
A D
ç«ŀ æĬĢ
ä¸Ģ æĹ¥
ãģ ¿
c t
ç¬¬ä¸Ģ èĬĤ
éĺ¿ æł¹
å¹¿ å·ŀå¸Ĥ
æ´¾ åĩº
åĺī å®¾
èª ĵ
è½¦ éĹ´
ä¸Ģ è¾¹
196 8
åľ¨ åĮĹäº¬
æĸ° åĨł
éļ¶ å±ŀ
å¼ķèµ· çļĦ
æľī çĤ¹
æĽ´ é«ĺ
èĪ¹ èĪ¶
äºĭåĬ¡ æīĢ
è®² è§£
è¥¿ åħ°
çĶŁ èĤ²
ãģ ķ
ãĢĭ ï¼ī
è¿Ļ é¡¹
æ³ķ äºº
çļĦ çĽ®çļĦ
çĥŃ æ°´
è¡¥ åģ¿
è¯ŀ çĶŁ
åĲĮ æľŁ
éĵ¾ æİ¥
åįł æį®
åı¦ æľī
å¤ª åİŁ
å¤« å¦»
è®¤ çŁ¥
ä¸ĭ ä¸Ģ
æĸ Į
194 1
éģĵ çļĦ
æĹł æķ°
æİ¥ åı£
æľįåĬ¡ åĻ¨
éķ¿ æĺ¥
Ġ 10
ï¼ Ĳ
å¤ĸ éĥ¨
äººå·¥ æĻºèĥ½
çīĻ é½¿
1 30
ç¬¬ä¸Ģ çĻ¾
åĬł å·ŀ
æ¦ Ħ
æľ¬ æĿ¥
äººåĬĽ èµĦæºĲ
æĺ¯ ä»İ
æķ ·
æİĴ è¡Į
çļĦ ç»ĵæŀľ
éĺ¿æł¹ å»·
èĬĤ çľģ
åħ» çĶŁ
åħ« æľĪ
197 3
èĬ Ļ
åįİ çĽĽ
è¿ĳ ä»£
çļĦ ä¸ľè¥¿
å¯Į æľī
åĵ¥ åĵ¥
å¹´ ç¬¬
éº¦ åħĭ
åıĺ æĽ´
ä»ĭç»į äºĨ
195 3
å¤ ¸
æ´» åĬĽ
åĪ© çİĩ
æŀ¶ æŀĦ
åº µ
çļĦä¸Ģ åº§
S h
ä»» æĦı
åĵĪå°Ķ æ»¨
éĹ» åĲį
ä¾Ŀ çħ§
çļĦ ä¸Ĭ
åħ± è®¡
ç«ŀäºī åĬĽ
ä¸¤ èĢħ
çľģ éģĵ
èªī ä¸º
âĹ ı
çİ° ä¸º
æ¶Ī æ¯Ĵ
èģļ èĲ½
çļĦ ä¸ŃåĽ½
o y
åīį æĻ¯
é¢ ł
éĽ ģ
åħŃ æľĪ
197 7
æ¯ı ä¸ªäºº
åı¯ çĶ¨
çīł ä»¬
çļĦ åĬŁèĥ½
å¤§ åľ°
éĩĳ åĪļ
194 4
æİ¥ çĿĢ
è½¦ åŀĭ
åĬ© åĬĽ
æļĤ æĹ¶
æĺ¯ ä¸ºäºĨ
ãģ į
åĪ¶ çīĩ
æ© Ļ
éŃ ģ
a z
çİ° æĹ¶
æĪĺ åĽ½
ä¸ĥ æľĪ
ä¼ł åĬ¨
çľĭ èµ·æĿ¥
å®¢æĪ· çļĦ
åı¯ åīįå¾Ģ
éĴ ĵ
ä¼ ŀ
æ¸¸æĪı çļĦ
åīį æĿ¥
çģ« çģ¾
ä¹Ł å°Ĩ
196 9
åĽ½å®¶ åĴĮ
çĳ ¶
æŀ¢ çº½
æģĴ æĺŁ
çªĹ åı£
P P
ãĤ ·
èŀº æĹĭ
çļĦ è§Ħå®ļ
7 00
çļĦ åĲĮ
19 20
çł ²
åİĨ ç¨ĭ
åĽŀ æĿ¥
ç¦ı å·ŀ
è©¹ å§Ĩæĸ¯
è¡Ģ åİĭ
A r
çļĦ åıĺåĮĸ
æĭ ¾
åħ¨ æĸ¹ä½į
å°ģ éĹŃ
èĩª æĿĢ
ä¹¦ åĲį
å¾® çĶŁçī©
å±±è¥¿ çľģ
çĽ® çļĦæĺ¯
åķĨ å®¶
æ¿Ģ ç´ł
æ¸Ĳ æ¸Ĳ
åĨħ åľ°
æĶ¯ åĩº
åįģä¸Ģ å¹´
åĲİ ç»Ń
ç© Ĺ
è¢« è¿«
äº§åĵģ è´¨éĩı
æ±ī æĹı
èģĮ æ£Ĵ
å¤ªéĺ³ èĥ½
é© ³
ä½ ĳ
åĪĨ æķ£
å·¥ä½ľ ä¸Ń
æ¢ Ĺ
ä¹ĭ ä¸Ĭ
ä»ĭ è´¨
åĲĪä½ľ ä¼Ļä¼´
å¯ ®
ä¿ĿæĬ¤ åĮº
us t
éģµ å®Ī
ä¸Ń æľŁ
å¯» æ±Ĥ
èľ ¡
åĤ¨ åŃĺ
çļĦ è¿ĩç¨ĭä¸Ń
æĸ Ĳ
åħ¬ å¹³
äºİ æŃ¤
196 6
åĨĽ åĽ¢
ç¨³ å®ļçļĦ
åį¡ æĭī
å»¶ ç»Ń
P h
å»º æĿĲ
åħ¨ å¹´
ç»ı è´¹
M S
å¤ª åĲİ
ä¸Ĭ éĺµ
åĪĩ å®ŀ
åİ» äºĨ
æıı ç»ĺ
çĽ¸ åıį
çĶµ ä¿¡
ç®Ĺ æ³ķ
ãĤ ī
æĸĹ äºī
åĲĮæ¯Ķ å¢ŀéķ¿
åŃĲ åħ¬åı¸
çķĮ éĿ¢
åİ Ŀ
çĸ«æĥħ éĺ²æİ§
è° ¥
ç¬¦ åı·
åŁºç¡Ģ ä¸Ĭ
çļĦ éĥ¨åĪĨ
å¥½ åıĭ
Ġ :
å¦¹ å¦¹
å¥ĭ æĸĹ
æĸ° åŁİ
èģĶåĲĪ ä¼ļ
æĪª æŃ¢
éĹ ¯
æĸ° åħ´
èĬ¬ åħ°
åĩº ç§Ł
197 4
å°ı ç¼ĸ
ä»» æķĻ
194 8
ç²¾ å¯Ĩ
éĶ» çĤ¼
äº§ä¸ļ éĵ¾
æıĲ åıĸ
æĺ¯ä¸Ģ æ¬¾
çļĦ çĽ®æłĩ
èµĶ åģ¿
ç§ī æī¿
èĤ ļ
ä½İ æ¸©
è¯ķ çĤ¹
èĳ¡èĲĦ éħĴ
çļĦ è´¨éĩı
çĥ ·
æĺ¯ ä½įäºİ
å¥ ¸
çĶŁ æĹ¥
èĥ½ åľ¨
åŁĥ å°Ķ
å¤§ æī¹
ç¼ĸ æĽ²
çı Ģ
èĬĤ çº¦
a ch
ä¸į åĪ©
åįļå£« åŃ¦ä½į
æ¼ĶåĶ± ä¼ļ
éĽķ åĪ»
é©± éĢĲ
åĽł åħ¶
åº Ĳ
M A
åıĳçĶŁ äºĨ
ä»ĸ è¿ĺ
ä»ĸ ä¸İ
ä¸Ģä½ĵ åĮĸ
éĶħ çĤī
ä¸į è§ģ
Ð »
åıĬ åħ¶ä»ĸ
äºº ä¸İ
æĿ° åħĭ
åº ¶
æľ¬ è´¨
æ±ī è¯Ń
çļĦ è¡Įä¸º
å®¢ è§Ĥ
åįİçĽĽ é¡¿
çŁ ®
ä»ħ ä»ħ
åĨĽ åĮº
çļĦ å¸Ĥåľº
åī¯ ä¹¦è®°
åĵ¥ ä¼¦
åĬĽ åŃ¦
æľīåħ³ éĥ¨éĹ¨
è´« åĽ°
ç¼º éĻ·
æŃ£ éĿ¢
å¤ª å®Ī
193 8
äº¤æĺĵ æīĢ
ç¯® æĿ¿
p p
çķĻ åŃ¦
æīĭ ç»Ń
è´ ©
çļĦ åºĶçĶ¨
åº ļ
èįī åİŁ
çĪ¸ çĪ¸
ï¼ī ãĢģãĢĬ
193 7
åĽ½ ä¼ļ
c om
è¿ĩ åº¦
åľ¨ æĹ¥æľ¬
èĲ¨ åħĭ
o x
åı« åģļ
å®ī ä¸ľ
æĭ ĺ
å¾· åįİ
è¯´ è¯Ŀ
åŁºæľ¬ ä¸Ĭ
æģĲ é¾Ļ
ç¾İ å¥½
ç©¿ è¶Ĭ
éĶ ¥
é«ĺ æĸ°æĬĢæľ¯
è±Ĩ èħĲ
åĴ ½
æĺ¯ æ³ķåĽ½
ç¼ĵ è§£
éļı èĳĹ
çĦ °
æ°Ķ æ¸©
èµ· æºĲ
æł¼ å±Ģ
æĤ Ķ
æŀ «
æķ° çłģ
éģĵ åħī
ä¹Ŀ æľĪ
åıĳ éħµ
Ġ éĻĪ
ä¾Ľ çĶµ
__ __
ä»¥ å¾Ģ
æłĳ ç«ĭ
éĩĳ å±±
è¾£ æ¤Ĵ
éĽĨåĽ¢ æľīéĻĲåħ¬åı¸
ä¸Ń åİŁ
èµ Į
æ³ »
èĴ¸ æ±½
åĪļ åĪļ
åıĳ æĶ¾
æľĢé«ĺ çļĦ
åıį èĢĮ
å°ĳ è®¸
ç±»åŀĭ çļĦ
å¸Ĥ çº§
åħħ çĶµ
å¤ļ åĲį
æ±Łè¥¿ çľģ
æıı åĨĻ
ç¢ Ł
A A
' s
é»ĳ æļĹ
æĿĳ åºĦ
æ¸¸æĪı ä¸Ń
ãĥ ¬
èĻ ŀ
å±ŀ çļĦ
æ´Ľ æĿī
äº ¥
æł¼ å¼ı
ä¹Ĳ åĽŃ
çŃī å¤ļç§į
éĺ ®
çľĭ æĿ¥
æĪĲç«ĭ äºĨ
æ³¨ åħ¥
å¤§ çĲĨ
ä¸ī äºº
æī© æķ£
æľ¨ æĿĲ
u g
ä¹Ĳ åĻ¨
åĤ¬ åĮĸ
å¿ĥ çģµ
å¼º åĪ¶
æ°¸ ä¹ħ
æĭį åįĸ
ä¸Ĭ å¸Ŀ
æĬ¥ èŃ¦
åľ° å½¢
å¤§ æ¦Ĥ
äº§çĶŁ äºĨ
æłĩ çŃ¾
åıĳçĶŁ çļĦ
ä»¥ åħį
éĵ ħ
åİ¿ çº§
ä¸Ģ æĸ¹éĿ¢
å¤§ æķ°æį®
è¿Ļ æ¬¾
åĽ½éĻħ æľºåľº
éħ ®
æĶ¹ åĲįä¸º
å¹´ åĪ°
å¥ ¢
æ²¿ éĿ©
ä¼ĺç§Ģ çļĦ
åħĭ èİ±
Ġ âĢĵ
åŃ ¢
ï¼Į ï¼Ī
å®Ī æĬ¤
æĦ ī
è¡Į é©¶
éĿł è¿ĳ
æĸ¹ è¨Ģ
æľī åĬ©äºİ
ç» İ
æ¯ı åĳ¨
æľº éģĩ
éĤ® ä»¶
æĹł éĶ¡
ç¦» å©ļ
å¥ī çĮ®
a w
ç»Ī çĤ¹
å¦Ĥ åĲĮ
çļĦ åĦ¿åŃĲ
å®ŀ ä¹ł
å¿ĥ ä¸Ń
çĽ¸åĲĮ çļĦ
çļĦ å¤©
æľ¬ ä½ľ
çī¹ ç§į
éĩĩçĶ¨ äºĨ
ç«ĭæĸ¹ ç±³
æ´ĽæĿī çŁ¶
èĬ Ń
æ¡ ©
åĮĹ éŃı
éĩįåºĨ å¸Ĥ
ï ¿
ç§° ä½ľ
æĹ© åľ¨
193 9
éķ ¶
å¨ ¶
æĥ ©
çĽ¸ ç»§
èĬĤåº¦ ä½¿
æĪĲç«ĭ çļĦ
ä¸Ģ å¼ł
åĿĩ æľī
çİ« çĳ°
åı° åįĹ
åŃ¦æł¡ çļĦ
ä½ĵèĤ² åľº
è½¬ è®©
åĪĨ åħ¬åı¸
C E
ä»ĸ è¢«
éĿŀ æ³ķ
Ġ ä¸ŃåĽ½
æ°ĳ èĲ¥
åķĨ åºĹ
éĺ² å®Ī
æī¿ åĮħ
k g
åķ¤ éħĴ
æłı çĽ®
ä¾¿ äºİ
åĩº èĩª
e e
S T
æĸ° äºº
åľ° åĲį
ä»İ ä¸ļ
åį³ ä½į
èµ £
ç¾İ è§Ĥ
æĪĳ æĺ¯
ç²¾ èĭ±
å¿ħ çĦ¶
on d
èĥ ĸ
è¯ Ī
æĢ» é¢Ŀ
é¦ĸ æī¹
çļĦ æľĢ
æĢĢ çĸĳ
çŁ³ å¤´
åıĳ æİĺ
ä¸Ń çŃī
åŁİ åİ¿
ä¸Ģ éĥ¨
æľ¬ å±Ĭ
æ·± åĮĸ
æĤł ä¹ħ
é¥Ń åºĹ
194 7
197 1
åħħåĪĨ åıĳæĮ¥
æĬĵ ä½ı
å¤©æ´¥ å¸Ĥ
èĶ ½
ä¸¾åĬŀ çļĦ
çĶµ æ¢¯
ç¾½æ¯Ľ çĲĥ
194 3
åĽ¾ å½¢
194 2
èµ¢å¾Ĺ äºĨ
çī¹ çļĦ
çļĦ éĢīæĭ©
æľĪ åºķ
ä¼Ĭ æľĹ
åĴ ¬
å»ºè®¾ çļĦ
æĽ² çº¿
å ļ
æµ· å³¡
éĤ ±
è®¢ åįķ
è¶ħ å¸Ĥ
å±Ĭ åħ¨åĽ½
ãĤ ¿
æĪĳ æł¡
ç¥ ¯
æµĭ å®ļ
åįĹ æĺĮ
å½¢ å®¹
å¿ĥ éĩĮ
åı¶ çīĩ
åİ¨ æĪ¿
åĩºçİ° çļĦ
èº ²
åĪĿ ä¸Ń
åħ¨ ä¹¦
åĮĹ ç¾İ
éĩĳ æĽ²
è¶ ģ
æľī è¶£
éĺ ľ
æŃ §
ç« ĸ
èĨ Ģ
ä¿Ĺ ç§°
ä¸º ä½ķ
ä¹ĥ èĩ³
ä¹Ł å¾Ī
æĶ¾ å°Ħ
å©ļ ç¤¼
ç¼º çĤ¹
åħĭ éĩĮ
æī¿ åıĹ
åŃ©åŃĲ ä»¬
æŃĮ è¯į
ç¦ ¹
å¸ĥ èİ±
çģ« æĺŁ
åħ¨ ç¨ĭ
æĭĨ éĻ¤
ä¸ľåįĹ äºļ
æĪĳä»¬ åľ¨
å¹´ ä»¥æĿ¥
çİ° åŃĺ
æĶ¾ ç½®
å¹´ ä»»
åĮº åĨħ
ç¾İä¸½ çļĦ
ä¼ĺ å¼Ĥ
åĪ¶ä½ľ çļĦ
è¯Ń éŁ³
é ĳ
i z
çļĦ ç¤¾ä¼ļ
è·Ł è¸ª
ç²¾ çģµ
åħ¨ æĸ°çļĦ
å¿« æį·
çİ¯å¢ĥ ä¿ĿæĬ¤
ä½į çļĦ
æĶ¿ åĬ¡
é¢ģ åıĳ
Ġ éĩĳ
çī ¡
æĬķ éĻį
åıĭ è°Ĭ
ä¸ĭ æ¸¸
ä¸Ģ å±Ĥ
æ½ľ åľ¨
åħ ĳ
æĹ¥ ä¸ĭåįĪ
ãĤ ¸
æ¿Ģ åĬ±
195 1
ä»ª è¡¨
å¼Ģ å¿ĥ
èĬĤ æĹ¥
ç®¡çĲĨ å·¥ä½ľ
æ¬¡ æķ°
è´Ł æĭħ
æ¿Ģ åıĳ
åĽº ä½ĵ
æ» ķ
çºł çº·
çļĦ åħ³éĶ®
æ¬§ çĽŁ
çģ« è½¦ç«Ļ
é©¬ ä¸Ĭ
Ġ 7
åı£ èħĶ
æµģ åŁŁ
å¥³ å£«
è¡ ·
æĺ¯ éĿŀå¸¸
æ¯« æĹł
è¯į è¯Ń
ç²¾ ç¡®
æį¢ ä¹ĺ
ãĥ Ń
æĺ¾ çĦ¶
çļĦ åİŁ
æĸ¹ å½¢
åĪĴ åĪĨ
è¦ģ æ³¨æĦı
æ¼Ķ è®²
ãĥ ŀ
èģĮ ç§°
âĢĿï¼Į âĢľ
âĢĿ ï¼ī
éĩİ çĶŁ
çī º
åĮº åĪĨ
æĪĺ åľº
è°Ī åĪ¤
å®ª æ³ķ
ä¸Ģ é¡¹
çĶŁ æĦı
åħ¨ çº¿
äºº åĿĩ
åºĨ ç¥Ŀ
é«ĺ å³°
çĽ¸ ä¼ł
åĭ ¿
è¾ī çħĮ
çĶŁäº§ çº¿
ä»¥ åĮĹ
æĻ® æŁ¥
ä¹ĭ æĹ¶
C l
åĨ ¢
ä¸ľ æµ·
èĭ± è¶ħ
æĮ¯ åħ´
ä¸Ģ æľŁ
ä¸¤ å¤§
ä¹Ļ çĥ¯
æ¸ħ çĲĨ
ä¸Ĭ æ¸¸
å° §
è¿Ĳ è½¬
èµ° è¿Ľ
å®¡ åĪ¤
çĪµ å£«
åĪ ®
åľ° æĿ¿
åıį å°Ħ
è®¸åı¯ è¯ģ
é³ Ħ
éĩį ç»Ħ
å¤ª å¤ļ
ä¸Ģ éĥ¨åĪĨ
æľĪ åľ¨
æĬĢæľ¯ äººåĳĺ
èı ±
äºº éĹ´
ä½ı åľ¨
çļĦ æīĢæľī
äº§ åĢ¼
æĹ¶éĹ´ åĨħ
â Ī
å¤©çĦ¶ æ°Ķ
æľį é¥°
å®īåħ¨ çĶŁäº§
æľī å¤ļ
çĽ¸ éĤ»
æµ· åħ³
éª ı
çĿ¡ çľł
åı¯ åĪĨä¸º
è¾ĥ å¤ļ
åī§ éĽĨ
å¯¼ ä½ĵ
æĳ Ĭ
æĬ ¬
çİ° ä»Ĭ
è¿Ľè¡Į çļĦ
éª¨ å¹²
ä¹Ŀ é¾Ļ
éĢĤ å®ľ
åį° å°¼
éĽ¶ ä»¶
æŃ¥ è¡Į
æ´Ľ åħĭ
çĳ ľ
ç²¾ ç»Ĩ
è¶ħ å£°
è·¯ æ®µ
æ³¨ å°Ħ
çļĦ æĶ¯æĮģ
åĩº è¡Ģ
æ¯ķ ç«Ł
åıĭ å¥½
èĲ¨ æĸ¯
æ´ ½
çģ« è½¦
çļĦ æĪĲç»©
åĪĨ è£Ĥ
å¤ª éĥİ
æľīä¸Ģ ç§į
igh t
ä¸» æµģ
åĪ¶ èį¯
ãģ Ĭ
å¤ļ ä¸º
éĺ² çģ«
çľĭ çĿĢ
åįģäºĮ æľĪ
é£İ æļ´
æīĭ æ³ķ
æĹ¥ ä¸ĬåįĪ
èĦ± ç¦»
æĻĭ åįĩ
çļĦ ä¸įåĲĮ
é«ĺçŃī åŃ¦æł¡
åİĨ ä»£
çļĦ çĽ¸åħ³
æĮª å¨ģ
ä¸į ä¸Ģæł·
å¸ĥ æľĹ
ãģ ı
ä¸į æķ¢
èĽ ®
ä¸İæŃ¤ åĲĮæĹ¶
çļĦ éģĵè·¯
è¾½å®ģ çľģ
äºĨ ä»ĸ
ä¹¡ è¯ķ
çº³ ç¨İ
è¡ĮæĶ¿åĮº åĪĴ
çļĦ åĽ½å®¶
æ³¢ æĸ¯
ç¬¬ä¸ī èĬĤ
çļĦ åİŁåĪĻ
è§Ĩ éĩİ
19 30
é«ĺ å±Ĥ
åĬ¨ æ¼«
éĥ½ æ²¡æľī
ç«ĭ è¶³
ç³» æķ°
ä¸į è®º
æľįåĬ¡ ä¸Ńå¿ĥ
è¯ µ
æİ ł
éĴ ®
V D
åįı ä½ľ
æ² ¥
æ³ķ å®ļ
çĪ± åĽ½
èĲ½ åľ°
åİ» éĻ¤
Ġ in
èĤº çĤİ
Ġ ãĢĮ
h er
æī© å»º
é¸Ł ç±»
åĩº åħ¥åı£
æĮ¯ åĬ¨
è´ ¬
æī« æıı
æ·Ģ ç²ī
æĪ ļ
å¸Ĥåľº ä¸Ĭ
èĽ Ľ
çļĦ èĢģ
åĮº éĹ´
åįĥ å¹´
çİĩ åħĪ
åīį æľŁ
åľ¨ ä¸Ń
åĲİ åį«
Ġ éĺ¿
åĬ¨ èĦī
æİ¥ ä¸ĭæĿ¥
åħ¶ä¸Ń åĮħæĭ¬
ar l
ç§© åºı
éĵ¶å±ĳ çĹħ
é£İ åħī
æĢ» ä¼ļ
äºĮ æ°§åĮĸ
æĬ¥ èĢĥ
ãģ ¡
èĢķ åľ°
åĲĽ ä¸»
è¿ĩ æĿ¥
æĬĢæľ¯ åĴĮ
å½±åĵį åĬĽ
çł Į
çļĦ èĬ±
çī© ä½ĵ
å¥¥ å°Ķ
åĢĴ åħ¥
åľ¨ åĨħçļĦ
oc k
çļĦ ç¬¬
çļĦ æĦŁè§ī
ç¤¾ åĽ¢
çģ¾ å®³
å¸ ĺ
äºĳåįĹ çľģ
è´¦ æĪ·
æľī è®¸å¤ļ
ç¤¾ä¼ļ çļĦ
ä¸Ĭå¸Ĥ åħ¬åı¸
è ł
æķĻ å®¤
æ³ķ å¸Ī
é¡ ½
çļĦ ç¥ŀ
ç»Ħ éķ¿
è§ģ åĪ°
çīº çī²
---- ----
éĿĴ æµ·
æĲŃ å»º
è¿ĺ æ²¡æľī
196 7
ä¸ī çº§
æºĲ èĩª
or e
éĳ «
å®ĺ èĩ³
ä¿® è®¢
æīį ä¼ļ
ä»¥ä¸ĭ ç®Ģç§°
è½¨éģĵ äº¤éĢļ
éĴ ī
åħī åŃ¦
æĬ¥ çº¸
åįĹ æµ·
ä¸ļ ä½Ļ
æľŁ è´§
ç»Ł çŃ¹
åĨħ éĺģ
D NA
çĶ· åŃ©
çļĦ åħ¶ä»ĸ
åľ¨ æł¡
å¯¼ åĲĳ
ä¼ł æŁĵ
æĺŁ çº§
åĩł åįģ
èĪ Ĩ
æīĵ è´¥
åĳĬ çŁ¥
åĪĩ æĪĲ
æ³ ¼
éķ¿ å¤§
è¡¥ è´´
ä»İ å°ı
èĽ Ļ
âĢ¦âĢ¦ âĢ¦âĢ¦
åľ°çĲĨ ä½įç½®
æŀ ķ
äºº å¿ĥ
åį´ æĺ¯
åĴ Ĵ
åĬł åĪ©
æ¯ĶåĪ© æĹ¶
æĽ´å¥½ åľ°
ä¸Ĭ çº¿
çĻ» å½ķ
çļĦ å¤ļ
çļĦ èīºæľ¯
O R
å¤§ åŃĹ
çĸ¾çĹħ çļĦ
èĩªè¡Į è½¦
éĽ· æĸ¯
æķ£ æĸĩ
M V
ãģ ¦
ä¾Ŀ æĹ§
è¿½ æº¯
è±ª åįİ
åĬł æĭī
i x
l ay
t on
åħħ è¶³
åĲĦ çķĮ
å¸¦æĿ¥ äºĨ
åĭĩ å£«
ç»ı çºª
å®ļ å±ħ
ç² ¥
åĪ ¹
åĲĳ ä¸Ĭ
æĹ¶ ä»»
å°ı äºİ
éĶ Ĥ
å°Ĩ é¢Ĩ
å¯Ĩ çłģ
æĪĳä»¬ å°Ĩ
æĽ´ å¤§çļĦ
æĳ Ķ
ç¥ Ĳ
å®ŀ çļĦ
çİĩ ä¸º
M ar
åĴĮ å¤§
å®ļ äºĨ
æ¢ ³
ä¸į åıĬ
è§£ éĻ¤
è¿ĺ åİŁ
ãģ ¯
æľ Ń
éģµ å¾ª
è®¡ éĩı
å¯¹ ç§°
çĻ½çĻľé£İ çļĦ
b er
ç½ĳ çĲĥ
äº¦ æĺ¯
æľĢ éĩįè¦ģçļĦ
åħ¬åı¸ åľ¨
åĢº åĪ¸
ç¨ ½
çŀ¬ éĹ´
æ© Ħ
a x
ä»¶ äºĭ
æķ° çĻ¾
çīĽ å¥¶
è´ ®
åĽ½ äº§
æĭħ å½ĵ
ä¸ĵæ³¨ äºİ
å½ĵäºĭ äºº
æĸ° åįİ
åī§ åĽ¢
çļĦ æ°Ķ
æłĩåĩĨ çļĦ
åĴĮ åıĳå±ķ
ä»Ģä¹Ī æĺ¯
åĴ ³
æĺ¯ä¸Ģ åº§
æŃ¢ äºİ
æ²ī ç§¯
E C
ãĥ³ ãĥ
) ï¼ļ
é¡µ éĿ¢
é«ĺ åİŁ
16 0
å¤§ éĺŁ
èº« é«ĺ
4 000
æł ĵ
äºº æ°Ķ
å² Ĳ
å¤ĸ çº¿
åĲĪ åĶ±
æ¦Ĥ è¦ģ
æľ Ķ
ä¹ Ĵ
çī¹ éĩĮ
æĽ¼ èģĶ
åĩ ĳ
èļ ģ
çļĦ åĲįåŃĹ
å¤§ äºĭ
æĪĺ éĺŁ
æ¸© é¦¨
ac e
è¶³ åįı
å¿ĥçĲĨ åŃ¦
ä¸į åĬ¨
ä½ĵ ä¼ļ
å¸ĥ å°Ķ
è¥¿ ä¾§
æĮĳ éĢī
ç§ĳ æĻ®
ãĤ «
å°¼ å°Ķ
ç»ĦæĪĲ éĥ¨åĪĨ
æ¸ Ŀ
æĪĺ æľ¯
é¡¶ çº§
H K
åı¸ æľº
å²Ľ å±¿
çĻĮ çĹĩ
æ£Ģå¯Ł éĻ¢
åħī æĺİ
Î ±
åĨ ķ
å®Į å·¥
äº¤ çķĮ
éĹ¨ çļĦ
åĸ Ĭ
ç©¶ ç«Ł
ç³ĸ å°¿
åħ¨ ä¸ĸçķĮ
æĻºèĥ½ åĮĸ
æķ° æİ§
ç¡ Ŀ
éļı åį³
åĪ¶éĢł åķĨ
å·¡ åĽŀ
æļĤ åģľ
å¥½ åĥı
çª ¦
äºº éĥ½
ï¼Į ãĢĮ
éĥ½ çĿ£
è®¤ åĲĮ
è¿Ļ åľº
åĨ¶ éĩĳ
ä¹ ŀ
ä¸į èµ·
ä¸ī çŃīå¥ĸ
å¹´ åĴĮ
è ĺ
åİ¿ çļĦ
ä¾Ľ ç»Ļ
æĿ¡ æ¬¾
çīĻ åĪ©
å°ı å§Ĳ
çļĦ è¡¨çİ°
åĨħ å¿ĥ
ç¨ĭåº¦ ä¸Ĭ
æł ħ
çŃī äºİ
æ½ľ åĬĽ
åĶ¯ä¸Ģ çļĦ
ä¸» å¯¼
åĪĩ å°Ķ
âĳ ¢
å¿ĥ æĥħ
åħĭ ç½Ĺ
æ©Ħ æ¦Ħ
åı· çłģ
å·® è·Ŀ
èĳ µ
åīį éĶĭ
æ»¨ æµ·
åĮĪ çīĻåĪ©
æľīä¸Ģ å®ļçļĦ
ä¸º å¤§
æĪĲ åŀĭ
an n
æĺ¯ æĪĳ
åĴĮ æĬĢæľ¯
è¯Ń æĸĩ
ä»Ķ ç»Ĩ
äºī å¤º
èį «
ç®¡çĲĨ ä½ĵç³»
çļĦ éŁ³ä¹Ĳ
æŁĵ èī²
ä»İ æľª
å®¿ èĪį
çĸ ®
ç»¼ èīº
åĽ¾ä¹¦ ä¿¡æģ¯
é±¼ ç±»
æŃ¦ æľ¯
èĨ¨ èĥĢ
t e
çłĶç©¶ ä¼ļ
åĲĦ ä½į
æīĭ ä¸Ń
åĪĨ è¾¨
å¢ ©
ä¸ľ ä¾§
åĢ¾ åĲĳ
æĪĳ æĥ³
äº¬ éĥ½
äºļåİĨå±± å¤§
ä¸ºä¸Ģ ä½ĵçļĦ
åĽĽ åŃ£
åħ¸ åŀĭçļĦ
èģļ çĦ¦
äºº ä¹ĭ
éļ¾ é¢ĺ
çĶµ éĺ»
åħ³ èģĶ
éĻ¤ æŃ¤
å» ĸ
æħķ å®¹
ä¸ī æ¬¡
åĮĹ å®ĭ
èĤĮ èĤ¤
çº¿ ä¸ĭ
çļĦ æĦıæĢĿ
æ²Ļ æ¼ł
ä¸Ń è¢«
æľº åºĬ
Ġ åĪĺ
å°ı å¿ĥ
æį® è¯´
ä¸į æķĮ
æ³ķ å®ĺ
çª Ł
èĨ Ŀ
èĢĮ å·²
l y
ä» Ĺ
ä¸ļ ä¸»
å½ĵåľ° çļĦ
è¿Ĳ æ²³
ic e
æĿĢ å®³
ä¼ĺ ç¾İ
i es
éĤ» è¿ĳ
ä¹¦ åĨĻ
è¾ĥ å°ĳ
åħĪ éĶĭ
è£ ¹
ç¬ Ľ
ä¹ĺ åĿĲ
åıĳ è¨Ģ
æµ· åŁŁ
äº§ çī©
åľ¨ åīį
æ² Ĥ
å°¼ åħĭ
èĲ¨ å°Ķ
æ¼Ķ åĮĸ
å®ŀ ä¸ļ
åįģ ä½Ļ
åįĹ å®ĭ
åŁİå¸Ĥ çļĦ
äº® çĽ¸
åģ¥ åħ¨
å¼Ģåıĳ çļĦ
éĢģ åĪ°
u re
æ³¢ ç½Ĺ
âĹ ĭ
éķ¿ åŃĲ
èĥĮ åĲİ
åĨľ åľº
E N
åĵ¥ä¼¦ æ¯Ķäºļ
åĮħ åĽ´
åĲ Ł
çĦ ī
è£ ¸
âĺ ħ
çĶŁ æ®ĸ
ç¬ ĭ
åĲĮ äºĭ
æĪĸ åħ¶ä»ĸ
åıį é¦Ī
æĪĲ äº¤
æĶ¹ å»º
åİŁ æĸĩ
æĦŁ åĬ¨
æĪĲ åĵģ
éĥ½ è¢«
ç§į æĹı
åĲ¸ éĻĦ
åĩº èī²
ä¸ĭ æĿ¥çļĦ
è¾ ±
çĦ ļ
æĹ¶ æ®µ
ç»ĵ è®º
è¯¥ æł¡
åıĪ æĺ¯
åıĺ ä¸º
çº³ ç±³
åįł æľī
èĥ ļ
æī¿ åĬŀ
å»º æľī
åľ£ ç»ı
ä¿Ŀ å®ī
æ¹¿ åº¦
è¾¾ åĪ°äºĨ
ç¬¬äºĮ ä¸ª
ä¸į æĺİ
æ¶Ī çģŃ
ç»ı éĶĢ
çļĦäºº çĶŁ
æĢ¥ æĢ§
æľī å®³
åĪĿ çº§
ç»´ æĸ¯
æİĴ éĻ¤
ä¸ºä¸» é¢ĺ
çĶ¨ èį¯
å¤© åĲİ
æ±¡æ°´ å¤ĦçĲĨ
S P
æī¬ å·ŀ
éĩ ī
ä¸º ä¸Ńå¿ĥ
åĥ µ
ä»ĵ åºĵ
éĽĨ åĲĪ
åį ¦
åİ¿ å§Ķ
æ£ ±
ä¸į æ»¡
è¿Ļ ä¹Ł
æľº çĶµ
ç§į ç§į
è£ ¤
çĽ´ æµģ
æľīæķĪ åľ°
çī¹æ®Ĭ çļĦ
ow s
èĮ µ
çĪ± å¿ĥ
å¤§ åį«
åı¯èĥ½ æĢ§
åįĬ åľº
æĽ² çĽ®
åºŁ æ°´
æł· åĵģ
éĶ ¯
è¾¾ å°Ķ
æĳ §
æŃ£ç¡® çļĦ
åĩº ä¸Ģ
åĨħ æ¶µ
èľ ¥
i er
åľ¨ é¦Ļæ¸¯
éĨ Ľ
èŃ¦ æĸ¹
çĭ® åŃĲ
æ°´ è´¨
çª ĥ
æĹ¥ æ²»
é¢ ħ
é¸ ¦
æĭ¿ ä¸ĭ
ï »
è·¯ å¾Ħ
å¤´ çļĦ
ç¼© çŁŃ
åľ¨ ä¸Ĭ
çŃī å¤ļ
å¾· å°Ķ
çĭ¬ç«ĭ çļĦ
äºĨ è®¸å¤ļ
ä¸Ń å¤ĸ
èĩ Ģ
ç¿ Į
å®ļ ä¸º
å¼¯ æĽ²
å°½ å¿«
193 6
Ġ ä¸ī
äº¤ ä»ĺ
é©¬ æĸ¯
èĤ ĩ
ä¸¤ åĽ½
åı¤ åŁİ
å¹¶ æľī
å¤į åĪ¶
ä»£è¡¨ å¤§ä¼ļ
çļĦ æĢ»
ä¸į æĥ³
ä»¥ åįĹ
åĨľ äº§åĵģ
å¹¶ å¯¹
ä»ĸ ä¸º
æ®ĭ çĸ¾
åĸľæ¬¢ çļĦ
çļĦä¸» é¢ĺ
ç¼ħ çĶ¸
èµĦ æ·±
éĹ¨ æĪ·
è°ĥ åĳ³
è¯¥ åºĦ
åį ī
åıĳçİ° çļĦ
ä¹ĭ æĦı
æīĢå±ŀ çļĦ
éĻĲ äºİ
éĻ Į
å¤« å¦ĩ
åģ¶ åĥı
è®° å¾Ĺ
æģĭ çĪ±
ç¯ĩ å°ıè¯´
ä¹Ł ä¸įä¼ļ
çī© èģĶç½ĳ
çĶ³è¯· äºº
ä¼ļ è¢«
åıª éľĢ
åĩºçīĪç¤¾åĩºçīĪ æĹ¶éĹ´
åĪĻ ä¸º
çļĦ å±±
åĪ¶ä½ľ äºº
oh n
Ã ¡
è¿ĩ æķı
æ¢ Ń
é¢ Į
æ£Ĵ çĲĥ
åĵ ¦
ãģ Į
ä¸Ń è¥¿
éļĲ èĹı
ï» ¿
æĲº æīĭ
åŃĶ åŃĲ
å·¡ æĬļ
çļĦ æł¸å¿ĥ
ä¼¯ çĪµ
å¹» æĥ³
åĴĮ ç®¡çĲĨ
ç»Ļ ä»ĸ
çİ© åħ·
å®¾ é¦Ĩ
å¹´è½» äºº
çļĦ é£İ
ç¼ Ķ
é¢Ĩ åľŁ
æī¹ åıĳ
è° £
çĥ «
æĺĨ èĻ«
ç¤ ģ
çŁ¥ çļĦ
å¤įæĿĤ çļĦ
å¡ Į
ä¹ĭ å¥³
ç¹ģ èį£
çĥŃ çĪ±
å§Ķåĳĺä¼ļ å§Ķåĳĺ
åĬłåħ¥ äºĨ
S p
æľī ä¸ª
åĪ° æĿ¥
æ¨¡ çī¹
èĢĮ éĿŀ
ç¥Ŀ ç¦ı
å½© èī²
å®ģ å¤ı
ãģ Ĥ
å®¹ çº³
çļĦé«ĺ åº¦
å¤Ħ éķ¿
æĢĢ åŃķ
åĤ¨ å¤ĩ
åįĹ éĿŀ
äº§ä¸ļ åıĳå±ķ
ä¸ŃåĮ» èį¯
çģ ¿
ation al
1 12
åħ¶ ä¸ŃçļĦ
ä¸¤ åĲį
ter n
å¤§ éĺª
åħĥ ä»¶
å¾· çļĦ
è¿ĺ åĮħæĭ¬
ä¸į åĩº
ç¥ŀ çļĦ
èĲ į
èħ¾ è®¯
å¤ĸ å½¢
ä¸ŃåĽ½äººæ°ĳ è§£æĶ¾åĨĽ
å·® åĪ«
æĻ¶ ä½ĵ
æķĻ çłĶ
é² ¸
å®īåħ¨ æĢ§
ä½ł åı¯ä»¥
å®ĥä»¬ çļĦ
æĹ¶éĹ´ çļĦ
èµĽ ä¸Ń
é©¬ éĩĮ
æłĳ æľ¨
å¹´ æĹ¶
çļĦ å»ºçŃĳ
åıĻ è¿°
æľī åºı
åĻ¨ å®ĺ
åĩł ç§į
åĨľ åİĨ
å© ·
E M
é½¿ è½®
å¼Ģå§ĭ äºĨ
ä¿® æŃ£
éŀ Ń
æ© ĺ
å®ł çī©
å¤§ å°ĨåĨĽ
çł į
èħ ķ
æŀľ å®ŀ
æłĩ è¯Ĩ
æĶ¿åºľ çļĦ
è§£ è¯»
æĽ¹ æĵį
æĹ¥ åĨħ
åĽĽ åĳ¨
åĮ ª
äººåĳĺ çļĦ
ç¼º å°ĳ
å¿ħè¦ģ çļĦ
éļı æľº
çĻ¾ ç§ĳ
äºº ç§°
è·¨ è¶Ĭ
æĿĥ çļĦ
æľ¬ èµĽåŃ£
éº ĵ
åĩº è¡Į
ä¼ĺ è¶Ĭ
æľĢ æľī
åĨĽ å®ĺ
ä¸Ģ å¯¹
ç§» æ¤į
æĻ ķ
æ³ķ åŃ¦
éª Ħ
åĽ½æ°ĳ åħļ
æ¬¡ äºİ
åĽŀ åĲĪ
éĽ· è¾¾
â ī
åıĹ åĪ°äºĨ
æĺ¯ ä¸įæĺ¯
æ± ķ
åħ¬ ç¤º
æ¼Ĥ äº®
å®ī ç½®
ä¸½ çļĦ
éķ ĳ
èĥ¡ åĲĮ
æĶ¿ åħļ
åĽł åŃĲ
s s
çļĦ åıĮ
è®² åº§
èĲ ĥ
ãģ ĵ
ç¡ķå£« åŃ¦ä½į
i al
çļĦ æľĭåıĭ
åĮĹäº¬ å¤§åŃ¦
ç° §
åįı åķĨ
å¹¶ è¢«
åĪ© æĸ¯
éĿ¢ åĮħ
å¥ĸ éĩĳ
äº¤ å¾Ģ
èĶ ĵ
æĪ Ĭ
ä¸Ń ä¹¦
å½ ¬
å¤© ç©º
æľį å½¹
åħļ æĶ¯éĥ¨
åħ° å·ŀ
æł¼ æĭī
èĩªèº« çļĦ
åŃ£ åĲİ
å¼Ģ åĪĽ
çĪ±å¥½ èĢħ
" ï¼Į
ä¸¤ æĿ¡
é¥ ¥
ç¦ ¾
åĸĦ äºİ
æł· åŃĲ
ä½Ľ ç½Ĺ
çļĦ åĽ½éĻħ
åį¡ æĸ¯
åıĹ çĲĨ
æĪĳä»¬ åı¯ä»¥
åĪĨå¸ĥ åľ¨
å¯ ¡
è¿Ļ æ®µ
æĤ Ħ
å¼ł å®¶
s p
ä¸¤ å²¸
æłĩ é¢ĺ
åĳ¨ æľ«
èĩª ä¿¡
è¾ĥ å°ı
è¯Ĺ è¯į
ä¸Ń æīĢ
åĴ ±
ä¹ĭä¸Ģ çļĦ
ï¼Ī ãĢĬ
è¶³çĲĥ è¿ĲåĬ¨åĳĺ
å¡Ķ å°Ķ
æĹ¶ åħī
æľį çĶ¨
éĺ² èħĲ
å¸¸ çĶ¨çļĦ
éĽĨåĽ¢ åħ¬åı¸
çī¹ æĭī
æĺ¯ çĶ¨
æĸĩåĮĸ éģĹäº§
èĪª çıŃ
ic k
ä»»åĳ½ ä¸º
èĢĮ åĩº
U n
å¨ ĩ
åľ£ è¯ŀ
ä¸į è¶ħè¿ĩ
æĮ ½
å¥½ äºĨ
å®¢ äºº
éĥİ ä¸Ń
çļĦ ç»ıèĲ¥
âĢ ¢
è£ ´
å®ĺ ç½ĳ
è½ ¿
ç¬¬ åįģä¸Ģ
çĶŁçī© åŃ¦
ç¥Ń ç¥Ģ
S S
èĢĥèĻĳ åĪ°
ä¸ľ æ±ī
æ¥ ł
æĪ¿ äº§
é©¬åħĭ æĢĿ
U R
ä»ĸ ä¹Ł
æŃ£ ä¹ī
åĲĮ çĽŁ
åľº åĲĪ
èĬ± çĶŁ
å±Ģ éĿ¢
ä¸Ģ å¼Ģå§ĭ
ap p
åľ¨ ä½¿çĶ¨
åĽŀ åĽ½
å±ķ ä¼ļ
æª Ĳ
å®Ŀ çŁ³
ä¸į åı¯èĥ½
as h
åķĨ äºº
å© ī
å¡ĳ éĢł
è§ģ çļĦ
ä¹ĭ æīĢä»¥
éĩį è¿Ķ
åĲİ è¢«
éĢī æĭĶ
çĿ ¿
èļ ķ
ä¸º ä¸»è¦ģ
ä»ĸ åĴĮ
ç£ ħ
ç¾İæľ¯ é¦Ĩ
å¥³ çİĭ
åıĳ æĢ§
å¹¶ çĶ±
é¦ĸ ä½į
åħĭ çļĦ
æľĪ çĶŁ
å¾· æĭī
ç®Ģ åİĨ
é¥² æĸĻ
åĪł éĻ¤
æ¸ħ éĻ¤
åħĭ å°Ķ
æ¯ı æľĪ
èµŀ åĬ©
èħ¹ éĥ¨
åĪĬ çī©
çħ¤ çŁ¿
A L
ä¾ĽåºĶ éĵ¾
åĮĸå¦Ĩ åĵģ
æĺ¯ å¤§
éĶ ¤
ä¸»è¦ģ çĶ¨äºİ
æ¯Ķ åĪĨ
æīĵ è¿Ľ
è½¦ éģĵ
æ°Ķ çļĦ
çĶŁæĢģ çİ¯å¢ĥ
ï¼ Ĵ
ï¼Į ãĢĲ
è¿Ļä¸Ģ çĤ¹
å±ħ å§Ķä¼ļ
åĲĮåŃ¦ ä»¬
çº¦ å®ļ
å®½ åº¦
åĢŁ åĬ©
Ġ ãĢİ
æ°´ éĩı
æĽ´ å¤§
èŃ¦ åĳĬ
çļĦ æ¸¸æĪı
åĩº äºİ
è¡¥ åĬ©
ç»į åħ´
193 5
ä¸Ģ ä¹Ŀ
çĽ´ å±ŀ
ä¸įä»ħ ä»ħ
å¯Į å£«
æ°¨ åŁº
ç»Ļ ä½ł
æ¤ Ń
ç¬Ķ è®°
æĿ¥èĩª äºİ
æĸ¯ é¡¿
éĺŁ åıĭ
çļĦ æ¦Ĥå¿µ
åĽŀ æĬ¥
æĳ© æĵ¦
ä½Ĩ ä¸į
ç¬¬ä¸ī æĸ¹
æ¼ ³
æŁĲ ä¸ª
éģŃ åıĹ
çĦ ķ
å®¢ åľº
è¿Ľ åĩºåı£
åĭ ī
ç¥ ·
ä»ĸ äºİ
çĽĪ åĪ©
åįĥ çĵ¦
åįķ çº¯
ç»Ī èº«
å¥³ ä¸»è§Ĵ
å¤ĩ æ¡Ī
åĪĨ ä¼ļ
ä¸ĭ å±ŀ
æ¬§ ç¾İ
åģľè½¦ åľº
T O
å½ĵ ä»Ĭ
æĦŁ åıĹåĪ°
å¿ĹæĦ¿ èĢħ
æ½® æµģ
ĠA r
a e
å¯¼ èĪª
åıĸ åĨ³
ä¸Ģ æĸ¹
åĪĨ æĪĲ
ç²¾ éĢī
. ãĢĤ
åı¯ è°ĵ
åĲī ç¥¥
è§£ æķ£
åĽ½ åľŁ
ç¤¼ ä»ª
å¿« çļĦ
ç²¾ èĩ´
è¿ŀ è½½
å¼ Ĭ
éŁ ¶
çĢĳ å¸ĥ
% ãĢģ
éļĲ æĤ£
éĢī ä¸º
éĺ¶ çº§
çĶ¨æĪ· çļĦ
çļĦ æ¯ĶèµĽ
h y
åıĳ ä½ľ
æĮĩ ä»¤
ç¥ĸ åĽ½
éķ¿ åŁİ
å§Ĳ å§Ĳ
çŁŃ æļĤ
åľ¨ ä»Ĭ
ä¹ĭ åĨħ
ä»ĸ å¯¹
è¿ĩ æ¸¡
ä¸į å¤ª
éĢ ®
æ°ĳ çĶŁ
ä¸į åºĶ
éħ °
çĽĳçĿ£ ç®¡çĲĨ
å¤ĸ çķĮ
ç¼ĵ æħ¢
ĠA l
å¯¹ æİ¥
çĶŁæ´» åľ¨
æĹ¥ åĲİ
çļĦ çĶµå½±
éª ļ
ä¸ĸçķĮ åĲĦåľ°
åįģä¸Ģ æľĪ
èµĭ äºĪ
ar y
è¡¨ å½°
çļ ±
åĪĨ æł¡
ç³ĸå°¿ çĹħ
å¤ĩ çĶ¨
åŃĲ å®«
çĶµ ç½ĳ
æįĲ èµł
æĹ¥ æŃ£å¼ı
æķ° çļĦ
åĩº åĵģ
å·ŀ åºľ
ä¸ĭ æĸ¹
éĴ ¥
çĹ ´
ç¬¬äºĮæ¬¡ ä¸ĸçķĮå¤§æĪĺ
éľĢè¦ģ çļĦ
æµª è´¹
ä¸ļ åĨħ
åİĨ ç»ı
èİ· èĥľ
æ² Ľ
å¦Ĥ æľī
éŀ į
çī¡ ä¸¹
çĸ¯ çĭĤ
åĶ®åĲİ æľįåĬ¡
æĢ» æĬķèµĦ
çīĽ èĤī
å·´ å°Ķ
åĻ¨ ä»¶
åĲ« ä¹ī
çļĦ æĸĩåĮĸ
Ġ æľ¬
åľ¨ åĽ½åĨħ
æİ¨ åĩºçļĦ
ä¹¦ éĿ¢
æĦŁ åºĶ
å°½ åı¯èĥ½
çĽ¸ æľº
æ°ĳ ä¿Ĺ
æµģ æ°´
å°ĳ éĩı
çŃī é¢ĨåŁŁ
ç«ĭ åĪ»
ç¬¬ä¸Ģ ä½į
å¾ Ļ
å¯¹ å¾ħ
G o
Ġ 12
éĵ İ
åįİ ä¸ľ
ä¸ĢçĽ´ åľ¨
å»º åĽ½
æıĲ çĲ´
æ³¨ éĩĬ
çģ¯ åħī
ä¸Ĭ åİ»
åĿ Ł
å¹´ ä¸ŃåĽ½
åĸ ĩ
åıĸåĨ³ äºİ
è£ Ļ
åķĨ åŁİ
å®¶ åĽŃ
è¯¥ çīĩ
åĨ ¥
ä¸º æľ¬
ä¹ĭ æĹħ
âĦĥ ï¼Į
Ġ 8
ä¸į å®ľ
èķ ī
ç¥ŀ å¥ĩ
Ġ g
åĲī å°Ķ
åı£ åĳ³
åŀ £
ç»´ åŁĥ
ç»© æķĪ
èĭı ä¸¹
ä¼ģä¸ļ å®¶
æº¶ è§£
å°¼äºļ å·ŀ
åĢ¡ å¯¼
æľĢç»Ī ç»ĵæŀľ
åİĤ æĪ¿
æ¦ ´
çŁ¿ çī©
åĨ³ å¿ĥ
éģĹ è¿¹
æīĢ éķ¿
æ°´ æĻ¶
èĲ½ åĲİ
å¼Ĺ æľĹ
çľĭ åĩº
ç»Ŀ ç¼ĺ
èĴĻ çī¹
çļĦä¸Ģ åĪĩ
äºĶ å¤§
é¦ĸ æĴŃ
æŃ» äºİ
å ¬
çķ ´
äº¤ æ±ĩ
çļĦ åŁİå¸Ĥ
å±ķ åĩº
è½° çĤ¸
éļı ä¹ĭ
æľĿ éĺ³
çī Ł
åı£ æĦŁ
ç®¡çĲĨ åĴĮ
é¢Ħ å¤ĩ
æķ£ çĥŃ
æł¡ åıĭ
ç¿° æŀĹ
ä¸Ń å¼ı
åı¯ ä¾Ľ
æĪĲ æķĪ
å®Į æ¯ķ
åĮĹæµ· éģĵ
ä¸Ģ è¡Į
å¹³ è¡Į
å¹¿ éĺĶ
éĢļ å¾Ģ
å§ĳ å¨ĺ
èĬĤ çĤ¹
æ¶ ¤
å±ĭ é¡¶
ç²¤ è¯Ń
æĿ ł
åĿ ŀ
æķ´ å½¢
ä¸º ä¼ģä¸ļ
æł¼ å°Ķ
æ³¨æĦı äºĭé¡¹
æİ¨ è¡Į
ä¸į è¯¦
ä¸ī æĺ¯
åī¯ æķĻæİĪ
äº¤ ç»Ļ
åģĩ è®¾
å¤´ åıĳ
èĥ½ åĲ¦
çļĦ çĪ¶äº²
æĹ© ä¸Ĭ
çŃī å·¥ä½ľ
åī© ä½Ļ
åİ ¥
æĶ¾ å¤§
çī¹ åħ°
æĶ¾ æĿ¾
è¾¹ å¢ĥ
åĲį è¯į
éĿ¢ ç²ī
ä»½ é¢Ŀ
æ±Ł æ¹ĸ
æ¨¡ èĮĥ
æĸĩ æľ¬
æĶ» æīĵ
ç¼´ çº³
è½¬ åħ¥
åĭ º
or m
åĸ Ĥ
åĮ¹ éħį
äºļ ç§į
åĴĮ å°ı
è¿ĺ å°Ĩ
éĢļ æĬ¥
æĭħ ä¿Ŀ
å¢ŀ åĢ¼
æĹ¥ è¯Ń
ç¤¾ä¼ļ ç§ĳåŃ¦
åĪ¶ å¤ĩ
å¨ ħ
ä¸¥ è°¨
ç«¯ çļĦ
æĩ Ī
è¥¿åĮĹ éĥ¨
ag e
" ãĢĤ
193 3
å¯Ĩ éĽĨ
åıĳå¸ĥ çļĦ
ç«Ł çĦ¶
1 200
çĻ½ éħĴ
ãĢĢ ãĢĢ
Ġ X
è¥¿ æĸ¯
äºĭ çī©
æ» ¥
è®² å¸Ī
ç² ª
éĴ ¾
æĴŀ åĩ»
ä¸Ģ åĿĹ
it h
è¿Ļ å°±
å¤§ éĹ¨
åĲį èªī
åīį èº«
å¤ı ä»¤
åºı åĪĹ
æĺ¥ åŃ£
ç»Ļ äºº
é£Ł æĿĲ
æĺ¥ å¤©
i re
æıĲåĩº çļĦ
Ġ è¥¿
å¾ģ æĶ¶
æļ´ éľ²
æĭ ¯
ä½¿çĶ¨ äºĨ
äº² åŃĲ
çĸĳ éĹ®
å§Ĳ å¦¹
æķ ŀ
é«ĺ éĵģ
åĻ¨ æ¢°
é£İ éĽ¨
åī§ ä¸Ń
çļĦäºº åĳĺ
èĻ ı
æħ ¨
è¦ģ åľ¨
æ°´ ä¸Ĭ
äº« å¹´
åŃ¦ éĩĳ
ç¬¬ åįģäºĮ
éĤ£ ç§į
éĩįè¦ģ çļĦæĺ¯
åİŁ æľī
åħī æ»ĳ
èĮ «
åĲĳ åīį
é» Ľ
äº¤ åĵį
çģ ¶
çĿ Ĳ
çĻ½ äºĳ
å»ºçŃĳ å¸Ī
éĴ¢ ç®¡
é¢ĳ ç¹ģ
ä¸Ģ æĹ¶
å¤§ ä¸ĵ
è¿Ļæĺ¯ ä¸Ģä¸ª
ä¸»é¢ĺ æĽ²
ç§ĳæĬĢ è¿ĽæŃ¥
æ£ į
æ¸¸ åĩ»
çİ¯ çĲĥ
ä¾¿ å®ľ
åĲİ åľ¨
An d
D P
å±± é¡¶
è¿ľ ç¦»
is h
åįĬ å¯¼ä½ĵ
åĮĹ ä¾§
ac t
å¹¶ ä¸º
æł¼ éĩĮ
å¤ª æŀģ
åĲĮæĹ¶ ä¹Łæĺ¯
ãĢĳ ï¼ļ
åĳ Ģ
å¼Ģ åĬŀ
åĲĳ åįĹ
çĶ¨ äºĨ
çĶ¨ äºº
è¿ģ ç§»
å£« é¡¿
è¿Ļ ä¸¤ä¸ª
P L
çĩĥ æ°Ķ
åĩº èµĦ
çļĦ è§Ĵèī²
åŁ ł
èº« å¿ĥ
è¦ģ æľī
å¾ģ æľį
is s
çī¹èī² çļĦ
å¯ ħ
æīĭ å·¥
åľ¨ å¤ĸ
ä¸»æķĻ ç»ĥ
èİ ¹
ä¸º æł¸å¿ĥ
å°Ĩ æĿ¥
J R
ç¯ Ĩ
æĭ¿ åĪ°
æĹ¢ æľī
ç¬¬ä¸Ģ ç«ł
14 0
åĪ ĥ
åĴĮ é«ĺ
è§ģ è¯ģ
å¦Ĥæŀľ æĤ¨
æĬ Ĵ
æıĲ åıĬ
æģĲ æĥ§
æµģ æµª
æĪı æĽ²
çĽ´ åįĩ
ä¸į å¼Ģ
åħĭ æľį
åıĺ éĿ©
å¤§ åĲĮ
çĹħ åıĺ
éħį æĸ¹
åı° é£İ
æ²³ çķĶ
å®ĮåĸĦ çļĦ
å¹³ ç¨³
å¢ŀ å¤§
æ³¢ åĬ¨
çĽ ¼
ç»Ī æŃ¢
å¹¿æ³Ľ åºĶçĶ¨äºİ
çļĦ æ´»åĬ¨
åħ¬åĬ¡ åĳĺ
æ¼Ķ ç»İ
åī¯ ä¼ļéķ¿
æį §
éĿĻ èĦī
æ½ľ èīĩ
èĿ ł
éħ ¥
å°ģ ä¸º
èĨ ³
çļĦ åľ°
å®ĭ ä»£
çģ° èī²
èħ ĵ
193 4
è¶³ çĲĥéĺŁ
è¿ Ħ
ä¸Ńå°ı ä¼ģä¸ļ
çľŁ äºº
çº¢ åĨĽ
è¡Į èµ°
ind ows
o ut
çĤ ³
çłĶç©¶ çļĦ
çļĦäºº çī©
er n
R O
åľ¨ æľ¬
éª Ĥ
åĩı èĤ¥
ä¸ĭ ä»¤
å®ī å¨ľ
å°ĳ å°Ĩ
éļı æĦı
æĹłçº¿ çĶµè§Ĩ
åĩĿ èģļ
ç¦ı å¾·
ä½ £
ä¹° åįĸ
éĻ¤æŃ¤ ä¹ĭå¤ĸ
éĥ½ å¾Ī
ä½¿çĶ¨ å¯¿åĳ½
ï¹ Ĳ
æĳ© æīĺ
ä¸Ńåħ± åħļåĳĺ
å®ŀ åľ°
ç§ĳæĬĢ åĪĽæĸ°
éħ¸ çĽĲ
ç»ĵ å±Ģ
æł· æľ¬
ä¿Ŀ å®Ī
æ²» æĦĪ
åıĺ åĬ¨
ç¾İåĽ½ çļĦ
åĩº éģĵ
ç¼ Ģ
åįł æ¯Ķ
åĨĽ äºº
éĤ ¹
å®Į ç»ĵ
æ¬¢ ä¹Ĳ
æ¹¿ åľ°
çº§ èģĶèµĽ
éĿĴ çĿĲ
ä»·åĢ¼ çļĦ
å¤© æĸĩåŃ¦
åħī è°±
Ø §
æŁ¥ çĲĨ
éĢļ è¡Į
åı¦ ä¸Ģç§į
äººä»¬ çļĦ
Ġ 2010
ol d
âĢ §
ä¸į åĲ«
ĠA n
å¾ħ éģĩ
åĢĻéĢī äºº
åħ¥ åŃ¦
à ¤
æ± ¶
ãĤ Ń
åħ¬å¼Ģ èµĽ
é¥² åħ»
å¸Ĥ ä¸Ńå¿ĥ
ä¼ļ åĩºçİ°
æĿ¡ä»¶ çļĦ
åľ£ æ¯į
æĺ¯ é¦Ļæ¸¯
çĲĨ åŃ¦
æīĭ è¡¨
æķ´ æ²»
å®ŀ è´¨
m ent
ç» ¸
æĢ§ å¼º
ä¸į ä½ı
é£İ åĳ³
Ġ æľĪ
è´Ł èį·
å®£ åĳĬ
èĥ½åĬĽ çļĦ
çŁ¥ åºľ
\ /
un d
ä¸» äºĭ
æ°´å¹³ çļĦ
å±Ĥ éĿ¢
æ¡ĥ åĽŃ
æ¦ Ĩ
2 20
éĹ ·
L O
æķ°æį® æĿ¥æºĲäºİ
åĨł çĬ¶
å½ĵ ä½ľ
å·´ åŁº
è½½ ä½ĵ
çľ¼ éķľ
æķĻèĤ² çļĦ
çĽĳ çĭ±
å¹ ¢
åħļå§Ķ ä¹¦è®°
æľī åĬĽ
è¿Ļ æĿ¡
è®¾ åľ¨
æ£ µ
æľĢæĹ© çļĦ
æķ°æį® ä¸ºåĩĨ
åİĭ åĻ¨
ç¦» å¿ĥ
çİ¯å¢ĥ çļĦ
å½ĵ å±Ģ
æł¸ éħ¸
çļĦ åĬĽéĩı
ä¸Ĭ æĸ¹
åĵ º
åı¯ çĶ¨äºİ
æ¿ Ĵ
p e
ä¼ĺ éĽħ
Ð ²
äºĭ è¿¹
çĦ¦ çĤ¹
è¿ĩ å¤ļ
åĿĲèĲ½ äºİ
ä»İ ä¸Ń
ä»į åľ¨
æ¾ ľ
æ³° å±±
åħ¨ æĿĳ
ç§ĳ å¤«
æı´ åĬ©
åĪ© çī©
Ġ é¦Ļæ¸¯
ç©Ĩ æĸ¯
åĻª éŁ³
çļĦ æłĩåĩĨ
åĪ¶ åĨ·
ç§° åĳ¼
os t
æł¼ æŀĹ
çļĦä¸Ģ æĿ¡
ä¸ĩ äº©
æľª ç»ı
ä¸Ń çº§
åİŁ æĿ¥çļĦ
ä¸ºä¸» çļĦ
ä¿¡ èªī
èµ° äºĨ
åŃ µ
åĪĨ åī²
èĶ ļ
è¯¢ éĹ®
o us
åľº ä¸Ĭ
ãĤ Į
çıį çıł
ä¸ľ é£İ
éĵ¸ éĢł
è§£åĨ³ äºĨ
æ¿ ĳ
çŃī éĹ®é¢ĺ
æłĩ è®°
èİ² èĬ±
éĩĳ éĴ±
è§Ĩ è§Ĵ
ar e
åĽŀ å¤į
çĻ» ä¸Ĭ
éĺ² çĸ«
å¿« éĢĴ
åħ¬ æŃ£
é£İ æĥħ
å¸Ī èµĦ
çļĦ å¥³åĦ¿
åħ¬ ç¤¾
ç©¿ çĿĢ
ä¸Ĭ çº§
é£İ äºĳ
ä»ħ æ¬¡äºİ
çģµ æĦŁ
èĩª ç§°
å²Ľ ä¸Ĭ
è´¨ çĸĳ
ç¼ĸ åħ¥
å®¢ è½¦
« çĹ
å°ı åŃ©
å¤ľ éĹ´
éĻ ĩ
å² Ĥ
æĭ¼ éŁ³
èĤ Ĩ
åĬŁ å¤«
ä¸Ń æµ·
è¿Ľ åıĸ
é¢Ĩ åľ°
è¯Ŀ é¢ĺ
978 7
ä¼Ĺ äºº
ä¸Ń æ¯Ĵ
æĭ ¦
ãĢĭï¼Į ãĢĬ
æŀģ åħ¶
æĳĦ åĥı
çĴ ĭ
çļĦ ä¼łç»Ł
æĪĳ åľ¨
ĠS h
æľĢç»Īç»ĵæŀľ ä»¥
æľ¬ çīĩ
åĪ¶ åĬ¨
çĻ¾åº¦åľ°åĽ¾ æķ°æį®ä¸ºåĩĨ
æķ°æį®æĿ¥æºĲäºİ çĻ¾åº¦åľ°åĽ¾
æľĢç»Īç»ĵæŀľä»¥ çĻ¾åº¦åľ°åĽ¾æķ°æį®ä¸ºåĩĨ
Ġ "
çĶ¨ ä»¥
é«ĺ éĽĦ
åĲ ĵ
éķ ģ
åı¯ çĪ±
å¦ ¨
çĲĨ è´¢
å±± ä¸Ĭ
åĲİ éĿ¢
åĲĪçĲĨ çļĦ
è§£ æŀĲ
éĵ¶ æ²³
åºķ éĥ¨
T h
æİ¥ ç§į
æ°ĳä¸» åħļ
ä¸į åģľ
åºĵ åŃĺ
èģª æĺİ
èħ Į
æŃĮ åĶ±
193 2
é¼ł æłĩ
ç»ĵæŀĦ çļĦ
at h
æľ¬ æķ°æį®æĿ¥æºĲäºİçĻ¾åº¦åľ°åĽ¾
å®³ æĢķ
åįĹ ä¾§
é¡µ æķ°
çĪ± å¾·åįİ
æ¨ Ĭ
ä¿Ŀ åį«
æĻļ æľŁ
èĬ± åįī
Ġ ãĢģ
é»ĳé¾Ļæ±Ł çľģ
éģĵ çĲĨ
åĺī åºĨ
æĺ¯ çĽ®åīį
æĦ ļ
åĩł ä½ķ
ä¿¡æģ¯ çļĦ
3 60
åĳ Ĩ
æĢ» äººåı£
åĨĻ çļĦ
ä¿® éģĵ
æ°¨ éħ¸
ç§ĳ çļĦ
å¸¸ å§Ķ
æ£ ł
èĪ¬ çļĦ
< \/
åŁİ å¢Ļ
èĬĿ åĬł
è¡į çĶŁ
æľīä¸Ģ å®ļ
èĩª åŃ¦
æ°ĳ äºĭ
åįĥ éĩĮ
å¼Ĺ éĩĮ
æĶ¹ ç§°
ä¸Ģ å¥Ĺ
åı· çļĦ
æľºæŀĦ çļĦ
åĪ©çī© æµ¦
ç§ĳ çĽ®
çĹħ åĽł
å¹¿æ³Ľ çļĦ
è½¬ è½½
at t
ä¸ī ä½į
ãģ §
ä¿Ħ åĽ½
id e
ĠC om
ä¸ŃåĽ½ ç§ĳåŃ¦éĻ¢
ç¾İ åĨĽ
æĿĢ äºº
æŀģ å¤§
I M
èĥ½åĬĽ åĴĮ
è¶³ ä»¥
åħ´ å¥ĭ
æ°´ çĶµ
æ²¡æľī ä»»ä½ķ
å£° ç§°
çĸ² åĬ³
èĬĿåĬł åĵ¥
ä½įäºİ ä¸ŃåĽ½
æ³¢ å°Ķ
åĵģçīĮ çļĦ
è¶ĬæĿ¥è¶Ĭ å¤ļ
æ¸ħåįİ å¤§åŃ¦
åĲİ æĸ¹
ç µ
èĲ İ
äºĨ ä¸ĢäºĽ
çĿĢ åĬĽ
èĭ± éķĳ
ä¸Ģä¸ª æľĪ
çľŁ è¯ļ
åĿĩ åı¯
ç©¿ è¿ĩ
ä¿¡ èµĸ
éĿĻ çĶµ
åįļè§Ī ä¼ļ
è¢« èªīä¸º
ä¸Ģ åįĬ
ç»Ħ ä»¶
æ² ¾
éĻĦ å½ķ
åĩĮ æĻ¨
ä¿ ©
è¢« åĳĬ
ç¼ĸ ç¨ĭ
P ro
æĹł çĸĳ
ä¸įæĸŃ çļĦ
éĩĮ ç¨ĭ
åħŃ ä¸ª
äºĨä¸Ģ ç§į
ä¹ĭ ç§°
ä½Ĩ åį´
ç®¡çĲĨ ç³»ç»Ł
æ´»åĬ¨ ä¸Ń
6 000
æ¼Ķ èīº
æĹł æķĪ
ä¸ľ è·¯
æľĢåĲİ çļĦ
ä¸ºå®¢æĪ· æıĲä¾Ľ
æĦŁ åħ´è¶£
çº¿ æĢ§
p t
åĲİ åĨį
å®ĥ åľ¨
çĲĨäºĭ ä¼ļ
ä¸Ń åľº
æ¢ ĵ
ä¹¦ åºĹ
ä½ı å®¿
æĮĩ çļĦæĺ¯
å½ĵ æĹ¥
Ä ģ
Ġ n
åıĺ æĪĲäºĨ
åī¯ éĻ¢éķ¿
ä¸ľ äºļ
æ²³ éģĵ
æĬ ĸ
æµ Ĭ
ç§ĭ åŃ£
é«ĺ æ¸ħ
åĬł æ²¹
è¯ ł
æĺ¯ æĪĳä»¬
çĶ¨ æ³ķ
éģĵ åħ·
ç¦ §
ç§ĳ å¤§åŃ¦
è¯ Ľ
çĨ ¬
åı¯ä»¥ çĶ¨
æĺİæľĿ æĶ¿æ²»äººçī©
åĿļ åĨ³
E L
äº§ èĥ½
æĹ¶ ç©º
ãĤ ª
åĪĨ å¼Ģ
ä½ĵ éķ¿
ç²Ĵ åŃĲ
æº¶ åīĤ
è¿ Ń
âĢ¦âĢ¦ ãĢĤ
å¤ļ åªĴä½ĵ
åįİ åįĹ
åĲīæŀĹ çľģ
ä¸ļ çļĦ
è¿ĳ å¹´
åĪ¤ åĨ³
èĥ °
åĲİ åıĪ
ç¬ ĥ
ä¼ļ å¯¼èĩ´
çİ¯ ç»ķ
åıĳ çĥŃ
è° ı
ãĤ ¨
è¿İ æİ¥
ç¥ĸ åħĪ
S A
å°± ç®Ĺ
é©¬ ä¸ģ
åºŁ éĻ¤
åħī ä¼ı
åĮĹäº¬ æĹ¶éĹ´
ä¸į å¤§
çľģéģĵ åı°
ä¸» æľº
é£Ł æĢ§
æİĴè¡Į æ¦ľ
ä¸Ģæ®µ æĹ¶éĹ´
åĽ¢ éķ¿
è¯Ĭ çĸĹ
çľŁ çĽ¸
å·© åĽº
ä»·åĢ¼ è§Ĥ
è® ½
äººæ°ĳ æ£Ģå¯ŁéĻ¢
æ³ķ åºŃ
å¤§ èĦĳ
ä»ĸ æĽ¾
æĸĩ å¸Ŀ
çľģ åĴĮ
un g
ä¸Ľ ä¹¦
åĲį åĪĹ
ä½įäºİ æ³ķåĽ½
ã İ
æĬķ è¯ī
äºĨ å¾Īå¤ļ
å¥ĸ ç«ł
10 1
ãĤ Ĵ
ç» ¥
å¸ĥ æĶ¿
çĸĹ æķĪ
Ġ æĺ¯
çļĦ çİ°è±¡
è¯¸ èĳĽ
åħ¬ åŃĲ
æ´¾ çļĦ
çľģ çļĦä¸Ģä¸ª
çļĦ å»ºè®¾
åĬł éĩį
çĽĳ åĪ¶
B r
Ġ Z
æŃ¤ ç±»
ä¸Ģ è¯į
åĩ ¿
èĲ½ æĪĲ
å°¼ è¥¿äºļ
é«ĺ åĵģè´¨
æ¥ ·
am e
è¢« è§Ĩä¸º
Ġ ãĥ
ä¸ľåĮĹ éĥ¨
ãĤ ³
æ¶Īè´¹ èĢħçļĦ
æĶ¶ ç¼©
å²ģ æľĪ
le y
éĺ´ éĺ³
åģ¥åº· çļĦ
çĶĺèĤĥ çľģ
å°ģ éĿ¢
å®¶ çĶµ
æľ¬ åħ¬åı¸
å®ŀ ä¾ĭ
éĻĦ ä»¶
å§ĭ äºİ
æ²ī æ·Ģ
åī¯ ä½¿
äººæīį åŁ¹åħ»
åĽ ļ
ç»´ å¤ļ
çº¸ å¼ł
åłª ç§°
éķ¿ å®ĺ
Ġ 9
æĢ ľ
æ²¦ ä¸º
è§ģ äºİ
çł´ ç¢İ
ä¹ī å¤§åĪ©
çļĦ æ¨¡å¼ı
æĪ Į
çĤ ĸ
çĽ´ éļ¶
çļĦ ç»ıæµİ
çº Ĥ
æĶ¹ åĲį
P V
åĪĨ åĮº
or y
çŁ³ åĮĸ
å¸¦ ç»Ļ
l and
ä¸İ ä¹ĭ
ä¹ĭ äºº
å°¼ å¥¥
ç¤¼ åĵģ
ç³ Ł
æīĭ çļĦ
ç»Ĩ èĩ´
ä¸º æľŁ
çĹ Ĵ
am p
çĶ± æĿ¥
ä¸ĸ çļĦ
åĻª å£°
ä»İ æĿ¥
ç¬¬åįģ ä¸ī
å¥½ å¥½
ĠS ch
åºŁ å¼ĥ
ä¿ ¯
çŁ³ å®¶åºĦ
åĪĽéĢł äºĨ
ĠU n
æº ī
åĲĳ åĮĹ
C T
åĲĮ è¡Į
æĽ´ é«ĺçļĦ
æľ« æľŁ
s e
çĶ¨ çĶµ
ä¹ĭ éģĵ
æĺİ å¤©
æĢ» åĨ³èµĽ
æĪĺ ç»©
è¾ĥ å¥½çļĦ
ç¬¬äºĮ ç«ł
æĹı èĩªæ²»
æ²¿ çº¿
åĪĽä½ľ çļĦ
åİ ķ
åĨį åĬłä¸Ĭ
ç¬¬äºĮ å±Ĭ
it e
æ¿Ģ æĥħ
èĬ ľ
3 50
ä¸į å¹¸
æĶ¾ å¿ĥ
éħį éĢģ
èĢģå¹´ äºº
åĴĮ å°ļ
èİ ĵ
åĲĦ æľī
æĬ¥ ä»·
å´ĩ ç¥¯
ç¢° æĴŀ
ç¡® ç«ĭ
è¶³çĲĥ ä¿±ä¹Ĳéĥ¨
åĩı éĢŁ
èķ ĥ
å¸ ľ
å¹³ è£ħ
å¢ĥ å¤ĸ
åĩł å¤©
ä¸ī çĻ¾
éĹ¨ åı£
åĴĮ æĸ°
çĶµå½± èĬĤ
æľī ä¸ĢäºĽ
å¤§ çģ«
æĮ «
æĪĳ åħ¬åı¸
ç²¾ åįİ
éĿĴ å±±
æ´Ľ å¤«
æĺ¯ å°Ĩ
è¥¿ æ±ī
äºº æĢ§
åħĪè¿Ľ åįķä½į
193 1
Ġ w
åīį æ²¿
æĬ¥ åĪĬ
æ¸© å·ŀ
æ¡ĥ èĬ±
å°± è¢«
å·´ æĭī
é¦ ħ
ä½ľ äºĨ
åı¯ æĥľ
åĲĳ ä¸ľ
åıĤä¸İ äºĨ
å¤§ åİħ
å¿ħ éľĢ
é¢ģå¥ĸ åħ¸ç¤¼
è¹ Ħ
å¦ Ħ
å½¢ çļĦ
å¤ª ç¥ĸ
ä¿¡æģ¯ æĬĢæľ¯
æĪĺ ä¸Ń
éħ± æ²¹
ä¹Łå°±æĺ¯ è¯´
è¿Ľ åº¦
å°ı æ¸¸æĪı
åĻ¨ æĿĲ
ç»Ĩ èħ»
è¿Ļä¸ª éĹ®é¢ĺ
ĠP ro
éĺĢ éĹ¨
æĨ ¾
éº» çĥ¦
èµ· éĩį
éĢļè¿ĩ äºĨ
ä¸º ä¾ĭ
å¤ĸ è¯Ń
ä½¿çĶ¨ èĢħ
åĥı æĺ¯
åĲį å®¶
å·² äºİ
æ¬§ åĨł
æ¯Ĺ éĤ»
è¯¥ é¡¹çĽ®
çŀ »
ä¸Ń åĴĮ
çĻ¾ è´§
å¹½ é»ĺ
æĻ ĸ
å¢ĥ çķĮ
èĥĮ é³į
Ġ 2015
é¢Ĩå¯¼ äºº
çļĦ ç»Ħç»ĩ
æķĻ å®Ĺ
ä½ĵ æ£Ģ
åħ¥ åĽ´
ä¹¡ éģĵ
çĨ ı
èĢĲ ç£¨
u x
æĪ İ
æ¸ħ çľŁ
åİŁ ä¸º
æ³¡ æ²«
æīĢè°ĵ çļĦ
çļĦ å¼Ģ
ç§ĳæĬĢ å¤§åŃ¦
ä»¿ ä½Ľ
æĽĿ åħī
è¿Ľ åĮĸ
åĬł å¯Ĩ
å·´åŁº æĸ¯åĿ¦
Ġ 2011
æİ§åĪ¶ ç³»ç»Ł
æĽ¾ ç¥ĸ
Ġ 2016
çļĦ çĬ¶æĢģ
æİ¥ åĪ°
æľ¯ è¯Ń
æľĪ ä»»
æ°ĳ æĶ¿
çķħ éĶĢ
æ·± çļĦ
Ġ é»Ħ
ãģ £
10 5
èī° éļ¾
ä¸ļ çķĮ
éĴ §
éĻ ¨
åľ¨ åĨħ
çļĦä¸Ģ æ¬¡
er v
æ·· ä¹±
åľ¨ ä¸Ĭæµ·
å§ĵ æ°ı
å¿ĺ è®°
çĻ½çĻľé£İ æĤ£èĢħ
A m
æĹł æīĢ
ä¼ł æķĻ
åı¯ è¡Į
æ²ĥ å°Ķ
åľ¨ éĤ£éĩĮ
ä¸º å¤§å®¶
èĩª ä»İ
çĲĥ çļĦ
éĺ² èĮĥ
ä¸Ģ ä¹¦
åºĶ åĬĽ
åįĩ ä»»
éģĵ æķĻ
èµĽ çļĦ
åĵª ä¸ª
ç½Ĺ ä¼¯çī¹
å¹¶ æĹł
èĪ ľ
çŁŃæľŁ å¤§åŃ¦
ä¸İ ä¸ŃåĽ½
éĩĮ åħĭ
åį³ æĹ¶
è¯º å¤«
äºĨ ä»ĸçļĦ
ç¤¼ çī©
ãģ Ļ
ä¸ĸçºª çļĦ
æĩ ¿
åĲį åı«
è¿Ľ ä¿®
ç¡¬ åº¦
å¡« åĨĻ
å¯¹ çħ§
çĶµ è½¦
é¥ ¿
æľī ä¸¤
åĲİ åĭ¤
åıĬ çĽ¸åħ³
åĳĺ å¤ĸ
çº¿ æĿ¡
çº¦ çĳŁ
è¶³å¤Ł çļĦ
Ġ &
ä»¥ è¥¿
I F
å¹³ çŃī
å¼º åĬ²
ç¿ ¡
çıł å®Ŀ
æ¡Ĥ æŀĹ
o ol
å®ī åİ¿
åįĹ å®ģ
åı¯ä»¥ è¯´
åħ¶ä¸Ń ä¸Ģä¸ª
çİ© æ³ķ
åĲĪ èµĦ
è¿ľ çļĦ
è¢ ľ
é£İ æĻ¯åĮº
èĬĿ éº»
è¿ĺ åı¯
æľī ä¸¤ä¸ª
çĲĨå·¥ å¤§åŃ¦
å¿½ è§Ĩ
èģĮä¸ļ æĬĢæľ¯
èĬ ¹
æĺ¯ å¾Ī
åĲĪéĢĤ çļĦ
è¿ģ èĩ³
å¥³ ç¥ŀ
C N
ä¼ļ å±ķ
æĮī å¯Ł
èĥľ åĩº
ä½ĵ åŀĭ
å°ı éº¦
éĻĪ åĪĹ
å¥¥æĸ¯ åį¡
ãĤ Ĥ
å» ĵ
çŁ «
åħ¥ äºĨ
åıĸ åĩº
æľīåħ³ çļĦ
åħŃ åįģ
èĪª çº¿
ç¡¬ åĮĸ
ä¼ł è¾¾
æĬķ æīĭ
éĹ¨ çªĹ
å¹´ èİ·å¾Ĺ
éĹ´ æİ¥
ä¾Ľ æ°´
çķľ çī§
ä¸ĭ è·Į
åºŁ æ°Ķ
Ġ é©¬
åīį èĢħ
åı¤èĢģ çļĦ
ä¸Ń å°Ĩ
åĵ ī
åİŁ æĿĲæĸĻ
æĶ¿æ²» å®¶
çıł æµ·
å®ı è§Ĥ
ç´¯ ç§¯
å¤§ è¥¿æ´ĭ
ç¼© åĨĻ
åĢ ļ
ä¹ĭåĲİ çļĦ
æĿ ĸ
ä½¿ äºº
æĮī æĳ©
ç§ĳ å°Ķ
ĠT he
çļĦ ç»ĵæŀĦ
é«ĺ ç§ĳæĬĢ
æ¶ ©
åĨ³ è®®
æĹ¶éĹ´ ä¸º
6 25
çļĦ æĪĲåĳĺ
ç½Ĺ å¾·
æĺŁ ç³»
5 85
åŁº éĥ¨
åįĹ è·¯
æİ¢ éĻ©
èģĮ åĳĺ
éĿĴ éĵľ
è®² è¯Ŀ
å¥½ å¤Ħ
é» Ķ
ä¸ª åĪ«
æĶ¯ æµģ
åķĨ ä¼ļ
ä½ĵèĤ² é¦Ĩ
ä¸Ģ ä¸Ģ
æĪĸèĢħ æĺ¯
æĬĢ èīº
åĨ¬ å¤©
åį³ æĺ¯
è´¯ ç©¿
åºĶçĶ¨ ç¨ĭåºı
äº¤éĢļ è¿Ĳè¾ĵ
C R
é«ĺ å±±
ä¸ĭ è®¾
åİ¿ æĶ¿åºľ
é¦Ļ åĳ³
çĲĨäºĭ éķ¿
æ»ĳ éĽª
åŀ ¦
èĩªçĦ¶ ç§ĳåŃ¦
åĪ© çļĦ
å¼Ģ äºĨ
åľ° è¯´
ä¸ĸ ä»£
å¹¶ åıĳ
çĥŃ çĤ¹
æª Ģ
D VD
æĸ¯æĭī å¤«
è¦ģæ±Ĥ çļĦ
çº¦ æľī
ä¾Ŀ æ¬¡
y n
è¿İ æĿ¥
çļĦå¤§ å°ı
å¼ºçĥĪ çļĦ
æĹ¥ è®°
çĥŃ éĩı
o od
Ġ 2014
æİ¨ åĩºäºĨ
ä¹Ŀ å·ŀ
28 1
e ar
çĭ¬ èĩª
ä¿ĥ ä½¿
æ¸ Ń
èĢĮ æĪĲçļĦ
æīĭ æĮĩ
æľĢ å¤ļçļĦ
æĹĭ å¾ĭ
Ġ 2013
æķĻ å¯¼
æ³ķå¾ĭ æ³ķè§Ħ
çĶµåĬĽ æľºè½¦
çĥĪ å£«
å¼Ĺ éĽ·
åİŁ åħĪ
çĶ¨ éĩı
åĩº åħ¥
å³¡ è°·
ä»Ĭ åĲİ
ç»Ļ æĪĳ
æ¨¡ ä»¿
çĥ¦ æģ¼
åľ¨ ä»ĸçļĦ
çĶ· ä¸»è§Ĵ
æĵ ¢
è¡¨çİ° åĩº
Ġ 2012
åĲĪ ä¼Ļ
äº¤ äºĴ
æ³ķ è¯Ń
æŃ¤ äºĭ
æĹ¥ æĻļ
åīį åĪĹ
åŀ Ħ
æ¬§ éĺ³
S c
åħ¶ éĹ´
p er
æĻ ĥ
ä¼Ł å¤§çļĦ
çļĦ æĹł
ä¸Ģ åı·
ä¸º æĸ°
çģĮ æºī
ä½ľ æĸĩ
ä¸ľåįĹ éĥ¨
é² ¤
åħ· ä½ĵçļĦ
æ²³ è°·
ä»į æľī
èľ ĺ
C H
åĩº åı°
åŃĹ æķ°
ç£ Ĭ
æĳ§ æ¯ģ
é«ĺ æ¡£
éĵĿ åĲĪéĩĳ
å¼ĺ æī¬
a il
ä¸Ģ éģĵ
èĢĮ å¾ĹåĲį
åıª å¥½
éª¨ éª
I V
æ²» å®ī
åĩĨ åĪĻ
M B
é© ¿
ä¸Ĭ ä¼ł
æ³ķ æ¡Ī
çľģ å¸Ĥ
è¿ĩåİ» çļĦ
æīĭ åĨĮ
ç»ıåİĨ äºĨ
å°ı éķĩ
æĶ¹ èī¯
æ·¡ æ°´
å±± åı£
éĩĳ å¥ĸ
ç»ĺ åĪ¶
èĢĮ åĲİ
åįģ ä¸īå¹´
âĢĶâĢĶ ãĢĬ
å·²ç»ı æĪĲä¸º
æĶ¶ åıĸ
è¿Ļ å¯¹
çĽĨ åľ°
åĪĨ çļĦ
åı£ ç¢ĳ
æĿĳ çļĦ
æĲŃ è½½
çķª èĮĦ
Ñ Į
è¿Ļ æĺ¯ä¸Ģ
åħ¶ ä¸º
åķĨ è´¸
Ġ æľĢä½³
Ġ 2017
å¥ ķ
å¹´ ä¸Ń
æį® æĤī
å¤ļ å°Ķ
æŃĮ èĪŀ
åĿļ å®ļ
ä¸į å¿ħ
æĻ® é²ģ
å® ¦
èģĮä¸ļ æķĻèĤ²
æĹłçº¿ çĶµ
æľ¬ é±¼
æĪĳ è¦ģ
ï¼Ľ ãĢĬ
èį£èªī ç§°åı·
æ±ī åŃĹ
çĳ ļ
åµ ©
åıĹ æįŁ
æī¿ è½½
æĬ« éľ²
åħ¥ çĲĥ
ç»ĵ æĻ¶
å¹´ ç¾İåĽ½
éĽ¶ éĥ¨ä»¶
æĺ¯ éĢļè¿ĩ
ä½ľä¸º ä¸Ģä¸ª
åİĨåı² çļĦ
å¹´ çĶŁ
äºĶ éĩĳ
ä½ĵçİ° äºĨ
è¾ĥ å¥½
æĹ§ å¸Ĥéķĩ
éĥ¨ éĥ¨éķ¿
åĿĲ åľ¨
åĿĩ è¡¡
ä½¿ èĢħ
å¤ļ å½©
ç»ĵ ç®Ĺ
èĬ± è´¹
è¥¿ è·¯
çĭ ł
æĥħ äºº
éĴ» çŁ³
èº«ä½ĵ åģ¥åº·
æĺĵ äºİ
ãĤ £
37 4
è´µå·ŀ çľģ
èľĺ èĽĽ
æľĪ ä¸Ń
ç¾ Į
è¾ŀ èģĮ
çºªå½ķ çīĩ
åĲį èĥľ
çº¦ æĿŁ
å£ ¬
èĭı ç»´åŁĥ
èĴ¸ åıĳ
å¹¿æĴŃ çĶµè§Ĩ
G O
çĹ °
ä¾µ çĬ¯
ä¸Ģ åĳ¨
é«ĺ åħ´
äºĮ æľŁ
åħ³ æĢĢ
åĸ ĺ
ç©Ĩæĸ¯ æŀĹ
åį ¤
âĶĢ âĶĢ
å¤§ èģĶçĽŁ
åħ¶ä»ĸ çļĦ
T A
å¹² çº¿
çļĦ çī¹
çĶ± ä¸ŃåĽ½
in t
ç³»ç»Ł ä¸Ń
ç³ ¯
æļ´ åĬĽ
çĽ´ è¾ĸ
è§Ĵ éĢĲ
èĪªç©º åħ¬åı¸
éĩı åŃĲ
è£ħ éħį
æ±ĩ æĬ¥
æĿĨ èıĮ
åħ¨ æ°ĳ
å°ĳæķ° æ°ĳæĹı
åĲĮ åĲį
å¼Ģåıĳ åķĨ
åģľ éĿł
åĬł å°Ķ
æĦ¿ æľĽ
æĬĬ å®ĥ
åħ´ èµ·
åĴĮ ä¸ŃåĽ½
æ°´ éĿ¢
è¿Ħ ä»Ĭ
H z
é«ĺçŃī æķĻèĤ²
ç»ı çĶ±
ä¹Ĳ è¶£
èį §
åľ¨ ä¸İ
å£ģ çĶ»
æĸĩ åºĵ
ç»ıæµİ çļĦ
éľ ĸ
åħĥ å¸ħ
æ°Ķ æ°Ľ
è¯¸ ä¾¯
åįİ åĮĹ
è½ §
è¢ į
æķħ æĦı
æľĽ è¿ľ
ä»¥ ä¸ľ
æŀģ å¤§çļĦ
åĤ į
åįİ ä¸º
çľĭ æ³ķ
ä»ĵ åĤ¨
Ð ´
å½ķ åĪ¶
ä¸º æ³ķåĽ½
ä¸» èĲ¥
éĤ ¢
åºĶè¯¥ æĺ¯
é«ĺè´¨éĩı åıĳå±ķ
Ġ 2018
å¤ļ åĬŁèĥ½
å®¢ æĪ¿
ç° ¿
åĲİ äºº
æĺİ æ¸ħ
æĿ¯ åĨłåĨĽ
ä»ĺ åĩº
ä¸Ĭ ç½ĳ
é¥ ª
Ľ èµ·
èĥ¡ æ¤Ĵ
èĿ ´
ãĢĤ "
ç¥ Ľ
åģļ åĩºäºĨ
u k
å¹´è½» çļĦ
æĭ¯ æķĳ
èĢĥ éªĮ
çĥŃ éĹ¨
çŁŃ ä¿¡
èµ° åĩº
og le
åĴ ª
çŃī èģĮ
ç»Ħ çļĦ
ä¸Ńå¤® çĶµè§Ĩåı°
æĩĤ å¾Ĺ
å·² åľ¨
æŀģ éĻĲ
en n
åŃ¦å£« åŃ¦ä½į
å¹¶ æŃ¢äºİ
æĿ¿ çļĦ
è§£ çŃĶ
å¤§ åĨĽ
éħĴ ç²¾
ä¸ĢèĪ¬ çļĦ
e am
å¤ĸ æ±ĩ
Ġ åįĹ
èĸĦ èĨľ
æĤ¬ æĮĤ
å¹´ ä¸İ
è¦ģ çĤ¹
ç¾İ åĳ³
è¥¿åįĹ éĥ¨
çĲĨ æĢ§
äºĶ çĻ¾
åĳ½ ä¸Ń
ç»ıéĶĢ åķĨ
åŃĲ åŃĻ
åı² å¯Ĩ
ç¾İ å¥½çļĦ
ä¸ŃåĽ½ åħ±äº§åħļ
åıĳå¸ĥ äºĨ
r is
Ġ 2009
èĩª è§ī
å¤±åİ» äºĨ
éĺŁ åľ¨
å¯º éĻ¢
ä¸ªæĢ§ åĮĸ
çĥĺ å¹²
çĥ¹ é¥ª
äºĭ å®ľ
ç½® äºİ
åĴĮ ä¸Ń
æıĲ è¦ģ
å¤ª å®Ĺ
æīĢ ä½ľ
æĮī éĴ®
çŃī çĽ¸åħ³
æ±¡ æ³¥
æľ¬ ç½ĳç«Ļ
æĦı åĽ¾
åŁŁ åĲį
ä½İ ç¢³
iv ers
åĬłåĪ© ç¦ı
åŃ£åĲİ èµĽ
i el
è®© ä»ĸä»¬
åįĩ é«ĺ
å³ ¨
æ¸ħ æĸ°
åĽ° æī°
a f
ä¹ł ä¿Ĺ
é¦ĸ åıĳ
çļĦ åħ¬åı¸
èĭ Ķ
ç½ļ æ¬¾
èĿ´ èĿ¶
åĨ ¤
èĢĥ è¯ģ
åĳ µ
ä¾ Ħ
çŁ¿ ä¸ļ
å±Ģ çļĦ
å®° çĽ¸
Ġ å¤©
ä¸º ä¹ĭ
ä¹ĭ å®¶
èµ« å°Ķ
ï¼ Ļ
å°Ĩ æĪĲä¸º
æ±Ł æĪ·
èĭ± å¯¸
æħ Į
çŁ¿ å±±
åĲ¬ è¯´
æ¸¯ åħĥ
çŁ¥åĲį åº¦
F C
çļĦ çĪ±
ä¸Ĭ åıĳè¡¨
çĽ´åįĩ æľº
æĪĳ å°±
or k
çļĦ ç¬¬äºĮ
ä½Ĩæĺ¯ åľ¨
ä¹Į æĸ¯
éģį å¸ĥ
19 28
è·Ł çĿĢ
åĮº åĴĮ
ç»Ļ å¤§å®¶
åħ³ç³» çļĦ
çĲ ¦
ãĥ ķ
èº«ä»½ è¯ģ
çļĦ æķĻèĤ²
æĢ§ å¥½
ç»ĦæĪĲ åĳĺ
æ² ģ
èį Ķ
å¸ĥ éĽ·
çļĦä¸Ģ é¡¹
å¿ĥ æĢģ
æŁ ł
çĭ ©
è¯ķ ç®¡
èĢ ¿
æĺ¯ æĪĳåĽ½
çĲ ħ
ç¥ ģ
èĥ¡ èĲĿåįľ
çĽ´ çº¿
ä¸Ĭ å¹´
D C
çī¹ å°Ķ
ä¼ģ åĽ¾
æ²¿ å²¸
è¡ «
å¤į æ´»
ç¬¬ä¸Ģ å±Ĭ
çļĦ éĤ£
æĳĩ æ»ļ
SE E
çļĦ å¸Ĥéķĩ
å¹³ ç±³
æ³¢ å£«é¡¿
D S
ä»£è¡¨ ä½ľ
æĿ ŀ
åĢ¾ æĸľ
çļĦ åıĳçĶŁ
éĴ ŀ
å®¤ å¤ĸ
èĲ½ åľ¨
å¹´ æĪĲç«ĭ
å¾· æĸ¯
æľīåħ³ è§Ħå®ļ
å² ļ
å·´ æĸ¯
èĻ Ĳ
çº¢ æĹĹ
çļĦ é£Łçī©
ç¨ ł
çľŁ æĺ¯
æļ ®
åıĮ åĲĳ
åı¯ æł¹æį®
èĢħ åĴĮ
èĳ£äºĭ ä¼ļ
æ²¹ çĶ»
åħĭ æŀĹ
ç¦ı éŁ³
r am
19 29
åį³ ä¸º
å½ĵ åĪĿ
çī¹ å®ļçļĦ
ç«Ļ çĤ¹
ä¸į ä¸Ĭ
åĩº èī²çļĦ
è¥¿ éĩĮ
è¶ ¾
è¯¥ åī§
å¥ĩ è¿¹
U N
c o
ä¹Ł ç§°
å¸Ĥåľº éľĢæ±Ĥ
åŃĺ æ¬¾
æ· ¹
åıĹ çĽĬ
Ġ 11
ä¸ī å±Ĥ
åı£ å¾Ħ
B O
æĽ´ å®¹æĺĵ
åħ¨åĽ½ åĲĦåľ°
åħ¬ ä¼ļ
æľ¬ çĿĢ
èµ· åĪĿ
æĵ Ĵ
æĸ¹ ç¨ĭ
æķĪ åĬĽäºİ
å°¸ ä½ĵ
è¿ŀç»Ń åī§
åŃ ľ
èī² ç´ł
åĽŀ é¡¾
é¢Ħ çº¦
åºĹ éĵº
èģļ åĲĪ
å¹´ åıĤåĬł
ä¹ĭ å¿ĥ
å¤ļ è¾¾
ä¼Ł å¤§
åī¯ å±Ģéķ¿
è¡Į äºº
åķ ¸
ç«Ļ çļĦ
æĴ ķ
éĤ£ æĹ¶
m l
ä¼Ĺ çĶŁ
äºĮ æĪĺ
æİĴ åĩº
çŃ¾ è¯ģ
åľĨ æ»¡
åĴĮ æ°´
å® µ
å¥¹ æĺ¯
çļĦ å£°éŁ³
è¡Į ç¨ĭ
é© ¹
ãİ ¡
åħĭ åĬĽ
ä¸»è¦ģ ä»İäºĭ
ä¸ĢèĪ¬ æĿ¥è¯´
äºİä¸Ģ ä½ĵçļĦ
Ġ h
åıĬ ä»¥ä¸Ĭ
ä¹Ĳ è§Ĥ
éħ ĭ
èĩ³ æŃ¤
æī¶ æĮģ
æ³ķåħ° åħĭ
Ñ ĥ
åħ¶ åľ¨
æĸ½ è¡Į
ä¸į ä¸Ģ
ç¬¬åĽĽ èĬĤ
ä¸ĵ èĳĹ
å®īåħ¨ çļĦ
ç¾ ŀ
å·¥ç¨ĭ åŃ¦éĻ¢
æľī æĹ¶åĢĻ
ä¹ĭ äºĭ
éŁ³ä¹Ĳ åŃ¦éĻ¢
åģĩ æĹ¥
çĽ¸ è¾ĥ
æ´ª æ°´
å½ Ŀ
å¿«éĢŁ å¢ŀéķ¿
èĢģ åĮĸ
en ce
åı¯æĮģç»Ń åıĳå±ķ
å¤į åį°
åĳ¨ åĪĬ
ä¸ĩ éĩĮ
ro m
çĤİ çĹĩ
æľĪ çĲĥ
ic al
èĦ ĵ
è®¾è®¡ åĴĮ
ç½Ĺé©¬ å°¼äºļ
ãĢ ľ
åľ° äºļ
åģļ ä¸º
åĽłæŃ¤ åľ¨
IN SEE
çģŃ ç»Ŀ
éª Ĩ
æŃ ¼
åīį éĿ¢
æł¼ éĽ·
æĻ¯ èī²
ĠC l
äºº å¯¹
10 82
ç¬¬ä¸ī ç«ł
19 27
æı ī
å²Ľ çļĦ
æī¾ åĪ°äºĨ
æŃ£ å½ĵ
æ¹ĸ æ³Ĭ
åľ¨ è¥¿
éĢ® æįķ
çİ¯å¢ĥ ä¸Ń
å¡ŀ çº³
å¸Ī åĤħ
åı¤ è¿¹
å¼Ģ èĬ±
è½¦ åİ¢
å¥³ çĶŁ
çļĦ åĲĦç§į
çļĦ å®¶
æ¢ħ èĬ±
ä¸į å½ĵ
å°Ķ é¡¿
ç¿¡ ç¿ł
Ġ æĹ¥
æĽ¾ è¢«
è¿Ľ äºĨ
Ġ ä¸Ĭ
æµģ ä½ĵ
I G
åį¡ ç½Ĺ
åħ» æĬ¤
éĿ¢ éĥ¨
å±± åľ°
èĳ «
çĶ Ħ
çŁ³ åĻ¨
m g
ic a
çº¿è·¯ åı£
ä¹ĭ åĲį
è¿Ĳ ä¼ļ
æĪĳä»¬ è¦ģ
ç³ Ļ
çļĦ æķĻåŃ¦
a ur
èĽĭ ç³ķ
æĹ§ åĿĢ
çŃ¹ å¤ĩ
èº ģ
çĭ ¸
ä¸Ĭ åįĬå¹´
è·¯ éĿ¢
æĤ£ æľī
åįĩ éĻį
éħĴ åĲ§
ä¸ª äººçļĦ
å§¿ æĢģ
Ġ ä¸ľ
äºº æ¬¡
æľº ä½ĵ
å½ĵ ä¸ĭ
ãĥ Ĩ
æĽ¾ æĺ¯
èĤ¡ ä»·
ä¸§ å¤±
éĽ ¯
æ±Ł å¸Ĥ
ä¸įåĲĮ äºİ
l d
åįķä½į çļĦ
s k
æķħ ä¹¡
æī¶ è´«
Ġ 2008
è¾ĥ å¼ºçļĦ
çĲĨ æŁ¥
åİŁ ä½ľ
æľª æľī
çłĶè®¨ ä¼ļ
åĬ¨ åĳĺ
åĬ¨ è½¦
è° ķ
æŁĲ ä¸Ģ
éĢī åĩº
ä¼ģä¸ļ åĴĮ
èĢĮ åıĪ
çĮ ¿
åħ¼ èģĮ
åİŁ åŀĭ
ä¸ĸçºª åĪĿ
éĺĲ è¿°
æ°Ķ ç®¡
ç¬¬ä¸Ģ åĲį
æ¸ħ åįķ
èĮĥ çķ´
è§ģ éĿ¢
æī§ æķĻ
åĲİ æĿ¥çļĦ
æ¸¸æĪı åĲįç§°
ä½Ļ ç¯ĩ
åį ¯
r on
äºĨ å¯¹
åŃĲ åĴĮ
è½¬åĮĸ ä¸º
ç¥ŀ åľ£
ĠS p
å½ĵ ä½ł
æ»¡ æ´²
1 18
ä¼ģä¸ļ ç®¡çĲĨ
åĥ ļ
ä¸Ģ ä»¶
è½¬ ä¸º
æ¸¸æĪı ç±»åŀĭ
æľī çº¿
åıĤ å±ķ
æĦıè¯Ĩ åĪ°
S O
æı ½
è¿ŀ ç»ĵ
å¤§ ä¸Ń
å®Į ç¾İçļĦ
æĺŁ åº§
æ·ĺ å®Ŀ
è¯ Ģ
å¾Ģ æĿ¥
çĻ ¸
åĪĻ åľ¨
å¯¹ ä»ĸ
æľī æľºä¼ļ
åı¸ èģĮ
åĲī ä»ĸ
ä¸º ä½ł
é© ¼
çİĩ åĨĽ
åºĦ æĿĳ
çºª å¾ĭ
åı³ ä¾§
æ°¸ ä¹Ĳ
åİ¿ éģĵ
çłĶç©¶ äººåĳĺ
åĲį çīĩ
æµ· æ°´
æĪĲéĥ½ å¸Ĥ
éĢī åĮº
æľĪ èµ·
è´¨ çļĦ
æ¸© åĴĮ
ç¾İ äºº
AP P
è¿ľ è¿ľ
å¥ĸ åŃ¦éĩĳ
åĨłçĬ¶ çĹħæ¯Ĵ
i um
éħį æľī
ä»ĸ è®¤ä¸º
åıĳè¡Į çļĦ
ä¸» æ²»
æ°ĳ çĶ¨
çļĦ ç©ºéĹ´
å·² çŁ¥
ä¿ ŀ
å¼ķ çĶ¨
è·ĳ éģĵ
éħ ª
ç±»ä¼¼ äºİ
ä¸Ģ æ¬¾
èĢĥ åħ¥
å¡ŀå°Ķ ç»´äºļ
æĸ° ç«¹
äºĨ ä¸ŃåĽ½
åŀ ¢
åįķ æīĵ
å¥³ æ¼Ķåĳĺ
äº§ä¸ļ åĮĸ
ç»´å¤ļ åĪ©äºļ
ç» ħ
åħ³ åį¡
ä¿¡ å¿µ
æľĢ å°ı
æķĻ ç§ĳ
é¢Ħ èŃ¦
ä¸Ģ é¢Ĺ
ä½ľ é£İ
å·¨ äºº
åį¢ çĵ¦å°Ķ
åĴĮ åĽ½å®¶
ç²¾ åĬĽ
ç¡« éħ¸
åħļ å»º
æĹĹ ä¸ĭçļĦ
äºĨè§£ åĪ°
èģĺ è¯·
Ġ æĹ¥æľ¬
äºº å®¶
ç¾İ åŃ¦
åħ¬ å¼ı
å·¥ç¨ĭ å»ºè®¾
çĮª èĤī
çļĦ æĢģåº¦
ä¸Ģ éĿ¢
å¹´ åĩºçĶŁ
äºİ P
19 00
åĲĮ æ²»
çģ« éĶħ
æĻļ ä¼ļ
éĴ¢ çŃĭ
ä¸įæĸŃ åľ°
åĮº åĿĹ
èº ¯
è¯Ń çļĦ
æİ¨ çĲĨ
å¯Į åĲ«
æ¯ ¯
å®« å»·
æ°¯ åĮĸ
åı² æĸĻ
å¸ĥ éĩĮ
æŃ¥ æŀª
éĽķ åĥı
è¿Ŀ è§Ħ
æ¸Ķ ä¸ļ
åŃ¢ åŃĲ
æī ³
ä¸ºä¸Ģ ä½ĵ
çĤ¸ å¼¹
åĹ ľ
ä½ľæĽ² å®¶
æĹ¥ å¼Ģå§ĭ
10 8
å¦Ĥæŀľ æĺ¯
èĳ« èĬ¦
çļĦ é¡¹çĽ®
æª ¬
çļĦ å¤´
ä¸Ģ åįĥ
å¤© åºľ
å¡ĳ èĥ¶
åĮ» ç§ĳå¤§åŃ¦
ä¸ī æĺŁ
æīĭ åĬ¨
å¼ł ä¸ĵè¾ĳ
å§Ĭ å¦¹
åĸ Ļ
éĴ¢ ç»ĵæŀĦ
çıĬ çĳļ
åįİ å¤ı
Ġ +
èī² æ³½
é¢Ĩ äºĭ
çīĪ çļĦ
èĪ¹ åıª
ãĢĤ ï¼ī
ä¸Ģ æīĢ
at a
çī©çĲĨ åŃ¦
è·¯æĺĵ æĸ¯
ä¼ļ å¯¹
äºĮ å±Ĥ
åº ĩ
å¼Ģ è¾Ł
èģĶèµĽ åĨłåĨĽ
è¿ĩ åĲİ
çļ®èĤ¤ çĹħ
åĲĮ ç±»
èĭ± éĩĮ
åľ¨ å®¶
æĺİ äº®
æ´ģ åĩĢ
åł °
çľŁ èıĮ
åħ« åįģ
åįİ ä¾¨
åĭĩ æķ¢
åįģåħŃ å¹´
äººç±» çļĦ
å¯º åºĻ
E P
è¥¿ éĹ¨
å®ŀ è®Ń
é¦ĸ çĽ¸
è¯į æ±ĩ
çľ¼ åīį
æĳĨ èĦ±
çļ Ĥ
åŃĲ éĩĮ
èĩ³ ä¸Ĭ
ãĥ ī
æł Ī
A K
åıį åĩ»
åĨľ èį¯
é¡¶ éĥ¨
å¹´ ä»¥
æ· Ħ
åıĳå±ķ åĴĮ
åĬ ¾
æ³ķ åĪ¶
å¸¦ å¤´
éĴ¢ æĿ¿
è¯ł éĩĬ
æĹ¶ æĬ¥
ä¸ĩ ä½Ļ
è¿½ è¸ª
æīĢéľĢ çļĦ
m in
åħ¬åı¸ ç®Ģä»ĭ
çĬ Ģ
çĦ¦ èĻĳ
èĤ ´
èĤ ĭ
æ¨¡ ç³Ĭ
æŁĶ è½¯
ä¹ ĵ
æķ°æį® æĺ¾ç¤º
æĽ´ æĶ¹
åıĤ çħ§
åľ¨ åħ¨çĲĥ
å·¥ åºı
éĺ İ
æ¿Ģ æ´»
è¿ĺ éľĢè¦ģ
çģ« çĦ°
ä¼ļ ç¤¾
è° ħ
äº¦ åı¯
å´ Ľèµ·
am es
æ¢ §
ä½Ĩ ä¹Ł
éĽħ åħ¸
åı¸ä»¤ éĥ¨
Î ¼
éĢī ç§Ģ
ç®¡çĲĨ äººåĳĺ
äºĮ çĻ¾
çļĦåīį æıĲ
äºĶ ä»£
åĲ¯ åıĳ
æľĽè¿ľ éķľ
çĶµåĬ¨ æľº
ä¸Ĭ æ¼Ķ
æĪ· éĥ¨
ç§ĳåŃ¦ ä¸İ
ç£· éħ¸
ä¸º ä»ĸ
ä¸į çŃī
çīĪ æ¬¡
åħ¬éĩĮ çļĦ
é¸ ½
çŁ¿ äº§
é¢Ĩå¯¼ çļĦ
æľĢ æĸ°çļĦ
æķ° åįĥ
çĥ Ľ
å¾Ī é«ĺçļĦ
å°ĳ çļĦ
èĦī åĨ²
åįĩ æł¼
å¤ĩ åıĹ
ä»¥ å¤ĸçļĦ
é«ĺ å°Ķå¤«
åĮĹ è·¯
åħĪ è¡Į
ç²ī æľ«
çĶ¨ å¿ĥ
20 46
è§Ħ ç«ł
ä½ł ä¼ļ
B l
Ð ¹
çĶŁåĳ½ çļĦ
çī¹ åĮº
ä¸¾ æİª
ä¸į æĦ¿
or n
æĹł åħ³
æĢ» è®¡
åŃĺåľ¨ äºİ
Î ²
æŃ£ å¦Ĥ
é² ¨
åĽ½ è¯Ń
éĹ µ
æīĢ èĩ´
å·Ŀ åİ¿
è½¬ åĬ¨
æĬķ æĶ¾
æķ°éĩı ä¸ºP
D A
åĴĮ ä»ĸçļĦ
è¿ª å£«
æĩ Ĵ
è¢« äºº
éĩį ä¿®
æľ« ç«¯
å¤ıä»¤ æĹ¶
æĹ¥æľ¬ çļĦ
äºº æĺ¯
åİŁåĽł æĺ¯
ä¸Ĭ åľº
çŃī è¡Įä¸ļ
æĭľ ä»ģ
çľĭ åĪ°äºĨ
èĭ± å°º
èĿ Ļ
åĨħ éĻĨ
ä¹Į æĭī
æĸ¯ åį¡
æ¯ı ä¸Ģä½į
æīĢä»¥ åľ¨
æ°Ķ æģ¯
é¦ĸ é¢Ĩ
å¹¶ éĢļè¿ĩ
æĹ¥ äºİ
æİ¥å£¤ çļĦå¸Ĥéķĩ
å®« æ®¿
çķ ¸
ä¾Ľ å¥ī
190 9
ä½Ĩ åĽł
åıĽ ä¹±
æĪĺæĸĹ æľº
åĪ¶ è®¢
ä¿¡ æīĺ
éĹ¨ åºĹ
12 5
èĿĻ èĿł
èĤ Ľ
åĺ ±
çļĦ æ¯įäº²
æķ° åĢ¼
æ²³ åı£
æľĪ åĩºçĶŁ
æīĵ åħ¥
å®¡ ç¾İ
éª¨éª ¼
çĶŁ æŃ»
å¤ĸ åĽ´
ä¾¦ æİ¢
å°¼ åı¤
Ġ 2006
åľ¨ åľ°
å°± ä¸į
éħ ī
éĢī é¡¹
å¹¸ è¿Ĳ
.... ....
å¹´ åĬłåħ¥
èĩª æŃ¤
æĥħ æĻ¯
åıĮ æīĵ
æµ¸ æ³¡
ä¹Ĵ ä¹ĵ
ä¸Ģ åı°
é£İæł¼ çļĦ
æŃ ī
æµ· åºķ
çĶ² åŁº
è¿ªå£« å°¼
æ² Ĳ
å·´ å¡ŀ
Ġ 2019
çģ ¸
âĢĭ âĢĭ
å¼Ģ å°ģ
ç§° èµŀ
è®¨ ä¼Ĳ
åĵº ä¹³
10 4
æĬ¤ å£«
åĨ· åĨ»
éĽį æŃ£
æīĢ è¿°
æħķ å°¼
åĲį å½ķ
ç³»åĪĹ çļĦ
çīĩ çļĦ
ä½ı æ°ĳ
å¢ŀ å¤ļ
æĽ¾ äºİ
ç¬¬äºĮ å¤©
æĪĺ è½¦
åıĺ éĢŁ
çł´ äº§
æŁ ¿
åŃķ å¦ĩ
æĢ» éĩı
åı°åĮĹ å¸Ĥ
é¥± åĴĮ
ä¸ľäº¬ éĥ½
çļĦ åŃĺåľ¨
ï¼ī ï¼į
åıĮ æīĭ
åıĳ åħī
å¼Ģ éĩĩ
æ´Ľ æĸ¯
è½® èĥİ
æģ¶ éŃĶ
å¾® ç¬ĳ
åĽ½ åħ¬
è¡¨çİ° ä¸º
æ· «
äºĨ èĩªå·±çļĦ
åĵ ¨
åĪĽå»º äºİ
ä¸Ń è¶ħ
ä¹ĭ ä½ľ
çİĭ çļĦ
å¹´ä»£ åĪĿ
ä¼ģä¸ļ æĸĩåĮĸ
Ġ 2007
J ohn
S M
æľī çĽĬ
åıĺ é¢ĳ
çªģ åĩ»
æĮ £
äº® çĤ¹
ç¾İ å¥³
åĬŁèĥ½ çļĦ
åħ¨ åĮº
y l
æĺ¯ åı°æ¹¾
çĶŁ æķĪ
ä¹ĭ æĹ¥èµ·
ç± ½
å·² å®ĮæĪĲ
çļĦ åŃ¦ä¹ł
ä¿¡æģ¯ åħ¬å¼Ģ
åĮĸ åĴĮ
ç®Ģ æ´ģ
éĩ ľ
åı¯éĿł æĢ§
è°ĥ æİ§
æľī ä¸ī
æ·ĭ å·´
å¹ķ åºľ
åĮºä¸º UTC
å°Ħ çº¿
å¤ĸ åĩº
å®ŀéĻħ æĥħåĨµ
ç£¨ æįŁ
åįĹ èĩ³
ãĥ £
ãģ ¤
è¯¯ å·®
ç» °
çĻ¾åĪĨ çĤ¹
ä¸Ń è·¯
ä¸ĵ åĮº
çªģ åıĳ
æ°¸ æģĴ
çŁ³ çģ°
on s
èı² åĪ©
æĹ¶ å¸¸
æ°´ æºĲ
æĥħ çļĦ
å· ħ
åĩº å±Ģ
åħ¨ èĩªåĬ¨
è¾ŀ åħ¸
æ¸´ æľĽ
çĽ¸ å¯¹äºİ
åĬ¨ å·¥
ä¹Ł ä¸º
æŃ£ å¾·
è°ĥ åº¦
æŀģ åħ·
INSEE å¸Ĥéķĩ
åģĩ å¦Ĥ
ç¬¬åįģ åĽĽ
åįģ äºĶå¹´
å·¦ ä¾§
B M
ä»¥ä¸ĭ çļĦ
å¹´ ä»ĸ
æĹ¶ çļĦäººåı£
æķ´ æĶ¹
å°Ĩ ä»¥
å¾® æ³¢
å¾Ĳ å·ŀ
åĴ± ä»¬
è®² ç©¶
å¤§ èĩªçĦ¶
åįģ åĽĽå¹´
èĥİ åĦ¿
ä¸Ģ é¦ĸ
èĢĮ æľī
e ch
äºļ å¤ª
çĻ¾ åĲĪ
åľ¨ æĪĳ
æľī æ²¡æľī
âĳ £
190 1
å¾· åĨĽ
ç¬¬ä¸ī æ¬¡
éĶ £
å°± å·²ç»ı
çļĦ ä¼ĺåĬ¿
åĭĴ æĸ¯
Ġ ä¸İ
ç«ĭ åľº
åĮ ¿
çº¿ ç´¢
è¯¥ åĽ½
åĪĿ å¹´
åĲ ģ
åľ¨ èĭ±åĽ½
ä¸ĭ æ»ĳ
æķĻèĤ² å±Ģ
å¼Ĺ æĭī
åĨ° ç®±
éĹ´ éļĶ
ç®¡çĲĨ éĥ¨éĹ¨
è§ ħ
éĢīæĭ© äºĨ
8 000
çĻ½ å¤©
çĶ° æĿĳ
æ¤ °
æŁł æª¬
æ¼Ķ åıĺ
æ± ¾
åħī æ³½
å¯ Ŀ
è´ ¿
éĹ¨ è¯Ĭ
åį° åıĳ
æĸ¯ æ´Ľ
æĸŃ è£Ĥ
éŃ Ħ
æľī è¿ĩ
ä½Ľ å±±
åŃ¦ æľŁ
ä¸»è¦ģ çĶ±
å¹¶ä¸Ķ åľ¨
æħķå°¼ é»ĳ
éľ Ħ
æ¥¼ æ¢¯
è°ĥ è¯ķ
INSEEå¸Ĥéķĩ ç¼ĸçłģä¸ºP
: ï¼Į
åĽ´ æ£ĭ
åĸĦ èī¯
æĹģ è¾¹
å¤§å®¶ éĥ½
åľ¨ åįĹ
å¤± ä¸ļ
å£® å¤§
e f
çļĦ é£İéĻ©
å¤© çİĭ
åıĺ åİĭåĻ¨
å®Ŀ è´Ŀ
éĤ®æĶ¿ ç¼ĸçłģä¸ºP
åĲĳ è¥¿
å±± æĿĳ
éħ ļ
æį® äºĨè§£
çļĦäºº æīį
é¡º æ²»
åĢŁ éī´
çļĦ åĵģçīĮ
çļĦ éĢŁåº¦
æŃ¤ åī§
ä¾µ æĿĥ
å¨ Ħ
Q u
æĸ° é¢ĸ
çĻ½ ç³ĸ
è£ħ æľº
ä¸½ èİİ
çļĦ éĩį
éĴ Ľ
æµģ çķħ
äººçī© ç®Ģä»ĭ
æ±¡æŁĵ çī©
æ°´ åŁŁ
äºĮåįģ å¹´
çĥŁ åı°
å¦ ¾
ç»ıæµİ æķĪçĽĬ
åģ¶ å°Ķ
C om
åı· ä¸º
çĶµè§Ĩ èĬĤçĽ®
ç¦ģ åĮº
è¶£ åĳ³
ä¿ Ń
ä¸Ģæ¬¡ æĢ§
å¯ĵ æĦı
å±ķçİ° åĩº
å¤ļåħĥ åĮĸ
ç§ĳ å¹»
å¤º åĨł
ä¸ī ç»´
ä½Ĩ åħ¶
äºĮæ°§åĮĸ ç¢³
çļĦ è½¦
çĨŁ ç»ĥ
åıĪ åľ¨
Ġ æŀĹ
ï¿ ¥
æĺ¯ è¦ģ
ä¸Ń å°ıåŃ¦
éļĲ ç§ģ
Ġ 2022
å¾® è½¯
æĹ¶çļĦäººåı£ æķ°éĩıä¸ºP
å»ºè®¾ å·¥ç¨ĭ
æ³ī å·ŀ
ä¸»è¦ģ åĮħæĭ¬
ç»Ĩèĥŀ çļĦ
å¹´ åĩºçīĪ
åĴ¸ ä¸°
19 18
Ã Ń
éķ °
åĢ ª
åıĻ åĪ©äºļ
çĶµ è§£
äºĮ æīĭ
ä¸ĩ çī©
æĶ¹éĿ© å¼ĢæĶ¾
åĮĹ èµ·
å·´ èĲ¨
éĿ¢ç§¯ P
çģ¾ éļ¾
ä¸į ä½³
æī§ ä¸ļ
æ®ĸæ°ĳ åľ°
æ°´ åĩĨ
ç¬¬ä¸Ģ æī¹
an s
çĶŁäº§ åŁºåľ°
åĲ¸å¼ķ äºĨ
é¢ģ å¸ĥ
æĹ¶ æľº
åĻ¨ åĴĮ
ä¸į å®ī
éŁ³ä¹Ĳ ä¼ļ
è§£åĨ³ éĹ®é¢ĺ
çļĦéĩįè¦ģ æĢ§
å¿½ çķ¥
ä¸ī åįĥ
çĽĳ çĲĨ
çī¹åĪ« æĺ¯åľ¨
äºº æīĢ
æĪĸ æĹ§å¸Ĥéķĩ
æ³ī æ°´
åıĤè°ĭ éķ¿
æķĳ åĬ©
åŃ¦ æĬ¥
åħµ åĽ¢
Q Q
ç į
ç®¡ æİ§
èĥĮ éĿ¢
ç§ģ ç«ĭ
å°ı åĦ¿
éĤ£ å°±æĺ¯
èĤł éģĵ
ä¹ĭ ç¾İ
æĹı çļĦ
é©¬ è¾¾
å§Ķ ä¹¦è®°
ä»ĺ æ¬¾
i am
åĩĢ åĪ©æ¶¦
æ³ £
ä½¿ ä¹ĭ
èµĦæºĲ çļĦ
æĪĺäºī ä¸Ń
æµĵ éĥģ
ç»ıæµİ ç¤¾ä¼ļ
çļĦäºº ä»¬
å½¢å¼ı çļĦ
æ¯Ķ çī¹
åĪĩ æį¢
ç§ĳåŃ¦ çłĶç©¶
éĽĦ åİļ
ä¸įæĸŃ æıĲé«ĺ
æľª çŁ¥
æŃ¤ åľ°
åĽĽ ä¸ĸ
æľ¬ åĵģ
å¨ Ł
å¢ŀ éĢŁ
æĺŁ çļĦ
æĻļ å¹´
é¢Ĩ åıĸ
çĶ° å¾Ħ
çŃī çī¹çĤ¹
å°±è¯» äºİ
æĸĩåĮĸ åĴĮ
åı£ ç½©
èĹ ī
æĹ¢ çĦ¶
ä¸Ń æĸŃ
åħ± å»º
åħī çĶµ
å¤§ æŃ£
è¿ĺ æľīä¸Ģ
è°ĥ æĸĻ
æ¥¼ çĽĺ
ä¸Ĭ çıŃ
åĪ° ä½į
æĥ ¹
èİ ½
éĢī åĮºä¸º
èĪ ħ
æĺİ å¹´
æ´» æ³¼
éĴ Ŀ
çĥŃ çĥĪ
éĶ¦ èµĽ
æīİ å®ŀ
r it
æİ¨ æµĭ
ä¸ª çĻ¾åĪĨçĤ¹
çŃī å¤ļä¸ª
è¿Ľ åĨĽ
è¢« æĿĢ
èģĬ å¤©
æĺ Ĭ
ï¼ī ãĢĬ
ãĢĭ ï¼Ľ
è°¨ æħİ
ç¼© å°ı
è´¯å½» èĲ½å®ŀ
ul t
éŁ³ åĵį
åĽºå®ļ èµĦäº§
æĮ ļ
æĶ¯ çĲĥéĺŁ
ä¸İ åıĳå±ķ
éĿ¢ æĿ¿
è½» è½»
å¼Ģå±ķ äºĨ
æĦŁ æģ©
ä¸º å¹¿å¤§
åħ¶ åŃĲ
è¯¥ çľģä»½
å®ĥ åı¯ä»¥
Ġ 2005
èµ İ
åĲĪ ä¸Ģ
æ¸¸ è§Ī
æīĢå±ŀçļĦ çľģçº§
æīĢå±ŀçļĦçľģçº§ éĢīåĮºä¸º
å¼ķèµ· äºĨ
ä½ı äºĨ
çļĦ æľĢä½³
åľ¨ åĽ½éĻħ
é²ľ æĺİ
éĶħ ä¸Ń
æĹ ·
åĮ ¾
å¤§ åħ¬
çĹħ éĢĿ
ä¼ļ è¯ķ
å°ģ å»º
19 19
äººä¸º æľ¬
æĸĩ çļĦ
çŃĶ åºĶ
äºº äºº
æĺ¯ åı¯ä»¥
åª ļ
åºĦ ä¸º
åľ¨ èģĮ
ä¹¦ çļĦ
æłĳ æŀĹ
çľģçļĦä¸Ģä¸ª å¸Ĥéķĩ
é¦ĸ åº¦
çº¢ å¤ĸ
è¶³çĲĥ èģĶèµĽ
ä¸į åŃĺåľ¨
èĲ¨ æĭī
äººåı£ æĻ®æŁ¥
å¹³ åĩ¡
ï¹ ĳ
æ³ķåħ° è¥¿
å»ºçŃĳ å·¥ç¨ĭ
å®ī æīĵ
äºı æįŁ
éĹ¨ ç¥¨
çĶ¨æĪ· æıĲä¾Ľ
å®¢ å®¶
ç´ł çļĦ
ä¸Ģ åħ±
åĲİ æŀľ
å¾Ĺ å¤ļ
è¥¿ æ¹ĸ
å®ī å¸Ĥ
å¤´ çĹĽ
æ³¨ æĺİ
æ¸© æŁĶ
æī§ æĶ¿
r ess
æĸ¯ æīĺ
æ¯Ķ å°Ķ
ç³»åĪĹ äº§åĵģ
æĮĩæĮ¥ å®ĺ
é©±éĢĲ èĪ°
X X
å´ĩ æĭľ
åħ¶ä¸Ń æľī
ä¸ĢçĽ´ æĺ¯
éĢĤå½ĵ çļĦ
æµģ åħ¥
è®¤ä¸º æĺ¯
æ¯Ĵ æĢ§
èµĽ åĲİ
åľŁ æľ¨
èĭ±æĸĩ åĲį
A V
19 24
ç»´ ä¹Ł
et t
åĢ¼å¾Ĺ ä¸Ģ
çļĦ åĽĽ
åıĳ éŁ³
æİ¥ åħ¥
åĲĥ é¥Ń
25 00
åĪĨ ç®¡
æŃ¥ ä¼Ĳ
èīºæľ¯ åĵģ
17 0
P E
æµ· åı£
åĻ ¬
è½¬ éĢŁ
æĺ ¼
ç¨ĭåº¦ çļĦ
çĭ¬ å®¶
åįģä¸ĥ å¹´
æ¦Ĥ çİĩ
æįķ æįī
åŃµ åĮĸ
ä¸Ģ å¤§
åĪĻ æľī
æŃ¦æ±ī å¸Ĥ
æĢ» æķ°
10 2
åį³ ä¾¿
å¹´ åĨħ
æľīä¸Ģ å¤©
é©¬ å¾·éĩĮ
å¤§ éĢī
ä¸ĵ çº¿
æľįåĬ¡ äºİ
åī¯ éĥ¨éķ¿
å®ĮæĪĲ åĲİ
å ¶
åĪ« çļĦ
åģĩ æľŁ
åĲĽ åŃĲ
å¤ĸ è¡¨
åĩł æ¬¡
A d
èģ Ĥ
é£ŀè¡Į åĳĺ
å¾· è¯Ń
æĬķ å½±
è¯ķ åīĤ
æĽ¾ ä¸º
ä½ľåĵģ çļĦ
è¿Ļ ä»½
å¥ĩ æĢª
çº³ æĸ¯
as e
çļĦ ä¸ĭ
æľĪ ç»ı
äºĭ ä¸Ń
100 00
æ¨ª åĲĳ
çļ ĵ
ä¼ļ å½±åĵį
åĲİ ä¸ĸ
éķ¿ ä¹ħ
çĶŁ åĮĸ
çļĦ å¯¹
çĿ ¹
å¾® éĩı
åĺī ä¹ī
ä¹ĭ æĺŁ
S C
ï¼ļ âĢĺ
è¶ħå£° æ³¢
åĪĨ ä¹ĭä¸Ģ
æĸ° äº§åĵģ
ä¸Ģ ç¾¤
æĸ° è¥¿åħ°
å¹ħ åº¦
æĢª çī©
éĢł ä»·
æĽ¿ è¡¥
æľī èī²
èİ º
æĭĽ æĶ¶
å¤± è¸ª
å¯Ħ çĶŁ
éĢģ ç»Ļ
á Ģ
æıĲ åĢ¡
æł¸ ç®Ĺ
æľī æĿĥ
åĢ ¦
é¢Ħ åĳĬ
åħ¬ çº¦
æľĪ äº®
åıĺ æį¢
æ¨ Ł
æ¸¯ æ¾³
æĢ» åħ¬åı¸
æĶ¯ çº¿
æŃĮ åī§
æĬĹ æĪĺ
æİ§åĪ¶ åĻ¨
çļĦ åĪĨ
19 22
åĭĩ æ°Ķ
çĶŁäº§ åĴĮ
éĺµ åľ°
ç» ŀ
çıŃ çº§
æį· åħĭ
çļĦæĹ¶ åĮºä¸ºUTC
æĮģ ä¹ħ
å±Ģ å±Ģéķ¿
æĵį çºµ
éģĹ æĨ¾
èĹı ä¹¦
åĬł æĸ¯
èĦĬ æ¤İ
åħ¨ æĹ¥
æ¸¸ ä¹Ĳ
å¿ł è¯ļ
æĶ¹ è£ħ
éĻª ä¼´
åħ¨ éķĩ
æŃ¤ å¤Ħ
çļĦ éĩĳ
ç¬¬åĽĽ ç«ł
Ġ 2020
çİĭ ä½į
æĭĵ è·ĭ
çĤ «
è´¯ éĢļ
å¾Ĺ åĩº
åįĩ ä¸º
é¢Ŀ å¤ĸ
æĹł ç©·
åı² èĴĤ
å¯Ĵ åĨ·
æľī èĳĹ
èµĽ è½¦
æ³ ¾
å½±åĵį çļĦ
æĻº åĬĽ
çŃī æĸ¹éĿ¢çļĦ
æĬķ äº§
ä¸ŀ çĽ¸
Â ±
å®¶ çĶ¨
çŃī åĪ°
ä¸ŃåĽ½ äºº
åĳ ķ
åŃĺ æĶ¾
è¯Ħ åĪĨ
L e
i le
åľ¨ æ°´
åŃ¦éĻ¢ çļĦ
A B
çļĦ èº«
åľ¨ åĮĹ
éĥ Ŀ
åĲĪä½ľ åħ³ç³»
è¯º è´Ŀå°Ķ
èģļ ä¼ļ
ä»² è£ģ
æ¯Ķ éĩį
åĿļ å®Ī
å¤º åıĸ
ä¸» åĶ±
ç±»ä¼¼ çļĦ
æĹ©æľŁ çļĦ
ä¹ĭ åĪĿ
è®© æĤ¨
åľ¨ è¿Ļç§į
æł¼ åĭĴ
å°Ĩ æĺ¯
æıĲ èµ·
W indows
ä¸º é¦ĸ
åŃ¤ çĭ¬
åıįæĺł äºĨ
åħ ®
éħį æĸĻ
æķ Ľ
Ġ ä¼Ĭ
é¢ģ åıĳçļĦ
èĢ »
ä¹Ł æ²¡
æĸ° æĹ¶ä»£
æŃ£ å¥½
æľįåĬ¡ ä¸ļ
çıŃ åŃĲ
èº« ä½ĵçļĦ
åıĪ è¢«
åº§ ä½į
åħħåĪĨ åĪ©çĶ¨
ç¤¾ éķ¿
ç©º çĻ½
çľŁ çĲĨ
çº³ å¾·
I R
æĦ §
åıª éľĢè¦ģ
èĢģ èĻİ
çĭŃ çªĦ
çļĦ æ¯ĶèµĽä¸Ń
å§ ¨
ä¿®éģĵ éĻ¢
æĿ¥ è®²
å¹³ æĿ¿
åĮĸ ä¸º
æ§ Ĳ
åĪĨè¾¨ çİĩ
ç«Ļ åİħ
å¹³ å®ļ
å±± ä¸ĭ
åĪĩ éĻ¤
ç¿ ĺ
ð «
ç»´ä¹Ł çº³
19 25
çĽ¸ è¿ĳ
é¾ ļ
æĦ¤ æĢĴ
å¸Ń ä½į
çĽ®åīį çļĦ
ĠM ar
ä¸īè§Ĵ å½¢
æ´ ¼
å¤© å¤©
æ´ª æŃ¦
ãĤ °
åĩ» ä¸Ń
ol l
æ°¨åŁº éħ¸
å¾Ĺ å¥ĸ
11 1
ãĤ µ
æĳ© å°Ķ
æĢİä¹Ī åĬŀ
å¹´ ä»½
å¹¶ èİ·å¾Ĺ
é¾Ļ éĹ¨
ä¸Ģå®ļ ä¼ļ
åıĳçĶµ æľº
P G
ç§ĳ éĻ¢
ä»» æľŁ
åŁİ éĻħ
åıĺ è¿ģ
è¿Ľåħ¥ äºĨ
è¯¥çľģä»½ ä¸ºæ³ķåĽ½
éĺ Ļ
åĪĿ å§ĭ
å°Ħ æīĭ
çļĦ åĲį
çŃī æĸ¹å¼ı
æ¬¡ åŃĲ
ç½Ĺé©¬ å¸ĿåĽ½
æ²¿ çĿĢ
å»ºè®¾ é¡¹çĽ®
ä¸įä»ħ æĺ¯
é£Łåĵģ å®īåħ¨
æĴ¤ éĢĢ
f l
èĩª å¹¼
èĿ ī
æ¸ħçľŁ å¯º
æĸ §
å¹´ çºª
åįĹ æľĿ
æıĲ è®®
çģŃ äº¡
æĺ¯åĲ¦ æľī
åľ¨ å¯¹
æŁ¥ å°Ķæĸ¯
åł ķ
æ¤Ń åľĨå½¢
çļĦ æ¶Īæģ¯
å¸ §
æĸ° ä¸Ģä»£
ä¿¡ å¾Ĵ
ç²ī ç¢İ
çĽ¸ éģĩ
çļĦ è¥¿
åį« éĺŁ
æİī äºĨ
é«ĺ è¡Ģåİĭ
éĢļè¿ĩ å¯¹
ä½İ åİĭ
æī§ çħ§
è¸ ©
æŁ ¬
éĩĳèŀį æľºæŀĦ
ä¿Ŀ å®ļ
éĻ¤ å¤ĸ
çĪ¶ åŃĲ
ç¯ĩ æĸĩç«ł
æıĴ åħ¥
ï¼ī ãĢĭ
å®ŀ æĪĺ
åľ° çĭ±
åıª ä¸įè¿ĩ
18 00
æĪĲä¸º ä¸Ģä¸ª
ç»Ħç»ĩ å®ŀæĸ½
äºĮåįģ åĽĽ
æĭī å¾·
åª Ľ
è§¦ æĳ¸
ä¸ļ æľīéĻĲåħ¬åı¸
ä¸İ å¤§
å¢ŀ æ·»
ãĢı ï¼Ī
ä¸Ģ èĩ³
çĶŁ å¯¼å¸Ī
å¹´ æľ«
æº ľ
le x
è®¾ äºİ
i i
åľ¨ äºĨ
æĿĢ èıĮ
ä»ĸ å°Ĩ
èĢħ ä¸º
æĮĩ å¼ķ
å±ķç¤º äºĨ
å·¥ éĥ¨
ä¸ľ åĮº
ä¸Ļ çĥ¯
å¤ļ ä¼¦
éħį è§Ĵ
æŀģ ç«¯
å¤± æľĽ
èµļ éĴ±
çļ ĸ
ä¼ģä¸ļ åľ¨
çĹķ è¿¹
ä¼łç»Ł æĸĩåĮĸ
èĥĮæĻ¯ ä¸ĭ
ä¹ĭ ä¹±
åĨħ åľ¨
åĮ ¡
ç±³ äºļ
åĨħå®¹ çļĦ
æĮĩå¯¼ ä¸ĭ
åİĨåı² æĸĩåĮĸ
å½° åĮĸ
æĹ¥å¸¸ çĶŁæ´»
æ£®æŀĹ åħ¬åĽŃ
æĮĤ çīĮ
âĢĿ (
è¯´ æľį
éĻĲ å®ļ
å·§ å¦Ļ
æİ ·
è¿ĲåĬ¨ çļĦ
æĪĳ ä¼ļ
æ½® æ¹¿
æ» ĩ
æİ¥ æĽ¿
ä¸į å®¹æĺĵ
åĲİ åĽł
èģĶ åĨĽ
æ³¢ çī¹
æ½ į
é¾Ļ ç§ĳ
æ¯Ľ æ³½
ä¼Ĭæĸ¯åħ° æķĻ
ä½ ¥
å¸Ī éķ¿
ç«ŀ éĢī
ä½į å±ħ
ç¦ı çī¹
éĺ» ç¢į
èī° èĭ¦
å» ¿
çıį è´µ
ä¸» æīĵ
æķ° çĽ®
è®º è¯ģ
ol og
å¤į ä»ĩ
é¥® çĶ¨
ä»Ĭå¤© çļĦ
ä½ı éĻ¢
ç¦»å¼Ģ äºĨ
ä»· æ¯Ķ
ç®Ĺ æĺ¯
ä¹Ł ä¸įæĺ¯
åºĶ åľ¨
éĢļå¸¸ æĺ¯
åħ¬ ç«ĭ
èĭ ·
çº³ ç²¹
è¿ĩç¨ĭ ä¸ŃçļĦ
ç¬¬ä¸Ģ éĥ¨
èı² å°Ķå¾·
ä¹ĭåīį çļĦ
æĪĳ è§īå¾Ĺ
åįģ åĩł
æ£ º
å¢ŀ è¿Ľ
èĥ½å¤Ł åľ¨
åħ¬ å¼Ģåıĳ
19 26
èĥĮ éĥ¨
ç²¾ æ¹Ľ
æĸĻ çĲĨ
çĥŃ çļĦ
å¯¹ æĪĳ
èĩª æĦ¿
éĹ¨ å°Ĩ
çº ¶
æľī æĦı
çĶ¨ æīĭ
å°ı åĲĥ
å®¢ æľį
åŀĦ æĸŃ
å¤§ èĥĨ
å¤ļ äºĨ
åĬ¨ çļĦ
ä¼ļè®¡ å¸Ī
æĹ¶ è£ħ
å³ ª
24 0
åĨ² æ´Ĺ
ä¸Ģæł· çļĦ
èĻļ æŀĦ
å®¶ å±ŀ
æĹł æľº
ãĤ º
çĬ¶ åħĥ
çĮª ç¬¼
åı¯ä»¥ ä½¿çĶ¨
å¨ ¥
çŃī åĲĦç§į
en g
çļĦ è¯´æ³ķ
åĲİ ä»£
éķĩ åĮº
åīĤ éĩı
åİŁ æľīçļĦ
çļĦ èº«ä»½
åĨħ ç§ĳ
ä¿Ŀ å¯Ĩ
æķĻèĤ² æķĻåŃ¦
éĺ³ æĢ§
çļĦ éĤ®æĶ¿ç¼ĸçłģä¸ºP
ä¹Ł ä¸įèĥ½
éģĩ è§ģ
æĺ¯ä¸Ģ æīĢ
çļĦ åı¤
æĸ° ä¸Ģ
éĥ¨éĹ¨ çļĦ
åĪĨ è¡Į
çľģ æĶ¿åºľ
r es
ä¼ļ äº§çĶŁ
åĿĲ æłĩ
å±ħä½ı åľ¨
= =
ãĢĤ ãĢĤ
æİĴåĲį ç¬¬
Ð¸ Ñ
ä¸» æĴŃ
æĬ¥ è¡¨
al e
M O
éĿ ¶
çļĦ çĲĨå¿µ
éĶ® çĽĺ
éĽĨä¸Ń åľ¨
ä½ĵ è´¨
éĹ¨ å¤ĸ
æĿĢ æīĭ
ãĥ Ĭ
æłĩå¿Ĺ çĿĢ
é©¬ åĬĽ
n er
å¼ķ äºº
çļĦ éĢļçŁ¥
å¤® è§Ĩ
è¶Ĭ é«ĺ
æĬĹ ä½ĵ
ä¸»è¦ģ ä¸º
çļĦ åľ°åĮº
åıĹ å®³
åĳ İ
åĨ³èµĽ ä¸Ń
é¢Ĩ éĺŁ
åħ¶ çĪ¶
å°Ĩ è¿ĳ
èĦ± èĲ½
Ġ å®ī
è¿Ľ åİ»
éĩįçĤ¹ æĸĩçī©ä¿ĿæĬ¤åįķä½į
äº¬ å¸Ī
åĪĳ éĥ¨
åĽĽ æĸ¹
çī¹ æľīçļĦ
å°Ĩ ä»ĸ
åħ± è¯Ĩ
æĬ¤ æłı
èĩ´ ä½¿
Ã ł
é«ĺ æŀ¶
åħī çº¿
çĮªç¬¼ èįī
åĪĨ å·¥
èĬ ¸
åĩıå°ĳ äºĨ
æµ¦ ä¸ľ
ä¸Ģ æĬĬ
è¦ģ æĥ³
å¤© åŃĲ
é«ĺ åľ°
æĿĳ èĲ½
è¡Ĺ å¤´
ä»¥ äººä¸ºæľ¬
éŁ³ é¢ĳ
åľ¨ ä½į
çºªå¿µ é¦Ĩ
19 23
ï¼Ľ âĢľ
è®º è¿°
æĽ¿ æį¢
èľĤ èľľ
çĶ¨ è½¦
æĽ¾ å¤ļæ¬¡
ç»ĩ çĶ°
16 00
çļĦ ç¾İåĽ½
åĨĻ åŃĹ
å¾· ç½Ĺ
æĥ³ èµ·
æ¸© å®¤
åģ¶ çĦ¶
æ£ī èĬ±
çĶŁäº§ ä¼ģä¸ļ
v er
ä¸ªäºº ä¿¡æģ¯
åī© ä¸ĭ
æ¯Ľæ³½ ä¸ľ
çļĦ çĻ½
æľĪ å¼Ģå§ĭ
æĹł åı¯
åĨľ æĪ·
çĿ¡ è§ī
ç®¡çĲĨ åĬŀæ³ķ
åĲĦ æĸ¹
çŁ³ åĪ»
åĴĮ å¯¹
åĪĨ çº§
åĪ« åĲį
åĽ° å¢ĥ
äºº éĢł
in k
æģ¶ åĬ£
åĬŀåħ¬ åİħ
A çº§
åĽ½ å°ı
ç»ı è´¸
ç´« èī²
çļĦ åĪ¶ä½ľ
ç®¡ åĪ¶
ç»´ åħĭ
æİĪ è¯¾
çºµ æ¨ª
Ġ 2021
åĪĨ ç»Ħ
ä»ĭ åħ¥
è·¯ çļĦ
å¥³ åıĭ
ç¹ģ åįİ
èļ Ĭ
è¿ĻéĩĮ çļĦ
æİ¥åıĹ äºĨ
10 6
è¿· ä½ł
è®²è¿° äºĨ
æľ¬ çº¿
åħĪ å¤©
åĽŀ åİ»
æķħ å®«
è´Ł è½½
åľ° ä¸Ńæµ·
æ¸ ¤
ä¹Ł åĽłæŃ¤
å°ı ç±³
äººæ°ĳ åĮ»éĻ¢
æĹ¶ æľī
éĽĨ ç¾¤
æ±Ĥ èģĮ
ä¸Ŀ ç»¸
æĵįä½ľ ç³»ç»Ł
éĽ ı
åī¯ ä½ľçĶ¨
è®¾ç«ĭ çļĦ
æ®ĭçĸ¾ äºº
è´Ł éĿ¢
å¹´ ä¸ĸçķĮæĿ¯
å¾· å·Ŀ
æĸ¯ åł¡
åĬ© æīĭ
ä¿® çĲĨ
å¤ľ æĻļ
åĬĽ æ±Ĥ
éĵĥ æľ¨
ä¼¤ äº¡
çļĦ åħ·ä½ĵ
ç«¥ è¯Ŀ
æĶ¹ç¼ĸ èĩª
10 3
H O
äº§ äºİ
å²Ľ å¼ı
å±± åºĦ
æĢ» åħ±
ĠT h
çĻ «çĹ
æĦı çļĦ
æ¹ĸ äºº
åį¡ éĢļ
æ³ķ ä»¤
åħĭæĸ¯ åĿ¦
çµ ®
y s
èİ·å¾Ĺ çļĦ
æĹł å¥Ī
çĻ«çĹ «
çĶµ åİĤ
è°ĥ è§£
å« ¡
äºĭ åĲİ
åħ» æĪĲ
19 12
åĽ¾ä¹¦ çĽ®å½ķ
åºŁ çī©
æĬµ æĬ¼
æ½ľ æ°´
æºĲ å¤´
åħ¨éĿ¢ çļĦ
åĬ³åĬ¨ åĬĽ
åĮĪ å¥´
èµ° å»Ĭ
E x
çļĦ é©¬
ç¥ŀ ç¤¾
æ¯ı ä½į
åº§ è°Ī
æŃ» åİ»
æĺ¯ åĽ½åĨħ
å¨ģ å°¼æĸ¯
æĸĩ ä¹¦
å»ºè®¾ åĴĮ
å¹´ ä¸º
èĩª åĬ©
çĸ ¡
Ġ 0
çľĭ äºĨ
N O
åĻ ¶
æĿ¥ è¿Ľè¡Į
é¡¶ å°ĸ
çŀ Ħ
å¹¶ åĲĳ
çļĩ é©¬
é©¬åħĭæĢĿ ä¸»ä¹ī
å°Ĩ ç»§ç»Ń
è¢« åıĳçİ°
ç½ĳ æ°ĳ
10 7
æĻ ı
ä¸»è¦ģ ä»¥
åĺ Ľ
å°¤ ä¸º
ä¸į éĢĤ
11 5
E E
æľī æľĽ
çł ļ
éĥ½ å¾¡åı²
æŀĦ ä»¶
å®¹ ç§¯
ä¸Ģ å°ı
åĳ³ ç²¾
å¦ĩ ç§ĳ
å®ŀè·µ ä¸Ń
å¥´ éļ¶
äºº æł¼
éĢł èĪ¹
å¹³ æ°ĳ
ç¼ĸ ç»Ħ
æ´Ĺ æ¶¤
ä¹ĭ æĥħ
æĹł åĬĽ
åĽ½éĻħ åĮĸ
äºļ é©¬
éĢłæĪĲ äºĨ
éĺ² åį«
ä½Ĩ è¿Ļ
çĪ± ä½ł
an k
Ã ¨
é¦ĸ å®¶
æĪĳ ä¸į
ï¼ ķ
ä¸¥ èĤĥ
éĵģ çŁ¿
åįģåħ« å¹´
å¤ļ ä½į
çģ« åĬĽ
åĨħ åŃĺ
ç§ĳ å®¤
E l
èº º
æķħ å±ħ
ä»į æĺ¯
å·¥ç¨ĭ æĬĢæľ¯
åľ° è¡¨
å¸Ĥ äººæ°ĳæĶ¿åºľ
åĬĽ äºī
å°± å¼Ģå§ĭ
é«ĺ å®Ĺ
ç«ĭ éĻ¶
åĲ µ
èµ° åĪ°
éĶĢåĶ® é¢Ŀ
æĤ ¼
çľĭ ä¼¼
åįı å®ļ
ç½ĳç«Ļ çļĦ
æ§ Ľ
åĬ³ åĬ¡
è¡Ķ æİ¥
ï¼Į ãĢĤ
éĻ ¡
åŃ¦ ç³»
æĸ° è®¾
èĢħ åľ¨
å£ ¹
åĳĺå¤ĸ éĥİ
è´¦ åı·
ç¾ ¡
åº¦ è¿ĩ
è¡¨ æĥħ
çĹ ĺ
æĢ» å»ºçŃĳéĿ¢ç§¯
åĨľ çĶ°
è¯Ĺ æĸĩ
åĿļ å®ŀ
ar a
ä¸º çĽ®æłĩ
èµ ¦
äºļ å½ĵ
å¢ŀ è®¾
åī¯ æł¡éķ¿
å¤ĦçĲĨ åĻ¨
ï¼ ĵ
åŃ¦ åĽŃ
åĪ¶ æĪĲçļĦ
ä½ł æĺ¯
çłĶç©¶ åĴĮ
åĽ½å®¶ åħ¬åĽŃ
çĮ ©
éº Ĵ
åı¯ éĢļè¿ĩ
çĽ®çļĦ åľ°
æĢ»éĥ¨ ä½įäºİ
ç¾İ èģĶ
ä¾¦ å¯Ł
åŃ ļ
æ· ĩ
äºĴ éĢļ
åĢº æĿĥ
ä½¿ ä»ĸ
éĥ½ éľĢè¦ģ
éĻĮ çĶŁ
ä¸ĵä¸ļ åĮĸ
æ°ĳ èĪª
æłª å¼ı
æ¶ī å«Į
Ã ¼
è¯¥ çī©ç§į
æĦŁ çŁ¥
åĨĻ éģĵ
åĲį è¿Ľå£«
æ°´ ç¨»
æ¶² æĻ¶
åħĪåĲİ åľ¨
åªĴ ä»ĭ
Ġ a
ä¸Ģ å¤Ħ
ãĥ Ł
åľ° åĬ¿
åĩº å¢ĥ
ç«Ļ å¼ı
ç§ĳåŃ¦ çļĦ
äºĨ ä¸¤
æĬĢæľ¯ åĪĽæĸ°
è®© å¥¹
ãĤ Ħ
æĹħ ç¨ĭ
å±Ĭ ä¸ŃåĽ½
ãģ ł
èį£ èĢĢ
éĵ ²
çļĦ åı¯
è° İ
ç² Ł
èµ· æĿ¥çļĦ
æĸĩ æ¡£
ä»£ ä»·
æ¨¡ æĿ¿
ä¸ĭ åįĬ
éĻįä½İ äºĨ
Ġ ä¸º
è¿Ĳ éĢģ
è¯ĳ ä¸º
ç²¾ ç¾İ
è®© èĩªå·±
æĹĹ å¸ľ
åı²å¯Ĩ æĸ¯
èĥ½ èĢĹ
åı£ æľį
åİĨåı² æĤłä¹ħ
ä¸İ ä»ĸ
æīĵ åĩº
å±ħ å®¶
åĲĮ ä¸Ģä¸ª
é¢ĨåħĪ çļĦ
ens is
æłªå¼ı ä¼ļç¤¾
im e
æĺ¯ ä»ĸ
åī Į
æĸĩ äºº
åı¯ä»¥ æł¹æį®
æīĺ é©¬æĸ¯
èĢ¶ å¤«
Ð¾Ð ²
å¸ĥæĶ¿ ä½¿
åĮ Ĩ
åħ¼ å®¹
ä¸Ģ èģĮ
å±ķ åİħ
æµ· çĽĹ
åıĳå¸ĥ ä¼ļ
ä¼ł éĢģ
æĴ ¼
ç«ĭéĻ¶ å®Ľ
èĬ ĭ
æĿŃ å·ŀå¸Ĥ
ä¸¾ æĬ¥
æĶ¹åıĺ äºĨ
æĿĳ å§Ķä¼ļ
æŃ» äºĨ
ç¥ Ĥ
æ³¨æĦı çļĦæĺ¯
æ¬¡ çļĦ
æ²¡ æĥ³åĪ°
åįļ å®¢
å¤± è¯¯
ä½Ļ å¹´
M L
çŃ¾ ä¸ĭ
èķ Ĭ
åĵ ©
å±± è·¯
ä»¥åıĬ åħ¶ä»ĸ
èĢ¶ å¾ĭ
ç¼´ è´¹
éķ¿ å¯¿
æİ Ģ
éĥ¨ åĴĮ
éĤ ¸
åº¦ åĴĮ
ä¼ĺè´¨ çļĦ
åľ¨ é«ĺ
æĲľ éĽĨ
åĽº éĨĩ
ä¸į çĦ¶
åĽ¢ çļĦ
æ±Ł åİ¿
çĽ®åīį å·²
ä¸ĭ æĹ¬
èģĮ åľº
è¶³ èģĶ
æ²¹ èĦĤ
æµıè§Ī åĻ¨
ä¸º ä»£è¡¨
æµ· æĬ¥
æ·± æ·±
ä¾µ çķ¥
åįĹ éĺ³
æĹł ç¼Ŀ
çĽ´ è¾¾
åľŁ è±Ĩ
æ´¥ è´´
çĽ¸ å¤Ħ
åĪ° å¤Ħ
åĪ« äººçļĦ
å®ĭ æľĿ
æ¯ģ çģŃ
åłµ å¡ŀ
çļĦ å°±æĺ¯
çľģ çļĦ
è´Ŀ åħĭ
ä¸ĩ å¹´
æĺ¾ å¾®
èīºæľ¯ çļĦ
è¡ĮæĶ¿ æĿĳ
åľº éĿ¢
åĲĦ å¼ı
æ¢ħ è¥¿
ä¸Ńåįİ æ°ĳæĹı
ç´« å¤ĸçº¿
éĢļ ä¿Ĺ
æł¼ é²ģ
çĹħ çĲĨ
è¶Ĭ å¤§
é¢Ĩ åĨĽ
ä¸ĥ åįģ
å¸Į å°Ķ
é©» åľ°
æģ ª
æ°Ķ åĬ¿
åħµ éĥ¨
å¤ĸ è´¸
åĪĹ åĩº
åı¤ ä»Ĭ
ä¸ĵä¸ļ æĬĢæľ¯
ä¸ª å°ıæĹ¶
æĺ¯ åĽ½å®¶
æī¿ æİ¥
å¼ ¼
æĪĳ ä¹Ł
è®¾è®¡ ä¸İ
å·¡ æ´ĭ
è¯¥ ä¹¦
å®ĮæĪĲ çļĦ
çľģ å§Ķ
èĢĮ æŃ»
æ¯Ķ åĸ»
èµ· æºĲäºİ
åĤ »
åĵĪ ä½Ľ
æ¸¸æĪı ä»ĭç»į
çī¹çĤ¹ æĺ¯
çŁ³ æĿĲ
æľįåĬ¡ å¹³åı°
éĺ² çĪĨ
ä¼Ĭ åĪ©
åīĤ çļĦ
çļĦ æĸ¹åĲĳ
åīį ä¸ī
çħ§ å°Ħ
Ġf or
è®¨ åİĮ
ç½ķ è§ģ
æĦŁ åĨĴ
ç»Ħ è£ħ
å»ºç«ĭ çļĦ
éĺ² ç©º
æĿĥ éĻĲ
è®¾å¤ĩ åĴĮ
çĲĨè®º ä¸İ
åľ¨ å½ĵæĹ¶
é£İ è²Į
èģļ æ°¨
ä¸¥æł¼ çļĦ
å·¥ ä»¶
åįİ è¯Ń
æģ¶ åĮĸ
ç¾İæľ¯ åŃ¦éĻ¢
å¤§ çº²
å¼¹ ç°§
å¹³ å¸¸
å½° æĺ¾
æ¶ §
æ±ĩ éĽĨ
ä¼Ĭ æĭīåħĭ
è¯¸ å¦Ĥ
æĹ¶ ä¼ļ
ç¼ ª
çļĦ éľĢè¦ģ
æ³ Ĺ
ãĥ Ĺ
å¥ĸ æľĢä½³
ro id
UR L
éĩĮ è¾¾
ä¸ľ æĻĭ
è¡Į ä½¿
-- -
æĪª åĽ¾
æ°Ķ è´¨
å¤§ä½¿ é¦Ĩ
æī Ķ
éķ į
åīį èº«ä¸º
è·³ è·ĥ
æĢ§ ä»·æ¯Ķ
ç®Ģ åĮĸ
éĩĬ ä¹ī
éĿ¢ æĸĻ
ä¸į äºĪ
èĢĮ ä¸Ĭ
åħī çļĦ
çºªå¿µ ç¢ĳ
åīį æĸ¹
ãĥ ł
Ù Ħ
åıª ä¼ļ
A G
åıĳ æĶ¹
åħ¶ æīĢ
ä¿® è¡Į
éĽĨåĽ¢ åĨĽ
åħ¬éĩĮ å¤Ħ
A pp
çİĭ åĲİ
æĿĤ è´¨
åĩº å¤Ħ
å£° èªī
åĵĪ åĪ©
åĳĪçİ° åĩº
çļĦ ç¡®
çļĦ æ¯Ķä¾ĭ
åı¶ åŃĲ
åľ¨ åı°æ¹¾
è½» æĺĵ
190 5
ä¸ĭ ä¸ĢæŃ¥
åįİ ä¸Ń
ç¿Į å¹´
ä»ĸ åıĪ
å®Į å¤ĩ
å¿ħé¡» è¦ģ
æļĹ ç¤º
è¶ĬæĿ¥è¶Ĭ å¤ļçļĦ
å¾· çĶ²
æł¡ èĪį
æĪĲ åĥı
å¦ Ĭ
å¸® å¿Ļ
ä»¥ åĨħ
æľĢ åıĹæ¬¢è¿İ
ç§ĳ éķ¿
è£ħ ç®±
çħ ²
åıį æĬĹ
èĳĹ ç§°
å®¡ çĲĨ
è¤ Ĵ
C M
éĻ¤ å°ĺ
ç¬¬äºĮ çĻ¾
åºĨ åħ¸
åĮ»çĸĹ æľºæŀĦ
åłĨ ç§¯
978 75
æľī æ¯Ĵ
å¼Ģ æ°´
æķ°æį® çļĦ
éī´ åĪ«
éķĢ éĶĮ
ä¸İ ç®¡çĲĨ
æľº åĴĮ
æĺŁ éĻħ
ä¸į å·²
æľ« å¹´
O K
å¹´ å¤ıåŃ£
æķ ķ
èĢĲ å¿ĥ
èģĶ åĬ¨
è´¹ å°Ķ
an a
éľ Ĩ
åı¤ äºº
ç¬¬äºĮ åŃ£
æ²Ļ æ»©
æĦ¿ æĻ¯
äº¤æµģ éģĵ
ä¸Ģ åı¥
è¿½ ç©¶
æĹĹ èĪ°
æģ¶ æĢ§
åĽ½å®¶åĴĮ åľ°åĮº
ic s
Ġ æĿ¨
åħ¨ åľº
åħ³éĶ® è¯į
) ,
F l
å½± éĻ¢
æĹı ç¾¤
åĲı éĥ¨
å¤§ å°Ĩ
åħ¥ å¢ĥ
åľ£ æ®¿
æĲŃ æ¡£
èĩªçĦ¶ ä¿ĿæĬ¤åĮº
å°¾ å·´
19 21
åįģ è¶³
äº¤éĢļ ä¾¿åĪ©
900 1
æ¹ĸ å¹¿
ç®¡ çļĦ
åħĥ çļĦ
å¾· æĦıå¿Ĺ
an c
åĿĲèĲ½ åľ¨
æį¢ çĥŃ
æŃ£å¸¸ çļĦ
çī§ å¸Ī
åĮħ è£¹
å¸Į çī¹
ç«¥ å¹´
ä¹Ł æĽ¾
åħ¶ ä¸»è¦ģ
å¾Ĺ ä¸»
r ist
ä¸į ç¬¦åĲĪ
åįĹ å±±
èµ· æŃ¥
åŀĭ ä¼ģä¸ļ
ãĥ ĩ
èµ· ä¼ı
çĶ² çĬ¶
çĽ´ è§Ĥ
é¦ĸ åºľ
è¡Įä¸º çļĦ
èµ· è¯ī
ç®Ģ æĺĵ
çļĦä¸Ģ éĥ¨
E X
å¹´ äº§
ãĥ ģ
ä¹ĭ æīĢ
åīį æıĲ
it t
æĪ¿åľ°äº§ å¼Ģåıĳ
åĨħ è®¾
æĻº åĪ©
è¿Ļ æľ¬ä¹¦
ãĤ ¦
æľĭåıĭ ä»¬
Ġ åĮĹ
åı¯ä»¥ éĢīæĭ©
å»ºçŃĳ çļĦ
ig n
æľ¬ åĲį
éĿ¢ åĽ¢
äºĨä¸Ģ åľº
éŃĶ æľ¯
çĲ Ĳ
èº« äº¡
al d
é©¾é©¶ åĳĺ
ç»Ŀ å¤§å¤ļæķ°
æĶ¶è§Ĩ çİĩ
æĦıæĢĿ æĺ¯
çŃĽ éĢī
çĬ¹ å¦Ĥ
å¯ ŀ
åĲĪ è®¡
ç¬¬ä¸Ģ æĹ¶éĹ´
âĢĻ ï¼Į
åĮ»éĻ¢ çļĦ
æĺ¯ æł¹æį®
æĸĩ ä¸Ń
åħ³ çĪ±
çļĦ éĺ¿
æľī å¤§
éĿ¢ è²Į
âĢ »
åħµ åĬĽ
ãĢĤâĢĿ âĢľ
å»¶ è¿Ł
ä¸ĺ éĻµ
æķĻ èģĮå·¥
ä¸ĸ å®¶
çīĩ æ®µ
åĪĽ ä¼¤
ç§» å±ħ
e k
åĴ Ģ
åĴĮ ä»ĸ
å°Ĩ è¢«
çĶ» ä½ľ
æ´Ĺ è¡£
æ£ķ èī²
éĵģè·¯ å±Ģ
è¿ĲèĲ¥ åķĨ
èĩª æĿ¥
æĶ¹ æŃ£
ç£ģ åľº
æĻ®é²ģ å£«
l a
è¿ĺ æ²¡
è¿ª äºļ
åīĳ æ¡¥
è¡ Ļ
åıĤ åĨĽ
çļĦ åľŁåľ°
å¹³ æĪĲ
æĿĢ äºĨ
çļĨ ä¸º
.... ..
çļĦ äº²
ä¸į æĩĪ
19 11
ç¾ ²
æĸĳ çĤ¹
ç²Ĺ ç³Ļ
åŃĹ ä½ĵ
æ±¤ å§Ĩ
Ġ ï¼ļ
Ġ 2004
åľ¨ æ¬§æ´²
é¢ Ĳ
å¾Ĺ å¾Ī
å®ŀ çī©
ä»£ è¨Ģ
æµģ å¤±
ä½© æĪ´
åħ·æľī èī¯å¥½çļĦ
æĬĳ éĥģ
çļĦ æĢĿæĥ³
åĪĩ æĸŃ
æ¤į è¢«
å·® ä¸įå¤ļ
è¯¦ æĥħ
ä¸»äºº åħ¬
åĩº èµĽ
çĶ· ç¯®
4 50
åľ° å±Ĥ
ä»ĸ ä»¥
ä½į åĪĹ
åı£ çļĦ
æĦŁæŁĵ èĢħ
Ġ åĳ¨
çĬ ģ
il d
çĥŁ èįī
æľīæīĢ ä¸įåĲĮ
æĪĳ å¸Ĥ
10 9
æ®µ æĹ¶éĹ´
åı¬ åĶ¤
å¡« åħħ
ï¼ħ ï¼Į
çļĦ æĹ¥åŃĲ
ç¼ ļ
èĺ ĳ
çģ ¼
190 3
çº¦çĳŁ å¤«
ç³»ç»Ł åĴĮ
å³ Ń
éĽĦ æĢ§
ä¸ĸçºª æľ«
å·¡æ´ĭ èĪ°
çļĦ æľĢå¤§
é¦Ļ æ°Ķ
çĿ ¦
å½Ĵ ç±»
å¤Ħ åľ¨
ç¢İ çīĩ
ç»Ī ç»ĵ
å¥ł å®ļäºĨ
æĸ°èĥ½æºĲ æ±½è½¦
è¡Į è½¦
ä¸ī å³¡
å² ĳ
çīµ å¤´
æĲľç´¢ å¼ķæĵİ
éĴ¥ åĮĻ
è¯Ĺ éĽĨ
ç¬¬äºĶ ç«ł
çĽĳ è§Ĩ
åºĦ åĽŃ
19 17
æīĢå¾Ĺ ç¨İ
éĩĳ æĸ¯
å¨ ł
æł¸ åĩĨ
æĹı äºº
å¤į èĭı
æ®ĭ çķĻ
ç¬¬åįģ äºĶ
åĲį çīĮ
æ²³ ä¸ľ
çĲĨæĥ³ çļĦ
äºĴ èģĶ
çļĦ åĩºçİ°
éĻį éĽ¨
åľ¨ ç¬¬
å¸ĮæľĽ èĥ½
æ°´ æĢ§
éĥ¨åĪĨ çļĦ
Go ogle
åħĥ æľĿ
ç¤¼ æĭľ
äºļ ç¾İ
ä½ł è¦ģ
Ġ 20
éĢ Ĺ
è¿Ļ åı¥è¯Ŀ
åľº é¦Ĩ
å®ī å®ļ
åı² è®°
åħ¬åı¸ æĭ¥æľī
ä½Ĩ ä»į
åĶ® ä»·
æ¶Ĥ å±Ĥ
çŁ³ å¢¨
åĲĪä½ľ çļĦ
è¾Ľ èĭ¦
éľ² åĩº
è´¢æĶ¿ éĥ¨
å¹´ éĻĲ
å¸¦ çļĦ
æī¾ åĩº
åĪĬ çĻ»
N G
ä¼ļ ä½¿
èĤ ½
æĶ¾ åĪ°
å¸Ŀ çİĭ
åķĨä¸ļ éĵ¶è¡Į
åĲİ äºİ
çĽ¸äºĴ ä½ľçĶ¨
P a
Ġ å±±
çİ¯å¢ĥ ä¸ĭ
ï¼ļ ï¿¥
ä¸ŃåĽ½ åı¤ä»£
åı¯ä»¥ çľĭåĪ°
æĺİ çıł
æĬĬ ä»ĸ
çŁŃ çŁŃ
åı£ å²¸
åħī çº¤
ç¡® å®ļçļĦ
ä¸İ äºº
å¤ĸ èµĦ
ä»» å¤©åłĤ
åİĨ æĹ¶
æĿ¿ æĿĲ
åĢ¼å¾Ĺä¸Ģ æıĲ
ç§ĳæĬĢ æĪĲæŀľ
æ¬² æľĽ
æľĪ è¢«
æĥĬ åĸľ
U V
n a
æĳ©æīĺ è½¦
ä¸į æ¸ħ
åĪĨ å±Ģ
å¯¹ è¯¥
èĭ± åĨĽ
ç¥ĸ ç±į
åĢŁ çĶ±
åĴĮ ä¸Ģä¸ª
åĨħ ç½®
ä»¥ èĩ´
èĭ Ľ
åĢŁ æ¬¾
é«ĺ æīĭ
éĤ ¯
çļĦä¸Ģ å®¶
é¡¶ ç«¯
éĢĨ è½¬
å¹´ æĪĲä¸º
ä¸Ń åįĹ
èĭ Ł
è¿½æº¯ åĪ°
èĩ³ åħ³
éĢŁ çİĩ
å¤©æĸĩ åı°
å· ³
æīĢ ç¤º
ä¸»ä¹ī èĢħ
ç³¯ ç±³
ä¸Ģ æľ¬
æĹ¥ çħ§
ä¹ĭ ä¹¡
ä¸ĸ éĹ´
æ°Ķ åİĭ
åī§ çĽ®
æ¸¸æĪı å¤§å°ı
äº§ä¸ļ çļĦ
ä»¿ çľŁ
çľŁå®ŀ çļĦ
èģļæ°¨ éħ¯
R NA
åį° ç¬¬
H D
å¤© æīį
åĮħåĲ« äºĨ
åħī èį£
è±¡ æ£ĭ
å¤§ æµ·
çŁ³ èĭ±
âĢ ²
åŃ¦ çłĶç©¶
æĹ¶ éĴĪ
æĸ° æĿĲæĸĻ
åįİ ä¸½
æĽ¼ åŁİ
ä¸ĩäºº æ¬¡
ä¹Ł åı¯èĥ½
è® ³
ä¸Ń ä¸ľ
æ°´ äº§
éĩį åĬĽ
è®® é¢ĺ
éĻĨ åľ°
æłĩ çļĦ
çĳ Ļ
P M
è®¡åĪĴ çļĦ
éĺ´ è°ĭ
åĲ¦ è®¤
æķħ åĲį
æ½ ĩ
ä¸ī éĥ¨
æĸĻ éħĴ
é¢Ĩ è¡Ķ
å¤´ è¡Ķ
èĬ± åºı
çĬ¶ çļĦ
æº¶ äºİ
çĭ¬ åħ·
åĲĪä½ľ ç¤¾
ä»ĺ è´¹
åħ ľ
ä¸º é£Ł
åŃĲ å¼¹
çİ° æľīçļĦ
éĢī è´Ń
è¾ĥ æĹ©
èĴĻ å¾·
å¿«éĢŁ åıĳå±ķ
åľ¨ æĪĳåĽ½
ä¸ĵ å±ŀ
åıª æľīä¸Ģ
æĸ° å¹´
æİĮ æİ§
éħ¿ éħĴ
åµĮ åħ¥
Ġ éķ¿
ç³» çļĦ
åı· åı¬
æĬ½ è±¡
ä¸Ĭ å°Ĩ
ç»¼åĲĪ å¾ģ
ä¹Ĵä¹ĵ çĲĥ
æ³¨ çĽ®
å¦Ĭ å¨ł
éĿ ¡
éĶ °
åĲĦ éĥ¨éĹ¨
æ¸ į
è± ļ
æĭ Ĳ
æ°ĳ åĬŀ
Ġ ç½Ĺ
ov e
é© ´
äº¬ åŁİ
çĽ Ķ
åĩº åĽ½
æ³° åĭĴ
åĹ ½
æĺ¨ å¤©
æĪĳä»¬ ä¼ļ
in s
ãĥ ¥
ä¸¤ ç«¯
å®¢æĪ· ç«¯
åĳ¼ åĲģ
èĹ¤ åİŁ
çĪ· çĪ·
çļĦ èĩªçĦ¶
å¤§ å¸Ŀ
ä¹ĭ çİĭ
äº¬ ä¸ľ
åıĮ éĩį
æ°§ æ°Ķ
åŃŁ åĬłæĭī
å¯¹ æĪĺ
éĩĳ éĵ¶
å² Ķ
C S
åģļ æĪĲ
è½¿ è½¦
ä¸Ń ä»ĭ
å¤ª å¤ª
å½ĵéĢī ä¸º
åı¯ä»¥ å°Ĩ
æĺ¾ç¤º å±ı
éĻ¨ çŁ³
19 14
èį Ģ
èĵ¬ åĭĥ
å¸¸ å¹´
åħĭ éĽ·
æīĭ æĮģ
å°ıç»Ħ èµĽ
æ³Ħ æ¼ı
çī©ä¸ļ ç®¡çĲĨ
èĮ ľ
ç´ł åħ»
å¾Ī å¼ºçļĦ
èį§ åħī
åĽĽ ç§į
å¸ĥ åħ°
åĨį è¡Į
å¹² é¢Ħ
åºķ å±Ĥ
å·¥ä¸ļ å¤§åŃ¦
æľĢåĪĿ çļĦ
éĹ´ éļĻ
åħĭ åĪ©
åģļ äºĭ
ãģ ĺ
æ±½ æ²¹
Ġ çĻ½
çļĦ è§Ĵåº¦
åĲĦ æł·çļĦ
12 3
è·¨ å¢ĥ
ä¼ º
è¯¥ æĿĳ
å®£ ç§°
åĽº åĮĸ
T S
è¿ĩ å¾Ģ
æ±ĩ èģļ
åľ° è²Į
ç§¯æŀģ å¼Ģå±ķ
âĢķ âĢķ
è¿Ļ å®¶
çĶ² æĸ¹
å·§ åħĭåĬĽ
æĸ¯ èĴĤ
æŃ¦ å£«
é»İ æĺİ
åĪĩå°Ķ è¥¿
äºº çĶŁçļĦ
åŁº åĩĨ
æį ı
åĿļ åĽº
åħ± èµ¢
è´µ éĺ³
m er
å¾Ĺ çļĦ
çĶ² éĨĽ
æĬķåħ¥ ä½¿çĶ¨
w ard
ä¸Ĭ æĺ¯
é¢Ĩå¯¼ ä¸ĭ
æĪĳ éĻ¢
å«Į çĸĳ
åĢ ©
å·´ å·´
å¦Ĥæŀľ æ²¡æľī
an ce
et er
åŃ¦ ä¸ļ
å¼Ģå§ĭ åľ¨
æł¸ æ¡ĥ
å¸¸åĬ¡ çĲĨäºĭ
çŃī åĽłç´ł
åĲĮ æĢ§
æĶ¯ æŀ¶
çĶŁäº§ ç»ıèĲ¥
çĶµ çº¿
å®ī éĿĻ
èģĶ æīĭ
æĶ» åįł
åºŃ éĻ¢
å¯» å¸¸
ãĢĤ <\/
å®Į é¢ľ
æ°´ åĴĮ
åĮĹ æŀģ
åħĥ ä»£
é²ģ æĸ¯
çļĦ åįķ
çĶµ æŀģ
åī¯ æĢ»è£ģ
æ³¨åĨĮ èµĦæľ¬
åį°ç¬¬ å®ī
åįĹ éĢļ
ä¸Ģ è¯´
åıĤ æ¼Ķ
äººæ°ĳ ä»£è¡¨å¤§ä¼ļ
åıĳå±ķ è§ĦåĪĴ
äººæ°ĳ ç¾¤ä¼Ĺ
çĴ §
èı ģ
å¤į åıĳ
å¤ı å¨ģ
è¡ĮæĶ¿ åĮºåŁŁ
æ¦ ¨
å¼Ĥ æĢ§
çľ ·
æľº æŀª
åī¯ æĢ»ç»ıçĲĨ
æĲ¬ è¿ģ
ä¼ļ æīĢ
è°¢ è°¢
ç§Ł åĢŁ
çļĦ å®¶åºŃ
çİĭ å®¤
çļĦ éĿŀ
èĥ ¤
ä¹ĭ çĪ¶
æľº çŃī
æł¼ æĭīæĸ¯
åıĤ è§ģ
ä¸ĵä¸ļ ä»İäºĭ
çĽ® åħī
åľĨ æŁ±
åİŁ ä½ıæ°ĳ
çĹħ åİŁ
14 00
ä¾§ éĿ¢
åľ¨ ä¸į
å¤ĸ å£³
ãĥ ĭ
èī¾ ä¼¦
éĢł å°±
åº§ åłĤ
æ¿Ģ åĬ¨
é¢Ŀ å®ļ
ä¼´ éļıçĿĢ
åĮ»çĸĹ åĻ¨æ¢°
ä»ĸ å°±
è° į
åħ¥ ä½ı
å¸¸ å§Ķä¼ļ
æ¢¦ å¹»
æ°´ æµģ
åĮ» æ²»
æĺ¯ è°ģ
åıĺ éĩı
é¢Ĩå¯¼ å°ıç»Ħ
ãĢĤ âĢĻ
åĬł åĪ©äºļ
Ġ k
å®¢ ä¸²
C ç½Ĺ
çļĦ é¢ľèī²
å¾Ĺ äºĨ
æĪĳä»¬ å°±
Ã ³
èĪª æµ·
ä¸ĭ ä¸Ģä¸ª
å½±åĵį åĬĽçļĦ
èĶ Ĺ
éĺ» åĬĽ
æ³ķ åĪĻ
å·ŀ åĮº
åįĬ å¾Ħ
åĵĪ æĭī
ä¸ļåĬ¡ çļĦ
åħ« å¤§
äº¦ ç§°
è£ħ æľī
å´ Ń
åĽ½ äºº
äºĶ ä¸ĸ
å¯¹å¤ĸ å¼ĢæĶ¾
æķ´ é½Ĳ
æ·± å¤Ħ
ä¸»ä¹ī çļĦ
ä½ĵ æĵį
ç»Ļ äºĭä¸Ń
et h
èĳĹä½ľ æĿĥ
ä¸Ĭ éĹ¨
ä¸¾åĬŀ äºĨ
ä¼ł è®°
çĩĥ æ²¹
èĭ¥ æĺ¯
åĽ½å®¶ éĩįçĤ¹
åĬ¨çī© çļĦ
ä¸» å¸ħ
ï¼Ī ï¼Ł
å¢ Ł
åĽĽ èĤ¢
ä» Ħ
ç»´ æĭī
è¡° èĢģ
çĶ²çĬ¶ èħº
å¹´ çº§
å¤ıå¨ģ å¤·
ä¹Ł éĥ½
è¡Įä¸ļ åįıä¼ļ
ç´§ ç´§
åĩĢ æ°´
é¢Ī éĥ¨
å¤§ æĸ¹
åľ¨ å¤©
æĹł ä¸į
æĬĹæĹ¥ æĪĺäºī
åıĳ æī¬
ç½ĳ çļĦ
æ¸ħ çĥŃ
èħ ¥
å¯Į æ±Ĺ
çĻ» å±±
äº¤éĢļ å¤§åŃ¦
ç¿» çĤĴ
å¼Ģ åı£
éĵ ¬
å¥³ æĢ§çļĦ
æĦŁ çļĦ
çĽĳ ä¼ļ
åĴĮ ä¸ªäºº
åī Ķ
éĩĳ çļĦ
é¹ ¦
åĬłå¼º å¯¹
å¤§ è´¥
æµ· æ»©
åİ¿ éķ¿
åħļ ç»Ħ
ä¸ĥ ä¸ª
è°ĭ æĿĢ
å¥ĸ çīĮ
ç¾İåĽ½ äºº
éĥĳ å·ŀå¸Ĥ
åĨ° å·Ŀ
åľ° åĿĹ
èĲ ¤
å±ķ æľĽ
æĢģ åĬ¿
ãģ ĳ
æ¾ Ī
E V
æĪĲç«ĭ åĲİ
æŁ´æ²¹ æľºè½¦
I A
l er
æİ¥ ç®¡
æ®µ çļĦ
æł· å¼ı
å¯¼èĩ´ çļĦ
è§ĦèĮĥ åĮĸ
éĩį åŀĭ
æĺŁ çĲĥ
çģµ æķı
åī ¿
ä½İ çļĦ
æ¯« ä¸į
çĶ¨äºº åįķä½į
åħħæ»¡ äºĨ
ä¼ļ é¦Ĩ
èĬ± æ¤Ĵ
æ°´ ä½į
çºµ åĲĳ
èģĮä¸ļæĬĢæľ¯ åŃ¦éĻ¢
æ´» å¡ŀ
åıĺ çļĦ
éª¨ æĬĺ
éķ¿ éĢĶ
ç®¡çĲĨ åĪ¶åº¦
éĿ¢ç§¯ ä¸º
è¿ĩ å¤§
èĬ± çļĦ
å®¢æĪ· æıĲä¾Ľ
åĬł åĭĴ
æĤ¬ æµ®
å¤ļä¼¦ å¤ļ
é«ĺ ç¥ĸ
èĮ ¹
æķĻèĤ² åİħ
æĪĲç«ĭ ä»¥æĿ¥
è¯º æĽ¼
ä¸Ģ éĹ´
åĮĹ å¸Ĥ
å¸¸ æĢģ
è¯´ è¿ĩ
ro s
é«ĺæĸ°æĬĢæľ¯ ä¼ģä¸ļ
åĮĹ åĮº
ç¡ķå£« çłĶç©¶çĶŁ
è¯¦ç»Ĩ çļĦ
ä¸Ģ éĥİ
çļĦ æķ°éĩı
è¿ĳ ä¼¼
äº¬ åī§
éĤ® ç®±
åĩº å®¶
å¦ į
ãĥ Ĳ
ä¿¡æģ¯ ç³»ç»Ł
å¯Ĩ çļĦ
å¹¸ åŃĺ
éĢł çº¸
å¸¦ åĪ°
æĴŃ æĺł
å»º æŀĦ
éĻ¤ éĿŀ
æ£ĭ åŃĲ
ä¸Ń çļĦä¸Ģ
åĬ¡ å®ŀ
ä¹ł æĢ§
ä¼¤ åı£
re d
å¥ĩ å¹»
æī¹ åĪ¤
it ed
å®ļ åĲĳ
é¦ ı
å¤Ħ åĪĨ
é»ĳèī² ç´ł
i us
éĥ¡ çİĭ
å±Ģ éĻĲ
çļĦ å¼Ģåıĳ
å£° ä¼ĺ
I L
ãĥ ĵ
åįļå£« åĲİ
åħĪ åıĳ
åĦ¿ å¥³
æİ¢æµĭ åĻ¨
æĺ §
ç¢³ éħ¸
åĽŀ å¤´
O L
ç» ®
æ²Ļ çī¹
çļĦ ä»·åĢ¼
èĩª åı¤
æ²¡æľī äºº
éŀ ĺ
çļĦ çº¢
å®ļ çĤ¹
å¼º è¿«
è¯¥ åľ°åĮº
èı ł
çª ¥
åħ¨æĹ¥ åĪ¶
Ġ åĲ´
çļĦ æĪĲåĬŁ
ä¹ĭ ä½Ļ
èµ· é£ŀ
èº« æĿĲ
æĽ¾ èİ·
æĽ ¦
æİ¥ åľ°
é£ŀ èĪ¹
è®¸å¤ļ äºº
å¸Ī ä»İ
åıĹ ä½ĵ
ç¤¼ éĥ¨
èĢĲ èħĲèļĢ
G r
ä¸ĭ è½¦
æĶ» åĿļ
ç¾Ĭ èĤī
T P
ä¸į è§ĦåĪĻ
ä¼¯ æł¼
èĩĢ é³į
åĴĮ ç¾İåĽ½
åŀĴ æīĵ
æµ· é²ľ
æĸ¯ åĽ¾
åĲĦ çľģ
æĢ» åĢ¼
ç¬¬ä¸ī å±Ĭ
åŃĺåľ¨ çĿĢ
çŃī åĬŁèĥ½
åĨĻ çľŁ
ä¸Ń åįĪ
åĴĮ æĸĩåĮĸ
ç¬ ł
è¿Ľ åĩº
è·¯ ç«Ļ
ä¸ĵ èģĮ
èº« çļĦ
å°ı ç¨ĭåºı
æģ ¤
æĹł æ¯Ķ
éħ¸ æĢ§
âĹ Ĩ
åįĹ ç«Ļ
èĢĲ çĶ¨
æĢ» ç®¡
ç¬Ķ èĢħ
éĿĴå²Ľ å¸Ĥ
åľ¨ è¿Ļä¸Ģ
æıŃ ç¤º
è¾© è®º
ä¸Ĭ è¯¾
åįĹ æŀģ
éĩĮ æĺĤ
åŁİ åĨħ
ä¸¤ å®¶
æĬ¤ çħ§
è¡Į æĥħ
äºĭ åħĪ
ä¿ĥ éĶĢ
å¹¶ æĪĲä¸º
æľ¨ è´¨
çŁ¥åĲį çļĦ
åħĭ åĬ³
åĨĻ äºĨ
å¿ħé¡» åľ¨
éĩı ä¸º
åıĪ èĥ½
ãĤ Ī
åį°åº¦ å°¼è¥¿äºļ
åŃ¦ åłĤ
æĪĲçĨŁ çļĦ
æĶ¯ æŁ±
è¿ŀ èĥľ
ä¸Ģ è¾Ĩ
åı£ åı·
éĽĨåĽ¢ çļĦ
ä¹Ļ æĸ¹
çĽ¸è¾ĥ äºİ
çļ ĭ
éĻį è§£
è¿Ļç§į æĥħåĨµ
å¹¶åıĳ çĹĩ
äºļé©¬ éĢĬ
ä¸ĢèĪ¬ åľ¨
åħ¬ä¼Ĺ åı·
ä¸į å¿ĺ
èĲ¥ æĶ¶
éķĩ åİĭ
æ£Ģ ä¿®
å®ĩ æĸĩ
å¾ Į
å¤§ çİĭ
å¼Ģ åħĥ
å¹³ éĿĻ
ä¸ľ åİ¿
éĿ¢ç§¯ çº¦
æĶ¿çŃĸ çļĦ
ç¨į å¾®
è¡Ģ ç³ĸ
å·²ç»ı åľ¨
åĳĺå·¥ çļĦ
æ²¥ éĿĴ
æ¯Ĵ ç´ł
äºĮåįģ å¤§
æ´ ±
é¢Ħ å®ļ
éģĩ åĪ°äºĨ
ä¼ļè®® åĳĺ
çŁ© éĺµ
è¢« åĬ¨
åĲĳ ä¸ĭ
å·´ èµ«
åĮħæĭ¬ äºĨ
ä¸į æŃ¢
åıĤ æĶ¿
éĻĲ åº¦
éĵ¶ çīĮ
è·¨ åĽ½
æĽ´ å¿«
æĬĵ å¥½
åįĹ åĮº
æŃ£ ç»Ł
æŃ¦ æĺĮ
åħ¸ éĽħ
ç´§ åĩĳ
av a
åĮºåĿĹ éĵ¾
çŁ¥è¯Ĩ åĴĮ
å¹¿æĴŃ çĶµåı°
èĢ į
ä¸» æĸĻ
åĿ ¯
æ¯Ķ èµ·
çĦ¶åĲİ åĨį
æĬĽ åħī
ç¿°æŀĹ éĻ¢
åįļ ä¼ļ
æ°´ èµĦæºĲ
åĽłä¸º å®ĥ
çł´ è£Ĥ
çļĦ åŃ©åŃĲ
3 20
ç»Ļ åĩº
ä¸īä¸ª æľĪ
åĭ¤ å¥ĭ
åĪĹ ä¼ł
ä½ľ çĶ»
ì Ŀ
ä¸į åłª
å½ ª
ä¸ĩ æ¬§åħĥ
æĺ¾ çİ°
èľ Ĵ
èİ± èĮµ
åĺī åħ´
æŁĵèī² ä½ĵ
çĶ° ä¸Ń
æį £
åįĹ çĵľ
ep h
or ld
of t
çļĦ æĹ¶ä»£
æĻ¯ è±¡
è¡¡ éĩı
ä¼ļ åĲĮ
æĸĩåĮĸ èīºæľ¯
çļĦ æĤ£èĢħ
å®ģ åİ¿
æ¦Ĥ æĭ¬
æĢ§ åľ°
æĸŃ å±Ĥ
ä»£è¡¨ åĽ¢
ä¸Ĭ éĥ¨
è½ ¶
æľº èĥ½
å¤ĸ æĿ¥
åħī æºĲ
åħµ åĻ¨
åŃĻ åŃĲ
å¼Ĺ åħ°
m a
èµĽ åĮº
è°ĥ ä»»
èĬ± å²Ĺ
éļĶ çĥŃ
æµ ļ
è¡Į æĿİ
åŃĹ ç¬¦
å¯¹ èĩªå·±
å®īè£ħ åľ¨
åı° éĺ¶
ãģ Ī
æŃ¦ åĬŁ
çī©è´¨ çļĦ
æ²³æµģ åŁŁ
å¹² æĹ±
é»ĳ çĻ½
æĹ¥ ä¸¾è¡Į
é¦Ļæ¸¯ éħįéŁ³
åĵĪ éĩĮ
æĿĤ äº¤
oun t
é¢Ħ çķĻ
é»ĺ é»ĺ
æĢ§ ä¸İ
çģĮ æľ¨
æĶ¯ éĺŁ
å¤ĸ å¢Ļ
æ²³ è¥¿
æ±ĩ æĢ»
åĨħ éĥ¨çļĦ
å¼¥ è¡¥
åĨħ æĪĺ
çĲĥéĺŁ çļĦ
å¯¹ ä¸ŃåĽ½
Â· Â·
æĢ§ çĸ¾çĹħ
åıª åľ¨
ç¢ ĺ
æĬĢæľ¯ ä¸İ
ç¢ Į
åįĴ äºİ
æĺ¯ èĭ±åĽ½
æ¡ Ķ
èµ· çļĦ
æ±ī ä»£
èµĽ é©¬
å¸¸ å·ŀ
æĦı æĦ¿
ä¸¤ åº§
ãĦ §
æī¹ å¤į
èıľ åįķ
åĲį é¢Ŀ
éĺ¿ å¯Įæ±Ĺ
æ·® åįĹ
y st
åĮĹ å¤§
ä¸Ģ ç»Ħ
æīĭ ä¸ĭ
ĠB l
Ð ¼
æīĭ æŀª
é»Ħ å±±
ç´ł æĿĲ
æ±ī ä¹¦
åıĳè¡¨ äºĨ
æ§ Ł
æĻ®éĢļ çļĦ
èĩ´ åĳ½
ç¬¬äºĮ è½®
èĪª è¡Į
è½¦ç«Ļ ç»ĵæŀĦ
p s
Ġ r
ä¸» çļĦ
åħī ç¦Ħ
åĳ½ åĲįçļĦ
C A
èĤĿ èĦı
çļĦ åĮºåŁŁ
ä¼¦ æĸ¯
æľºæ¢° è®¾å¤ĩ
è½¨ è¿¹
ç«ŀäºī å¯¹æīĭ
å¹´è¢« è¯Ħä¸º
å¯Ĥ å¯ŀ
æĢ» ä¹ĭ
ãĢĤâĢĿ ãĢĬ
ä¸ĢèĪ¬ ä¸º
ä½ľ åĩºäºĨ
ç¨ ļ
æŁ ĳ
äºĨä¸Ģ ç³»åĪĹ
æ¼Ķ æĬĢ
å®Ĺ å®¤
æ·»åĬł åīĤ
æĸ°åĨł èĤºçĤİ
æ³ ¸
éĹ¨ åīį
é¦ĸ å°Ķ
å·¦ ç¿¼
åģľ çķĻ
å²Ń åįĹ
è¯± åıĳ
å¢ĥ åĨħçļĦ
å°Ħ åħ¥
çĶ² ç»Ħ
éĤª æģ¶
åŃĲ ä¸Ĭ
å¢ĵ èĳ¬
çļĦ åĲįç§°
åı¤ å±ĭ
è¿ĩæ»¤ åĻ¨
éĻ¤ åİ»
åħįçĸ« åĬĽ
æģ ³
ä¼Ĺ å¤ļçļĦ
é£İ ä¿Ĺ
çļĦ ä»»åĬ¡
åĵ ĩ
éľĢè¦ģ åľ¨
åºĶ èģĺ
æĦı çĶ²
åı¯ä»¥ ä»İ
çłĶç©¶ æĪĲæŀľ
å¥¶ å¥¶
éģĵ å¤«
çĥ ĥ
ä»ħ ä¸º
ç»§ ä½į
ç»§ ä»»
ç½ķ é»ĺ
å¥³ æİĴ
å£® æĹı
Ġ ï¼ī
è¯¥ åħļ
èĸ °
å®ĩ èĪª
ç¦ģ å¿Į
åĬ¨è½¦ ç»Ħ
19 10
ç½Ĺ æ±ī
äºº ä¹Ł
åĽĽ éĿ¢
æķĻèĤ² åŃ¦éĻ¢
èĭ ŀ
é£Ł åłĤ
åĳ½ é¢ĺ
çī¢ åĽº
É Ľ
ä¸į å®¹
åı¯ä»¥ è®©
é±¼ éĽ·
å¸ĪèĮĥ åŃ¦éĻ¢
åĢ¼å¾Ĺä¸ĢæıĲ çļĦæĺ¯
æ£Ģ çĸ«
èīºæľ¯ åŃ¦éĻ¢
æ¯ĶèµĽ çļĦ
ä¼ļè®® å®¤
ç¡« åĮĸ
åĽ½ ä¸Ń
å¸¸ è¯Ĩ
çĻ¾ ä½Ļ
ç»ıéªĮ çļĦ
æ¹¿ æ¶¦
æĹħå®¢ éĵģéģĵ
ç»¼èīº èĬĤçĽ®
ç»ĵ æł¸
ä¼Ĺ è®®éĻ¢
è¶ħçº§ èģĶèµĽ
å¹´ æľŁéĹ´
è¡Ģ æ¸ħ
æĬ¢ æķĳ
E d
è¦ģ å¡ŀ
å®ģ éĿĻ
æĬĢ æ³ķ
é¾Ļ ç±»
æ³¨æĦı åĪ°
èĥļ èĥİ
ãĥ ¡
æĹ¶éĹ´ åĴĮ
åĳĬ åĪ«
å¹³æĸ¹ åįĥç±³
å½Ĵ å±ŀ
å¥¥æŀĹåĮ¹åħĭ è¿ĲåĬ¨ä¼ļ
æĹ¶ è¢«
å¤Ħ å¤Ħ
å§Ķ ä»»
è¡¨éĿ¢ çļĦ
åİķ æīĢ
æĥ³ åĥı
åŃ¦ä¹ł çļĦ
ä¸Ģ å¿ĥ
åŃ¦ è¯´
çī¹ äº§
æ· ¤
çķĻ å®Ī
èĥ¶ åĽĬ
é¢ĩ æľī
ä¸įéĶĻ çļĦ
D D
åĩ Ħ
åĪĹ å®ģ
éĽ¨ æ°´
âĢĿ âĢĶâĢĶ
åĴ³ åĹ½
åĨħ äºļ
æĪĸ ç§°
å· į
éĩįè¦ģ ä½ľçĶ¨
æ¹¾ åĮº
çīĽ æ´¥
é¥® æ°´
éĿ ĵ
å·²ç»ı è¢«
ç»ĵæĿŁ äºĨ
åı¯ä»¥ å¸®åĬ©
åĪĻ ä»¥
åºŀ å¤§çļĦ
éĺŁ ä»¥
åĽĽ å¤Ħ
è½¬ è¿Ĳ
å£® è§Ĥ
åĪ© äºİ
ä¸´ æ²Ĥ
åĺ ²
çļĦåīį èº«
æºĥ çĸ¡
Ġ 2003
ç¬¬ä¸Ģ å®¶
çĽ¸åħ³ éĥ¨éĹ¨
åĴĮ åįİ
å½ Ĺ
ä¸Ĭ åįĬ
ä¸ª åĽ½å®¶
çĶµå½± çļĦ
æ±ķ å¤´
å½±åĵį åĪ°
or g
åħĭ èĲ¨æĸ¯
è§Ĩ åĬĽ
å¥¥ åı¤
å»ºçŃĳ è®¾è®¡
çļĦ èĩª
èĢĮ éĹ»åĲį
çŁŃ çīĩ
åı°ä¸Ń å¸Ĥ
ãĥ ĸ
è¾¹ ä¸º
å¢Ļ å£ģ
æŃ» åĪĳ
ĠB r
äººä»¬ å¯¹
è¾ Ĭ
ä¸´ è¿ĳ
æķ¬ ä¸ļ
ä½Ľç½Ĺ éĩĮè¾¾
çŀĦ åĩĨ
æľī åĬĽçļĦ
å¨ģå°Ķ å£«
ivers ity
èľ ¿
ä¸ºæĤ¨ æıĲä¾Ľ
è¶³ æĢ»
åĪĴ å½Ĵ
ä¸° çĶ°
å½© èĻ¹
çĬ¹å¤ª äºº
åľ¨ æ³ķåĽ½
åı¯ä»¥ è¯´æĺ¯
æµĭ ç»ĺ
ç´¢ å°¼
æµ® éĽķ
ç¬¬åįģ åħŃ
å¹´ äºİ
ä¸º åĽ½å®¶
od e
æľº çĲĨ
æµ· åĨħå¤ĸ
çķĻ è¨Ģ
èĹı åĵģ
ow er
ç¬¬ä¸Ģæ¬¡ ä¸ĸçķĮå¤§æĪĺ
æľ¬ éĥ¨
ä¸ĭ æ°´
æŃ» èĢħ
ot t
åħļ ç»Ħç»ĩ
èĪĴ æľį
å¦ ĵ
ä¿Ŀ åĬłåĪ©äºļ
åĪ¶éĢł çļĦ
ä»Ļ äºº
ĠL e
ç»Łæ²» èĢħ
å®ļ å¾ĭ
åĽł åºĶ
å¸®åĬ© ä¸ĭ
éº» éĨī
Ġ 2000
åĨĽ åľ¨
æĽ´ è¿Ľä¸ĢæŃ¥
æİ¥ èĳĹ
ç¬¬ä¸Ģ ä»£
åį´ ä¸į
éĴĵ é±¼
Ê ģ
æıĲ æ¡Ī
æī¹ éĩı
åıĳè¡¨ è®ºæĸĩ
è¾¾ æłĩ
13 5
åį´ è¢«
æµģ ç»ı
ç¡®è¯Ĭ çĹħä¾ĭ
æ¶¡ è½®
éĴ¢ æĿĲ
çģŃ çģ«
ä¸Ģ çŃī
æĹ¥ çĶ±
ä¸ĵ æłı
å¨ ±
ç²ī å°ĺ
çº¯ ç²¹
éĤ® ç¥¨
å¹¼ èĻ«
å¥ĳ çº¦
å¯¹ çŃĸ
è¯ £
åĴĮ ä½¿çĶ¨
ä¸İ ç¤¾ä¼ļ
çıŃ ä¸»ä»»
å¾Ģ è¿Ķ
å°ı æıĲçĲ´
å°Ĩ ä¸º
åł Ģ
æĺ¯ çĶ±äºİ
ä»¥ æĿ¥çļĦ
æĿ¥ ä¸´
äºĮ ç»´
æĿ¡ çº¹
åĸľ çĪ±çļĦ
æĭĽ åĭŁ
ä¾µ èļĢ
ow n
æ¸¤ æµ·
ä¸Ģ åı£
æĿ¥çľĭ çľĭ
ä¸Ńåħ± ä¸Ńå¤®
åĪ¶çīĩ äºº
é«ĺ ä¸½
æĹł æĦı
è¯Ħ å®ļ
å°± æ²¡æľī
èĩªå·± åľ¨
èĤ¡ å¸Ĥ
æĥ© ç½ļ
ä¹Ĳ æĽ²
å¥¶ æ²¹
èĳ¬ äºİ
ub e
éĽĨ è£ħç®±
ç¼ĵ åĨ²
åľ¨ä¸ŃåĽ½ å¤§éĻĨ
æĭħ å¿§
ç¯ ·
éī´ äºİ
çļĦ åľ£
å¤© ä½ĵ
è½¦ ä½ĵ
ãĤ ı
çļĦ åıį
åĲį å°Ĩ
æĹ¢ æĺ¯
æįĲ æ¬¾
åįĬ åĨ³èµĽ
åĺ İ
å®¶åįıä¼ļ ä¼ļåĳĺ
æľĪä¸Ń æĹ¬
æĸĩ éĽĨ
çĻ¾ å®¶
çĲī çĴĥ
æķĻ ç¨ĭ
æĸ¯ åĴĮ
æĦıä¹ī çļĦ
èĢ ¸
å² ±
å¾· å·ŀ
åħĪ åīį
11 4
å²ģ ä»¥ä¸ĭ
æĶ» åħ¥
æ® ī
åĽ¢ è´Ń
ç²¾ çĽĬ
è¿ľ å¾ģ
æĭ¿ çł´
å±± è°·
åı¤ ç±į
28 0
è¿Ļä¸Ģ åĪĩ
çĿĢ æīĭ
æŃ¥ åħ¥
ç©Ĩ ç½ķé»ĺ
ï¼ī -
èĢ³ æľµ
190 6
éħįéŁ³ åĳĺ
æĻ® æĭī
åĲĮæł· çļĦ
åĤ¬åĮĸ åīĤ
" ãĢģ
äºļ çĽ®
åĨħå®¹ æıĲè¦ģ
å¡« è¡¥
åı¯è¡Į æĢ§
çŃ Ŀ
ä¾ Ī
åįİ å±±
å¾® åŀĭ
æĴŃ ç§į
çıį æĥľ
çĹħ çĹĩ
èĩªçĦ¶ èµĦæºĲ
åĽ½ å®ī
çĶ· åıĭ
åįĥ åħĭ
åĸ· æ¶Ĥ
åĲ¯ ç¤º
ç£ º
æ´ĭ èĳ±
åªĴ ä½ĵçļĦ
èı© æıĲ
èĶĵ å»¶
åįĩæł¼ ä¸º
è°ĥ åĬ¨
è¯ģåĪ¸ äº¤æĺĵæīĢ
å¨ĥ å¨ĥ
è¯ ¡
éĹ¨ æ§Ľ
åı¤ å¸ĮèħĬ
å±ħ çĦ¶
l og
æĪĺ è´¥
æĤ į
èĻ Ķ
å°¼ æ³Ĭ
ä¸Ń æĹ¥
æĽ´ èĥ½
æīį æľī
é»Ħ çĵľ
ä¸»åĬŀ çļĦ
å·¥ åľ°
è¿ģ å¾Ļ
ãģ ²
æĶ¯ éħį
çīĪ çº¸
åĲī åĪ©
ä¸į é«ĺ
E n
çļĦ è¯Ńè¨Ģ
ç¼ ®
çłĶç©¶ æĸ¹åĲĳ
æĶ» åĬ¿
ä¼¦ çĲĨ
åĪ© æģ¯
è¥Ħ éĺ³
æĸ¯ éĩĮ
çłĶç©¶ å®¤
èİ± åĿŀ
ç¨³ æŃ¥
ç¬¬åħŃ ç«ł
æĽ´ åĲį
æ¦ ķ
åĨ· æ°´
C o
åĪĨéĴŁ åĲİ
åı¯ ä½¿
æľ¬ åī§
çļĦ çŁ³
èµŀ èªī
æµĵ ç¼©
åŁİ éĹ¨
æķĪ èĥ½
ä¸į çĽ¸
æ³ķ æ²»
å½± è¯Ħ
å¥ĳ æľº
ç¢± æĢ§
åºĦä¸º éĤ»
æ·± åİļ
æ´ŀ ç©´
çļĦ æĿĲæĸĻ
èĬ ¥
æĭĨ è¿ģ
åŁĶ å¯¨
ä¹ĭ å¹´åı·
åĽĽ äºº
ç¼ĸ ç»ĩ
æĵį æİ§
åįĹäº¬ å¸Ĥ
ä¸İ ä¼ļ
ä¾ĭ å¤ĸ
è¿« ä½¿
æ¾ İ
æĭ¿çł´ ä»ĳ
åĪĨ åĮĸ
èĢĮ çĶŁ
æĮĩ æİ§
åĩł ä¸ªæľĪ
è½¯ æĿ¡
Ġ st
åı¯ æĢķ
ç¦» ä¸įå¼Ģ
ä¸¢ å¤±
æ°´ æ·±
ç»Ń éĽĨ
å¯Į è£ķ
åĪĺ å¤ĩ
) ï¼Ī
F ran
V IP
p l
åĥµ å°¸
ä¸¤ è¾¹
å¤ª å¤§
ç¼ĸ èĳĹ
åĪ¶ çº¦
æĹħ é¦Ĩ
æķ¦ çħĮ
åĩº åħ·
åĵģ å°Ŀ
z h
æ¸ħ æĺİ
åıĺ å¼Ĥ
ç´¢ å¼ķ
æĽ Ļ
åıĳæĶ¹ å§Ķ
è¿½ åĩ»
çļĦ æľĢåĲİ
æ¡ ¦
å°ıæĹ¶ åĨħ
æŁ¬ åŁĶå¯¨
æīį åįİ
å±ħ äºİ
ä½Ľ åĥı
çŃ¾ åĲį
åħ¶å®ŀ æĺ¯
V R
in ux
è½» å¾®
å¯Į è´µ
èµ° åĬ¿
T r
æĿ¥ å¾Ģ
é«ĺ é¢ĳ
åħ¨ åı°
ä½ľä¸º ä¸Ģç§į
ä¿ĺ èĻı
ä»Ģä¹Ī æł·çļĦ
è´¨ åľ°
æĶ¶ åĽŀ
å®¡ è®®
å¿ĥ è¡Ģç®¡
åĤ¨ èĥ½
çļĦ åĨ³å®ļ
åħ¬äº¤ è½¦
éĵľ çīĮ
æĮ¤ åİĭ
çİĽä¸½ äºļ
çļĦ ä¿ĿæĬ¤
æĪĳ åĴĮ
åįĥ äºº
çļĦå¤§ éĥ¨åĪĨ
åĽ½ ç±į
ä¸ľ ä¸´
è®° ä½ı
çĶŁ åīį
ä¼ł æİĪ
å¸½ åŃĲ
éĤ£ å°±
æĻ® ç½Ĺ
å¿į èĢħ
è¿Ļ æĦıåĳ³çĿĢ
å¹³ åĿ¦
çİ¯ æ°§
å¿ħ å®ļ
èģļ åĲĪçī©
äººå¤§ ä»£è¡¨
çļĦ ä¸Ńå¿ĥ
ï¼ļ "
åıĳå±ķ æĪĺçķ¥
èĢģ é¼ł
é¡¹çĽ® å»ºè®¾
å¢ĵ å¿Ĺ
åı° ä¸Ĭ
é¢ĺ çĽ®
12 8
ç¿ħ èĨĢ
x x
ä¸º åĲį
æľĪ åĪĬ
æķ° ä¸º
N HK
å®¶ åĴĮ
çĥŃ éĹ¹
åĽ½ æĹĹ
éĥ¨ ä¸ĭ
æ¸¸ è®°
åıĳå±ķ æĪĲä¸º
æĶ» åħĭ
æĬĹ åİŁ
çļĦ çĲĥåĳĺ
æľī æĹł
èĤ¥ èĥĸ
éĢĥ ç¦»
ç¥Ī ç¥·
Ġ å¯¹
æĺ¯ å¦Ĥä½ķ
åĴĮ çĶŁæ´»
æĪĳ è®¤ä¸º
éĿŀ åĩ¡
çĶŁäº§ èĥ½åĬĽ
å¹ķ åĲİ
èľ¿ èľĴ
è¡Ĺéģĵ åĬŀäºĭå¤Ħ
çº¢ æ¥¼
å½±åĵį äºĨ
7 000
Ġ ç¾İåĽ½
å¹³ åİ¿
æµģ æĦŁ
çļĦä¸Ģ ä½į
æ·±åĪ» çļĦ
ä¸ľ å±±
çļĦä¸Ģ èĩ´
éĥ½ å°Ĩ
å·ŀ éķ¿
åĽ½å®¶ æłĩåĩĨ
å¤§åŃ¦ æķĻæİĪ
ä½ķ æĹ¶
ç§Ł éĩĳ
æ¶¦æ»ĳ æ²¹
èī² è°±
çļĦ æľĢé«ĺ
åľ¨ å½ĵåľ°
ä¸Ĭ å±Ĥ
åį¡ å¡Ķå°Ķ
ç»Ī æŀģ
è¯Ĭ æ²»
å§¿ åĬ¿
eb ook
æĹ¥ æľĪ
åĬł è½½
å¹¶ çĶ¨
éĶ ļ
ä¸¤ å±Ĥ
èĬ± çº¹
åıĻ äºĭ
çļĦ ä¸¤ä¸ª
å¤§ åħ´
æĸ° æĿĳ
çĥŃ çº¿
å¤ļæł· æĢ§
çļĦ åı¯èĥ½æĢ§
æ²¹ æ¼Ĩ
å½ķ å½±
âĢĿãĢĤ âĢľ
åĭĩ äºİ
ä¸ī æĿ¡
ä¿Ŀ ç®¡
å¼ķ èµĦ
å¹´åº¦ æľĢä½³
Ðº Ð°
ä¸į å®ļ
çī© è¯Ń
æľĢ éĩįè¦ģ
çĿĢ éĩį
av id
çļĦ ç½ĳç»ľ
çļĦ å¦»åŃĲ
ä¿ĿéĻ© åħ¬åı¸
c l
ä¸ī å¤©
èµ· èįī
æ°Ķ æµģ
æĤ² åī§
æ´½ è°Ī
æł¸éħ¸ æ£Ģæµĭ
çº³ å°Ķ
æ²¼ æ³½
åĲį å¸Ī
å¤ĸåĽ½ è¯Ń
éľī ç´ł
è¿Ĳ ç®Ĺ
æĹ¥ èĢ³
èĤ ĺ
ç½Ĺ æĭī
å¤į æĹ¦
è¿ĺæľī ä¸Ģä¸ª
è®¾ç«ĭ äºĨ
å·´ çī¹
è¿Ļæĺ¯ åĽłä¸º
åĿļæĮģ ä»¥
è½¬ç§» åĪ°
çļĦ çĲĨè®º
ä¸º ä¸Ń
ä¹ĭ ä»¥
ä½ľåĵģ ä¸Ń
ä»£è¡¨ æĢ§
èĻļ åģĩ
æĭĵ å®½
æĳĦå½± å¸Ī
P R
ä¸¤ é¡¹
å¾Ī ä¹ħ
ä¼ļè®® ä¸Ĭ
åĢĴ æķ°
åľ¨ å°ı
æĺ¯ åħ¶
æł ©
æľŁ åĨħ
æİĴ æŁ¥
ä¼´ éļı
äºĮ èĢħ
åŀ ©
è¡¥ ç»Ļ
M et
D e
åħ¬ ç§¯
å¤ļ æĸ¯
ä¹Ł æĪĲä¸º
ä¸ĵ åĳĺ
çĽĳ æĬ¤
çªģ åĩºçļĦ
M M
ä¸Ģ çķª
ä¸į åĥı
æĶ¿ æ³ķ
åĽº å®ļçļĦ
æľ¬ èįī
åĵģ åĳ³
æ£Ģ ç´¢
os s
ï¼ħ ãĢĤ
çļĦ æľīæķĪ
ç²¾ éĢļ
èĩ´ åĬĽ
æĹ¥ è¢«
æİ¥ ä¸ĭæĿ¥çļĦ
æ¸¸ çİ©
è´Ł åĢº
æ¦ľ åįķ
åĬł åĽº
å¹³ æķ´
ä½ı æĪ·
æ¤į æłª
çļĦ å½¢è±¡
å®ļ çĲĨ
æĢİ æł·çļĦ
ä¸Ģ ä¸¾
ä¹ĭ çĶ¨
æİ¥ çº³
c i
åĢŁ æŃ¤
å¹´ åħ¨åĽ½
åıĳå±ķ åĪ°
éĵ¸ éĵģ
ä¸į ä¸º
å°ı çģ«
æ²³ çļĦ
æ²¡ èĥ½
åĪĻ çĶ±
ç«ł ç¨ĭ
éļĨ éĩį
åĲĪæ³ķ æĿĥçĽĬ
å¤ļ ç¯ĩ
åĵĪ å¾·
åı¬ éĽĨ
çĻ½ èıľ
æĶ¹ è®¾
ç§ĺ é²ģ
è¿Ŀ çº¦
æīĺ ç®¡
å¹³åı° çļĦ
ä¸º çĶ±
åįģ ä½³
ä¸ĸ éĶ¦èµĽ
èĲ½ çļĦ
èİ± æĸ¯
éģĩ ä¸Ĭ
å½ ¤
åħ« åį¦
åĬ¨çī© åĽŃ
çĶļèĩ³ æĺ¯
ä¸į æĪĲ
é£İ æ°´
å°ĳ æŀĹ
åĪĿ æ¬¡
å¨ģ åĬĽ
éĻ Ľ
ç¬ ¨
å·²ç»ı æľī
åıĺåĮĸ çļĦ
éĿ ´
åĳ¨ äºĶ
ä¸ĵç§ĳ åŃ¦æł¡
èĢĮ è¡Į
éĴ¢ ä¸Ŀ
çİ º
19 13
èī² è°ĥ
åĪĨ æīĭ
æ¬¾ å¼ı
çķĻä¸ĭ äºĨ
éķ¶ åµĮ
å¥½ å¥ĩ
é²ģ è¿ħ
çļĦä¸Ģ æīĢ
åİ»ä¸ĸ åĲİ
éķ ĸ
æĥħ æĢĢ
å¾Ī å°ı
ä¼Ĭ å°Ķ
åľ°æĸ¹ æĶ¿åºľ
ro up
2 60
å¤§ éħĴåºĹ
åĵģ çļĦ
ä¸ĭ æľī
on y
æĲ¬ è¿Ĳ
åĸľ å¥½
ä»£è¡¨ éĺŁ
éĤ» å±ħ
åĴĮ è¥¿
ä¸Ĭ è¯ī
å¤ļ ä¹Ī
äº¤ ä¼ļ
é² Ī
åŃĺ æ´»
æ±ī åł¡
èĦ± æ°´
é«ĺ èģĮ
æĢİä¹Ī æł·
2 30
æĺ¯ ä¸İ
å¦Ĥæŀľ ä¸į
èĦ¸ ä¸Ĭ
ĠĠ ĠĠ
æĽ ľ
å®ŀ åĬ¡
ä¿Ŀè¯ģ äºĨ
7 50
åĮĸ çĸĹ
å¹¶ è´Ń
äºļ çĥŃå¸¦
åĪĩ çīĩ
çĲī çĲĥ
éĺ ±
ç½Ĺ éĤ£
çªģ åİ¥
åŃ¦ åĴĮ
æŃ¤ ä¹¦
å©ļ çº±
çĶµæ°Ķ åĮĸ
è§£ è¯´
è¶ħ åĩº
å¿½ çĦ¶
å¸ĥ ç½Ĺ
Ġ 15
çĽ ı
é¥® éħĴ
190 7
T R
ä¸º ä¸Ģä¸ª
å¤ĸ éĿ¢
ä¼į å¾·
åĩ»è´¥ äºĨ
è½¦ èº«
ĠC ol
æľ¯ åĲİ
é£İ æ¹¿
æĬ¤ åį«
å¹² äºĭ
æīĢæľī äºº
å¹³åı° ä¸Ĭ
çĸĳ éļ¾
è¯º æĸ¯
æĢª åħ½
ä¼Ĳ åħĭ
åĨį çİ°
æĿ¿ ä¸Ĭ
G DP
ä½ĵ åĬĽ
é¦Ļ èķī
æĬ¤ èĤ¤
çĭ© çĮİ
åĨľ å®¶
è¯ķç®¡ å©´åĦ¿
G e
æĹ¶ ä¸º
è§£ æ¯Ĵ
æĦŁ åĴĮ
çªģ åıĺ
çĤ® åħµ
åĵ ĳ
åĲĪ åĬĽ
æĽ¾ æľī
åºĵ å°Ķ
èĴĤ å®ī
åŀĭ çĶµåĬĽæľºè½¦
çªĹ æĪ·
ç§ ĥ
æĪĲ è¯Ń
ä¸ĸ å®Ĺ
ä¹Ĳ åĿĽ
å¹² éģĵ
è¿ĺ ä¸į
æ²³ åĨħ
åı¯ è§Ĩ
ä¹ĭ åĬĽ
æĶ¾ çĶµ
åįł çĶ¨
o o
åıĸ èĥľ
ãĤ ģ
çļĦæĸ° åŀĭ
è¡¨ æł¼
èĢģ çĻ¾å§ĵ
äº§ä¸ļ åĽŃ
çĬ¯ è§Ħ
æ´Ľ ä¼Ĭ
åįµ å·¢
çļĦåīįæıĲ ä¸ĭ
å¹´ åįİ
åĲİ è£Ķ
å°± ä¸įä¼ļ
å¦Ĥ æĿ¥
æ¸ħ æľ«
éħį ä¹Ĳ
èĩ´ å¯Į
å¿ħ å¤ĩ
çŀ ©
190 8
çŃ¹ å»º
è´¹ åŁİ
èį¯ çĶ¨
æľ± åħĥ
æľīäºĽ äºº
ak e
æĹ¥ æĸĩ
éĹ¨ ä¸ĭ
åĩº æīĭ
åº§ æ¤ħ
æ¥¼ å±Ĥ
éĺ¶æ®µ çļĦ
uc t
ãĢĤ [
èĩª æľī
åķĨ åŃ¦éĻ¢
å¤į ä¹ł
é¦Ļ èıĩ
çķĻ æĦı
ç»§æī¿ äºº
è¦ģ æĬĬ
å¹¿ å²Ľ
è¿ŀ åĲĮ
w it
åľ¨ ä¸ĸçķĮ
ä¸¾è¡Į äºĨ
åĩŃ è¯ģ
ç»¿ åľ°
ç§ĳ è¿Ľå£«
é©¬ æģ©
çĶ° åĽŃ
éľĩ æĴ¼
éĥ ¸
åĴ¨è¯¢ æľįåĬ¡
å¾®éĩı åħĥç´ł
ï¼Į âĢĿ
è¨Ģ è¯Ń
æ¥ļ åĽ½
ad e
æĮĩæĮ¥ éĥ¨
âħ ¡
P lay
ä¸º èĩªå·±
åĢ Ń
è§£ åīĸ
ä¸Ń ä»¥
å·¨ æĺŁ
å¼º åĬ¿
åıĸ äºĨ
éĺ¿ æĸ¯
èī ®
å®ļ éĩı
äº¤ æĪĺ
é¾Ļ å±±
æ´¾ äºº
åĬ³åĬ¨ èĢħ
ä¸İ æİ¥å£¤çļĦå¸Ĥéķĩ
åĲĮ ä¸º
èĤ² äºº
åħ« ä¸ª
éĺ´ éģĵ
ç«ĭ éĿ¢
çļĩ å®¤
å¯¼èĩ´ äºĨ
å¤§ ç±³
è± ģ
ç¦ħ å¸Ī
èĩª åľ¨
ç¬¬ä¸Ģ åŃ£
æ¸¸æĪı ç®Ģä»ĭ
å¸® æī¶
çĽ®æłĩ æĺ¯
å¹´ ä»ħ
æľ¬ åĬŀæ³ķ
æĺŁ æĺŁ
ç»Ĩ åĪĨ
è¡ĮæĶ¿ ä¸»ç®¡éĥ¨éĹ¨
R ob
çĦ Ļ
å®īä¸ľ å°¼
åŃ¦ è´¹
å¹¶ æıĲä¾Ľ
éħį çĶµ
è¶Ĭ å¤ļ
èĹ ķ
å°±æĺ¯ åľ¨
ä¸¥ ç¦ģ
æľºåĬ¨ è½¦
ä¸į ä¾¿
éĩį ä¼¤
åı¤ å·´
èĩªçĦ¶ çļĦ
èģĺ çĶ¨
èĥ ±
ä¸Ĭ ä¸ĸçºª
è¿Ļ ä»¶äºĭ
åĩĨ åĨ³èµĽ
éĢĶ ç»ı
éĤ£ æĺ¯
æĹ§ éĩĳå±±
äº® åº¦
åĵ² åŃ¦å®¶
å¤ļ ä¸ĩ
è¯´ åĪ°
å½± å±ķ
çļĦ ä¹¦
è¯ĳ æĸĩ
éļ ħ
11 3
æľĿ æĹ¥
å¢ĵ åľ°
éĢĥ äº¡
åĪĨ æĺİ
æīĢ èĥ½
æ°Ķ åĳ³
æĪĲ éķ¿çļĦ
åĪ° æľŁ
çıł æ±Ł
éĽĮ æĢ§
2 10
å°± æŃ¤
èĲİ ç¼©
ä¸Ń åŃ¦æł¡
å°Ħ éĹ¨
éľĢæ±Ĥ çļĦ
é«ĺçº§ å·¥ç¨ĭå¸Ī
ä¹ĭéĹ´çļĦ åħ³ç³»
æŀĦ çŃĳ
çīĩ å°¾
æĹ© é¤Ĳ
å¤ĦçĲĨ çļĦ
æĺİæ²» ä¸īåįģ
æĶ¾å°Ħ æĢ§
åľ¨ è¿ĻäºĽ
è¯Ń æ³ķ
æ¡ ¨
éĩĩ æł·
ç¬¬åįģ ä¸ĥ
ä¸Ń ä¹Ł
åĶ® ç¥¨
ä¸ĭ éĥ¨
é¦ĸ è½®
è°· æŃĮ
æıĲåįĩ äºĨ
P H
éĩĳ åįİ
ä¿¡ è´·
æĽ´ åħ·
ä¸ĩ å¤ļ
è§Ħæ¨¡ çļĦ
ä¸¤ éĺŁ
æŀĦ æĪĲçļĦ
å°¤ æĸĩ
å¹´ ä¸ĸçķĮ
çİĩ è¾¾
åŃ£ åĨĽ
åĲĥ çļĦ
éľį å°Ķ
å¼ĺ æ²»
çļĦ æĦıä¹ī
ä¸Ģ æĹł
çļĦä¸Ģ å¹´
æĺ¯ä¸Ģ é¡¹
åĽłä¸º ä»ĸ
çĿ£ ä¿ĥ
èĦļ ä¸ĭ
èĪĨ è®º
çļĦ è®¡åĪĴ
çº¿ åĴĮ
æĢ» åħµ
å§Ķåĳĺä¼ļ ä¸»å¸Ń
åħ¬ åŃĻ
âĸ ł
åĭĺ å¯Ł
åĪ¶ åīĤ
è§¦ åıĳ
æ¯« åįĩ
åĩ¯ å°Ķçī¹
èįĨ å·ŀ
And roid
åħ³ ä¸ľ
æīĵ å·¥
s ch
åı¯ å°Ĩ
äº¿åħĥ äººæ°ĳå¸ģ
ä¸Ń ç§ĭ
ä¸¤ éĿ¢
æĿİ çĻ½
å±ł æĿĢ
ä¸Ń ä¸ĸçºª
ä»¥ ç¡®ä¿Ŀ
å½ķ åĥı
ä¸īåįģ å¹´
å¡« æĸĻ
åĽ½ éĵģ
åħ± éĿĴ
å°± ä»»
èį Ł
å·¥ç¨ĭ çļĦ
åı³ æīĭ
åįıä¼ļ ä¼ļåĳĺ
èħĲ è´¥
è¯± å¯¼
ãĥĥ ãĤ¯
éĽĨ ç»ĵ
å¥³ è¶³
åİ» åģļ
éª¨ å¤´
æĹħè¡Į ç¤¾
è¿Ļé¦ĸ æŃĮ
PV C
åıĳçĶŁ äºİ
åį°åĪ· æĹ¶éĹ´
èĪª è¿Ĳ
å®¾ å®¢
ä¸į ä¸ĭ
ä½ł åľ¨
ç»Ń çº¦
åıĸ èĩª
åıĪ ä¸Ģ
åħ¬å¸ĥ çļĦ
ä¹¡æĿĳ æĮ¯åħ´
èı²åĪ© æĻ®
åįĹ ä¸ĭ
æĿĳ äºº
æİ§åĪ¶ çļĦ
åĶ± æŃĮ
ä¸ģ åł¡
190 4
å¥¥æĸ¯ æĽ¼
èĢĮ æĿ¥çļĦ
æĪĺ èĪ°
ä¼ģ äºĭä¸ļåįķä½į
II I
åīį çº¿
h a
é«ĺ æĢ§èĥ½
ä¹Ł è®©
åĽ½éĻħ è´¸æĺĵ
å¤§ äºº
æ± ²
åĤ¨ èĵĦ
å°¼æ³Ĭ å°Ķ
S K
æľ ½
æĳĦ åħ¥
ç»ıèĲ¥ ç®¡çĲĨ
ro w
è¶ħè¿ĩ äºĨ
åĳķ åĲĲ
ä¸Ń éĺŁ
è¿ĩ é«ĺ
ç»Ļ æĪĳä»¬
ãĤ ¬
æĭ¼ æĲı
å© ¿
ç¡¬ çĽĺ
åĨħ åĪĨæ³Į
åĲĦ æĸ¹éĿ¢
ä¾¿ ä¼ļ
æĸ¹åĲĳ çļĦ
åĴĮ å·¥ä½ľ
ä¸į è¢«
å¤Ħ æĸ¹
ä¸ŃçļĦ ä¸Ģä¸ª
è°¢ å°Ķ
d e
æīĢ çĶ¨
åºĶ ä»ĺ
æİ¥ ä»»
å°¼ æĹ¥
é»Ħ å¸Ŀ
äºļç¾İ å°¼äºļ
æİ¨ ä»ĭ
æīĺ å°Ķ
ç«ĭ çļĦ
H T
åį¡ çī¹
æ³¨æĦı åĬĽ
çĤ ¬
éĩĮ å¥¥
Ġ #
ä¸Ģ è´¯
æĪĲ åĮĸ
é«ĺ ä½İ
éī´ èµı
åħ¥ éĹ¨
å°º åº¦
å·ħ å³°
ä¸į è¿ľ
è¨Ģ è®º
é¹ ī
çļĦ çĶŁåĳ½
åı¯ä»¥ çĽ´æİ¥
èĬĤ çļĦ
ä¸º è¯¥
å¼Ģ éĹ¨
æ¨ª è·¨
tern ational
ä¸į åĪĨ
åĨ° éĽª
ill iam
æĺİ æĹ¥
çĤ¹ çĲĥ
æ²¹ çĶ°
éĿ© æĸ°
ä¸į æĩĤ
éĩı åĮĸ
çļĦä¸Ģ æ¬¾
13 00
S D
æī ¯
çĤ¹ è¯Ħ
å¾ĹåĪ° çļĦ
ï¼ Ķ
åħ ĸ
éĢ Ľ
åı¸ å¾Ĵ
æĺŁ åħī
in o
ä¸ĢèĪ¬ æĺ¯
æĳĦ æ°ı
Ġ åīį
æĹł æķĮ
éĵº è®¾
å¹´ åĿĩ
éĹª çĶµ
W eb
è· ª
æ²»çĸĹ æĸ¹æ³ķ
çļĨ æľī
åĴĮ éĺ¿
åĲį åı¤å±ĭ
åħ¨ å®¶
æ²³ æ°´
æĪĲå¹´ äºº
ä¼ģ åĪĴ
ä½Ļ åĲį
ä¸Ģæµģ çļĦ
åİĭç¼© æľº
ç©Ĩç½ķé»ĺ å¾·
é¢ ¤
å°ļ æľī
B e
åĬ³ å·¥
æ²¿ çĶ¨
éĤ ¨
å¤´ ä¸Ĭ
æ·± å¤ľ
æĹħæ¸¸ ä¸ļ
11 7
æĪĲåĬŁ åľ°
å¼± çļĦ
å·´å¡ŀ ç½ĹéĤ£
å¯¹ åĨ³
å¼Ģ éĺĶ
çĲ ¶
åıĪ ç§°ä¸º
ç¦ı åĨĪ
å·¥ç¨ĭ é¡¹çĽ®
ä¸ģ çĽ®
èĩªæĿ¥ æ°´
ä¸į ç»Ŀ
æ¯ı äºº
ç¦ı å°Ķ
é¢Ħ è®¢
æĤī å°¼
æµģè¡Į çļĦ
åı¯ åı£
O C
éª ¸
åĪ¤ å¤Ħ
æĹ¥å¸¸ çĶŁæ´»ä¸Ń
äººå¤§ å¸¸å§Ķä¼ļ
R e
æİĴ æ°Ķ
æĤ£ çĹħ
ä»İä¸ļ äººåĳĺ
å¯¹ éĿ¢
æĸ° æµª
çĶµ èĥ½
æł¼ æĸ¯
æĽ¾ æĭħä»»
ç§¯æŀģ åıĤä¸İ
çļĦ æĬķèµĦ
åľ¨ éĤ£
å»º åĪ¶
çĶ± è¯¥
ç¤¾ ç¾¤
æĹ© æĻ¨
ä¾µ åħ¥
çĪ¶äº² çļĦ
èµĽ éģĵ
æŀľ çĦ¶
åı¯ ä¸İ
çŃī æľįåĬ¡
å¼ı å»ºçŃĳ
å·¥ä¸ļ åĴĮ
åĲį ä¸¾äºº
çĤ¹ çĤ¹
è®¤è¯Ĩ åĪ°
èĬĻ èĵī
æŀ ¸
è¾ ľ
æİ¨ å´ĩ
æĭĮ åĮĢ
ä¸Ģ å£°
éĻ ĭ
çľ º
åŁİ ä¸Ń
å¤§åŃ¦ å£«
æĬĹ çĶŁç´ł
Ġ æľī
å¼ Ī
ä¿¡ éķ¿
æĬĬ èĩªå·±
èĥľ åľ°
èħ¹ æ³»
åħĭç½Ĺ åľ°äºļ
çİ»çĴĥ éĴ¢
oc i
åĮĸ è§£
å°ı æĹ¶åĢĻ
æĪĳ çľģ
é¢Ħ è¨Ģ
Ġ ä¸Ģ
çļĦ æľ¬
å®Ī å¤ĩ
ac ebook
æĹł çĹĩçĬ¶
çĿĢ çļĦ
åĽ´ æĶ»
å¹´ æĺ¥
é«ĺ åĪĨåŃĲ
åĩł çİĩ
æĹ¥èĢ³ æĽ¼
åĨľ ä½ľçī©
åĲĮæĹ¶ è¿ĺ
ä¸į ç¡®å®ļ
éĢī ä¸Ń
çĻ½ èī²çļĦ
ç´¢ æģ©
çĲĨè®º åĴĮ
m p
Ġ éĥĳ
åĩº åħµ
ç©ºéĹ´ çļĦ
åºĻ å®ĩ
äºº èº«
æīĵ çĶµè¯Ŀ
æĶ¿æ²» éĥ¨
åĩº æ°´
çŁ³ çļĦ
è°ĥ çĲĨ
çĪ± ä¸Ĭ
è§ģ è§£
åį´ åľ¨
éĻĪ è¿°
è½® å»ĵ
æľĢ éķ¿
æĬ¥ éħ¬
ä½Ĳ èĹ¤
åıĤèµĽ èĢħ
âĸ ¡
å½ĵ æĻļ
éħ¿ éĢł
ä¹Ł åı«
èİ Ĩ
è¾ĥ éķ¿
é¦Ļ æĸĻ
P r
æīĢ è¯´çļĦ
å¹¿ çĶµ
è´£ ä»¤
å¾ģ éĽĨ
å·¥èīº åĵģ
ĠE n
çļĦ é»ĳ
åĮĹ ç«Ļ
æŃ¦ çĶ°
is e
æĽ² æĬĺ
çļĦ åĬŁæķĪ
åŃ¦ æ´¾
è·¯ å¾·
é©¬ è·¯
çº¢ èī²çļĦ
æ¢³ çĲĨ
æľŁ ä¸º
çİĭ åºľ
éĨ ļ
å¸ķ å°Ķ
åľ° æ®µ
æĺ¯ä¸Ģ äºĽ
æĺ¯ ä¸ĸçķĮ
å¹¶ èĥ½
åıĤ éĢī
å®ĺæĸ¹ ç½ĳç«Ļ
çļĦ æĹ¥æľ¬
çĶ² çº§èģĶèµĽ
çģ« çĤ®
æĤ£ ä¸Ĭ
åĨľä¸ļ å¤§åŃ¦
çĶº æĿĳ
åĴĮ åĽ½éĻħ
åĬł åī§
èįī èİĵ
å¤ ¯
çŃī ä¸Ģç³»åĪĹ
ç½ĳ çĤ¹
çĶ¨ åľ¨
å¯¹åºĶ çļĦ
æĺ¯ è¢«
æľĪ åıĤåĬł
æĿ¡ è§Ħå®ļ
æŃ» çļĦ
èįī åľ°
è¿Ľ é©»
é£İ åĲ¹
æĹ¥ åĩĮæĻ¨
ç¾ Ł
å¦Ĥ æĦı
æĶ¾ éĢģ
çĻ¾ å¼º
æĮī è§Ħå®ļ
ç§¯æŀģ çļĦ
åľ£ åľ°
éĺµ èĲ¥
çĺ ¾
éĥ¨ çº§
è¢« å¹¶åħ¥
éĶģ å®ļ
æ¼ı æ´ŀ
çĢ ļ
ç» ļ
åĬ¨ æľº
è¢« æįķ
éŁ Ń
å¼Ģ åŃ¦
æĹ© å°±
æĴŃ åĩºçļĦ
19 15
çŁ¿ çī©è´¨
æĭľ åįł
éĢł åĥı
åģļ è¿ĩ
éĩİ å¤ĸ
åħ¨ åŀĴæīĵ
çĶ» çļĦ
am b
é«ĺ æ¡¥
å±ķè§Ī ä¼ļ
æĶ¿åįı å§Ķåĳĺ
é¹¦ é¹ī
åľ¨ ä¸Ģå®ļ
å¸Ĥ åĨħ
æ¸ħ åĨĽ
çļĦ ç»¼åĲĪ
å¹´ æĭħä»»
æĸ° å¨ĺ
æľº åŀĭ
æĺİ æľĪ
èģĶ æĥ³
åįķ è¯į
èı² å°Ķ
åľ¨ æķ´ä¸ª
åĨį çĶ¨
è§Ĵ çļĦ
åĲ¸ çĥŁ
éĶĻ è¿ĩ
å¹´ æ¬§æ´²
æķ ĸ
å¤§ åĲį
æ°´ åİ¿
å°Ĩ è¦ģ
é£İ éĩĩ
çĶ· çĶŁ
åĲ¸ åħ¥
ç§ĭ å¤©
ä¸Ń ä¿¡
éķ¿ èĢģ
çļ® éĿ©
ç¬Ķ åĲį
é¥ º
åıĳå±ķ æľīéĻĲåħ¬åı¸
åĩł åĨħäºļ
è° Ľ
æģ ķ
æ¯ı å°ıæĹ¶
ä»Ĭ å±ŀ
åª ³
ä¸Ģ ç«Ļå¼ı
å®ļ äºİ
è®© åŃ©åŃĲ
å·¦åı³ çļĦ
å°Ĭ æķ¬
åŁºçĿ£ å¾Ĵ
çİ° è¡Į
åĪĻ ä¼ļ
æľ±åħĥ çĴĭ
L a
Ġ çŁ³
äº² åĪĩ
çļĦ çī¹å¾ģ
æ¼ ĵ
çĶ±äºİ åħ¶
ä¸įç®¡ æĺ¯
æĿ¥ åĪ°äºĨ
ä½Ĩ æ²¡æľī
å·² æĺ¯
ç¬Ķ è¯ķ
è¶ħ äºº
çĶµåŃĲ éĤ®ä»¶
åŁ¹è®Ń æľºæŀĦ
ä¹¦æ³ķ å®¶
ä¸Ģ ä¸Ń
æľĢ å°ĳ
å·´ åĭĴ
åŃ¦ éĥ¨
åħ¨ ä¹¡
æĶ» è¯»
æĦī å¿«
çļĦ æİ§åĪ¶
å¯¼ åħ¥
åı ®
ä¸Ģ çľĭ
å¥ī åĳ½
å¤įåį° ä»¶
T E
çļĦ æĶ¿æ²»
ç¬¬ä¸ī ä»£
ç¼ ī
ç´ Ĭ
éĽħ åĲĦ
çķħ éĢļ
: âĢľ
ä¸Ĭ æĬ¥
åİĨåı² æ²¿éĿ©
ä½Ļ é¢Ŀ
èµĽ åĨłåĨĽ
å¸¦ ä¸Ĭ
æģĴ å¤§
ç¾İåĽ½ æµ·åĨĽ
äºĴ åĬ©
é«ĺåº¦ éĩįè§Ĩ
é¹ Ń
åĪĨæŀĲ åĴĮ
ç«ĭ äº¤
æĬļ åħ»
çºł æŃ£
åĭĺ æİ¢
å¤© èĬ±
æĹł ç¼ĺ
çĨ ¹
å³ Ļ
æĭĽåķĨ å¼ķèµĦ
ä¸Ń ä¸ĵ
âĢĿ ï¼ļ
è§Ĵ èĲ½
éĶħ åĨħ
èĿ ĩ
åĪ¶å®ļ äºĨ
âĢĶâĢĶ âĢľ
æŃ£å¼ı æĪĲç«ĭ
ç« º
äº¤ æīĢ
å®¶ æĿĳ
è¢« åĪĹä¸º
ç»ĵ å°¾
çīĩ åĮº
éĿŀ çī©è´¨
åĬŀåħ¬ æ¥¼
çļĦ ç»ıéªĮ
åģļ å¾Ĺ
æļ ĩ
è¡Įä¸ļ ä¸Ń
ä¼¯ åĪ©äºļ
æľī ä¸¤ç§į
å¤§ è±Ĩ
æµ· æ¹¾
éĩĳ èī²
æĥħ ä¾£
ç¥¨ æį®
çĺ Ģ
åįģä¹Ŀ å¹´
) ãĢĭ
åĩº è®©
ä¾ ĥ
æİ¥ è¿ŀ
æĪ· åŀĭ
æĤ² ä¼¤
æĢ» æķĻåĮº
éļ¾ éģĵ
çļĦ æŃ£
ä¸Ń ä¹ĭ
å¼Ĥ è®®
æīĢ è¯´
æº º
å¹¿ ä¹ī
å¦Ĥæŀľ æľī
æ±ĩ çİĩ
è°ĵ ä¹ĭ
ä¸ī çĶ²
é¦ Ģ
å¢Ļ éĿ¢
è¯¸èĳĽ äº®
ç®Ģ ä¾¿
è¯Ħ å§Ķ
ç¬¬åįģ åħ«
é²ľ èĬ±
åĽ½ åŃĲ
å¤ĸ åĮħ
éĩĮ éĿ¢çļĦ
æĪ¿ ä»·
le t
èµ¶ åĪ°
ä¿¡çĶ¨ åį¡
èĬ³ é¦Ļ
åħ¬å®ī å±Ģ
] ãĢĤ
åĳĺ çļĦ
åī§ çĥĪ
æ¾ ¡
äºĨä¸Ģ æī¹
è¾½ ä¸ľ
m e
çľ¼ ç§ĳ
åĲĳ å¾Ģ
æ¸ħ æĻ¨
çħ ŀ
åĽłä¸º åľ¨
æ¤įçī© çļĦ
åħ¬ è®¤
å¤ĸ æĺŁ
åıĤ è®®éĻ¢
ĠP l
è´« è¡Ģ
çģ¿ çĥĤ
æĺ¯ ä¸ĸçķĮä¸Ĭ
é¦ĸ åĪĽ
æĪ· ç±į
å®£ è¨Ģ
ç£ Ĳ
åħ¬åħ± äº¤éĢļ
é¹ ĥ
èµł éĢģ
é¦ĸ æĺł
åĩı å¼±
ä¸ĵ è®¿
è°Ī è¯Ŀ
å¹´ æīį
å¦ Ĵ
åıį åĵį
å¾ģ æ±Ĥ
éĩĩè®¿ æĹ¶
å¿ĥèĦı çĹħ
çĲ ¢
çĲĥ è¡£
è¿Ĳ è½½
èĮ ¸
çķĻ ä¸ĭçļĦ
åıĳçİ° äºİ
é½Ĳ åĽ½
ï¿ ½
è½¬ æĬķ
å±Ģ åĬ¿
éķĩ çļĦ
Ġ 17
ä¸Ģ åį·
åħ¬ æ¼Ķ
ç®Ģ çº¦
å¥¥ åĪ©
æĢ¥ æķĳ
Ñ ı
å¤§ æĪĲ
ä½ĵ å¤ĸ
åıĬ åĲİ
ç¥ŀ åºĻ
ä¸Ģ ç±»
æĶ¶ å¤į
æĸĩ ä½ĵ
åħ¶ä»ĸ äºº
ĠM us
éķĩ æ±Ł
æ»¡ äºĨ
å®ľ åħ°
çļĦ èĮĥåĽ´
åħ¶ é¡¿
ç«ĭ é¡¹
ç¬¬ä¸ī ä¸ª
åı¯éĿł çļĦ
çī¹ çĥĪ
èļ Į
âī ¤
ä¸Ń éĢĶ
æ¯į èĪ°
åĮ»åŃ¦ ä¼ļ
ä¸į èĥľ
èĲ ¼
ãĥ §
çŀ ³
O r
çĻ½ åŀ©
åıĭ æĥħ
åĲ¸ è¡Ģ
ä¸ºäºĨ è®©
æĬĺ åıł
çĽ İ
å½¢ çĽ®
åŃ¦çĶŁ åľ¨
éĻ· éĺ±
up er
å·¥ å§Ķ
è¥¿ åĮº
è¯´ äºĨ
è´§ è½¦
ä¸ĭ åįĬå¹´
ä¸ĩ è¾Ĩ
äºĶ è¡Į
çĽ´ éĢļ
è¿Ļä¸ª åĲįåŃĹ
æĶ» åħ³
ä¸ī ä»£
ç§į çļĦ
æĶ¾ ä¸ĭ
è®¡åĪĴ çĶŁèĤ²
ç§ĳçłĶ æĪĲæŀľ
çĨĬ çĮ«
å¤§äºĭ è®°
èĢĮ åİ»
è®¢ è´Ń
ä¸Ń æłĩ
å¤ļ å¤ļ
æĺ¯ éĿŀ
å®ĺ åħµ
çģ« çĥ§
å»ºçŃĳ ç¾¤
éĿŀå¸¸ çļĦ
åİĦ å°Ķ
Ġ 2002
åĢĻ è½¦
æ¢ħ å°Ķ
æĬµ å¾¡
Ph one
çļĦ æ³ķå¾ĭ
èıľ èĤ´
ä¹° å®¶
C ar
å¤« æĸ¯åŁº
èĲ½ åı¶
at er
æ²»çĸĹ çļĦ
å®¢ åİħ
æĪĺæĸĹ ä¸Ń
S N
11 6
æİĴ åºı
è´Ń ç½®
åĩı å°ı
è·µ è¡Į
äºĮ çĶ²
é¾ Ľ
äºĳ è®¡ç®Ĺ
TV B
çĶŁ å§ľ
è¥¿ çĵľ
åħŃ å¤§
åĨ· èĹı
æĪĪ å°Ķ
E F
çļĦ å¹³åı°
åĩº ä¸Ģä¸ª
å¯¹ ä»ĺ
ä½Ĩ æĪĳ
å¤Ħ å¥³
æĶ¿åºľ ä¿¡æģ¯åħ¬å¼Ģ
åĩı æİĴ
çģ° å°ĺ
ä¼ĺèī¯ çļĦ
çĽ² çĽ®
ä¸ľèİŀ å¸Ĥ
ï»¿ ãĢĤ
åĬłåĪ©ç¦ı å°¼äºļå·ŀ
ä»İ åīį
åĪĨåĪ« åľ¨
ç¼ĸè¾ĳ æİ¨èįĲ
èĺĳ èıĩ
åħ Ģ
åĽ½ åºĨ
ï¼ļ (
æİ¥ å¤´
æĶ¾ æĺł
åģļ ä»Ģä¹Ī
åĶ¯ æľī
å¹´ ä¸Ĭæĺł
çĶŁ æ°Ķ
ç±³ é«ĺ
æľº èº«
å±± ä¸Ń
èµ· åħµ
ç»´ åº¦
åĢ¼ çļĦ
çİ°ä»£ åĮĸçļĦ
å±ķå¼Ģ äºĨ
ä¸ĸ äºº
æĭį çħ§
è¯Ĭ æīĢ
èĿ İ
ä¿Ħ è¯Ń
åĨ³å®ļ äºĨ
æĬĽ å¼ĥ
å¥ł åŁº
éĤ¯ éĥ¸
Ġ âĢĶ
ä¸Ĭ çľĭ
ä¸İ æĸ°
æīĢ èĳĹ
åīį è¡Į
æķ° é¢Ŀ
å»¶ å®ī
ç¨³ åģ¥
å¼Ģ æľĹ
å½ĵ åľº
çĻ½ çŁ³
ç¬¬äºĮ ä»£
åĩºçīĪ çļĦ
èĢģå¸Ī çļĦ
CE O
éĩİçĶŁ åĬ¨çī©
ä¸ª ç¯®æĿ¿
èį¯ æĿĲ
æĢĿ å¿µ
æ¨± èĬ±
Ġ ä»¥
åĮĹ éĿ¢
çĸ ¤
åįļçī© éĻ¢
åħ¬å¸ĥ äºĨ
äºİ ä¸Ģä½ĵ
åĲİ ä¸º
èĦļ æŃ¥
ç«Ļ æĪ¿
éķĩ å®Ī
B R
äºĮ åįĥ
ç¬¬ä¸Ģ è½®
æľ¬èº« çļĦ
âĺ Ĩ
å¼Ģ æĴŃ
æ°´ ç®±
å·ŀ ç«ĭ
ç»ıæµİ å¢ŀéķ¿
æĹ© æĹ¥
è¡Ģ ç»Ł
èĤ¥ æĸĻ
çľ¼ åħī
åħ¥ é©»
éĽĨ çļĦ
è¯¥ å¸Ĥ
å°ĳ åį¿
è¾ĥ å¼º
éĺ² çº¿
æİĴ æ±¡
en e
å·¥èīº ç¾İæľ¯
åĲİ å¤ĩ
å¤ļ åĲĥ
äº¤ æĽ¿
æĲ ģ
æĪĲ ä»½
æĪĸ åľ¨
çĽ´è¾ĸ å¸Ĥ
åĪĨ åºĹ
æİ¨ ç¿»
åĩ» éĢĢ
èĥĮ åĲİçļĦ
è®° è¿°
æİĴ çĲĥ
çĶŁæ´» æĸ¹å¼ı
Ġ 16
æŁ ļ
äº§åĵģ åĴĮ
åıį å¼¹
ä¿ĥè¿Ľ äºĨ
æį Ĩ
ä¼ł å¯¼
å²ģ ä»¥ä¸Ĭ
ro p
æīĢåľ¨ çļĦ
åįĹåĮĹ æľĿ
3 80
ä¸į é¡¾
å°± è¿Ļæł·
èº« åĪĨ
å®Į å¥½
æ·± è¿ľ
å®ĺ èģĮ
æķ° ä»¥
åįķ ä¸ª
åĨħå®¹ åĮħæĭ¬
å¾ĭå¸Ī äºĭåĬ¡æīĢ
è´ ±
ç»ĵ è¯Ĩ
æľįåĬ¡ åĴĮ
æĪĲä¸º ä¸ŃåĽ½
é±¼ çļĦ
æįŀ åĩº
a el
å¹´ ä»¥ä¸Ĭ
èĥ½ ä¸º
æĮ Ŀ
å½± ä¸ļ
éĿĻ æĢģ
ous e
äºº éĢī
ä»¥ åĲİçļĦ
ä¹ĭ ç¥ŀ
è¾ĥ å·®
çĵ· åĻ¨
ä¸ª æ¡Ī
å¥½ èİ±åĿŀ
åİ¨ å¸Ī
ï¼ī âĢĿ
an e
åį« åĨķ
é¢Ħ æĬ¥
é¡º æĹ¶éĴĪ
æľ¬ç§ĳ çĶŁ
Ġ èµµ
çª ĸ
äºĨä¸Ģ ä»½
æĹıèĩªæ²» åİ¿
åĬł æ·±
æĭī çļĦ
å±ħ å£«
çĲĨå·¥ åŃ¦éĻ¢
"ãĢģ "
åĨ ī
r al
Ã ¶
ç¬¬ä¸Ģ æĿ¡
æ¸¯ åĮº
è¯į åħ¸
å¾Ĵ åĪĳ
çļĦä¸Ģ ç³»åĪĹ
å¼Ģ è½¦
æıĲä¾Ľ åķĨ
åºŀ å¤§
ç§¯ç´¯ äºĨ
èħĵ çī¹çĥĪ
æĺ¯ æĸ°
ä¹Ł ç§°ä¸º
æ¯ı å¹´çļĦ
è¡Ĺ åĮº
ä¸į å°½
åı¯ å®¹çº³
æ°´ æ³µ
åĪ© å®ī
æ· Ĩ
åįķ è½¦
æĺ¯ä¸Ģ ä»¶
åıĸå¾Ĺ çļĦ
190 2
ä¼łæŁĵ çĹħ
ä¸Ń èİ·å¾Ĺ
å¤§ éĥ½
èģ Ĩ
åıĺ è´¨
è¾ĥ å°ıçļĦ
åľ ĥ
è½ ¼
å¹¶ åĪĹ
äºī è®º
) ï¼Ľ
ä¸ī çŃī
ä¸¤ å¤©
éĹ¨ å¸Ĥ
éĻį æ¸©
å« Ķ
è´´ è¿ĳ
å¸¦é¢Ĩ ä¸ĭ
ä¸Ģ åĲĳ
åŃ¦ åŃĲ
æĪĸ æľī
an y
ç¼º å¸Ń
åŃ¦ éĹ®
å®ģ å¸Ĥ
åį«çĶŁ éĥ¨
ä½Ĩ å®ĥ
11 00
çĿ£ å¯¼
é¢Ĩå¯¼ èĢħ
ä»¥ éĺ²
19 16
åħ¥ æīĭ
çĽ¸ æİ¥
æĮĩ å®ļçļĦ
ä½Ľ æ³ķ
å¼¹ èį¯
åĮºåŁŁ çļĦ
å¹¶ åı¯
é£İ æīĩ
åıĸ åĲį
æ½ ¼
ä¼ļ éĢłæĪĲ
ç¾ ļ
ä¸Ģä¸ª å°ı
ä¾¿ åı¯
å¾Ī éĩįè¦ģ
ĠC o
æĲ¬ åĪ°
å¸ĥ æĸ¯
åı¯èĥ½ çļĦ
çĳ ¾
æ¿ ®
åħ¼ é¡¾
å»ºæĪĲ åĲİ
çļĦ è´£ä»»
å°± åĮ»
å¹´ä»£ æľ«
æ¼«çĶ» å®¶
çļĦ è¯Ĺ
éĹ´ è·Ŀ
åĲĳ å¤ĸ
åĽ½å®¶ è¶³çĲĥéĺŁ
ç»Ļ èĩªå·±
è´¨éĩı åĴĮ
èļ Ĥ
ä»İèĢĮ ä½¿
ä¼łæķĻ å£«
å¾Ĺ çĽĬ
å½ĵ å¹´çļĦ
å¨ ´
å±Ĥ å±Ĥ
èµ·éĩį æľº
æĭ Ń
æµ· æ»¨
çĸ ±
æĢ» åĨłåĨĽ
çīĩ ä¸Ń
åħļ æĶ¿
åĲĥ äºĨ
æľĢ å¼º
æŃĮ å£°
Î ¿
èĥ¸ éĥ¨
å¤§ åħ¨
å¤ļ å±Ĥ
åīį åİ»
çĶŁäº§ åİĤå®¶
åĲĮæĹ¶ åľ¨
èģĮä¸ļ åŃ¦æł¡
åĲĦé¡¹ å·¥ä½ľ
æ°Ķ æĹĭ
æ© ±
åŁ¹è®Ń çıŃ
æĲŀ ç¬ĳ
ä¸Ģ æł¹
è¡¨ çļ®
çļĦé«ĺ çº§
è®¾ç½® çļĦ
ä¾į ä¸Ń
éĻª åĲĮ
çī¹ éķ¿
æ³¨ éŁ³
æĭ¥ æĬ±
é«ĺçº§ ä¸ŃåŃ¦
ä¸Ģ è§Ĵ
å¤© åĲ¯
åı° çļĦ
in i
å´© æºĥ
ä¹ĭ è¯´
æķĻèĤ² åĴĮ
èį¯ åīĤ
çĳľ ä¼½
æĮīå¯Ł ä½¿
ä¸Ń åŀĭ
è¦ģ ä¹Ī
åįĹ æĸ¯æĭīå¤«
æķ° ä¸ª
ç¥ŀ ä»Ļ
çļĦéĩįè¦ģ ç»ĦæĪĲéĥ¨åĪĨ
Ġ ,
ç» ½
ä¸¤ éĥ¨åĪĨ
ä¸Ńåįİ èģĮæ£Ĵ
ä¸į åı¯ä»¥
èĢĮ è¿ĩ
åĨį è§ģ
ç¿ Ł
çĶµåĬ¨ è½¦
çł ¸
æľį ä»İ
æĬ¥ å¤į
è®¿ è°Ī
åŃ¦æľ¯ è®ºæĸĩ
å°¤åħ¶ æĺ¯åľ¨
ä¸Ģ ä¼ļ
ä¸į æĹ¶
æĹ¥ åıĳè¡Į
æ°§åĮĸ çī©
ä¸į èĤ¯
ä»¥ åīįçļĦ
ç¤¾ ä¿Ŀ
æĻļ æĬ¥
æ¡Į éĿ¢
a j
åĲĮ çŃī
äºĶ åįĥ
æĪ į
ä¸į åĲĪæł¼
åĪĿ å¿ĥ
äººæ°ĳ çļĦ
è®½ åĪº
ä¹Ĳ ç«ł
åħ« è§Ĵ
æľī ä¸įå°ĳ
æĮ ł
èĢĮ æĹł
æµģ çļĦ
äº¤ éĶĻ
æŀĦ æĪĲäºĨ
ç§Ł è½¦
æĺ¯ æ¯Ķè¾ĥ
åĬł ä¹ĭ
ç¦ı çĶ°
å¼¹ åĬ¾
çĻ¾åĪĨ ä¹ĭ
Ġ 2001
æ¬¡ éĥİ
åħĪ é©±
éªĦ åĤ²
åŃĹ çļĦ
æĻ®éĢļ è¯Ŀ
åĨĽ èĪ°
å°ĳ åĦ¿
çļĦä¸Ģ éĿ¢
å±Ĭ æĹ¶
ä¸Ĭ ä¹¦
å§ĭ ç¥ĸ
æĿ¾ æ±Ł
çİĦ å®Ĺ
æ»ĭ åĳ³
å¤ĸ åľ°
ç§Ł çķĮ
ä¸Ģ æīĭ
ä¸¤ ä¸ªäºº
åĮ» ä¿Ŀ
é¦ĸ ä»»
åĩł çĤ¹
æĹ¶ éĢŁ
ç¥ŀ çĪ¶
Ġ åŃĻ
åĴĮ ä¼ģä¸ļ
è¿Ļ ä¸¤ç§į
èĢĮ ä¸ĭ
å¥¹ ä¸İ
åĪĽæĸ° çļĦ
é¥± æ»¡
ä¸Ģ åĪĨ
å¤ļ ä¸ĩåħĥ
äºļ ç§ĳ
ä¿® åħ»
å¤§å®¶ çļĦ
æĭľåįł åºŃ
Ñ ĭ
éķ¿ èĢħ
åĲĮ çŁ¥
çķ ¿
æĿĳ éĩĮ
åŃĹ åŃĲ
æĻ® æ´±
ç»Łä¸Ģ çļĦ
èıĬ èĬ±
e in
è¿Ľ é£Ł
åįĬ ä¸ª
åĲī æĸ¯
æ£® çº³
åħ³æ³¨ çļĦ
æŀĦ æĢĿ
åī¯ æľ¬
éļĲ å±ħ
æĵħ èĩª
Ë ĭ
åĩº éĹ¨
çĻ½ é©¬
å·¥ç¨ĭ ç³»
çłĶåıĳ çļĦ
æ°´ èĤ¿
è¿½ éļı
è¡ĮæĶ¿ æľºåħ³
äºĮåįģ åİħ
ä¹³ èħº
é¢Ħ éĢī
åĪ¶åº¦ çļĦ
æĹ¶ åºĶ
åĲĦ å¼Ĥ
çŀ Ĵ
åİ¿ å¿Ĺ
ä½¿çĶ¨ æĿĥ
åŁİå¸Ĥ è§ĦåĪĴ
ç»ıèĲ¥ çĲĨå¿µ
æĤ¨ åı¯ä»¥
åĪĳ æ³ķ
éĻį èĲ½
é²ľ èī³
æ²ī é»ĺ
Ġ æĪĸ
è¡ ¢
æĢ» éķ¿
è´¨éĩı çļĦ
ä¸» è§Ĥ
æĹł æ¯Ĵ
èĩª æĪĲ
ï¼Ľ (
æ°ĳ å±ħ
çº³ è¥¿
ä¸ĵä¸ļ å§Ķåĳĺä¼ļ
ç¬¬åĽĽ å±Ĭ
éĺ» çĩĥ
æĺĶ æĹ¥
åħ¬ç§¯ éĩĳ
éģ ģ
éĥ½ çŁ¥éģĵ
ä¼Ĳ åĪ©äºļ
P T
è¯ ¬
åĲĪ è§Ħ
èĬ± é¸Ł
åĨį è½¬
çļĦä¸Ģ å¤§
åĿļ å¼º
æĶ¯æĮģ ä¸ĭ
ä¸ĢçĽ´ ä»¥æĿ¥
ç¬¬ä¸ĥ ç«ł
æĺ¯ éĽĨ
èĩª å¾ĭ
æ® ¡
èĨľ çĤİ
å·¡ éĢ»
åĨ· éĿĻ
éĺµ äº¡
é¸¡ èĤī
æ°´ å¤ĦçĲĨ
æ°Ķ æ³¡
å·¦ æīĭ
æŀ¸ æĿŀ
A èĤ¡
å¹´ ä¼ļ
åľ¨ ä¸ľ
ä¸Ń æĢ§
ä¹Ł å¼Ģå§ĭ
å®ī å¦®
ç¤¾ä¼ļ è´£ä»»
âĢ¦âĢ¦ âĢĿ
æĻºèĥ½ æīĭæľº
åľ¨ è¿Ľè¡Į
æį ¡
ç»Ħ å§Ķä¼ļ
çİ¯ å½¢
åĽ½ çĶ»
æľĪ ä¸ĭæĹ¬
ä¸Ĭ æĿ¥
æį® çĤ¹
ä»Ĭ å¹´çļĦ
è¯ķ é¢ĺ
åħļ æł¡
éľ² å¤©
ä»£ åı·
ä½ ļ
ä¹Ļ éĨĩ
æīģ å¹³
çļĦ åĲĪä½ľ
ä¸Ģ å¤ľ
å¾· åĭĴ
ä¼´ ä¾£
çĻ½çĻľé£İ åĮ»éĻ¢
ĠG r
åı¯ ä¸º
å«ģ ç»Ļ
éĥĬ åĮº
åŃĲ å¼Ł
æŃ¦ ä¾ł
åħħ å®ŀ
èįī æľ¬
ä¾µ å®³
äº§ åĲİ
å¤ĸ ä¾§
ç«Ļ éķ¿
ç´ł æľī
èµŀ æī¬
ä¸į åİ»
æĺİ æľ«
äº² å±ŀ
ic t
çĽĳçĿ£ æ£ĢæŁ¥
åĸ· å°Ħ
éĺ¿å°Ķ åįĳ
èĨ³ é£Ł
æ°´ çĶµç«Ļ
çĻ¾ èĬ±
æ²¡æľī ä»Ģä¹Ī
æ¸¸æĪı çĽ®æłĩ
å±¥ åİĨ
æ²Ļ é¾Ļ
ãĤ Ĩ
çĶµåŃĲ æ¸¸æĪı
æ·· æ·Ĩ
åħ±éĿĴ åĽ¢
ä¹ĭ ä¹ħ
å±± åĿ¡
é© ¯
ãĤ į
ï¼ ĸ
éĩĳ æĺŁ
éĴ µ
ç»ıèĲ¥ çļĦ
åįģäºĮ ç«ł
. ãĢĬ
å·¥ åĮł
20 25
å¾Ī åı¯èĥ½
ä¸¥ å³»
èŃ¦ æĬ¥
ç¿» æĸ°
çī¹ æķĪ
it al
è¡Į åĪĹ
èĩª ç«ĭ
å°¼åı¤ æĭī
æĺ¯ ä¸Ńåįİäººæ°ĳåħ±åĴĮåĽ½
åı¯ä»¥ æĺ¯
åıĤ çľĭ
è¿Ļæł· ä¸Ģä¸ª
oun d
æ½į åĿĬ
è½°çĤ¸ æľº
èĢĮ è¿Ļ
äº¦ ä¸º
æĪ´ ç»´æĸ¯
è½¬åŀĭ åįĩçº§
çļĦ å½¢æĪĲ
ä¸Ń åħ´
ç§ §
æĸ¹ åı¯
å°± éľĢè¦ģ
åĽĽ ä½į
ç¡ ¼
è¿ĳ åĩłå¹´
ä¼ł åħ¥
ä¸ĩ æĪ·
è¿Ī åħĭå°Ķ
ç» «
ç§ĳ ä¼ļè¯ķ
éĥ½ åŁİ
æŃĩ å°Ķ
å¹¶ ç§°
æŁ´æ²¹ æľº
é©¬ åĮ¹
æī¾ ä¸įåĪ°
å¢Ļ ä½ĵ
Ġt o
ç¨Ģ éĩĬ
æ´»æĢ§ çĤŃ
ä¸įä»ħä»ħ æĺ¯
W h
èĥ½ è®©
å®ļ æĹ¶
ä¸ľ ç«Ļ
é©¬ åħ¶é¡¿
ä¿® çŃĳ
åŁºæľ¬ çļĦ
æ¯ Ļ
æľ¬ å¸Ĥ
è¥¿ çĶ²
å¤© çĶŁ
å¤© é¹ħ
å¼º åĬĽ
æĬķ èº«
ä¹ĺ è½¦
æ¶Ĥ è£ħ
ï¼ ĺ
å¤© èµĭ
åŀĭ æľºè½¦
åıªæľī åľ¨
æĭĨ åį¸
å½ĵ ä»ĸ
åı· ç§°
ãĥ ı
çİĩ çļĦ
ç½ĳç»ľ èĲ¥éĶĢ
éĩı èº«
åĥı ç´ł
é©¬æĭī æĿ¾
æ² ½
é«ĺ æĸ°åĮº
åĩł çĻ¾
æĭ¿ çĿĢ
æľīä¸Ģ æĿ¡
D r
å¤§ åĴĮ
æĸ° æĺŁ
èĥ½åĬĽ å¼º
æĭ¿ åĩº
æĭ Ĥ
é¼ĵ èĪŀ
å®īå¾· çĥĪ
éĹ °
çŃī ä¼ĺçĤ¹
æĬĢæľ¯ æľįåĬ¡
ä»ĭ äºİ
äºĮåįģ äºĶ
é«ĺæķĪ çļĦ
å¥¢ ä¾Ī
åľ¨ ä¸ĢäºĽ
è¦ģ çĶ¨
çİĭ èĢħ
çĽĬ æĻº
æķı æį·
ä¸Ń åıĳçİ°
åħ¨ ç¾İ
ä¸¤ åľ°
åİĭ è¿«
åįĬ å°ıæĹ¶
çİĩ é«ĺ
æµ·åįĹ çľģ
æ´¾åĩº æīĢ
å®¦ å®ĺ
æľĢåĲİ ä¸Ģæ¬¡
ä»įçĦ¶ æĺ¯
æĭ¨ æ¬¾
a ir
åħ° åį¡
éĢģ å¾Ģ
éģĹ ä½ĵ
w ay
å¸Ĥ ç«ĭ
åį¡ è½¦
ä»¥åıĬ åľ¨
ing s
èĥ¡æ¤Ĵ ç²ī
éĿŀçī©è´¨ æĸĩåĮĸéģĹäº§
è¥¿ åŁŁ
æĭī ä¼¸
æ¼Ķ ä¹ī
æ³¢ éŁ³
åĸľ æĤ¦
åł¡ åŀĴ
ä¸½èİİ çĻ½
N et
æķĻ è®Ń
çŁ¥è¯Ĩ çļĦ
éĢŁåº¦ å¿«
çļĦæ¨¡å¼ı äº§åľ°
é«ĺ æ½®
ä¸ī åĲį
ç¾İ æĻ¯
ãĥ ĳ
è¯Ŀ åī§
åħ¨åĽ½ éĩįçĤ¹æĸĩçī©ä¿ĿæĬ¤åįķä½į
å¦Ĥ æĺ¯
çª į
å¹´ å¹³åĿĩ
ä¸º å®ĹæĹ¨
çĶµ å·¥
è§Ħ ç¨ĭ
å·¥ä¸ļ åĮĸ
ä¸Ģ äºĭ
å¸ Ľ
ä¸º å¯¼åĲĳ
åĴĮ çłĶç©¶
åħ¨ å¤©
æĪĺ æŃ»
åįļå£« çĶŁå¯¼å¸Ī
çļĦ å¯¹è±¡
å¤ļ æľī
ä½Ĩ åĽłä¸º
çĽĽ è¡Į
åĮĸåŃ¦ åĵģ
æķĪçİĩ é«ĺ
çļĦ åİĭåĬĽ
éĥ¨ åī¯éĥ¨éķ¿
è·¯ ä¸İ
è°Ī åĪ°
åħ¬åħ± åį«çĶŁ
å¥ĳ ä¸¹
Ġ äºİ
åħ¨ æĸĩ
çļĦ å»ºè®®
åİĨåı² åŃ¦å®¶
èµŀ èµı
ä¸ª å·¥ä½ľ
ä½ĵ æ¸©
ä¹Ł éľĢè¦ģ
åĬł éĩĮ
æł¼ æłħ
è¯Ħ çº§
èŁ ¾
ç»Ħ ç»Ħéķ¿
éĴĪ çģ¸
æī§è¡Į å®ĺ
ä»£çĲĨ åķĨ
äºº æľī
èĥ¶ çīĪçº¸
âĳ ¤
åİŁ å£°
åī¯ ç§ĺä¹¦éķ¿
åĪĨæŀĲ å¸Ī
1 19
ï¼Į (
å¹´ çīĪ
èľ Ĺ
æ±¤ åĮĻ
ç° ĩ
å°± åı¯
æīĭ å¥Ĺ
èĢģ å©Ĩ
åįģä¸Ģ ç«ł
åħļå§Ķ åī¯ä¹¦è®°
èĦ ĸ
çĶŁäº§ å·¥èīº
å¨ģ æĸ¯
çļĦ æĿ¡ä»¶
äºĨ èĩªå·±
åŀĭ æĿĲ
è¾ĥ çŁŃ
çļĦäºĭ å®ŀ
æ°ĳèĲ¥ ä¼ģä¸ļ
çļĦ ä¸ªäºº
çºª æ£Ģ
F T
çł ¾
æ¸© å¸¦
åľ¨ è¿ĩåİ»
æĭī å¼Ģ
èĢģ åŃĲ
åħ° å¾·
åħ¸ èĮĥ
åĿļ ä¿¡
åĬ³åĬ¨ åĲĪåĲĮ
åıĮ äºº
ä¼´ æľī
ĠN ew
Ġ åľ£
åĲİ æīį
éĩĳ éĻµ
æĿ¡ çĽ®
åį° æ¬¡
å¤§ èĥľ
å®ī æħ°
ç«ł èĬĤ
èĤ¾ èĦı
æľĢè¿ĳ çļĦ
åħļçļĦ äºĮåįģå¤§
å¦ĸ æĢª
å®ī åºĨ
æŀģ èĩ´
åĳ¨åĽ´ çļĦ
å¤©æĸĩåŃ¦ å®¶
åĨĻåŃĹ æ¥¼
B L
åĳ¨ åħŃ
è½» åŀĭ
éĵģè·¯ è½¦ç«Ļ
çļĦ æĿĥåĪ©
en c
é¢ Ĭ
åħ¨ æł¡
åĮ»çĸĹ ä¿ĿéĻ©
æħ° éĹ®
æķĻçłĶ å®¤
o ot
çļĦ çĹĩçĬ¶
å¤´ èĦĳ
æĺ¥ é£İ
åıĳè¡¨ äºİ
éºĴ éºŁ
Ġ ä»İ
å¹´ åĩºçĶŁäºİ
æ³ķ åĴĮ
åĬŁ å¾·
è½¬ ä»»
è·Ŀ ä»Ĭ
æķĳ çģ¾
éĺ¿å°Ķåįĳ æĸ¯
é£ ĵ
åīª è¾ĳ
æŃ¦ å°Ĩ
æľĢåĲİ ä¸Ģä¸ª
å·¨ å¤´
æģĲ æĢķ
èĳ¡èĲĦ ç³ĸ
åĮ £
åľ¨ ä¸ĭ
æ± Ľ
æĸĩ æĺĮ
äºĴ è¡¥
ä¸¤ä¸ª æľĪ
èµĭ èĥ½
çŃī åĨħå®¹
åĮº æĶ¿åºľ
ä¹Ł éĿŀå¸¸
éĩĩ çº³
é¢Ħ åħĪ
æ²¿ éĢĶ
ä¸°å¯Į å¤ļå½©
åĵģ ä½į
éħ Į
åĮ» åĬ¡
çĺ Ł
Ġ æĪĳ
è¥¿ æİ¥
éĵ £
åĽŀ åĪ°äºĨ
æ¥ ŀ
åıĤèĢĥ æĸĩçĮ®
å¤§ åĽ½
ä¸Ĭ æł¡
æ¸ ²
å¸ ·
çĤ Ļ
åıĤä¸İ èĢħ
å±± æŀĹ
èĢģ æĮĿ
è¤ ¶
P A
ä¸ ķ
ä¹ĭ å¤ľ
ä¸Ģä¸ª æĸ°çļĦ
åħĭ é²ģ
ç§Ģ åĲī
ä¼¤ å¿ĥ
æ´Ĺ æīĭ
æĳ© æ´Ľ
âĸ ²
ï¼ĳ ï¼Ļ
ä¼ļ è®©
çĶµ å®¹
åĽĽ åĽ½
è¿ľ ä¸ľ
åĨ· åĩĿ
å¥ı æĽ²
å°± æĬĬ
åİŁ æ²¹
é©¬ çļĦ
) (
äºº ä½ĵçļĦ
åīį ç«¯
çľģ åĨħ
ä¸ĩ åĲį
æĮĩ åĲĳ
æĮĩ è´£
çļĦä¸Ģ åľº
æŃ¦ æŀĹ
åŁĥ å¾·
r at
äº§ çļĦ
åİĨ å±Ĭ
åħļ ä¸Ńå¤®
æĻ® æŀĹ
å°½ åĬĽ
çĲ µ
åı¯ ä½ľä¸º
å·´ ä¼ĲåĪ©äºļ
iv er
æĸ° ç§Ģ
æłĩ æ³¨
åĽ¾ æĸĩ
åĨ² åİĭ
ik e
çķ¸ å½¢
% ï¼ī
åıĭ äºº
çļĦ æ¸©åº¦
ãĢĤ âĢĶâĢĶ
åĽŀ è½¬
æĿİ æ°ı
å®½ å¸¦
è¯ģ ä»¶
çĳ Ľ
å¿ĥ èĤĮ
æī© åħħ
çĶ» åĥı
èī¾ å°Ķ
åĩºçĶŁ åľ¨
é¦ĸåħĪ è¦ģ
è¯ļ å®ŀ
Ñ ĸ
æĹ¶ äºĭ
æľĢ å¿«
è¶ Ł
è¶Ĭ å¥½
èµ° ä¸Ĭ
çŁŃ ç¯ĩå°ıè¯´
æĹ¶ æīĢ
èİ·å¾Ĺ èĢħ
èĪªç©º èĪªå¤©
ä¸¥æł¼ æĮīçħ§
å¹¶ è¿Ľè¡Į
éĺ¿ å§Ĩ
æŁ¥ éĺħ
èµĦäº§ ç®¡çĲĨ
è¯¥çī©ç§į çļĦæ¨¡å¼ıäº§åľ°
åįĹ ç¾İæ´²
å¸Ī åĽ¢
å¤® è¡Į
çĳŀ åħĭ
çī¹åĪ« çļĦ
èİī äºļ
å±ķçİ° äºĨ
èĲ¨åħĭ æ£®
çļĦ æł·åŃĲ
ä¸ī æĹ¥
çº¦ åįł
æ¬¡ åĪĹè½¦
å¤ª æ¹ĸ
åı¤ éķĩ
éĢĥ èĦ±
æµ· çļĦ
åİŁ çĶŁ
åĪĽ ä¸ĭ
è¯ķ çĶ¨
åħĦ éķ¿
çļĦä¸» ä½ĵ
å¹´ çĲĥåŃ£
12 1
å¹´ è¿Ľåħ¥
ä½ĵ çİ°åľ¨
è¡° ç«Ń
çĽĳå¯Ł å¾¡åı²
ä¸įæĸŃ æī©å¤§
éĺ¶ å±Ĥ
åĩĨç¡® çļĦ
æµģåĬ¨ æĢ§
åħī çħ§
èĽ ¾
çĮİ äºº
æĴĴ åĨ·
å·¥ä½ľ åĴĮ
æ¢ ¢
æĶ¹ ä»»
æīĵ äºĨ
éĻį çº§
çĶľ èľľ
ä¸į åĲĪ
é£ Ļ
ç¼º å¤±
é³ŀ çīĩ
æĦı åĲĳ
æŁ¥ æī¾
æ±ī ä¸Ń
æĶ» çķ¥
ç¡¬ æ£ĺ
Ġ åĪ¶ä½ľ
ä¸Ģ æŀļ
åĨħ æĸ¯
12 2
ä¸įæĸŃ æıĲåįĩ
æĺ¨ æĹ¥
æµ· ç»µ
çľĭ ä¸Ĭåİ»
é£Ł æ¬²
åĪĴ åĪĨä¸º
M C
æľī åĬŁ
ä¹ĭ å£°
å±± éķĩ
æ¯ı å½ĵ
æ²¹ æ°Ķ
åĵĪ åĵĪ
æģ© æĸ¯
è¾¾ çļĦ
in c
å·¥ç¨ĭ æĸ½å·¥
èĲ½ æĪ·
Y ou
t o
çº¢ æŀ£
å¤± æķĪ
è¿Ļä¸ª æĹ¶åĢĻ
å½ĵ æĪĲ
åĪĽ åĪĬ
åİ» çļ®
åºķ èķ´
æĭĽ å¾ħ
èĸª éħ¬
ç®¡ å¼¦
èĲ½ è´¥
åĨ¬ å¥¥
çļĦ å¥³æĢ§
åľ ©
äºĨ å¤§éĩı
è¡Ĺ åºĦ
ĠE x
i Phone
æĶ¿ å§Ķ
åıª å¾Ĺ
åıį æĢĿ
åĪĴ åħ¥
ç¥ĸ æ¯į
æĤ£èĢħ åľ¨
éļı ä¾¿
ç»ıèĲ¥ èĢħ
ä¸ĢçĽ´ åĪ°
èĦ± è´«
il le
ç¹ģ å¿Ļ
åįµ å½¢
æĭ ¢
åīį æīĢ
èµ· åĪ°äºĨ
éĢĥ è·ĳ
N ew
è¥¿ èĴĻ
å®ī å¿ĥ
åıĪ ä¸į
åĨį åĪ°
æĬĺ æī£
éģį åıĬ
æłĸæģ¯ åľ°
æĺ ķ
ä¸Ģ å¾ĭ
ç« ¿
èĥ½ ä½¿
éķ¿ è¿ľ
ç¼ ķ
ä¸ŃåĽ½ å½ĵä»£
éĥ½æĺ¯ åľ¨
é©» æīİ
å¹´ çĶŁäºİ
ç¾ ģ
æĺ¾ç¤º åĻ¨
æĸĩåŃ¦ å®¶
åįģ ä¸ĩ
çĶŁäº§ åĬĽ
ä»į æľª
åħ¨ ç§°
å¤© çº¿
å¤© åı°
çģ« èĬ±
æĺ¯ä¸Ģ æĿ¡
åĪ» æľī
ä¹Į é²ģ
é¤Ĳ é¦Ĩ
éŁ§ æĢ§
åĬ¨ æīĭ
ä¿Ŀ èĤ²
ç§Ģ ä¸½
æ¯« åħĭ
åĬ² çĪĨ
çļĦ çĲĥéĺŁ
çļĦ åķĨä¸ļ
ä¼ļ å°Ĩ
ä¸İ å°ı
åĵĪ çī¹
åĽ½æ°ĳ ç»ıæµİ
ä»¥ èĩ³
åİŁ åĿĢ
æł¼ æĸĹ
åģľ åĬŀ
å½Ĵ æĿ¥
è¿İ æĪĺ
è¯± æĥĳ
Ġ ç¬¬äºĮ
å¹´ æŃ£å¼ı
ä¸İ åīį
ä»ĸ ä»İ
æ±Ł å±±
æ±ī æľĿ
æ®ĭ éħ·
åĩºç§Ł è½¦
è® ¶
å¤ļ ä¹ħ
çĶ ©
å¤§ æ®¿
åºĶ æľī
ä¼Ĺ æīĢ
çļĩ å®«
èĮĥåĽ´ åĨħçļĦ
æ¨± æ¡ĥ
ä¸į ç¨³å®ļ
æĹł åĲį
æįŁ èĢĹ
å« Ĥ
èĭ ĩ
åĪ© å¥¥
åļ ¼
å½Ĺ æĺŁ
éĩı å¤§
å¤ª å¸¸
å¼Ģå§ĭ æ¸¸æĪı
åī¯ æĢ»
æĺ¾ç¤º åĩº
çīĪæľ¬ çļĦ
ä¸į ä½İäºİ
ä¹ĭ æŃĮ
ç© ¹
è¥¿ å¤ı
ä¸ĵ åįĸ
åĬ¨åĬĽ åŃ¦
æĺ¾å¾® éķľ
åħ¥ åľº
çļĦ ä»£è¡¨
åĨ³ æĪĺ
æ²Ļ åıĳ
éŃĶ é¬¼
M E
ç¦» åİ»
æ³¢ éķ¿
èĬľ æ¹ĸ
å° ¬
ä¹¦ æĪ¿
æĦı å¢ĥ
äºļ çī¹åħ°
æ¸© åĵ¥
èĢ¶ è·¯
ä¸ĩ èĭ±éķĳ
é¸ ł
ä¼´ å¥ı
éĩį åıł
æĹł å½¢
å·¥ä¸ļ åĽŃåĮº
çļĦ çī¹èī²
çļĦ é£İæł¼
æŀľ æłĳ
æ¸¸ äºº
ç¬Ķè®° æľ¬
C r
å¤§ éĿ¢ç§¯
æ² ®
èĢĲ çģ«
ĠT r
ĠSch ool
é£ĵ é£İ
H E
åĮĹ ç¾İæ´²
åĩºçīĪ äºĨ
l i
åĿĩ åľ¨
ä»¥ä¸ĭ æĺ¯
èĦļ æľ¬
å·¡ è§Ĩ
æĺİç¡® çļĦ
èĲ¥ä¸ļ æĶ¶åħ¥
åľ¨ æĪĳä»¬
ä¸į åĲĥ
éķ¿ å¾ģ
æıĲ çĿ£
æĭī çī¹
åī§ ç»Ħ
ï ¸
è¥¿ å±±
åĮĹ éĥ¨çļĦ
åĽŃ èīº
è¿¹ è±¡
å¤§å¹ħ åº¦
ãĢĤ ãĢĮ
å¯¹ äººä½ĵ
å¸¸ ä½ı
åŃĹ å½¢
ç»´çĶŁç´ł C
å¼Ģå¹ķ å¼ı
ä¸Ģ å¹´çļĦ
ç¥ ļ
çº¦ åħĭ
çŁ³ èĨı
äºĭä»¶ çļĦ
St ation
åħ¨ èµĦ
çĲĥ å½¢
æķĳ æĬ¤
éľĩ åĬ¨
çĬ¹ è±«
e an
çİ¯å¢ĥ åĴĮ
èĤī ç±»
åı¯ ä¹Ĳ
ä¿¡ è®¿
åıį æĶ»
èįī åĿª
èĥĨ åĽºéĨĩ
å¼ Ľ
èĭ ĵ
æľºæ¢° åĮĸ
åĲ¸å¼ķ åĬĽ
åħ¬å®ī æľºåħ³
æ·Ħ åįļ
åĽ¾ è¡¨
æĤ¬ å´ĸ
æī£ éĻ¤
âī ¥
O H
åįĹ ç«¯
ä¸ľ èĩ³
ç»ıæµİ æĬĢæľ¯
ä¼ĺç§Ģ æķĻå¸Ī
Ì ĥ
éĩį å¿ĥ
åįĩ èĩ³
åĿļ ç¡¬
èµĽäºĭ ä¸Ń
åı¯ çĪ±çļĦ
çŃī æĥħåĨµ
å¹¶ ä¸įèĥ½
èĭı å·ŀå¸Ĥ
å»¶ æľŁ
ä¿ĿçķĻ äºĨ
è½¦ ç¨ĭ
æ¸ħ åĪĿ
åįĥ åı¶
éĺ´ æĢ§
æĺ¯ä¸Ģå®¶ éĽĨ
æķĻ å¾Ĵ
åºĶ éĤĢ
åħ¬åı¸ åĴĮ
ä¿® ç¼®
å¥ĩ å¼Ĥ
è£Ĥ ç¼Ŀ
çİĦ æŃ¦
ä¸īè§Ĵ æ´²
d er
ä¿® è¡¥
èĢ¶è·¯ æĴĴåĨ·
åĩı ç¼ĵ
yst em
åľ¨ ä¸Ģæ¬¡
åıĳ åĩºçļĦ
æľ¬ ç½ĳ
è¿½ éĢĲ
äºĨä¸Ģ æĿ¡
æĻ ¾
å¤© å®Ŀ
ä½Ĩ æľĢç»Ī
å¾· èĤ²
ä¹Ŀ åįģ
éĺ´ å½±
è¥¿å®ī å¸Ĥ
æĺ¯ æĢİä¹Ī
éĹ´ æĸŃ
åħĪè¿Ľ éĽĨä½ĵ
éħįå¥Ĺ è®¾æĸ½
ä¸Ģ ç¯ĩ
å¹´ çĶµå½±
é»ĳ äºº
è´Ńçī© ä¸Ńå¿ĥ
æłĸæģ¯ åľ¨
ç§ ¤
ä¸Ģä¸ª ä¸ª
èĬ± çĵ£
æľīæľº çī©
åĳ¼åĲ¸ éģĵ
å®ģæ³¢ å¸Ĥ
å¹ Į
äºİ ä¸ĸ
å¾Īå¤ļ çļĦ
ç¬¬åįģ ä¹Ŀ
ä¸Ńæĸĩ åĲį
åĬł æ°´
è½¦ è½®
éĽĨ èģļ
åĶĲ å±±
æ¿ĢçĥĪ çļĦ
V S
å¹´ å·¦åı³
åĵ ®
æľº ä¸Ĭ
è¥¿ ç«Ļ
ä¿Ŀ é²ľ
çľ¼ æ³ª
è¿Ļéĥ¨ çĶµå½±
åıĹ ä¼Ĺ
æ°ı çļĦ
å½¢æĢģ çī¹å¾ģ
éĥ¨ çĶµå½±
äºĮ çŃī
åĮĹ å¹³
åĸ §
å¸Ĥåľº èĲ¥éĶĢ
éļĨ åºĨ
è°ĭ åĪĴ
å¼Ģå·¥ å»ºè®¾
æİ º
æ± Ĳ
ä½¿çĶ¨ æĹ¶
äºĮ çļĦ
åĨĻ æĪĲ
éª¨ æŀ¶
èİ± å¾·
åĬ Ī
æ»¡ è´¯
æ²Ļ çĶ°
è¡° éĢĢ
åıĺ ç§į
èĬ± æł·
å¹¿æ³Ľ çĶ¨äºİ
èĤĸ åĥı
æ¸² æŁĵ
æĺ¯ æ²¡æľī
åħ¬ çĶ¨
çĶ» å»Ĭ
å¹´ä»£ çļĦ
è¢« ä»»åĳ½ä¸º
çļĦä¸Ģ çĶŁ
èįī èį¯
åīįåĪĹ èħº
ä¸Ĭ åŃ¦
ä¸İ åĽ½éĻħ
åĽł çĹħ
çľģ ä¼ļ
ain t
åħ¬ åħ³
è¿ĺ æľª
åħ± æĮ¯
åŃ¤ åĦ¿
æĮ Ł
ä¸ĭ è¡Į
åĬĽ å£«
å¤ĩ æ³¨
æ´ĭ åŁº
åŃĶ éĽĢ
ä¸į æĢķ
äºĨä¸Ģ æ¬¡
çİĽ æł¼
åķĨ çĶ¨
åĻ¨ åħ·
ĠA d
? ?
çļĦ çľŁå®ŀ
ä¸Ģ å¹ħ
æĸĩ æŃ¦
ç½ĳ åĿĢ
è½¬ æĴŃ
æĮī æĹ¶
æķĮ åĨĽ
ç»ĳ æŀ¶
åķ ¥
æ¬§ æĸĩ
ä»¥ä¸Ĭ å°±æĺ¯
é¾Ļå¤´ ä¼ģä¸ļ
çļĦ äºĶ
äºĨ ä¸įå°ĳ
å±± åŁİ
ç¼ĸ æĪĲ
op h
ä¸Ģ ä¸ĩ
ä¸İ æľįåĬ¡
çĶŁæĢģ ç³»ç»Ł
æĪĺå½¹ ä¸Ń
äº¤æ±ĩ å¤Ħ
æĺ¯ è¯¥
è¯´ åĩº
æĵįä½ľ æĮĩåįĹ
ä¸Ľ æŀĹ
ä¹ĭ è°ľ
æĸĩ åı²
åı· ç§įåŃĲ
æ°Ķ åĬ¨
æİ¨ è¿Ł
å¤± è°ĥ
ç¼ĸåı· ä¸º
åĲĮ å¿ĥ
åİ¿ ç«ĭ
çİĩ åħµ
è¿Ļæł· åģļ
åĨ² ç»³
å¤ļ å¤«
éĴ ³
ç»ĵæŀĦ åĴĮ
æŀ¢ å¯Ĩ
ä¸Ĭ ä»»
åı¯ çŁ¥
å°ı æľĭåıĭ
ç¤¾ ç§ĳ
åĩºçİ° äºİ
åĲĪä¼Ļ äºº
çļĦ çĲĨæĥ³
ç¼ĸ çºĤ
è¡ĮæĶ¿ ç®¡çĲĨ
çī©çĲĨ åŃ¦å®¶
æŀ¢ æľº
è¯ «
èĦ Ĳ
éļ¾ å¿ĺ
èĭ±åĽ½ çļĦ
åıªæľī ä¸Ģä¸ª
æ¸©åĵ¥ åįİ
Ġ åħĥ
å¤ļ ç±³
åĩł ä½į
16 8
ä¼Ĭ ä¸½èİİçĻ½
æľīä¸Ģ åº§
åıĮ å±Ĥ
çĭ¬ æľīçļĦ
æĪĲ åĲį
å¸Ĥ åĢ¼
è½¬ åŃĲ
12 6
çĶµåĬ¨ æ±½è½¦
u i
å¢ŀ çĶŁ
è´§ æŀ¶
å¼Ģ çļĦ
åı¸ ç©º
çĽ¸ å·®
ä¸¥ åİī
è´Ŀ æĭī
éĩĬ è¿¦
å¹ķ å¢Ļ
éķ¿æľŁ çļĦ
åĪĽåĬŀ äºº
åĢ¡ è®®
ä¹Ł æĹłæ³ķ
é©¬ èµĽ
è½¬ åĪ°
åī© ä¸ĭçļĦ
s c
å®ĥ ä¸İ
åį¡ çīĩ
åħ¬å¸ĥ ä¸º
Ġ 13
äºº æŃ»äº¡
çĹ ¹
çĻ½ ä¿Ħç½Ĺæĸ¯
çİ¯ æ¯Ķ
å®ĺ åĲı
æĸĩåŃ¦ å¥ĸ
ç» ¢
ä¸į è¡Į
ä¸» çº¿
çī¹ è®¸
èģĶ éĢļ
æĢ» ç«Ļ
ç®Ģ è¦ģ
ä¸Ģèµ· æĿ¥
æĿ° åĩºçļĦ
ç»ıéªĮ åĴĮ
æĭįæĳĦ çļĦ
è¡Į éģĵ
æķ´ æ´ģ
ä¸½ ä¸Ŀ
åĢŁ çĶ¨
ä»¥ æ±Ĥ
è¿Ļ æĺ¯ä¸Ģç§į
æŃ¤ ç§į
è£ ĺ
åĪĺ éĤ¦
çĽŁ åĨĽ
éĻĽ ä¸ĭ
å¹³ æ»ĳ
ç¯Ĩ åĪ»
éħĭ éķ¿
èĥĮ åıĽ
æµĻæ±Ł å¤§åŃ¦
è®¾ç½® äºĨ
åĪĽç«ĭ äºİ
èĩ »
åįĹ éĿ¢
è®¡ æĹ¶
æł¼ çļĦ
åĽ¾ æĸ¯
åĪĢ åħ·
å¿ĥçĲĨ åģ¥åº·
éĥ½ ç»Ł
åĲ¬ ä¼Ĺ
è´ŀ è§Ĥ
B D
m i
ä»ĸ æīĢ
ç½Ĺ éĹ¨
æĶ¿åºľ éĩĩè´Ń
å°ı å¹³
æ¸ħ æ¾Ī
ç½Ĺ å¤«
çľŁ å¿ĥ
å·´ é©¬
ç¿ ©
åľ£ äºº
åħĪè¿Ľ ä¸ªäºº
æľī åĲį
ä¸į å¦¨
å¤ĸ ä¼¤
å±± å³°
åıĤ è®®
æĽ¾ ä¸İ
èĵĿ å¤©
æ¬º éªĹ
æŃ§ è§Ĩ
è·¯ åĨĽ
ç»Ħç»ĩ åĴĮ
ä¸įæĸŃ åıĳå±ķ
äºĮåįģ ä¸ĸçºª
ĠP art
P D
äº ¢
ä¹ĭ é¦ĸ
ä¸ĵ æĶ»
çĽĲ æ°´
om e
qu e
ç½ ¹
æĪĳä»¬ éľĢè¦ģ
é£İæĻ¯ åĲįèĥľ
æ¨¡çī¹ åĦ¿
p H
Ä «
é£İ çļĦ
ar i
èĭı è½¼
æ¹ĸ åĮº
è·³ èĪŀ
ä¸į ä¸Ģå®ļ
èĩ ¼
æĺŁ äºĳ
æıĲä¾Ľ ä¸Ģä¸ª
èĪ¹ åĳĺ
å¹¿æ³Ľ åºĶçĶ¨
Ġ æĿ¾
åºŁ æŃ¢
æĻĭåįĩ ä¸º
åįģ æĿ¡
çĽ¸ æľĽ
ä¸Ģ å¦Ĥ
ä¼ ¶
ä¸ī é¡¹
æ¼Ķ ç¤º
æĭľ è®¿
éħµ æ¯į
æīĵçł´ äºĨ
ä¹ĭ å¤§
ä¾ ı
è° ¬
çĤ ½
æº ´
çĥ§ æ¯ģ
çĢ Ľ
å®ŀ äºĭ
å¿ĥ åĬ¨
åºĶ åıĺ
èĵ Ł
ä»Ļ å¥³
M I
æ°´ æĸĩ
ä¸ŃåĽ½ åĽ½éĻħ
å¯¼ çĶµ
åıį ä¹ĭ
åģı å·®
å±ı éļľ
å¿ĺ äºĨ
éħ° èĥº
åľ¨ æµ·
æĶ¿ åıĺ
å®ī éĺ²
çļĦ åģ¥åº·
åľ¨ æľªæĿ¥
æµģ æ´¾
ç®¡çĲĨ åŃ¦éĻ¢
é¢ĩ ä¸º
è®¤å®ļ ä¸º
çİ ®
ç® Ķ
æĬ¤ èĪª
æľ¨ èĢ³
å°ģ éĶģ
æĹ¶ è¦ģ
éĩĩçĶ¨ çļĦ
çļĦ çĪ±æĥħ
ä½ ¼
æĸ° ä¸ŃåĽ½
ä¸¾ ä¾ĭ
å·¥ä¸ļ åĮº
æ¨ª æ»¨
æıŃ éľ²
C on
åĽ¾ çļĦ
åħŃ ä¸ĸ
é¡º å¾·
æĢĿæĥ³ æĶ¿æ²»
æ¦´ å¼¹
Ã ¤
èĢ ¦
æľº æĪ¿
æ¯Ľ åĪ©
éļĭ æľĿ
ä¸Ń ä½¿çĶ¨
ç¾İ åĮĸ
éĺ¿ å¸ĥ
å¼Ģ åĽ½
å°Ĩ ä¸İ
çģ« èħ¿
æ½® å·ŀ
çļĦé«ĺ éĢŁ
å»ī æĶ¿
ä¸Ńè¥¿ åĮ»
åĪĩ åīĬ
å¤§ èĴľ
æĹ¥ åĴĮ
æĹ¥ åħī
éĩį çĹĩ
çĭ Ļ
ãĤ »
å¼Ģåıĳ åĴĮ
å¼Ģåıĳ èĢħ
ç»¿ èĮ¶
çĦļ çĥ§
åľº åĿĩ
å¿ĥ ä¸ŃçļĦ
å°Ĩ æľī
åĽŀ äºĨ
ï¼ģ ãĢĤ
F i
g h
å»º æ¨¡
åĨħ ä¾§
åĮĹ ä¸Ĭ
é¦ĸ è¦ģ
è¯Ŀ è¯´
è¿ª æĸ¯
å¼Ģ å®ļä»·
è½¦ ä¸»
æłĩ ç¤º
çłĶç©¶ ä¸İ
ä½ľçĶ¨ çļĦ
ä¹Į å°Ķ
æ»ļ åĬ¨
å° ´
å¤ļ æĸ¹
åįģäºĮ åİħ
èĭĹ æłĹ
æ¦ľ é¦ĸ
éĶĻè¯¯ çļĦ
ä¹ ĸ
å¤§ ä¸º
ä¸į è§ī
å¥ ļ
èĲ ±
è¯¥ åľ°
åİĭ åĪ¶
æ¥¼ å®ĩ
æĺĨ ä»ĳ
æĳ©æ´Ľ åĵ¥
éĹ º
åĲī äºļ
æĬĹ éľĩ
æĺ¯ åħ¨åĽ½
çŃī äº§åĵģ
æķ° æ¬¡
èį ĥ
èµ° è®¿
åħħåĪĨ çļĦ
Ð° Ð½
ä¹Ł æ¯Ķè¾ĥ
è¢« æİĪäºĪ
ç©º å¿ĥ
æĳ© æł¹
re e
æİĮ ç®¡
æİ© æĬ¤
çļĦ åĽ½
åı¶ è½®
ä¿ĿæĮģ çĿĢ
ç»§æī¿ äºĨ
éģ¥ æİ§
M ich
çĤ¹ çĩĥ
åİŁ èĳĹ
åŁİ åįĹ
éĢĲ å¹´
ä¹ į
åŁº è¾ħ
é»Ħ æĺı
çļĦä¸Ģ èĪ¬
åĬł è£ħ
çĲĥ èıĮ
å·´ åħĭ
ç¦» èģĮ
æĲ ĵ
å³ ¦
éŁ¦ å°Ķ
èįī æ¡Ī
åĪ¤ å®ļ
å¹´ èĩ³ä»Ĭ
ä¸ī å®¶
åīį è¨Ģ
åĮĹ é½Ĳ
åįķ äºº
åĮ» çĶŁçļĦ
çŃĶ å¤į
æķ°éĩı çļĦ
åħ»èĢģ ä¿ĿéĻ©
å¼Ģ æľº
é©¬ åľº
éĢī åıĸ
éĢīæĭ© çļĦ
å°´ å°¬
åı¯ä»¥ ä½¿
å¤± çľł
è¡Įä¸ļ åıĳå±ķ
ĠB e
ĠH e
åħ±äº§ ä¸»ä¹ī
æ¸Ĭ æºĲ
é«ĺ æ°´å¹³
ä¸įåĲĮ çļĦæĺ¯
æģ¶ æĦı
æĶ¶å½ķ äºĨ
å®´ ä¼ļ
èĢķåľ° éĿ¢ç§¯
w e
åĩº ä¼Ĺ
åĪ¶ å®ļçļĦ
æĻ¯ å¾·
èĭı éĩĮ
æ¨¡å¼ı çļĦ
çģ¯ åħ·
R S
k y
ä¸Ń åĲ«æľī
æĦŁ åı¹
ul l
æ¸ħ ç®Ĺ
å®Į äºĨ
è¿ĩç¨ĭ çļĦ
åºĬ ä¸Ĭ
å¤įæĹ¦ å¤§åŃ¦
çĮ® ç»Ļ
b ox
ä¸ª è¡ĮæĶ¿æĿĳ
åĩº çº¿
æĢ» äº§åĢ¼
å·´ å¸ĥ
ï¼į ï¼į
åľ¨ å¾·åĽ½
åĨľ æľº
èĦ± é¢ĸ
P O
à ¹
ä¸ī äºļ
æ¬¡ æĹ¥
åŁº å»º
olog y
h am
ä¸į åĸľæ¬¢
æ³ķ åŃ¦éĻ¢
åİ¿ äººæ°ĳæĶ¿åºľ
åĮ» æĬ¤
éļ¾ çĤ¹
è´Ń æĪ¿
åŃĻ ä¸Ńå±±
è¾ħ æĸĻ
æģĭ äºº
åĮĹ çº¬
æ²¹ å¢¨
éľĩ æĥĬ
ç¹ģ å¤ļ
çº¢æ¥¼ æ¢¦
ä¼ļ ä»¥
å¹¶ æĬĬ
åĮĹ æĿ¡
çĲĥ æĺŁ
å¥³ æŃĮæīĭ
ç¼ĺ æķħ
åīį ä»»
Ñģ ÑĤ
æĬĸ éŁ³
ä½¥ äºĭ
Ġ æµ·
ä¸į å¯¹
èµĽ åīį
å¥¹ è¯´
âĦĥ ãĢĤ
åĬłåĭĴ æ¯Ķ
P U
ä¼ĺ èĥľ
çĪ± äºº
å¥ĩ å¦Ļ
è¡ĮæĶ¿ éĥ¨éĹ¨
Ġ 14
å»ºéĢł çļĦ
M o
å¹ ¡
éĩĳ åŃĹ
åĽ¾ çº¸
ä»¥åıĬ å¯¹
é¢Ŀ å¤ĸçļĦ
é³ ĥ
çĲ¼ æĸ¯
åľ¨ åĲĮä¸Ģ
æĺ¯ åĪ©çĶ¨
æĭ Ļ
æĬĢ å¸Ī
éŁ³ä¹Ĳ åī§
èĤī è´¨
åĪļ å¥½
æĪĺ çļĦ
çľĭåĪ° çļĦ
å§ĭç»Ī åĿļæĮģ
) .
ä¸Ģ æĿ¥
æ¯ ĵ
æ°´ ç®¡
è®¢ éĺħ
çļĦç»ıèĲ¥ çĲĨå¿µ
f t
æµ Ĵ
è¿ĳ è§Ĩ
æŁ¥ å¤Ħ
å·¥ç¨ĭ ä¸ĵä¸ļ
ç¤¾ä¼ļ ä¿ĿéĻ©
å½Ĵ çº³
ç§¦ åĽ½
éĩį éĩį
ç¥ º
éĩı äº§
è°ĥ åĴĮ
åįı åĬĽ
èĽ ¤
åį´ åıĪ
Ġ ì
Ġ âĨĴ
æĪĲ å½¢
å¼Ģ æĶ¯
ç¾¤ çļĦ
çķĻ åŃ¦çĶŁ
æ²Ī éĺ³å¸Ĥ
L C
åĩº åİĤ
åŁ¹è®Ń ä¸Ńå¿ĥ
æ¯ ĭ
çŁ³ éĹ¨
æĸĩ åĩŃ
æµ· å§Ĩ
éŁ ¬
è´¨éĩı ç®¡çĲĨä½ĵç³»
æŁĵ æĸĻ
ç½ĳç»ľ å®īåħ¨
èĢĮä¸Ķ è¿ĺ
éĽĨæĪĲ çĶµè·¯
ä¸Ģ åŃĹ
æĦŁ æĤŁ
æ°ı æĹı
çĶ¨ é¤Ĳ
åĵģ ç±»
æľŁ å¾ĴåĪĳ
æĦŁ æħ¨
æĳ ¹
æĴ¤ ç¦»
çļĦ æĶ¿çŃĸ
åıĳ åŀĭ
çŃī åĢĻ
éĤ º
äºĮ åı·
ãĥ İ
ä»ĸä»¬ æĺ¯
çļĦäºº ç±»
åĩĢ åľŁ
æīĵåį° æľº
âĢ¦âĢ¦âĢ¦âĢ¦ âĢ¦âĢ¦âĢ¦âĢ¦
ç§ Ĩ
åįĹ éĥ¨çļĦ
è½¦ ç¥¸
ãĥ Ģ
çĨ Ħ
åİ¿ çŁ¥åİ¿
åĽŀ æĹı
çĲĨæŁ¥ å¾·
çļĦ è¿ĲåĬ¨
äºº é©¬
ç³» ä¸»ä»»
èµĽ åľº
18 98
èĢĲ é«ĺæ¸©
Ġ al
çļĦ çŁ¥è¯Ĩ
çŃ ·
12 7
åĩ¸ æĺ¾
c c
å¤§ æ²³
å¤§ éĥ½ä¼ļ
åĮº å§Ķ
éļ¾ å¾Ĺ
å¿ħ ä¸įåı¯
åŃ¦ä¹ł åĴĮ
çŃī éĥ¨éĹ¨
ä¸ī åħĥ
æ¬¡ åĬ©æĶ»
çº¿ æĺ¯
æīĭ ä¸Ĭ
å°±æĺ¯ è¦ģ
èĴ¸ é¦ı
æĳĨ æĶ¾
æĨ ©
çĶŁ æľº
ä¸ª æĿĳæ°ĳ
é¢ į
å°ı é¾Ļ
èĩªå·± æĺ¯
è£ģ å®ļ
åı°åįĹ å¸Ĥ
åı¯ åĨįçĶŁ
åĮĸ èº«
åīį å¤ķ
éķ¿æľŁ ä»¥æĿ¥
æľĢ èĳĹåĲįçļĦ
ä»· çļĦ
èģĶèµĽ ä¸Ń
èĵĦ çĶµæ±ł
Ġ ç¥ŀ
èĢ ½
å¹¶ å°Ĩåħ¶
ä¸ŃåĽ½ åĽ½å®¶
æĦŁ æ¿Ģ
é¹ Ĭ
èĬŃ èķ¾
æĿ¥ çĶµ
æĪ· åı£
åıĪ åı«
åĥ »
ä½Ľ éĻĢ
åħ¬åħ± æľįåĬ¡
è¯Ī éªĹ
ä¸º å·±
è° Ł
è¯¥ åĮº
æĿľ çĶ«
ç¥ŀç»ı ç³»ç»Ł
è¯Ħè®º å®¶
ð ¬
åľ° æłĩ
åŁİå¸Ĥ å»ºè®¾
éľ¸ çİĭ
âĪ ¶
æ¯Ķçī¹ å¸ģ
ä¸Ĭ éĻĲ
å¤ĩ ä»½
é¥® çĶ¨æ°´
èĪªç©º æ¯įèĪ°
çļĦ æŃĮæĽ²
ä¸İ ä¼Ĺ
åĬ© æİ¨
å¨ģ å°Ķæĸ¯
è§ĦåĪĴ åĴĮ
éĺħ è§Ī
çĮľ æµĭ
çĥŃæ°´ åĻ¨
äºĭ çļĦ
åĮĹ ä¼Ĳ
æİ¢ ç©¶
5 50
á ŀ
ä¸ĭ è¯ı
äº§ åįµ
åĪĹ é¢ł
åģļ ä¸Ģä¸ª
å¢ŀ èĩ³
åį´ æ²¡æľī
b y
è¿Ļ æĹ¶åĢĻ
ãĢĭ ï¼īãĢĤ
æĸ° åĨľæĿĳ
æĺİ å¸Ŀ
è¯į äºº
åĬ² æŃĮ
ä¾¦ æŁ¥
éĩį éĩĳå±ŀ
ç»ĵ ä¸ļ
é¦Ļ æ²¹
ç§¯æŀģ æĢ§
ç¥ŀç§ĺ çļĦ
å¤ļ ä½Ļ
äºĮ åŃĹ
è¡Ģ åŀĭ
æĹłçĹĩçĬ¶ æĦŁæŁĵèĢħ
éģĵ æŃī
æľĢç»Ī ä»¥
åĦĴ å®¶
éĹ¨æĪ· ç½ĳç«Ļ
åĩ ³
åĲĮ ä»ģ
ç»Ī å¹´
ç¬ Ļ
åİŁ åĳĬ
æ¯Ķå¦Ĥ è¯´
å¤ĸ æı´
åĩł å¹´æĿ¥
å±ı èĶ½
åĸ· æ³ī
st r
æľī ä½Ļ
èĩ §
è¦ģ æ¯Ķ
èĩª å¼º
æ³ķ å°Ķ
ä¸»è¦ģ äº§åĵģ
æĻ® å°Ķ
åĨľä¸ļ çĶŁäº§
çłĤ æµĨ
æıĲ æĹ©
éĺ¿ åħĭ
éĺ³ åı°
è¶³ è¿¹
ç£ģ æĢ§
ä¸º æĪĳä»¬
çŃī æ´»åĬ¨
é¸ ¥
ç¤¾ä¼ļ ä¿Ŀéļľ
çļĦäºº ç¾¤
æł¸ å®ŀ
ä¸Ģ è¾Ī
å¸¸ è¢«
åİ» æī¾
å¤ª åĴĮ
çļĦä¸Ģ åĲį
ä¼¤ å¯Ĵ
ç¯ĩ ç«ł
ç»ĵæĿŁ æĹ¶
ä¼ģä¸ļ åıĳå±ķ
å¤ļæł· åĮĸ
P l
â Ĵ
å¤© æ°´
èĢģ å¤§
æľºæŀĦ åĴĮ
æ½ľ èĥ½
ãĦ ¨
æ·ĺæ±° èµĽ
M y
ä½İ éŁ³
æµ· å°Ķ
æŃ¤ ä¸¾
å½± åŃĲ
äº² è¿ĳ
ä»£è¡¨ çĿĢ
åºĦ ä¸¥
åĪ» çĶ»
åħ¨ åĨĽ
åŁº éļĨ
æĪĸ ç¼º
è¥¿ èĩ³
æĿĳ éķĩ
çĶŁæ´» ä¸ŃçļĦ
m y
åľ¨ å»º
äºĨ è¯¥
å®ī è¾¾
ä½Ĩ ä»ĸä»¬
åĮħ å®¹
å¹² æ¶ī
çļĦ çĶ¨æĪ·
å¹´ ä»İ
ä¸Ń æŀ¢
åħ¬ å¢ĵ
åĨĽ ä¸Ń
å·¥ç¨ĭ æľīéĻĲåħ¬åı¸
å»ºç«ĭ èµ·
åī§æĥħ ç®Ģä»ĭ
çº¢ åįģåŃĹ
éĩİ æĪĺ
åĪ· æĸ°
è¥¿ æĻĭ
åĮĹ èĩ³
è½¦ éĺŁ
æĭī å§Ĩ
ç¼ĸ æİĴ
ä¸İ ç¾İåĽ½
ãģ Ľ
æ¶īåıĬ åĪ°
åŁºåĽł ç»Ħ
ä¸ «
æĪĲ å¥Ĺ
éĹ® ä¸ĸ
åºĦ åŃĲ
av e
D I
æĺ¯ ä½ł
é£İ çĶµ
é¢Ħ æ¡Ī
èĭ¥ æľī
éĩĳ åĥı
é¦ĸ éĢī
è°ĥ åħ¥
æ´Ľ çī¹
åĨ² éĶĭ
ĠM an
æŁĶ æĢ§
è¿Ļ æĶ¯
éĿĴ é¾Ļ
çĪµ ä½į
æĿ¥ å®ŀçİ°
ç¨ ·
åįĹ æĬķ
ä¸ŃåĽ½ çĶ»
åģļ äºº
ä¸įä»ħ åı¯ä»¥
ä¸Ģ ä¾§
çĶ¨ åĬĽ
æĹ¥ çĶµ
åķĨ åľĪ
ä¸ĩ å®¶
å¡ ¾
çī§ åľº
èĢĮ å®ļ
æķ´ è½¦
åľ¨ åĵªéĩĮ
éģ ı
å®ī æĬļ
çłĶ ç£¨
ä¸ĩ åįĥ
çľĭ å¾ħ
é¢ľ èī²çļĦ
å»¶ä¼¸ èĩ³
åĪ¹ è½¦
é£İ åĬĽ
æĭī èĲ¨
åĪĿ æľŁçļĦ
æīĢæľī æĿĥ
èĲ¥ä¸ļ æī§çħ§
æĪĲ èĻ«
âĢĿ ï¼īï¼Į
å±± èį¯
ä»Ģä¹Ī æĹ¶åĢĻ
åı¥ åŃĲ
è´« ç©·
å®ı ä¼Ł
èĮħ åı°
æ³ķåħ°åħĭ ç¦ı
çĽ¸ è¯Ĩ
ç®¡çĲĨ åĳĺ
é»Ħ æ²¹
14 5
ç§ĳçłĶ é¡¹çĽ®
çŁ³åĻ¨ æĹ¶ä»£
çļĦ çī¹æ®Ĭ
è¿ĩ ä¸ĸ
çĦ ¯
æĸĩåĮĸ éĥ¨
å°±æĺ¯ ä¸Ģä¸ª
å½ĵ æĪĳä»¬
åĳ¨ æĹ¥
æ¶² æĢģ
è¿Ļ å¥Ĺ
ç¼ĸ è¯ĳ
å°ģ è£ħ
åĶĲ ä¹¦
Ġ [
çļĦ æķ´ä½ĵ
ä¸į éĢĤåĲĪ
å¸¦ èĳĹ
æ¤ ¿
æī§ çĿĢ
æĹº çĽĽ
å¤§åĬĽ åıĳå±ķ
åİī å®³
u al
èĥ ¥
éª ģ
çĽ´ ç«ĭ
or th
ä»»ä½ķ äºº
æīŃ çŁ©
èº« ä¸ĬçļĦ
æĲŃ ä¹ĺ
G A
R E
æĺ¯ æĹł
åĽ½ èµĦ
åı¯ è§Ĥ
ä½Ĩ å¯¹
çĻ½ éĵ¶
ç¡® åĪĩ
é¦Ĩ éķ¿
æĥĬ è®¶
èĥ° å²Ľ
è¯ °
éĽ ³
åĬ¨ è¯į
åķĨ æĪ·
éĩĩ æĳĺ
æŀģ é«ĺ
èģĮä¸ļ æĬĢèĥ½
å¸¦å¤´ äºº
å¿ĥ å¾Ĺ
ç¬¬äºĶ å±Ĭ
åıĺ èī²
æĸĩåĮĸ äº¤æµģ
ĠC on
ä»ģ å®Ĺ
éĿ¢ åħ·
äºĮ æ¥¼
åħ¬åı¸ ä»¥
è´¨éĩı ç®¡çĲĨ
è¯´æĺİ ä¹¦
åįģä¸ī ç«ł
åį§ å®¤
æĺ¯ ç»ı
æ°ĳ åħµ
è·¯ çĶ±
è´¨ æĦŁ
åıĪ ä¸Ģæ¬¡
èĢĥ çłĶ
æľª å¿ħ
å¯¹æĸ¹ çļĦ
é«ĺ åĩº
æľª å©ļ
æĬ¥ åºŁ
çĥŃ å¿ĥ
æĦŁè§ī åĪ°
å¤¸ å¼ł
ç»ıçºª äºº
çļĦ æĸĩç«ł
èĩŃ æ°§
W E
Ġ æ°´
å¤§ ä½ĵ
éĻį èĩ³
èº² éģ¿
S i
åĨħ åĬ¡
ä¸ī éĥİ
æĺİ å°¼
æ¼Ķ ç»ĥ
çºª å§Ķ
è¿ģ å¾Ģ
èĢ¶ åĴĮåįİ
è½¬åıĺ ä¸º
åĬ¨ èĥ½
æ°ĳ èŃ¦
æŀģ é«ĺçļĦ
æ½ ¢
æľŁéĹ´ çļĦ
èĿĻèĿł ä¾ł
èļĤ èļģ
åįĹ åįİ
ç§ģ å®¶
å¾·éĩĮ åħĭ
k a
æĹ¥ æ¸Ĳ
ä¸ĵ ä¸º
è¯¥ ç«Ļ
çĥŃ è¡Ģ
ä¾¿ ç§ĺ
ç¯ ¡
æ¬¢ åĸľ
çħ¤ æ°Ķ
æ· ¬
å« ī
ä¿Ŀè¯ģ éĩĳ
CP U
12 4
ä¸ŃåĽ½ éĺŁ
åĲİæĿ¥ åľ¨
èĢ³ æľº
åį¢çĵ¦å°Ķ çľģ
é«ĺ ç´łè´¨
æ°Ķ è¡Ģ
å¤ª ä¿Ŀ
äº² å¯Ĩ
å·¥ä¸ļ åĽŃ
% -
ä½Ĩ å¦Ĥæŀľ
çļ® è´¨
ä¸Ģ æŀ¶
éĺ¿ æ£®çº³
åįł åĪ°
åĵĪ èĲ¨
èµŀ ç¾İ
åıĳæĮ¥ äºĨ
é¢ģå¥ĸ ç¤¼
è¥¿ åħĥ
åıĺ èº«
çľĭ å¥½
å¤ı æĹ¥
åĴĮ ä¸į
é¾Ļ æ½Ń
æķ¢ äºİ
æĢ» æĶ¯
é¥ µ
ä¿® çĤ¼
çĽ®åīį ä¸ºæŃ¢
æĸ¹æ³ķ åĴĮ
å°ıè¯´ å®¶
çľģ éķ¿
å¼ł åĬĽ
åĳ³ çļĦ
æĶ¶å½ķ äºİ
åľ¨ ä¸įåĲĮ
æĶ¹ çĶ¨
ä½ł å°±
ç»Ŀ å¤§éĥ¨åĪĨ
ä½ľçĶ¨ ä¸ĭ
æŁĲ æŁĲ
ç¬ĳ å®¹
ä¿±ä¹Ĳ éĥ¨çļĦ
æ³Ħ éľ²
æĬĴ æĥħ
æĮ ¨
éĥ½ æ²¡
è¾ĥ å¤ļçļĦ
æİ¨ å±ķ
æ¼Ĥ æµģ
çļĦ çī¹æĢ§
éĢī åĿĢ
éĩĩ æļĸ
æļ´ éĽ¨
ä¸º æ°ĳ
éģĵ å£«
éĩĳ çŁ³
çŁ³ çªŁ
åŃĹ æł·
ä¼ĺ äºİ
åıĪ ä»¥
çīĮ åĿĬ
ä¸ļ æĢģ
å¹¶ å¼Ģå§ĭ
ç¡ Ĵ
å°¼ åħĭæĸ¯
æŀģ åº¦
è´µ å¦ĥ
æĻĭ åĽ½
ä¹³ æĪ¿
äº¥ ä¿Ħ
k e
å¤§ åħ¸
éĢĥ éģ¿
èĭ±æĸĩ åĲįç§°
Ġ 1999
ä¸į åĩĨ
æĢ§ æĥħ
æ°´ æ±ł
åıĹ éĤĢ
ä½ı æīĢ
æĹ¥æľ¬ äºº
èģļ ä¹Ļçĥ¯
èĢĮä¸Ķ åľ¨
ä¸Ńæĸĩ çīĪ
çļĦ çİĭ
è¿Ľ æĿ¥
å¸¸ æľī
å·¥ä½ľ ç»ıéªĮ
çİ¯ è·¯
èħ ĭ
å¤± åĪ©
ar r
ä¿Ħ äº¥ä¿Ħ
èĤĿ çĤİ
é³į é±¼
çĤ¹ ç¼Ģ
ä½Ĩ å¥¹
åı¯ä»¥ çľĭåĩº
å·²ç»ı æĺ¯
ä»ĸçļĦ çĪ¶äº²
ĠP h
åıĳ åĬĽ
éĩĳ æ²Ļ
ç«ĭ å¿Ĺ
å¤Ħ å¤Ħéķ¿
ç¤¾ä¼ļ åĲĦçķĮ
éĺ» å¡ŀ
å¼ĢæĶ¾ å¼ı
æŁĶ åĴĮ
em ent
ä¹ĭ ç±»çļĦ
ç¦ º
è´Ŀ æł¼
åīįèº« æĺ¯
æľ ķ
åı¯ çĽ´æİ¥
åŃĹ åı·
ä»ħ ä¾Ľ
åħ¸ æķħ
ĠI I
åħ½ åĮ»
æĺİ äºĨ
åĸĿ éħĴ
åĨħèĴĻåı¤ èĩªæ²»åĮº
é«ĺ å¤§
æīĭ èĩĤ
çĻ½ çİī
æģĴ æ¸©
å¤§çĲĨ çŁ³
ä¸Ń æĸ°
æľī å¾Īå¤§çļĦ
åĮĹ æ¬§
Ġ çĪ±
ä»ĸ è¡¨ç¤º
å¸Ī çļĦ
åħĪè¿Ľ å·¥ä½ľèĢħ
å¸ĿåĽ½ çļĦ
çĽ ¯
äºİ é¦Ļæ¸¯
è®¾ æ³ķ
çº¢ æĺŁ
çİ¯å¢ĥ å½±åĵį
çĶŁ åŃĲ
äºĶ ä¸Ģ
ä¹Į é¾Ļ
ĠP r
èĴĤ äºļ
ç²ĺ åº¦
å®ļä¹ī ä¸º
çŁ« æŃ£
t a
å¤© æ¡¥
åŁºæľ¬ èµĦæĸĻ
æįķ èİ·
çī¹ çº§
éĥ½ ä»¥
æıĲ éĹ®
åĬŁ èĩ£
ç¾İåĽ½ åĽ½å®¶
I E
çļĦ éĩįçĤ¹
æ± ´
ä¸ľ æĹ¥æľ¬
ä¸ªäºº çĶŁæ´»
å®¾ å¤ķ
è½¬åĲĳ æŀ¶
æ° °
ä¹ĭ æĹ¥
åħ¨ å±Ģ
åĽŀ äºĭ
å¹¼ å¹´
ä¸» æĿĥ
åĽłä¸º ä»ĸä»¬
çľ¼ çļĦ
åľĨ éĶ¥
å¥¢ åįİ
åıĳ æºĲäºİ
ä¸ī éĩį
ç´§ éĤ»
æ¶Į çİ°
é¦ĸå¸Ń æī§è¡Įå®ĺ
çĪ¬ è¡Į
åĴĮ çĶ°
å¥½ è½¬
ä¸ĸ ä¿Ĺ
ç½ĳç«Ļ ä¸Ĭ
æĤĦ æĤĦ
äºº éĻħ
æķĻ åĬ¡
è§£ ä½ĵ
é«ĺçŃī éĻ¢æł¡
Ġ äºĮ
åıĳ æ³¡
ç»Ł é¢Ĩ
æĿĳ åĲĪå¹¶ä¸º
æľĢå¤§ éĻĲåº¦
çº¿ åľĪ
å¾· åħ°
è¿Ľè¡Į æ²»çĸĹ
ç»ıæµİ åŃ¦å®¶
æĶ¿åºľ éĥ¨éĹ¨
éĿŀå¸¸ éĩįè¦ģ
åħĪçĶŁ çļĦ
Ġ åĲī
æ± ŀ
çŃī ç¦»åŃĲ
åĨ³ å®ļçļĦ
éĩįè¦ģçļĦ ä½ľçĶ¨
åĩ ĭ
åľ° æ¯¯
ä¹ĭ äºİ
us s
ç¡ħ èĥ¶
åħ³èĬĤ çĤİ
____ ____
çĲµ çĲ¶
æľĪ åħī
èĭ »
èĢĥ éĩı
å®¶åºŃ çļĦ
é³ Į
æĿľ é¹ĥ
ç©ºæ°Ķ ä¸Ń
çºµ éĺŁ
å±ķ é¦Ĩ
æľįåĬ¡ åķĨ
éĽª å±±
ç²ĺ èĨľ
t r
æŃ ª
çľĭ ä½ľ
èĦ¾ æ°Ķ
ä¸ī éĹ´
åķĨ éĵº
27 0
åħ« å¼º
åĹ ħ
åıĳæĺİ ä¸ĵåĪ©
ä¹Ł å¯¹
å°ı åĵģ
å°Ĩ å¯¹
çĥ ģ
çīĩ å¤´
æ·± éĢł
ãĥ¼ ãĥ«
çº½çº¦ å¸Ĥ
åıĶ åıĶ
ç¬¬åħ« ç«ł
ãĢ ĩ
ä¸į åŃķ
çĶµ èį·
æ¼ ķ
çİĭ æ°ı
ä¸° æĶ¶
åŃĻ æĿĥ
åĮĸåŃ¦ åıįåºĶ
ä¸Ģ ç»ı
èĩª è±ª
éĢļ èĥĢ
ç»ĩ çī©
æ±ī æŃ¦å¸Ŀ
å°± èģĮ
æĥħ å¢ĥ
èĩªçĦ¶ç§ĳåŃ¦ åŁºéĩĳ
æĪ ¦
äºº åıĤ
å¤ļ éĥ¨
ä¸Ńå¿ĥ åĴĮ
åºķ çĽĺ
R A
å¸¦ èµ°
ç»Ĩ åĪĻ
åŃĻ å¥³
éĹ½ åįĹ
èł ķ
åľ¨ åĲİ
å¤§ åŁİå¸Ĥ
åĪ° çİ°åľ¨
è¿Ļ åĿĹ
èµ· çĿĢ
åı¯ä»¥ æĮĩ
èĮ ī
ä¸ĸçķĮ éģĹäº§
ä½ķ å¤Ħ
çľ¼ ä¸Ń
æµĵ åİļ
ç» Ľ
å¹´ åıĪ
èĢĮ å¯¼èĩ´
æ°´ æ¸©
å°± è¯Ĭ
ä¸ĵ å¿ĥ
ä½Ľ å±±å¸Ĥ
æĭ¥æľī çļĦ
æĺ¼ å¤ľ
Ù ħ
åĴĮ éĿŀ
åİ¿ ä»¤
åħ± åĪĽ
å¤į åĩº
çĶ· æ¼Ķåĳĺ
åĲ¯ èĴĻ
å¹½ çģµ
æĥ ķ
åıĪ è¯ĳ
å¿« è½¦
å¸Ĥåľº ç»ıæµİ
å®Ŀ è´µ
å½¢æĪĲ ä¸Ģä¸ª
èĩªçĦ¶ æĿĳ
æĹ¥ åħĥ
ä¸ŃçļĦ åºĶçĶ¨
èŀº æłĵ
èľľ èľĤ
åĪĨ éĶĢ
æĪĳ åı¸
å®ŀ æĥł
çłĶç©¶ æĬ¥åĳĬ
è¨Ģ ä¹ĭ
åĨĻ åĩº
ä»£è¡¨ æĢ§çļĦ
ä¸¹ å°¼å°Ķ
æ¸¸æ³³ æ±ł
åħ¶ æĹ¶
çĤ¹ åĴĮ
é¾Ļ æ³ī
çĦ¶åĲİ åľ¨
æĸĩèīº å¤įåħ´
o ch
çī© ä»·
æķ° åŃ¦å®¶
çº¦ ä¼ļ
éŁ³ä¹Ĳ çļĦ
åĴĮç¤¾ä¼ļ ä¿Ŀéļľ
èİĨ çĶ°
G re
æĪ Ł
åľ¨ è¢«
å¤§ æĺİ
æĪĳ å¯¹
æĹł éĩı
çĻ½ éĩĳ
åħ° çī¹
å®« ä¸Ń
çĵ¦ æĭī
ä¹Ķ æľ¨
å°ı åŃ¦æł¡
æ¥ ¹
çĭ¬ ä¸ĢæĹł
çİ¯å¢ĥ æ±¡æŁĵ
ç«¯ çĤ¹
of f
èĤł èĥĥ
ä»Ĩ å°Ħ
æļĳ åģĩ
ä¸į æ¸ħæ¥ļ
ä¸Ĭ éĥ½
é«ĺéĢŁ éĵģè·¯
åįģåĽĽ ç«ł
l l
æ°¸ å®ī
èĦļ è¸ı
ï¼ī ï¼ī
åįķ èº«
åı¤ æľ´
é£Ł è°±
å¡ĳ æĢ§
åĳ¼ åı«
2 11
çļĦ è®¾å¤ĩ
åĽ½ åŃ¦
åĮĹ æĸĹ
åıĤ éĺħ
ç»ıèĲ¥ èĮĥåĽ´
ä½ĵéķ¿ åı¯è¾¾
å°Ĩ å£«
æĶ¿ äºĭ
èµĽ ç¨ĭ
éĩĩ çŁ¿
åĵ¥ çī¹
èµ¶ ç´§
æĭ³ åĩ»
äº¤çķĮ å¤Ħ
æ¿Ĵ åį±
çļĦ ä¸ļåĬ¡
å¤§ æ´ĭ
åĲĮ æĹ¥
ç½Ĺ å®¾
åĲ¸ åıĸ
è§ĦåĪĴ è®¾è®¡
éģ¿ å¼Ģ
æĬĺ å°Ħ
æµ© çī¹
p en
ä¸Ń å¹´
å¤§ æŀĹ
çĶŁ æ¯į
ä¸ī èı±
æĪĺäºī çļĦ
V A
åľ¨ åĽ½å®¶
åħ¬ åĽ½
åı£ è¯Ń
æł¡ åĨħ
åıĤ è®®åĳĺ
åħ±äº§ åħļåĳĺ
ï¼ Ĺ
éģ Ĳ
çļĦ åĬ¨ä½ľ
æĻ Ł
å¤© æ²³
è¯¥ å¦Ĥä½ķ
ä¸įä¼ļ æľī
èĤ¢ ä½ĵ
ä¸į å¹³
åľ° åľ¨
å¸¸ ä¾į
ä¸¤ äººçļĦ
ç»Ĩ å°ı
èĦĤèĤª éħ¸
D avid
ãĥ ¢
ç´¢ å°Ķ
æĹ¥ å¤ľ
çı ĳ
ç»Ħç»ĩ å¼Ģå±ķ
çĵ¦ æĸ¯
æķĻåŃ¦ æ¥¼
æıĴ æĽ²
æĹłäºº æľº
è¥¿ ä¼¯åĪ©äºļ
å©´ å¹¼åĦ¿
åŁİä¹¡ å»ºè®¾
çļĦ è¡¨éĿ¢
æķĻ å§Ķ
éĢī æ°ĳ
æ¨¡ æł·
çŃ¾ åŃĹ
ä¼° åĢ¼
é¢ħ éª¨
åĲİ ä»»
ä½į åľ¨
åħĪ å°Ĩ
å±ŀ åĲį
çĶŁäº§ è®¾å¤ĩ
èĬĤçĽ® ä¸Ń
å½ĵåľ° äºº
å®¶æĹı çļĦ
åľ¨æŃ¤ æľŁéĹ´
èģĨ åĲ¬
o ad
çļĦ åĽłç´ł
åŁº å°Ķ
åı° å¸ģ
ç½ĳ æł¼
çĥŃ åĪº
æľīä¸Ģ æ¬¡
å°Ĭ èĢħ
èķ ¨
b ur
åĮĹ ä¸İ
æĪĸ ä¸į
éĤ£ ä¸į
çĽ¸åħ³ ä¿¡æģ¯
æ®Ĭ èį£
èĴ¸ æ°Ķ
éĢīä¸¾ ä¸Ń
Ù Ĭ
å¹´ å¹¼
äºĨ èµ·æĿ¥
ä½į ç§»
å¹¶ èİ·
æľºæ¢° åĪ¶éĢł
ä¸Ģ éĺµ
å¤§ åŁĶ
ä¹ĭ åŁİ
è¿Ľ çļĦ
æ°ĳ æŃĮ
æ» Ķ
èĮ¶ çļĦ
æĥł å·ŀ
è½¨ çĶµè½¦
èģĺ ä¸º
é¢Ĩäºĭ é¦Ĩ
å¹´ å°Ĩ
æģ º
ä¸ľ ä¸İ
ç½ĳ èĨľ
è§ģ è¿ĩ
æīį åı¯ä»¥
36 5
å¹´ åĽł
æµģ æĺŁ
ä¸ĩ ä¸ª
çĶµå½± éĻ¢
çļĦå¤§ åĬĽ
éĢ¾ æľŁ
åĩº æľī
åī ĥ
éĽĨ èµĦ
é¦Ĩ èĹı
å½Ĵ å±ŀäºİ
ä¼ĹæīĢ åĳ¨
ä¸Ĭ éĿ¢çļĦ
åįĹ åįĹ
ç¥ŀ åŃ¦
as ter
ç»ıå¸¸ åĩºçİ°
åĲĦèĩª çļĦ
S H
åľ¨ åŃ¦æł¡
åĨį ä¸Ģæ¬¡
æ´¾ å¯¹
èĥ¶ åİŁ
çļĦå¿ĥ æĥħ
çļĦçĥŃ æĥħ
æ²»çĸĹ çĻ½çĻľé£İ
çİĭæľĿ çļĦ
F F
æĸĩ æĹħ
çĶµ ç«ŀ
æł¡ å°ī
å·´ æ¯Ķ
ä»ħ åŃĺ
åĨĽ çĶ¨
èģĮ æĿĥ
é¥° åĵģ
å¾ģ æĪĺ
éĤ® çĶµ
æ¶Ĥ æĬ¹
ä¸»æķĻ åº§åłĤ
çļĦ å¤ĦçĲĨ
åºĶçĶ¨ çļĦ
æĺ ±
å¤§ æ£ļ
å¯ °
èĩª å®¶
äº§ ç§ĳ
åħĭ æĭīåħĭ
åĪĹ æĸ¯
å£° ä¹Ĳ
èĲĥ åıĸ
Ġ y
è° Ĵ
éĩĮ å¥ĩ
ä»İ ä¸į
æĶ¾ è¿Ľ
ç¬¬äºĶ èĬĤ
å¸¸åĬ¡ å§Ķåĳĺä¼ļ
ç³Ł ç³ķ
ä»¥ èĩ³äºİ
ä½ľ æ³ķ
äº¤ è°Ī
èĬ± æľµ
è¿ŀ çİ¯
ç¬¬äºĮ åĲį
çļĦ ä»ĸ
çŃī å¤ļé¡¹
åĮĹ åĳ¨
ä¾Ľ çĥŃ
ä½Ļ å®¶
è®¾å¤ĩ æľīéĻĲåħ¬åı¸
äºĮåįģ åħ«
çļĦ åģļæ³ķ
åĴĮ æĶ¯æĮģ
ä¸į ç¦ģ
åĩº åĩ»
å½Ĵ è¿ĺ
æĲľ å¯»
çļĦ å¿ĥçĲĨ
æīĢ è¾ĸ
åºĶ æ³¨æĦı
è®¾è®¡ äºĨ
ä¼ĺç§Ģ å¥ĸ
ä»¥ æ»¡è¶³
ä¸ĵä¸ļ çĶŁäº§
en er
è¿Ļç§į æĸ¹æ³ķ
ç¤¾ä¼ļä¸»ä¹ī åħ±åĴĮåĽ½
å®¾å¤ķ æ³ķ
åħĭ æ´Ľ
æĭī å°Ķ
ç§ĳåŃ¦ åıĳå±ķ
æĺ¯ åŁºäºİ
åħ¨ éĽĨ
æł· æĿ¿
è¯¦ è§ģ
ä¸Ń æŃ£
åĬ¡ å±Ģ
åħĥ åĴĮ
ä¹Łæĺ¯ ä¸Ģä¸ª
çĥ§ çĥ¤
éļĶ éŁ³
çļĦ åľ°ä½į
å¼Ģ åľº
è®¾ æĥ³
ä¸ĩ ç«ĭæĸ¹ç±³
ä¾Ľ åħ»
æĹ¶éĹ´ éĩĮ
Ġ ä¸ª
æ·± å¾Ĺ
åıĳçĶŁ åıĺåĮĸ
æĳĦ åıĸ
çļĦ æĬĹ
ä¸Ń æŃ¢
èĮ ±
æīĵ éĢļ
çŁŃ æĹ¶éĹ´åĨħ
18 95
åį° èĬ±
æ¶µçĽĸ äºĨ
å¹´ å¹´
é¢ ļ
ç»¿ è±Ĩ
å®ľ æĺĮ
6 50
åĴ ²
åı¯ä»¥ åĪĨä¸º
æĶ¹ çīĪ
æł¹æį® åľ°
ç»Ŀ æľĽ
æº¶ æĢ§
çļĦ è¶ħ
æĶ» éĻ·
è¡ĮæĶ¿ å¤Ħç½ļ
éĢļå¸¸ ä¼ļ
æ³Į å°¿
æĽ´ éĩįè¦ģçļĦæĺ¯
æ²ī æµ¸
ä¸į åħģè®¸
åı¸ éķ¿
è®© åŃ¦çĶŁ
ç®Ģ çĽ´
æ¦Ĥ è®º
äºĮåįģ ä¸īå¹´
æĸĩæĺİ å»ºè®¾
ĠO r
åįģäºĶ ç«ł
çĭĻ åĩ»
äº§ åĮº
åħ¨ åĳĺ
æīĵ ç£¨
é¾Ļ çİĭ
è°Ī è®º
åĲİæĿ¥ è¢«
çŃ ł
æĹł ä¸Ģ
çĳ ķ
çīł ä»¬çļĦ
åľ¨ å¥¹
åķ ¼
çľĭ å¾Ĺ
æĻļ éĹ´
çģ¯ å¡Ķ
æ¡Ĥ èĬ±
å¦¥ åĸĦ
Ġ å¯¼æ¼Ķ
äºĨ åĩł
ä¿ ı
éĿ¢ æĿ¡
åħī è¾ī
æ¯ı ä¸Ģæ¬¡
çĥŃ å¤ĦçĲĨ
å½Ĵ äºİ
åŃ¦æľ¯ äº¤æµģ
é¢Ī æ¤İ
ä»¬ åľ¨
æİĴ éª¨
éĻ¶ åĻ¨
ĠCom p
åħ¬ ç½²
è¿Ļ å¼ł
èĢĮ è¿ĻäºĽ
å°± è¿ŀ
å¯¼ çĥŃ
å®ŀæĸ½ æĸ¹æ¡Ī
å¥Ķ é©°
åį³ä½¿ æĺ¯
ä¸Ģ æĿ¯
å¤§ èĤł
å®¶ åº·
åĪĨ éĻ¢
è¯Ħ æ¯Ķ
é¦Ļæ¸¯ çĶµå½±
ç¬¬ä¸ī åĲį
è¥¿çıŃçīĻ è¯Ń
æĦī æĤ¦
j i
å¤ļ éĩį
çĶµ éķĢ
ç®¡çĲĨ ä¸Ńå¿ĥ
é¼» åŃĲ
å¿į åıĹ
å¤§å¥ĸ èµĽ
çļĦ èº«ä½ĵ
æĺ Ļ
å¯ ¥
æĹ¥ è®¯
éľ ¹
å°ĸ ç«¯
å¡« æĬ¥
å¤ªæŀģ æĭ³
ç«ĭ æ¡Ī
å·ŀ äºº
çłĶç©¶ å·¥ä½ľ
æĪĺäºī æľŁéĹ´
åŃ¦ä¼ļ ä¼ļåĳĺ
** *
çĭĲ çĭ¸
ä¼ļå±ķ ä¸Ńå¿ĥ
çļĦ æĪĺçķ¥
å¤§ åĶĲ
åħ¬ è¯ģ
å»º å®ī
æĹł å¿§
æ²¡ ä»Ģä¹Ī
èİ± çī¹
os h
æĢ ł
éĩĮ æľī
å¾· åħĭèĲ¨æĸ¯
èİ· æĤī
ç®¡çĲĨ æľºæŀĦ
ä¼ĺ ç¾İçļĦ
ä¾§ éĩį
çļĦ è·¯
ä¹ĭ å£«
æīĵ åĮħ
ä¾§ å¼ı
èĪį äºº
ä¸Ĭ è¡Į
å¤ĸ åĢŁ
ä½Ĩ ä¹Łæľī
æ±Ĥ ç²¾
è¿ĳ åį«
å¤į åİŁ
æł¹ æºĲ
çª ľ
éŁ³ä¹Ĳ å®¶
ç³»åĪĹ èµĽ
éķ¿æľŁ ä»İäºĭ
èĦ±é¢ĸ èĢĮåĩº
èģĶ è°Ĭ
èŃ ¬
æĳĦ æĶ¿
èµĦæľ¬ å¸Ĥåľº
çĲ ¥
éĹ´ è°į
åİĨ å¹´
åĽŃ åĨħ
è¿½ åĬł
å¹´ä»£ ä¸ŃæľŁ
åĳ¼ åºĶ
åĩĨå¤ĩ å¥½
o e
å¤§ åĿĿ
åĴĮ ç»ıæµİ
å·¥ç¨ĭ è®¾è®¡
ä»ħ åľ¨
ç§» äº¤
çļĦå¤§ éĩı
å°¾ é³į
å®£ä¼ł éĥ¨
æĲ¬ å®¶
èī° è¾Ľ
çŁ¥ å·ŀ
ãĤ §
åĢĻ è¡¥
çıŃ çļĦ
ç¥¨ ä»·
å»ī æ´ģ
éĽĩ ä½£
ä¸¤ ç±»
åĪ©çĶ¨ çİĩ
ĠM c
çªģåĩº è´¡çĮ®
ç¿¡ç¿ł åı°
çľ ©
çŁŃ è§Ĩé¢ĳ
C F
Ġ ch
å¤§ æľī
ç¼ĸ ä¿®
èīºæľ¯ èĬĤ
çĽ®åīį åľ¨
åĵĪ æł¹
æĹħæ¸¸ æĻ¯çĤ¹
ä¸Ģ èĤ¡
æĹ¶ éļĶ
æīĢ äº§çĶŁçļĦ
æľĢ åħĪ
ä¸Ģä¸ª äººçļĦ
åįĬ éĥ¨
Ġ 1998
è¯ ħ
è¢« åĪĹåħ¥
ä¼ł éĹ»
è¾¾ äºº
è´Ń åħ¥
. ï¼ī
ä¹ĭ äºĮ
ä¹Ŀ æ±Ł
åī§åľº çīĪ
o le
å¹³ æĹ¥
ç½Ĺ æĽ¼
è½¬ èĢĮ
åİĤ çļĦ
åħ±åĴĮ åħļ
åĴ ¤
åĽŀ è·¯
ç»ıæµİ å¼ĢåıĳåĮº
ä¸»æ¼Ķ çļĦ
t he
å¾Ī éķ¿
æİĴ åľ¨
ä½Ļ ç§į
éĵ¶ æĿı
åĴ½ åĸī
èĢ Ĩ
å¯¹ èĩªå·±çļĦ
å±± äºº
æ²¡ æĶ¶
æµĭ è¯Ħ
çķ¥ æľī
åįĸ åĩº
åļ £
åľ¨ æŁĲäºĽ
ä¸º çİĭ
æĹ¥ åĩº
åĮĸ èĤ¥
å·² ä¹ħ
çĻ½ çļĦ
æĮģ èĤ¡
æ¸ħ åĩī
è°ĥ åĪ¶
æĢĿ è®®
èĩªçĶ± éĢīæĭ©
ut e
åĽ½æľī ä¼ģä¸ļ
çļĦ æĦıè§ģ
ä¸Ĭ ä¹Ł
æŃ£ åĢ¼
è¿ŀ ä»»
èĨ Ľ
åįģåħŃ ç«ł
æĬ± çĿĢ
å¸ĪèĮĥ åŃ¦æł¡
Ù Ĩ
èģĶ éĺŁ
åħļ ç»ĦæĪĲåĳĺ
èī¯ æĢ§
è¾ĵ æİī
çĶŁçī© åŃ¦å®¶
é¢ľ æĸĻ
åĳĬè¯ī ä»ĸ
ç¤ºèĮĥ åĮº
çļĦ æĢ§èĥ½
æľĪ åı·
æµ· äºĭ
éĢĤ æĹ¶
åĿĩ çĶ±
éĺ» æĮ¡
è¿Ŀæ³ķ è¡Įä¸º
çļĦ æĵįä½ľ
åĴĮ è§£
çĥ ½
çľŁ çļĦæĺ¯
æĪĲåĳĺ åĽ½
ä¿Ħç½Ĺæĸ¯ èģĶéĤ¦
èĥ¶çīĪçº¸ åį°æ¬¡
L L
ä»» åĨħ
æķ° å¹´
éģĩ éļ¾
åĪĽéĢł åĩº
é»ĺ è®¤
l es
çļĦ éĶĢåĶ®
å°Ĩ çĶ±
æŀĦ åĽ¾
åħ« ä¸Ģ
ä¸ĢèĪ¬ æĥħåĨµä¸ĭ
æľĢç»Ī åľ¨
èĲ¥åħ» ä»·åĢ¼
æĤŁ ç©º
S ch
ä¸ļ èĢħ
æĽ´ ä½³
ä¸ĵä¸ļ çŁ¥è¯Ĩ
è´¢ çī©
çĽĽ åħ¸
è¡£ çī©
å¤§ éĥ¨ä»½
æİ¥ é©³
å·¥ä½ľ æĹ¶
ç®¡çĲĨ å¤Ħ
èĩ´ çĹħ
æ¯Ľ åıĳ
ĠR e
æľĪ ä¸Ĭ
è¥ Ł
æİ§åĪ¶ åľ¨
ç§ģ èĲ¥
åĪĨå¸ĥ å¼ı
åĸ· éĽ¾
ä¸Ńæĸĩ ç³»
Ġ è¯¥
åĽĽ å¼º
èħ ĳ
äºĨ åĲĹ
åŃ¦ çķĮ
çľĭ åı°
æĬ± æĢ¨
çļĦ ä¸ľ
çİĭ åĪĺ
æ»¡ åĪĨ
é¢ł è¦Ĩ
å¤ Ń
è¡Į çľģ
å¼Ģ æºĲ
åĨĽ éķ¿
åŀĭ æŁ´æ²¹æľºè½¦
é»Ħ åŁĶ
èĩ´ ä»ķ
çł´ è§£
ä½ ¬
ç«Ļ æĺ¯
æ¸ħ æ²³
çĹħ äººçļĦ
åĽŀ éģ¿
è®¡åĪĴ åľ¨
çŁ¥åĲį åĵģçīĮ
éķ¿æ²Ļ å¸Ĥ
ä¼ĺæĥł æĶ¿çŃĸ
Ġ æľ±
çĦ ĸ
ãĥ ¯
ç¢ ¾
æłĳ ç§į
èŃ¦ ç¤º
æĪĳ å¾Ī
å¤© ä¸Ĭ
æ¯Ķ ä¸Ĭå¹´
æĪĳä»¬ ä¹Ł
è®© å¤§å®¶
å¦Ĥæŀľ åľ¨
æºª æµģ
äºĭä¸ļ éĥ¨
ç¥Ŀ è´º
æ¶¨ å¹ħ
å¿ĹæĦ¿ æľįåĬ¡
åħ¬å¼Ģåıĳ è¡¨
Â ®
å¤§ çķ¥
åĲį æł¡
ä¼ł ä¸ĸ
èĤ² ç§į
çļĦä¸Ģä¸ª éĩįè¦ģ
æµİåįĹ å¸Ĥ
æĸ° æĺ¥
åıĳå±ķ ä¸º
17 5
æ´» åĮĸ
çłĶç©¶ èĢħ
æľ¬ åĳ¨
it ion
åĵª æĢķ
çļĦä¸» åĬĽ
âĹ İ
æ¸ ¥
å±± ç¾Ĭ
é¼ĵ æ¥¼
ä¸į éĢļ
æķĮ æĸ¹
35 00
ç¡®å®ļ ä¸º
n m
Ġ èī¾
æĻ ¦
åı² è¯Ĺ
ä¸įåı¯ æĪĸç¼º
è¯ķ è¡Į
åĽ° æĥĳ
èĴĤ æĸ¯
è¿· å®«
çĲ Ľ
åľ° ä¸º
å¼Ģ ä¼ļ
å¹³ åĴĮ
èĲ¥ åĪ©
è¶Ĭ éĩİ
å¿Ļ ç¢Į
B BC
æĮ Ľ
è¯´ ä»ĸ
å¥¶ ç²ī
å¢ŀå¼º äºĨ
æ»¡æĦı åº¦
æĸĩ èģĶ
è½¦ ä¸Ĭ
æķħ æŃ¤
å½» æĸ¯çī¹
èĦĨ å¼±
è¿Ļ ä¸İ
çŃī åĲĮ
å¹¶ ä»İ
å°Ĩ è¯¥
æĻ® æ£®
çĤ® åı°
çļĦ å®ļä¹ī
è¿Ļ ä»¶
ç§ĳ åĪĽ
ç½Ĺ æĿ°
åħ·æľī ä¸Ģå®ļçļĦ
å®¡ å®ļ
å§Ķåĳĺä¼ļ çļĦ
éĽĩ ä¸»
iel d
éĥ½ éĿŀå¸¸
æĶ¯ è¡Į
åĩ» åĩº
åįĬ çĲĥ
éĩİ æĿĳ
åĮºåŁŁ åĨħ
æıĴ åĽ¾
èĨĢ èĥ±
~ ~
å¤ĸ ç±į
èįĶ æŀĿ
çļĦ çłĶåıĳ
äºĳ æŀĹ
æķĳ æµİ
æĺ¯ å¾·åĽ½
çĶ¨ åĪ°
æĭ ĩ
è¾ Ĺ
æĪĳä»¬ å¯¹
å±ħ å¤ļ
æĸ¯éĩĮ åħ°åį¡
æĹ¥ ä¸İ
å·¥ ä¼¤
è¿Ļ ä½¿å¾Ĺ
æŃ£ å¤Ħäºİ
å¼º åĽ½
èĬ± èİ²
ä½įäºİ æĹ¥æľ¬
ab le
ç¼Ķ éĢł
åıĺéĢŁ ç®±
C L
é«ĺ ç©º
ç®¡ å§Ķä¼ļ
çĵ¦ åħ¹
è¿ĺæľī ä¸ĢäºĽ
P I
ä¹ĭ å¤ļ
åįķ ä½ĵ
é¢ĩ åħ·
æ²³ ä¸Ń
ç²¾ é«ĵ
æĶ¯ æ°Ķç®¡
å°¼æĹ¥ åĪ©äºļ
éľ¹ éĽ³
åľ¨ åĽ½å¤ĸ
åĬ¡ å¿ħ
æıĲ çĤ¼
æłĩ æĿĨ
æĭ¨ æīĵ
ä¸º åĽ½
å¿ Ĵ
çľ ¶
åįĹ å¼Ģ
æİ¥ åĬĽ
å»ºçŃĳ æĿĲæĸĻ
å¨ģ æµ·
éĤ® ç¼ĸ
AT P
æĢ» çļĦ
æīĵ æī®
12 9
å¥¹ åĴĮ
éĽ· è¯º
ä¸Ģ æĹı
åľ£ å½¼å¾Ĺ
æļĹ æĿĢ
èµĦæľ¬ ä¸»ä¹ī
å¤ĸäº¤ éĥ¨
æĺ¯ åħ¨çĲĥ
å°ı è¡ĮæĺŁ
çĪ ¹
çĻ½ äºº
äº¿ ç«ĭæĸ¹ç±³
çī¹åĪ« è¡ĮæĶ¿åĮº
ç«ŀäºī åĬĽçļĦ
F acebook
ä½ľ å®¢
å·¥ åŃ¦
åıĳå±ķ è¶ĭåĬ¿
ç¢° åĪ°
éŁŃ èıľ
3 30
é«ĺ æĸ°
çİ° èº«
åĽĽ æĺ¯
åĽĽ æµ·
å®Ŀ èĹı
il m
Ñģ Ðº
ä¸Ń å¯¹
åĪĨ æŃ§
ä»ĸ æĬĬ
èĩª å®ļä¹ī
è° ´
æĭī åĬĽ
åı³ ä¾įéĥİ
ç»ıè¿ĩ æľ¬åľ°åĮº
å¹´åľ¨ ä½į
è½¶ äºĭ
G l
çļĦ å®ĹæĹ¨
å®ŀ çĶ¨çļĦ
å¼Ģåıĳ äºĨ
æłĳ çļĦ
äº¤éĢļ äºĭæķħ
è¡ĮæĶ¿ ä¸Ńå¿ĥ
èĦ¾ èĥĥ
å¤ļ çī¹
æ¸ħ é¦Ļ
ç®¡çĲĨ èĢħ
ä¾¿ æĲº
ä¸įåĪ© äºİ
ä¸ĢæľŁ å·¥ç¨ĭ
æľĪ æŃ£å¼ı
åħ¨ æĻ¯
ç¥ ĩ
åĽĽ æ¬¡
æº ¥
åıĤ ä¼ļ
ç²¾ åŃĲ
éĿĴ èĬ±
åĶ±çīĩ åħ¬åı¸
9 000
Ø ±
Ġ ç±³
çļĦ å®ŀéĻħ
ä¿ ¸
ãĤ ±
æ°´å¹³ åĴĮ
è¾Ľ äº¥
çļĦ åĬªåĬĽ
åĲį ç§°ä¸º
é¦ĸ éĥ¨
é²¤ é±¼
ä»¥ å¤ª
ä¹Ł è¢«ç§°ä¸º
æĹł å°½
åĲĦç§į åĲĦæł·çļĦ
éģ¿åħį äºĨ
éĴ» çłĶ
æĸ°çĶŁ åĦ¿
è¿Ļ çīĩ
è¯ģ çĽĳä¼ļ
çº¹ çĲĨ
çĬ¶æĢģ ä¸ĭ
çĮİ çī©
b a
åĪ¶ æľį
æµģ åĩº
15 5
æ°´ åľŁ
åı¦ è¡Į
ber g
åĽĽ çĻ¾
å®½ æķŀ
èĩªåĬ¨ é©¾é©¶
ÑĢ Ð°
æµģ äº¡
çİĭ åĽ½çļĦ
è§£ èĦ±
å£« åĿ¦
ç¾İåĽ½ æĢ»ç»Ł
ç½ĳç»ľ ä¸Ĭ
åĺī å®ļ
éĢļå¸¸ åľ¨
å°ĺ åŁĥ
l in
Ġ 2023
åĴĮ é©¬
ä¸¤ åıª
åĨľ æŀĹ
le ct
å·¨ åŀĭ
çĸı æķ£
èĪŀåı° åī§
ä¸ī çĽ¸
æĶ¹ åħĥ
18 97
é£Ł çĽĲ
åį³ æĪĲ
åĬ¿ å¤´
çļĩ åŃĲ
åı¦ä¸Ģ ä½į
ä¸įåĬ¨ äº§
y pe
å¤§ å±±
æ³ ·
åĲį å£°
å°ı å°ı
ä»£ çļĦ
ä¸»è¦ģ è´Łè´£
èµ° è¿ĩ
å¥ĩ çī¹
åºķ çº¿
æĳĦåĥı å¤´
æľīèī² éĩĳå±ŀ
D M
åľ¨ éĺ¿
éķ¿ æĸ¹å½¢
å®ī åĮº
äº§ä¸ļ ç»ĵæŀĦ
éĨĴ æĿ¥
A åŀĭ
æľī å¿ħè¦ģ
ä¹ĭ éĹ¨
åħ¶ ä¸Ģ
åĽĽ åįģäºĮå¹´
é¦ĸ é¥°
éļ¾ åħį
å®« é¢Ī
CC TV
å¥½ çľĭ
è¿ľ éĶĢ
ä¸ºä»Ģä¹Ī è¦ģ
ä½ĵåĪ¶ æĶ¹éĿ©
äº¤åĵį ä¹ĲåĽ¢
M ic
N T
å·¥ åŃ¦éĻ¢
ä¹ĭ æ³ķ
ä¼ł çĲĥ
è¯¥ éķĩ
è§Ĩ å¯Ł
çŁ³ ç¢ĳ
éĹ® çŃĶ
è¿ĻäºĽ éĹ®é¢ĺ
æĿľ ç»Ŀ
åĽĽ åºĵ
äºĨä¸Ģ åº§
ç³ĸ æŀľ
æĩ ĭ
ç«Ń è¯ļ
à ¦
æľī çĶ¨
çŃī ä¿¡æģ¯
çĹ ī
é£İ éĢŁ
çĻ½åŀ© çºª
æľī ä»¥ä¸ĭ
æ°´ éģĵ
ä»Ĭ æ²³åįĹ
å¸Ĥåľº ä»½é¢Ŀ
US B
ä¸Ń ç©º
çĽ¸ å£°
åİĨ æĿ¥
æŀĹ åľ°
åį¡ è¥¿
ç±į è´¯
ä¸īåįģ åħŃ
çĶ±è¯¥ éģĵè·¯
t s
çļĦ ç§ĳåŃ¦
åĲİ ä¼ļ
åħ¨ èĥ½
åº¦ é«ĺ
er y
çģ« çĤ¬
åĽ´ å¢Ļ
åĲĪä½ľ åįıè®®
çĵ¶ é¢Ī
çļĦ ç¬¬ä¸ī
èĪ¹ ä¸Ĭ
æĶ¾å¼ĥ äºĨ
æģ ¬
çĥŃ èĥ½
ä½ľåĵģ æľī
æķ£ åıĳ
ç»Ī ç©¶
ç©¿ éĢı
å½ĵåľ° æĹ¶éĹ´
æ³¨åĨĮ èµĦéĩĳ
æĹ¶ å°±
æĪı éĻ¢
æĪĸèĢħ åħ¶ä»ĸ
é©¾ è½¦
åĭĥ èī®
æ¹ĺ æ½Ń
-------- --------
æľįåĬ¡ æľºæŀĦ
æķĻèĤ² å·¥ä½ľ
äº² æĪļ
åıĳçİ° èĩªå·±
é²ľ æĺİçļĦ
ç½ĳç«Ļ å»ºè®¾
è¦ģ æĺ¯
åħ¨ æĺİæĺŁ
æĢ» ç½²
al k
åį¢ çĵ¦
åĲ¸è¡Ģ é¬¼
å·² è¾¾
or s
äºĮåįģ äºĮ
åĪĨ åĴĮ
è¥¿ è¥¿
çī¹ æľī
çľĭ è¿ĩ
å·´ å£«
éĥ¨åĪĨ åľ°åĮº
æľ¨ æĿĳ
ç¨³ åĽº
çĶŁ æĬ½
ä¸Ģä¸ª æĺ¯
ç¬¬ä¸Ģ ä»»
é¸ ¾
èĻ« å®³
ä¸² èģĶ
åĶ ĳ
çļĩ å¤ªåĲİ
è¿ģ åħ¥
çĶŁ çĹħ
ä¸ĸ ç¥ĸ
18 96
åį¡ çļĦ
é¢Ħ èµĽ
å®Ŀ é©¬
è®² æİĪ
èŀº ä¸Ŀ
å¤§ å®Ĺ
æĿ¥ è®¿
éĵ Ĥ
åĻ¨ çŃī
or ge
çŁŃ ç¼º
ä¹° åħ¥
æķĻç§ĳ æĸĩ
çīĩå°¾ æĽ²
ä¸Ń åı¶
ä¸º è¿Ľä¸ĢæŃ¥
éĵ¶ è¡Įä¸ļ
æ¸¸åĩ» éĺŁ
åĵĪèĲ¨ åħĭæĸ¯åĿ¦
å°ı æŀĹ
æĸĩåĮĸ ä¼łæĴŃ
è¾¹ å½¢
çĸĳ ä¼¼
åįģä¸ĥ ç«ł
çļĦ æĥ³æ³ķ
å¤ļ å¤Ħ
åĨħ å¿ĥçļĦ
çľģ æİ¥å£¤
æ£ £
çķĮ éĻĲ
çļĦä¸Ģ åįĬ
åİĨåı² ä¸ĬçļĦ
ä»¥ æıĲé«ĺ
è¿ĩ åħ³
å½ķ çĶ¨
ç¡¬ å¸ģ
æľº æ²¹
æĭī å¤«
éĻĦ çĿĢ
åĲ¬ åĬĽ
åľ¨ é©¬
ä¸ĭ è¾¾
æ¤į åħ¥
is m
èĪ° èīĩ
æľĢé«ĺ äººæ°ĳæ³ķéĻ¢
èµı è¯Ĩ
èŀº æĿĨ
åŃķ èĤ²
ä¸Ń æ®µ
ä¸º ç¤¾ä¼ļ
äº§ åĩº
å¾Ĺ ä¸įåĪ°
å¥½ äºĭ
æľ¨ é½Ĳ
è¯ĳ æľ¬
ĠI s
åİŁåĪĻ ä¸Ĭ
å¹¿è¥¿ å£®æĹı
çļĦå¿ĥ æĢģ
åĲ ¡
å¤© æ¶¯
å¤´ é¡¶
èĢģ åħ¬
å¾Ģ äºĭ
æ»¡ æ»¡
åħµ é©¬
å¹¿æĴŃ åħ¬åı¸
åįģåħ« ç«ł
ä¸īéĥ¨ æĽ²
åĲĮæĢ§ æģĭ
Ã ¬
çĽ® çĿ¹
æº ħ
æīĵéĢł åĩº
Ë Ĭ
ä¹ĭ æ°Ķ
æ³ķ åĨĽ
åĬ± å¿Ĺ
åŃ º
ä¹ĭ åıĺ
å°ı ç»ĵ
åİŁ ä»¶
ĠE d
åıł åĬł
H e
çļĦ ä½İ
çļĦ åĪĨæŀĲ
ä¸į è®©
æŀĹ æľ¨
åªĴä½ĵ æĬ¥éģĵ
æĪĲæľ¬ ä½İ
å¤ļ ä»¥
ä¸» è®²
å¼Ģ æĿ¥
å¸Ī çĪ¶
16 5
çªģ èµ·
ar m
è¿ĻäºĽ éĥ½æĺ¯
æķ°æį® ä¸Ńå¿ĥ
æĹ§ ç§°
çıį èĹı
C I
éĽ· éľĨ
è¿Ļæł· æīįèĥ½
äººä»¬ åľ¨
åħ±åĲĮ åĬªåĬĽ
è¹ ²
éħįå¤ĩ äºĨ
ãĥª ãĥ¼
çļĦ ç¬¬ä¸Ģä¸ª
è¯ ĥ
ä¸Ĭ çĻ¾
èĴ ¿
åıĳçĶŁ åĲİ
äºĮåįģ äºĮå¹´
ç²¾ç¥ŀ çĹħ
èļ Ŀ
ç«¹ æŀĹ
åı¬ åĽŀ
åı¯ éĢī
æĸ° ä¸ĸçºª
æ·± æ°´
å·´ åĵĪ
çĶŁäº§ æĢ»åĢ¼
çĽĽ ä¸ĸ
åĩĿ åĽº
è¾ŀ åİ»
é¥¼ å¹²
é«ĺ å°ļ
æĪĳ è¯´
æĶ» ä¸ĭ
å¯Ł éĻ¢
ä¸į æģ¯
æĶ ¸
ä¸İ æĿİ
å¯¹ ç«ĭ
è¡¨ è¿°
åº§ çļĦ
æĿł æĿĨ
è¡Ģ çĹĩ
en a
æĢĢ çī¹
èĦĬæ¤İ åĬ¨çī©
åı¯ çĶ±
çŃī åĽ½
å¤© åĨħ
åįĹ ç¾İ
è¡¨ æī¬
åĨį å°Ĩ
ç¤¾ä¼ļ ç§ĳåŃ¦éĻ¢
æĹł èī²
å¸ĥ ä¼¦
äºĶ äºº
éĤ£ ä¸Ģ
æ·± åİļçļĦ
æ¯Ĵ åĵģ
re am
å¢¨ å°Ķ
è¯¦ å°½
ç¼ĸ å§Ķ
å·´ æĭ¿
éŁ³ä¹Ĳ èĬĤ
çĥ¤ ç®±
æ·ĭ æ¼ĵ
éĶĤ çĶµæ±ł
i os
Ï Ĥ
ä¸Ģ éĹ¨
ä¸º æĹ¥æľ¬
ä¸Ĭ åįĥ
å®¶ æĶ¿
åĲĮ ä¼´
çļĦäºº å·¥
äººåı£ çļĦ
æ»ĳ åĨ°
å¸¸è§Ħ èµĽ
è¯¥çī©ç§įçļĦæ¨¡å¼ıäº§åľ° åľ¨
æ¨ µ
ç¤¾ä¼ļ åŃ¦
åĢ¼ ä¸º
è¡ĮæĶ¿ æī§æ³ķ
åīĸ æŀĲ
æĸ° åªĴä½ĵ
é¦ĸ æ¼Ķ
å¤ª çĽĳ
åįģä¹Ŀ ç«ł
å¥ł å®ļ
åĬł çĽĸ
å®Ī åį«
æ°¸ ä¸į
éģĩ åĪ°çļĦ
çļĦ æľ¨
ãĢĭ âĢľ
å®ŀ å½ķ
åı¤ éģĵ
å¢ŀ æĶ¶
çĶĺ èįī
åĥ§ äºº
çŁ³æ²¹ åĮĸå·¥
è´® åŃĺ
B B
çļĦ åĳ³éģĵ
åı ±
å±± åįĹ
åĮ» çĶ¨
or a
æ¾Ħ æ¸ħ
ä¸ļåĨħ äººå£«
ç´Ĭ ä¹±
éħį ä»¥
éª¨ é«ĵ
éĽ¨ æŀĹ
ä¹ĭ ç±»
çŃī äººçļĦ
èĬ ·
ç«ĭ äºİ
èº« åĲİ
æĬĹ èıĮ
åĪ¶ä½ľ æĸ¹æ³ķ
äº¤ çĶ±
æĶ¹ ç»Ħ
æ±Ł åĮĹ
æĢĢ å¿µ
å¾·åĽ½ çļĦ
äºĨ æĪĳ
è¿Ļ çĤ¹
æµ· æ·Ģ
çº¢ èĬ±
åıĤåĬł è¿ĩ
Ġ ä½ľè¯į
çļĦ å¼Łå¼Ł
20 5
æīĭ éĩĮ
åħ° èĬ±
è¾¹ çĸĨ
æĥĬ äºº
åĢ¾åĲĳ äºİ
å®¶ ä¼ģä¸ļ
åįģ ä¸ª
00 1
è£ħ è½½
çļĦä¸Ģ æ®µ
æĭĽ çīĮ
åĨħéĻĨ çľģä»½
çļĦ ç³»ç»Ł
ä¸į åĪĹé¢ł
èĭ± åĭĩ
æ¨¡ åŀĭçļĦ
åıĮ åŃĲ
æĢ§èĥ½ å¥½
è¥¿ éĥ¨çļĦ
åĪĽæĸ° åĪĽä¸ļ
åĲ¬ ä»İ
é©» å®Ī
åĭĺ æŁ¥
åĲĮ æĥħ
æĻ ¤
è´Ł äºİ
éĻĦåĬł èµĽ
ä¸º åı°æ¹¾
é«ĺ éĽħ
å®ī åįĵ
éĢĤ åº¦
åĲĽ å£«åĿ¦
ä¸ªæľĪ çļĦ
åĳĬè¯ī è®°èĢħ
ä¸º åŃ¦çĶŁ
å¯¹ ä¼ģä¸ļ
ä¸ī æ®µ
å°ĳ è§ģ
ä½ł çŁ¥éģĵ
ä¹Įé²ģ æľ¨é½Ĳ
æĹł å£°
çİĩ åĴĮ
äºĨè§£ æĽ´å¤ļ
èŀº çº¹
èĢħ ä¹Ł
è¿ĳ çĻ¾
æ¶² åĮĸ
æ±ŁæĪ· æĹ¶ä»£
éĩı åĴĮ
éĥ½ ä¸įä¼ļ
ä¾Ľ æļĸ
é¸¡ ç²¾
èĢĲ çĥŃ
æ³¨åĨĮ åķĨæłĩ
åģĩ éĿ¢
éĥ¨ å°Ĩ
ä¸¤ åĳ¨
åľŁ èĳĹ
éļĲ å½¢
éĢĴ äº¤
ç²ª ä¾¿
H S
çŃī ä¸ĵä¸ļ
å¸¦ åĽŀ
éĴ± å¸ģ
æ³½ å°Ķ
çļĦå¤ĸ è§Ĥ
å¾Īå¿« å°±
åı¸ä»¤ åĳĺ
åĭĥèī® ç¬¬
è¿Ļ åľ¨
ä¿Ŀ ä¿®
éħ¸ ç¢±
Ø§ ÙĦ
éĥ½ å°ī
ä½Ĩ è¢«
å¤ª å°ī
é¦Ļ èıľ
è¶³çĲĥ çĶ²çº§èģĶèµĽ
èµı æŀĲ
åĩ¯ çī¹
èĥĥ èĤł
æĺŁæľŁ åħŃ
ä¸º åİŁæĸĻ
è£ħ å¸§
è±ª éĹ¨
P K
åįģ ç«ł
ç½ĳ æĺĵ
çİĭ å®¶
æ³¨ éĶĢ
æķĻèĤ² å®¶
æĿ¨ å®¶
è¿Ŀ èĥĮ
çĽĳçĿ£ ç®¡çĲĨå±Ģ
ç¨¿ ä»¶
çĪĨåıĳ åĲİ
ran s
å¹¿è¥¿å£®æĹı èĩªæ²»åĮº
ä¸İ ä¸Ĭ
18 90
å©Ĩ å©Ĩ
åľ¨ ä½ł
å¼Ģ è¡Į
ä¸ī éĿ¢
æ¸¸ ç¦»
æ¸ħ åħīç»ª
æ±Ł åĮº
æĶ¿çŃĸ åĴĮ
ä½ĵç³» çļĦ
ç»ıåħ¸ çļĦ
è¡¨è¾¾ äºĨ
Play Station
Ġ åį¡
åĪĨ æµģ
åĮĸ ç®¡çĲĨ
æīĢ ä½¿çĶ¨çļĦ
éĥ½ å¿ħé¡»
åħ± é¸£
éľĢè¦ģ æ³¨æĦı
è¯Ĺ ç»ı
äºº æĥħ
å¯¹ ä½ł
åĨĽ æ°ĳ
åı³ ç¿¼
è¿ª åħĭ
åıĳè¡¨ çļĦ
ï¼Ĳ ï¼Ĳ
G ame
å¹´ é¦ĸæ¬¡
æ°´ è§£
ä¸ľ åĿ¡
æľŁ æ»¡
è¯¥ å»ºçŃĳ
è¾Ĳ é³įé±¼
R F
Ġ éŁ³ä¹Ĳ
åĬł ç´¢
éļ ĺ
æĢ» æī¿åĮħ
çłĶç©¶ é¢ĨåŁŁ
å·¥ç¨ĭ æľºæ¢°
æĺ¯æĮĩ åľ¨
C ol
åĪ° åľº
æ°´ ä½ĵ
ä¸ŃåĽ½ ç»ıæµİ
å¼Ģå§ĭ åĲİ
17 00
ä¼¯ æģ©
éĺ¶ æ¢¯
ä¸Ģ äºĮ
å±ķ åĵģ
å¦Ĥ åĽ¾
èº« å¤Ħ
åĪĻ è¢«
éĺ³ æĺİ
åĲ¬ åıĸ
èĭ±åĽ½ çļĩå®¶
ç¬Ķ çĶ»
éĩįçĤ¹ å®ŀéªĮå®¤
æľĪ é¥¼
éĩĳ é»Ħ
å¹¿ ä¸º
çº¢ çļĦ
13 6
æ±ĩ ç¼ĸ
èĢĮ ä»ĸ
èģ ĭ
ä¸ľ çĽŁ
ä¿¡ ä¹ī
æĥ³ ä¸įåĪ°
éĤ£ å¤©
ï¼Į ï¼Į
èĩª åĪ¶
çł º
å¤© éĹ¨
æĬ¥ éĢģ
æķ£ éªĳ
åıĳçĶµ åİĤ
ç¤¾äº¤ åªĴä½ĵ
æľī ä¸įåĲĮçļĦ
äºĨ è¿Ļä¸ª
èĢĮ åħ¶
ä»İ ä¸Ģä¸ª
åıĸ æĿĲ
çº¢ è±Ĩ
ä¼° ç®Ĺ
v e
æĹ¶ åı¯
é«ĺ ç²¾åº¦
er o
æīį èĥ½å¤Ł
æĿİ ä¸ĸ
è¯» éŁ³
èģļ å±ħ
æ½ľ å¿ĥ
è§Ĥä¼Ĺ çļĦ
æµ´ å®¤
èĩª èĢĥ
æĸ° è½¦
çī¹ çº¦
å¯¼ æ¸¸
ä¸įå°ĳ äºİ
ä¸ĩ äº¿åħĥ
å¾Ī ç®Ģåįķ
éĻį ä¸´
çĽ®æłĩ çļĦ
çıį è´µçļĦ
æ°ĶåĢĻ åıĺåĮĸ
åĽ½æľī èµĦäº§
ä¸º çĽ®çļĦ
éĢ į
åı· æ¥¼
èĬ± äºĨ
èĲ¥ åľ°
å°¼ çļĦ
å·¦ è¾¹
æ£® åł¡
äºĮåįģ ä¸Ģ
äºĮåįģ ä¸Ģå¹´
åĬ²æŃĮ éĩĳæĽ²
Ï ģ
äºº ä»¥
ç»Ļ ä»ĸä»¬
ç²¾å½© çļĦ
åľ¨ è®¾è®¡
äºĮ ä»£
åı£ å¤´
çŃ¹ åĪĴ
æĮī éĶ®
åİħ éķ¿
çļĦ è±¡å¾ģ
æĭ £
åŁ ¼
èį¯ å¸Ī
åįĥ éĩĳ
Î ½
Ġ æ¢ģ
åĴĮ å¤ļ
ä½ĵ è£ģ
æ°´ ç³»
ãĢį ï¼ī
ç¦» åĲĪ
éľį å¤«
åĪĽä¸ļ èĢħ
ï¸ °
åĪĨ éļĶ
åĲĳ ä»ĸ
en ter
å·® çĤ¹
çİ°ä»£ çļĦ
å¢ŀåĢ¼ ç¨İ
ç»° åı·
åľ¨ åĲĦ
è½¦ åĨħ
æİ¥ çº¿
æŀĹ èĤ¯
è¿İ æĿ¥äºĨ
æīĵéĢł çļĦ
c on
æľī å°ı
åı¯èĥ½ å¯¼èĩ´
èĭĹ æľ¨
å·¥ä½ľ æķĪçİĩ
éļı èº«
ä¹ĥ æĺ¯
ç§ī æĮģ
çļĦ åįķä½į
å¹´ å¤ıå¤©
æĥħ è¶£
åķĨ æľº
å§ĭ çļĩ
æľĢé«ĺ æ³ķéĻ¢
åĨ ĩ
é«ĺ æłĩåĩĨ
çī¹ è´¨
åħ¥ ä¼į
ç¬¬ä¸ī åŃ£
æķĳ æ²»
è±Ĩ çĵ£
åģ· åģ·
èħĮ åĪ¶
ä¼ļ åĴĮ
ä¸ĭ åįĬåľº
æ¯Ķ æķ°
ä¸¤ åľº
è¯¥ äº§åĵģ
å¼ķ åĬĽ
15 8
å·´ è¾¾
çº¢ èĮ¶
åį° ç«ł
åĩºçīĪ æĹ¶éĹ´
æĢ¥ åī§
å¤§ ä¸ļ
è¿Ļ å°Ĩ
ä¸¤ å¹´åĲİ
è°ĥ çĶ¨
å¤ª è¿ĩ
ç«¯ åı£
ĠA ir
æļĹ ä¸Ń
çļĦè¯Ŀ é¢ĺ
æĢ»ä½ĵ è§ĦåĪĴ
åħĳ æį¢
n y
ï¼Į "
ä¹Ł ä¸İ
å¾Ĺ å¤©
æĮĩ çĶ²
è½¬ åıĳ
çĻ¾ éĩĮ
ä½Ľ å¯º
ä¼¤ çĹħ
åıĳè¾¾ åĽ½å®¶
åŁºç¡Ģè®¾æĸ½ å»ºè®¾
ä¸į éľĢ
æ°´ ä¸ĭ
æĪĺ æĹ¶
åİ¿ å¸Ĥ
çŁŃ ç¯ĩ
èĬ±å²Ĺ å²©
åı Ń
ä¸į èĤ²
éĩĳ çīĽ
å±Ģ åī¯å±Ģéķ¿
è´´ å¿ĥ
åľ¨ æİ¥åıĹ
ä¸Ń æĿĳ
çŃī åįķä½į
æİ¥ æīĭ
è¾¹ éĺ²
é¡¹çĽ® ç®¡çĲĨ
å¥Ĺ æĪ¿
åıĬåħ¶ å®ĥ
ä¸İ åºĶçĶ¨
åĶ® åįĸ
èĥľ è´Ł
çªģ åĽ´
å¼ķåıĳ äºĨ
åĲŀ åĲĲ
äº¤åıī åı£
C V
u z
ï¼Ī âĢľ
ä¹ĭ åĪĨ
æ¯Ķ çİĩ
åĻ¨ çī©
åĪĻ å¤©
çļ® å¸¦
ç©¿ ä¸Ĭ
æĪĳåĽ½ çļĦ
è·ĳ æŃ¥
åı·çº¿ çļĦ
ä¸ĸçķĮä¸Ĭ æľĢ
åº¦åģĩ æĿĳ
ä¸į å±ŀäºİ
ä¸į æĦ¿æĦı
åĮº ä½į
ä¼ł åĩº
å¼º è¡Į
åĮ»çĸĹ åį«çĶŁ
åĩ¶ æīĭ
åĲį åŁİ
çĶ± åħ¶
æµ· ä¸Ń
çĿ ¾
æĪĺ äºĭ
åħī çĽĺ
å¥¥ å¤ļ
åĪ» èĭ¦
ãĢĳ ï¼Į
F L
S L
çļĦ çī©è´¨
ä¸Ģ çĲĥ
éĵ ł
å¾Ī å¼º
çģ« çĪĨ
çıŃ æ¬¡
æĬĹ åĩ»
è¾ Ħ
åĲĳ åĲİ
æĢ» æķĻç»ĥ
çļĦ çĬ¶åĨµ
è¾ į
è¡Į äºĭ
éĥ½ å¯ŁéĻ¢
ç«Ļ èĩ³
ä½ł èĥ½
éŁ³ æķĪ
çĶŁäº§ åķĨ
åĨ° å²Ľ
W in
Ġ ä½ķ
ä¸Ģ è¿ŀ
åĴĮ åºĶçĶ¨
å¤© åĽ½
æºĲ åľ°
å¥ĸ çļĦ
é»Ħ çŁ³
æīĢ è§ģ
å®ī äºº
æĬķèµĦ äºº
è§Ĥå¯Ł åĪ°
Ð¸ Ð¹
å®ŀçĶ¨ æĢ§
å¸Ĩ èĪ¹
è¾Ĳé³įé±¼ çº²
ãĢĤ ï»¿ãĢĤ
äºļ çĳŁ
çĻ½ è¡Ģ
åĨľ çī§
åı¦ è§ģ
æ°¸ åº·
éĵ¾ æĿ¡
åĽ½éĺ² éĥ¨
å®¢ æľº
é¾Ļ äºķ
å®¤ æ¸©
çļĦä¸Ģ åĳĺ
å®īåħ¨ éļĲæĤ£
æĬķèµĦ åŁºéĩĳ
ä¹Į åħ¹
ç´łè´¨ æķĻèĤ²
å¾Īå¤§ ç¨ĭåº¦ä¸Ĭ
ä¸Ģ è§Ī
èĩ´ è¾ŀ
re et
åľ°åĽ¾ ä¸Ĭ
ï¼ ½
ç®¡ å®¶
ãĤ ĥ
å°±åı¯ä»¥ äºĨ
éĻ Ĥ
å¼Ģ å¤´
åįĹ åİ¿
éĴ ¨
éĽĨ è®Ń
æĶ¹ æĢ§
åĲ¦ å®ļ
äºķ ä¸Ĭ
äºĭä¸ļ çļĦ
åľ¨ ä¸ī
æľī åħ¶
ä¼ļ åľº
æĸ° é«ĺ
ä¸ľ ç»ı
ç§ĳ çī¹
å±ŀ ä¸ĭ
ä»£è¡¨ äºĨ
çļĦä¸» äºº
D N
å±± å·Ŀ
åıª è§ģ
åĬŀ çļĦ
åı³ è¾¹
èģĮä¸ļ åŃ¦éĻ¢
è¿ĺæĺ¯ è¦ģ
äººæīį çļĦ
ä¸Ģå¹´ åĲİ
éĶ¯ é½¿
Ġ èĭı
Ġ å¾Ĳ
ä¸ĭ éĿ¢çļĦ
åĲĮ èĥŀ
æĪĺ æľº
æĬ¥ ç¤¾
ç¤º ä¾ĭ
éħ¸ éĴł
if e
åľ¨ æ²¡æľī
çļĦä¸Ģ ä»½
13 8
çĲĨè®º ä¸Ĭ
M R
Ã º
åĦ¿ ç§ĳ
é¤Ĳ æ¡Į
çłĤ ç³ĸ
åıĺå¾Ĺ æĽ´åĬł
åı¯åĨįçĶŁ èĥ½æºĲ
åħ¨ è¿ĩç¨ĭ
ä¹Ł æĺ¯ä¸Ģ
å§ ¥
å¥¥ æīĺ
éĻĪ ä»£è°¢
èĥŀ èĥİ
ä¸Ń èĢĥ
ä¿¡ çļĦ
èº ¬
è§Ĩ çº¿
æľįåĬ¡ ä½ĵç³»
18 99
éĻĲ éĩı
æķ´ æµģ
åºĹ çļĦ
åħ¼ åħ·
çº¯ åĩĢ
ä¸Ń é£İ
æľīéĻĲ çļĦ
éķ¿ çŁŃ
å»º çļĦ
æµ· è¿Ĳ
è£ħ åį¸
æ¸ħ ä¹¾éļĨ
åıĮ çľ¼
å®Ĺ åº§
å°¾ éĥ¨
æĿŁ ç¼ļ
åĢ¼å¾Ĺ æ³¨æĦıçļĦæĺ¯
åıĳè¨Ģ äºº
ï¼ »
è¿Ļ å¹ħ
ä½Ĩ åĲİæĿ¥
æł¼ å¤ĸ
åİ» çľĭ
æ¸ħ éĨĴ
ç²¾ æ²¹
èĻ½çĦ¶ åľ¨
å¹³æĸ¹ç±³ çļĦ
æĿı ä»ģ
çº³ç¨İ äºº
L inux
çŃī å¤Ħ
åħ¨ å¢ĥ
æĮĩ çº¹
å¢ŀ é«ĺ
åħļ åĴĮ
æĺ¯ ä¼ģä¸ļ
åĽŀ ä¹¡
è¯Ń ä¸Ń
é¸ ³
å®ľ äºº
éģ¿ éļ¾
è§Ħæ¨¡ åĮĸ
ãĤ¹ ãĥĪ
å¤įåĲĪ æĿĲæĸĻ
log o
çļĦ åĪĽä½ľ
èĢĮ ä¸º
ä¸ĩ åŃĹ
æķ´ å¥Ĺ
äºĨè§£ ä¸Ģä¸ĭ
Ġ 100
å¤Ħ æŃ»
åħĪ æĺ¯
ç½ĳç»ľ çļĦ
çĥŁ èĬ±
ä¼¸ ç¼©
ä¼ĺè´¨ çļĦæľįåĬ¡
åĩºçīĪç¤¾åĩºçīĪ æĹ¥æľŁ
ä¸Ģ å¤´
ä¸Ń åĮº
åħ³ è¥¿
åĨĽ å§Ķ
ä¸¤ éĥ¨
IN G
Ð ³
ä¸į åħ¨
éĥ½ åı¯
æ±Ł ä¸ľ
30 4
ç»ĵåĲĪ èµ·æĿ¥
ä¸»ä»» åĮ»å¸Ī
æĹ¢ å¾Ģ
ä¸į è®¡
æ¸ ļ
è½½ èį·
èģĶèµĽ çļĦ
å¢Ļ ä¸Ĭ
æĹ¶ å¹´
åŀĭ æĢģ
ä¼ł ä½ĽæķĻ
åģļ å¤§
çıŃ æľº
å¾® åĪĽ
æłĳ æŀĿ
ï¼ ĭ
çŃī çĹĩçĬ¶
ä»»ä½ķ ä¸Ģä¸ª
åĲĲ èķĥ
éĻ¢ çļĦ
æĬĢæľ¯ åıĬ
ç²¾ çĽĲ
ç²¾ ç¾İçļĦ
éĵ¶ å¥ĸ
å¸Į ä¼¯
å°½ æĹ©
çĸĳ æĥĳ
H R
ä¾ ¬
åĨ² åĪº
éĶħ éĩĮ
æĸ¯çī¹ æĭī
è¾© æĬ¤
å¸ĥèİ± æģ©
ĠUn iversity
å¹³ å¹³
é£İ æµģ
æŃ¦ å¾·
ĠF ran
è¿Ħä»Ĭ ä¸ºæŃ¢
ä¸Ģ å¹¶
å¤§ å±ķ
ç§ĳ éļĨ
çĽ¸ æĢĿ
æ´» è¡Ģ
é©¬ éŀį
å®Ī éĹ¨
è¯ī æ±Ĥ
ĠR es
çĲ³ å¨ľ
ne y
èĩ³åħ³ éĩįè¦ģ
ä¸Ń åĩºçİ°
ç³ ľ
éĢļ è¯Ŀ
æĸ¯ åľ¨
è¯Ńè¨Ģ çļĦ
è¿« åĪĩ
è¯ģæĺİ äºĨ
N e
i u
é¦ĸ é¡µ
ä¸įæĸŃ åĪĽæĸ°
éĵģè·¯ çļĦ
ol y
Ġ åı¤
æĹ¥ åĩºçĶŁäºİ
èĳĹ è¿°
èĹı äºİ
åŁĥ å¡ŀ
äºļæ´² æĿ¯
æłĩå¿Ĺ æĢ§
i y
åĽ½ èģĶ
ä¸ī åı¸
æīĢ æĿĢ
å¾· åĪ©
èĲ¨ æĳ©
åĽº æĢģ
çŀ °
åįĴ å¹´
ãĥĥ ãĥĪ
æĮ« æĬĺ
C BA
å¹´ ç§ĭ
åľ¨ ç½ĳä¸Ĭ
ç¿ Ĭ
æĥħåĨµ çļĦ
åħħ å½ĵ
åĪĨéĴŁ å·¦åı³
åīĬ å¼±
å¼Ģè®¾ äºĨ
æľīçº¿ çĶµè§Ĩ
20 2
åĲĮ æµİ
è¢« ç§°ä½ľ
åĢ ĺ
è®¡ æķ°
è¿ª åįĹ
æ£ĭ çĽĺ
å¬ ī
F e
ä»¥ ä¿Ŀè¯ģ
åı¯ åı¯
çīĮ åŃĲ
ç´« å¤ĸ
æŃ¦æ±ī å¤§åŃ¦
ä¸º åħĪ
ä»¥ è¾¾åĪ°
åĽĽ åĲį
èº« ç©¿
å¢ŀ åİĭ
èį· èĬ±
åģ¿ è¿ĺ
åľ° å°Ĩ
åĲİ æĤĶ
èķ´ åĲ«
ç»ıæµİç¤¾ä¼ļ åıĳå±ķ
çļĦ è§ĤçĤ¹
çĶŁ èĤĸ
éģ ´
å°± ä»¥
åĽ¾ çĶ»
æĺŁ ç©º
ä½İ ä¸ĭ
æıĴ ä»¶
æĪ ®
åħ³ ç¨İ
åºĶ å±Ĭ
18 89
ç¦ı å·ŀå¸Ĥ
å½© ç»ĺ
å¥Ķ è·ĳ
çļĦ åĮºåĪ«
åıĳ çĥ§
é¦ĸ æŃĮæĽ²
çŁ³ æ¡¥
éĴŁ æ¥¼
ĠD e
åīª åĪĩ
åĲĪåĶ± åĽ¢
èĢĮ æĪĲä¸º
ä¸ĩ åįĥçĵ¦
åħ± çĶ¨
éĢģ è¾¾
åĪ» æĦı
æ¼Ķåĳĺ è¡¨
åľ°ä¸ĭ æ°´
ç¬¬åħŃ å±Ĭ
çŃī è¯¸å¤ļ
æ²¹ çĥŁ
ä¸´ çķĮ
è®¯ æģ¯
åĤ¨ éĩı
çģĮ è£ħ
çļĦå¥½ è¯Ħ
æľī åħ´è¶£
ä¸¤ ç»Ħ
å¼ł åįķæĽ²
æ²Ļ å°¼äºļ
æļĤ è¡Į
åĲ ¼
å¤§ é£İ
ä¸ĩ çļĦ
æł¸ çĶµ
è½® æµģ
æķ£ å¸ĥ
é¥® åĵģ
æłª æ´²
A b
èį ¼
äºļ ä¼¯
æ¤įçī© åĽŃ
å¤ļå°ĳ éĴ±
åħļç»Ħ ä¹¦è®°
çĶµ éĩı
æĪĳ çŁ¥éģĵ
é£ŀ æľºçļĦ
åħ¨çĲĥ åĮĸ
çĵ· çłĸ
åĵĪä½Ľ å¤§åŃ¦
ç®¡çĲĨ ä¸İ
ãģ ©
åįĩ æľ¬
çģµ èĬĿ
ç²ĺ åĲĪ
æııè¿° äºĨ
èĻ¹ æ¡¥
æĹıèĩªæ²» å·ŀ
å¹´ å»ºæĪĲ
ä¸į æľį
è£ ³
å·´ å«©
åºķ ä¸ĭ
åĶĲ è¯Ĺ
åĲ¬ è§ģ
çŁ¿ çŁ³
æĭŁ å®ļ
å¥Ī èī¯
çļĦ ç¨ĭåº¦
çĶ ¬
åĴĮ åħ¶å®ĥ
æīĢ çŁ¥
èĲ½ åħ¥
è¿ģ å±ħ
ell a
äº¤åĵį æĽ²
H A
Î ³
çĶŁ éķ¿çļĦ
ä¸ī èĹı
æĬķ ç¨¿
çľ¼ çĲĥ
å¢ŀåĬł åĪ°
çļ ¿
çļĦ ç§ĺå¯Ĩ
ç§į ç¾¤
éĥ½ åħ·æľī
åĽ¾ ä¸Ń
èµ° åľ¨
æĸ¹éĿ¢ åĨĽ
çĳŀ æĭī
ä¸ĵéĹ¨ çļĦ
ä¸İ çİĭ
åĬł èĹ¤
åħī èĬĴ
æķ´ é¡¿
æ¢ģ å±±
èĮĥåĽ´ çļĦ
æ¯įäº² çļĦ
åĴĮ å®ĮåĸĦ
å°Ĩ æŃ¤
åħ³ ä¸Ń
ä¿® é¥°
é£ŀ ç¿Ķ
æģ¶ å¿ĥ
æķı éĶĲ
ä¸į æĥľ
ç¾ ¹
æ¥ Ķ
ä¸¾ åĬ¨
ĠP ark
ä¸įè¿ĩ åľ¨
è§Ĵèī² æī®æ¼Ķ
è¾¨ åĪ«
åĪĽåĬŀ äºİ
éĺ¿éĩĮ å·´å·´
åľ° ä¸»
åĲİ è½¬
åºĶ ä¸º
ç¥ŀ å®Ĺ
è¡Įä¸ļ åĨħ
çĻ» åł¡
åĪĨæŀĲ ä»ª
æ¼« å¨ģ
åı¯ å®ŀçİ°
è¿Ľ åľº
äºĶ ä½į
é¢Ħ åĪ¶
åºķ åº§
çº¸ è´¨
æ»¤ æ³¢
åĤį æĻļ
äº§ åŃ¦
18 60
åĨį åĬł
è¶Ĭ è¿ĩ
éĥ¡ å¤ªå®Ī
ä¿ĿæĮģ åľ¨
åīįæīĢ æľª
äºļ è¿Ĳä¼ļ
åıĪ è¦ģ
åįĥ åı¤
åĨľä¸ļ éĥ¨
æĶ¹ç¼ĸ ä¸º
çļĦ åĪĽæĸ°
ä¸Ń è¿Ľè¡Į
å¤ļ æł·çļĦ
ä¸ĭ å±Ĥ
äºĭ åıĳ
æĽ´ å¼º
çĶµåŃĲ äº§åĵģ
éĩįçĤ¹ é¡¹çĽ®
åįģäºĮ æĿ¡
ä¸į åĮħæĭ¬
æĸ° çķĮ
æĪĳ çĪ±
ä¸ŃåĽ½ ä¼łç»Ł
æĽ¾ åŃĻ
13 2
çīĽ ä»Ķ
åĨ² åĬ¨
ä½Ľç½Ĺ ä¼¦
åĽ½åľŁ èµĦæºĲ
æķħå®« åįļçī©éĻ¢
] ï¼Į
ç® ķ
ç®¡ ç½ĳ
ç½Ĺ ä¼¯
ç¥ĸ å¸Ī
æĹ¶ åľ¨
æĹ¥ è¶ĭ
éĩį çĶŁ
å±± çĶ°
æĬĢæľ¯ çłĶåıĳ
å°ĸ éĶĲ
è´© åįĸ
å¸Įçī¹ åĭĴ
ä¹Ł æĺ¯ä¸Ģç§į
ä¸¹ å°¼
æ¡£ æ¬¡
éĿ¢ä¸´ çĿĢ
å½ķå½± å¸¦
L E
åĽ½ ä¹ĭ
åĨĽ èĬĤåº¦ä½¿
ä¸ĵ äºº
éĿ¢ç§¯ è¾¾
éĢĥ èµ°
D R
l ine
Ġ re
çļĦ çħ§çīĩ
çŃī åĽ½å®¶
åĲĳ ç¤¾ä¼ļ
å¤ª å¤ļçļĦ
æ¯ı éĢ¢
åĳ¨ æĺĵ
é»Ħ èĬ±
ä¸ĵä¸ļ æĬĢæľ¯äººåĳĺ
çĽĳ äºĭ
åī¯ çĲĨäºĭéķ¿
æĶ¯æĮģ åĴĮ
é»İ å·´å«©
æĸĩæĺİ åįķä½į
æĭ¦ æĪª
è¯ħ åĴĴ
çŁ³ éĽķ
è®® è®º
æŃ¢ çĹĽ
åģ¥åº· åıĳå±ķ
éĹª åħī
Ġ 1996
å¹´ å®ĮæĪĲ
åĩº å¾ģ
å°ı åŃĲ
åķĨåĬ¡ éĥ¨
çļĦ åĨĽéĺŁ
èĥ½ ä¸İ
éĩĳ é»Ħèī²
åı² ç§°
è¯º ä¼Ĭ
æ´ŀ å¯Ł
åĪĨæĶ¯ æľºæŀĦ
å¤§ çīĩ
ä¸ľ åĲ´
æľª è¢«
äºī éľ¸
æĦıä¹ī ä¸ĬçļĦ
æĦĪ åĲĪ
ech n
æİĢ èµ·
çļĦ åķĨåĵģ
æľ¬ æł¡
åĢ¼ çıŃ
è¿Ļä¸ª è¯į
äº« çĶ¨
ç©¿ æ¢Ń
æ»ĳ åĬ¨
è£ģ åĨ³
ä¸įä¸Ģæł· çļĦ
ä¹Įæĭī åľŃ
é¡ºæĹ¶éĴĪ ä¸İ
á ĥ
Ġ 1997
çļĦ èµĦæĸĻ
å¼Ģ çº¸å¼ł
çī¹ é²ģ
çľģ éĥ¨çº§
äº¬ æ´¥
çĵ ¯
èĪª éģĵ
at or
æ¦ľ æł·
éĩĮç¨ĭ ç¢ĳ
åº§è°Ī ä¼ļ
C G
u ch
æ¯Ķ ä¸ĺ
ç½Ĺ è®·
å¸¦ å®½
æ²¹ çĤ¸
é«ĺçº§ æķĻå¸Ī
è¯¦ç»Ĩ ä»ĭç»į
æĮ£ æīİ
æĪĸ å¤ļ
èĬĤ åģĩæĹ¥
æħ ·
22 5
å®¢æĪ· éľĢæ±Ĥ
æ··åĲĪ çī©
åĩĨç¡® æĢ§
i j
çĶ¨ è¯Ń
æĸ° åĮĹå¸Ĥ
èĬ ®
éĩį æĴŃ
ãĤ ĩ
éĶĢåĶ® æĶ¶åħ¥
éļĲ èĶ½
éĦ Ļ
èĬĴ æŀľ
i en
éĩį å¤§çļĦ
ä¸ŃåĽ½ å®¶
é» ľ
åĪļ å¼Ģå§ĭ
çħ® çĨŁ
çļĦ åħ¨éĥ¨
åĪĨ åŃĲçļĦ
æŃ£ çĽ´
èĬ± å¼Ģ
åıª æĺ¯ä¸Ģä¸ª
åģļ åĪ°äºĨ
ä¸»è¦ģ åľ¨
æķĻèĤ² åŁ¹è®Ń
æ³° å°Ķ
åıĳçĶµ æľºç»Ħ
çī© ä»¶
éħį åģ¶
å¼ķ åıĳçļĦ
åĨĻ ä¸ĭ
æį¢ åıĸ
çĽĸ ä¸Ĭ
èł ¢
å®ŀ æľ¨
éĵ µ
è¾ĥ å¿«
åĺ »
åĭŁ éĽĨ
èĢ¦ åĲĪ
çİ° å½¹
åįĹ æ´ĭ
èİ ĺ
ä¸ĸ ä¸Ĭ
æ·± æĦŁ
æ±ī åı£
åľ°çĲĥ ä¸Ĭ
åĽ½æ°ĳ æĶ¿åºľ
æĪĺ çº¿
æĿĳ ä½įäºİ
æī¹ æ¬¡
ĠG roup
èµĦæł¼ èĢĥè¯ķ
Rob ert
M ark
åľ¨ åħ¶ä»ĸ
åĬł çļĦ
å°ı åĿĹ
å°ıæĹ¶ çļĦ
èĴĭ ä»ĭ
Î ¹
å¹´ é¦Ļæ¸¯
äºĨ æĸ°
å°ı é¡¹
å°± å¿ħé¡»
æµ· éĩĮ
åºĶ æľīçļĦ
ä¸ŃåĽ½ æĸĩåĮĸ
æĺ¯ä¸Ģ åľº
èµĦæł¼ è¯ģä¹¦
åĳĬè¯ī ä½ł
åĨ¶ çĤ¼
è¿Ļ æľ¬
å±ķ åĮº
åħ± çĶŁ
ç¥ŀ æĪ·
åĪĻ åı¯
æµĭ éªĮ
ä¸ĸçķĮ å¤§èµĽ
ä½İ ä»·
æµª æ½®
åĲĮæ¯Ķ ä¸ĭéĻį
Ġ åİŁ
åĮĹ æ´ĭ
æĤ ļ
åĽ½éĻħ èµĽ
åı¯èĥ½ æľī
çĥŁ æ°Ķ
èħķ è¡¨
å½¢ ä½ĵ
ä¼Ĭ ä¸ĩ
å¾½ ç«ł
ç¥ł åłĤ
éķ¿ äºİ
ç®¡ çº¿
å½± éŁ³
äº¦ æĶ¹åĪ¶ä¸º
éĢı æ°Ķ
è¿Ļä¸Ģ æ¬¡
åĨ° ç³ĸ
æĻºèĥ½ åĪ¶éĢł
æĬĺ ç£¨
åĹ ĵ
ä¾į åį«
éĺŁä¼į å»ºè®¾
åįģåĽĽ äºĶ
åĪĨéħį åĪ°
ç»ĪçĤ¹ ç«Ļ
ç²¾çĽĬ æ±Ĥç²¾
è¿ŀ éĢļ
å°½ æĥħ
æľĢç»Ī å¹»æĥ³
ç½ª åĲį
å´ĩ å°ļ
æĹģ çļĦ
åħ¬åı¸ ä¸İ
äºĳ ç«¯
è¯ĳ åĲį
ãĢī ãĢģ
æĻ¯å¾· éķĩ
åĴĮ ç¬¬
çŃī ä¸º
çīĮ çħ§
é¢Ħ çĥŃ
åİĤ éķ¿
æĶ» çł´
è¾ĵ ç»Ļ
é¡º ä½į
W illiam
çļĦ è·Ŀç¦»
æĹ¶ èĬĤ
ä»ĸ æĪĲä¸º
å¹¶ è¡Į
çĶ± ç¾İåĽ½
ç¨ĭ å¼ı
æľª æĽ¾
äºĨä¸Ģ å®ļçļĦ
om as
åĿı æŃ»
V ID
Ġ æĪĳä»¬
çļĦ åĶ¯ä¸Ģ
éĩį åĽŀ
éĻµ åĽŃ
ç¬¬ä¹Ŀ ç«ł
çļĦ æĪĲæľ¬
ï¼ī âĢĶâĢĶ
æĹ© äºİ
å·¥ä¸ļ ä¼ģä¸ļ
éŀ ł
åģ ķ
é¥ ·
åħī åº¦
èĭĹ æĹı
æľīè¶£ çļĦ
Ġ e
å®¶ å®¶
éķ¿ åı²
è¿ĩ ç¡¬
æľĢ éķ¿çļĦ
æ¦ Ī
å»ºçŃĳ é£İæł¼
éª¨ è´¨
äº® çļĦ
æķĪæŀľ å¥½
ä¼ĹæīĢåĳ¨ çŁ¥
ä¸Ĭ åı¸
åĲİ è®°
ç»ı åķĨ
çī¹ æĸ¯æĭī
å°ĳ äºİ
è¶³ åĪ©
åĩºçīĪ çī©
é¢Ĩå¯¼ çıŃåŃĲ
D O
ä¸Ģ çļĦ
æĺ¯ å½ĵæĹ¶
ä¸ĭ ä¸Ģä»£
ä¼ł çľŁ
çİ¯å¢ĥ ä¼ĺç¾İ
æĬķèµĦ æľīéĻĲåħ¬åı¸
è½® åĽŀ
è¤ ª
åĽ½ èĲ¥
ä¸ľ éĹ¨
æľ¨ ç»ĵæŀĦ
ç§¦ çļĩ
è¡Ģæ¶² å¾ªçİ¯
b ert
ä¸į å½±åĵį
æ³ķ æĭī
ä¸ī çľģ
æĬķèµĦ çļĦ
ĠC ar
éĿĴæµ· çľģ
) -
ä»ĸ äººçļĦ
çĤ¹ çģ«
äº² äºº
ä½Ļ äº©
ç»§ èĢĮ
æĹ¶ èĢĮ
å¡Ķ çļĦ
çľ¼ ç¥ŀ
ä¸ºä¸»é¢ĺ çļĦ
PL C
u el
åįķ é¡¹
éĺ² çĽĹ
ä»ĸä»¬ å¯¹
æ³¥ åľŁ
åłª èĲ¨æĸ¯
Ð½ Ð°
Ġ å°Ĩ
å¾· ç±³
ç»ĵ èĤł
èĪ¹ éķ¿
è¿ ¥
æľī ä¸īä¸ª
åĴĮ çĶŁäº§
è¦ģ åıĬæĹ¶
å°ı çĻ½
å¡ŀ æĭľ
æķĻåŃ¦ å·¥ä½ľ
å¿ĥçĲĨ åĴ¨è¯¢
LO GO
a ut
æĺ¯ çļĦ
å»º æł¡
èĬĤ æ°´
æ¯Ľ ç»Ĩ
éĽĦ ä¼Ł
æ¯Ķè¾ĥ å¥½
å¼¥ æ¼«
æŃ£è§Ħ çļĦ
à ½
ç±³ é¥Ń
çºª åħĥ
è§ī ç½Ĺ
æĬĹ æ°§åĮĸ
éĵ¶è¡Į çļĦ
é¥¥ é¥¿
æ»¥ çĶ¨
å·´åĭĴ æĸ¯åĿ¦
çĤ ľ
ç»ĵ çĽŁ
å¥³ äººçļĦ
Ġ åĽĽ
ä¸Ń äºļ
ä¿ ¨
åĽŀ åįĩ
å¸Ĥåľº åĮĸ
16 3
çĶ· åįķ
é£ŀ å¼¹
æģĭ æĥħ
åĬŀåħ¬å®¤ ä¸»ä»»
çĲ¥ çıĢ
ä½ĵ åĨħçļĦ
æľĢ å°ıçļĦ
çī¹ èģĺ
åĮĹ çº¦
å·¥ä½ľ åİŁçĲĨ
è§Ĩ åĲ¬
åºĹ éĿ¢
ç¬ĳ è¯Ŀ
èħ¹ èħĶ
t t
çļĦ è®°è½½
åŃ¦ åīį
æĢ§ åĳ½
äºĮ æŀģ
ä¿¡æģ¯ æľįåĬ¡
èĲ½ åĪ°
ç¬¬äºĮ å¤§
å±ĭ éĿ¢
Ġ å¦Ĥæŀľ
ä¸į çĽ¸åĲĮ
ä¸İ åĲĪä½ľ
åīį ä½ľ
åīį éĢĶ
çī¹ éĽ·
æŀľ åĽŃ
åĪĹ ä¸¾
æİĴ éĺŁ
è°· çī©
æľºæ¢° å·¥ä¸ļ
ç¬¬åĽĽ æ¬¡
éĩĳèŀį æľįåĬ¡
å¹´ ç»Ī
ä¸İ åĲ¦
æīĢ ç§°
æľĢ åıĹ
æ¶Ī æŀģ
ç»Ĩ å¿ĥ
13 3
å¤ı ä¾¯
èģļ ä¸Ļçĥ¯
J ava
Ġ çĶ±
ãĢĭ ï¼īï¼Į
å®¢ åº§
ç¼ĸ å¯¼
çº³ å·ŀ
ä¼Ĭ èĹ¤
éģµ ä¹ī
ç»´çĶŁç´ł B
çļĦ ç§įç±»
åĴĮ ä¸ī
çŃī æĬĢæľ¯
é© Ń
åıĸ æĻ¯
éķĩ æĶ¿åºľ
è¶Ĭ åĨ¬
æĽ¼ è°·
èĽĭ é»Ħ
çıį å¦®
çļĦäºĭ çī©
ä¸Ĭ èµĽåŃ£
åĲİ ä¸įä¹ħ
ä¸İ æĹ¶
åĨĽ æł¡
å¸¸ ç»¿
èµ· å§ĭ
èµ· å±ħ
çłĶç©¶ è¡¨æĺİ
èĢĥ å®ĺ
çĥŃ çĶµ
è´Ŀ å£³
æĮ¥ åıĳ
è¯¯ è§£
å¥ī è¡Į
å¤§ åłĤ
åħĭ éļĨ
æİ¨ ç§»
åįĩ åŃ¦
ä½ľä¸º ä¸ĢåĲį
å»ºç«ĭ åģ¥åħ¨
çº½ è¥¿åħ°
è¿Ļ åĲį
é£İ åı£
æ·± å±Ĥ
ä¸ĵä¸ļ äººå£«
åħ¶ä¸Ń ä¸Ģç§į
çĶ² çº§
çĶµè§Ĩ åĬ¨çĶ»
ä¸Ń è¯´
ä»ĸ ä¼ļ
å¹¶ ä¸įä¼ļ
ä¿Ŀ åħ¨
åĵģçīĮ å½¢è±¡
å¦ĩ äºº
çŃ¹ éĽĨ
åħĶ åŃĲ
Ġ ç¾İ
åĲİ å°Ĩ
åºĶ åıĬæĹ¶
æ±Ĥ åŃ¦
å¥ĸ æĿ¯
å¾®ä¿¡ åħ¬ä¼Ĺåı·
çŁ¿äº§ èµĦæºĲ
M ac
ä¸º ä¸ī
ä¸į å¤±
åĪĨ éĥ¨
åĪĨ æŀĿ
ä½Ĩ ä»İ
èĭı åĨĽ
çļ® æįŁ
å»ºçŃĳ ä¸ļ
åģľ æľº
é¡º åºĶ
åĢŁ è´·
èŁ Ĵ
ä¸Ģå¸¦ ä¸Ģè·¯
åıĳçĹħ çİĩ
j ect
åĴĮ çĽ¸åħ³
åħ¬åı¸ å°Ĩ
åįİ çº³
å¾ģ åı¬
æĻļ é¤Ĳ
åĪº æĿĢ
èĸĦ å¼±
ä¸Ń ç¾İ
ä¹ĭ å½¹
èĩª åıĳ
è¿Ľ æ°´
åı¯ä»¥ ä¸º
æ°Ķ çĲĥ
å¾Ī ä½İ
æĬķ ç¯®
åį³ åľ¨
æĵ Ĥ
æīĢä»¥ è¯´
åºĶå½ĵ åľ¨
ä¸įè¶³ ä»¥
æīŃ è½¬
æľī åĲįçļĦ
ä¸İ æĪĳä»¬
æ°´ çĶŁ
å·¥ä½ľ ç«Ļ
åįİ è£Ķ
æĺĵ æĩĤ
å®¤ çļĦ
åĵºä¹³ åĬ¨çī©
ç»½ æĶ¾
ä¸Ńè¥¿åĮ» ç»ĵåĲĪ
çļĦ è¡ĮåĬ¨
ä¸į æŃ»
åĳ Ĳ
ç»´ å¸Į
åıĪ å°Ĩ
ç¬¬ä¸Ģ æľŁ
çļĦäºº å£«
å®½ çº¦
åĸ· åıĳ
ä½© æĸ¯
åľ°éĵģ ç«Ļ
æĮīå¯Ł åı¸
çĽ¸ çŃī
çĽ¸ éļĶ
ä¸ĸçķĮ çºªå½ķ
æ¥¼ é«ĺ
ä¸½ æ±Ł
éĢĢ åĮĸ
å±ŀäºİ èĩªå·±çļĦ
äºĮåįģ åħŃå¹´
åĪļ æŀľ
è§Ħç«ł åĪ¶åº¦
æį¢çĥŃ åĻ¨
çļĦ èģĮä¸ļ
æĢ» æĶ¶åħ¥
å¤§åŃ¦ åĴĮ
æķĮ äººçļĦ
Ġ ç¬¬ä¸ī
çļĦ è®¤è¯Ĩ
æľī ä¸º
åı¯ æİ§
ä¹ĭ åĬ¿
åħ¬åı¸ äºİ
å¤Ħ ä»¥
åįģä¸Ģ æĿ¡
æīŃ æĽ²
å¾Īå¥½ åľ°
ä¸Ń éĥ½
ä¸º èĥĮæĻ¯
çŃī åĲĦç±»
çĽ¸ éĢļ
éĢī åħ¥
çĺ Ļ
èĩ³ åħĥ
åī¯ å¸Ĥéķ¿
çĸ«æĥħ å½±åĵį
ç»ıçĲĨ äºº
çļĦ çĶŁçī©
åĲİ åı°
è¢« å®³
çĽ® åĩ»
æĢ¥ éľĢ
çĥ¹ è°ĥ
ä¸į å®Įåħ¨
æĢ» åı¸ä»¤
æĦŁ å®ĺ
é»Ħ è±Ĩ
æıĲä¾Ľ ç»Ļ
æľĿ çĿĢ
æļĸ æ°Ķ
çļĦ åıĳ
æī ¼
æľ¬ ç§ĳåŃ¦
æ´» çĿĢ
å½¢ ä¼¼
æŀľ æ±ģ
æ® ´
æ¶Īè´¹ åĵģ
å°¤ ä»¥
ä¸įåı¯ éģ¿åħį
ç¿¼ é¾Ļ
èĪŀåı° ä¸Ĭ
è¦ģ å°Ĩ
ä½İ æĪĲæľ¬
åı¯èĥ½ åľ¨
é»ĳ èī²çļĦ
æĿĲæĸĻ åĴĮ
å¤§åŀĭ çļĦ
çĸı æĿ¾
Ġ èĭ¥
æľī å¤ļç§į
ä¸į å¤į
åı£ è¢ĭ
æŀĹ åĮº
åħħ æ²Ľ
è¡Ĺ ä¸Ĭ
è¯º ç»´å¥ĩ
èĤ¥ æ²ĥ
æĥĬ äººçļĦ
B åŀĭ
çļĦ å¹³åĿĩ
ç²¾ èī¯
éħį ä¸Ĭ
æĪª éĿ¢
æĬ¢ åĬ«
çķľ ç¦½
èĪĴéĢĤ çļĦ
ä¹Įåħ¹ åĪ«
ä¾ Ĺ
åīį è¾Ī
ç»Łè®¡ å±Ģ
åħ»èĢģ éĩĳ
äºº æĪĸ
åĪĨ å±Ĥ
åįķ è¡Į
å®īåħ¨ åĴĮ
çŁŃ è·¯
ç½ª çĬ¯
æĦıä¹ī ä¸Ĭ
å¤§èĩ´ ä»¥
çļĦ åıįåºĶ
ä¸İ çİ¯å¢ĥ
å¹¶ æĭħä»»
æĪĺ åĮº
åĩ¯ æĸĩ
T ube
åħ ¢
åĽł æŀľ
ç¼ ¤
åºĵ éĩĮ
åŁĥ éĩĮåħĭ
æĭĴç»Ŀ æİ¥åıĹ
æ¸Ķ æ°ĳ
è¾¾æĪĲ åįıè®®
äºĭ åıĺ
å¹² ç»Ĩèĥŀ
ĠM e
ç²¾ç¥ŀ çļĦ
ç½ķ è§ģçļĦ
åĲĪèĤ¥ å¸Ĥ
b o
ç¦ Ģ
ç¥ŀ åĨľ
ĠM ed
æľªæĿ¥ åıĳå±ķ
æĺĨ å±±
é¡½ åĽº
çĺĻ çĹĴ
å¤§ è§Ĥ
éĴ °
è´¨ æ£Ģ
æį® æĬ¥éģĵ
13 7
æĸ°åįİ ç¤¾
Ġ ä¸ĩ
äºĶ èĬ±
å¥ĩ çļĦ
çº² è¦ģ
è¾¨ è¯Ĩ
åĩ¯å°Ķçī¹ äºº
F M
ä¸º çºªå¿µ
äºĨ åħ¶
ç«ĭ æŁ±
è¿ĳ è·Ŀç¦»
æĿİ åħĭ
a o
ä¸Ń é¥°æ¼Ķ
ç§ĳ ç»´å¥ĩ
æĸĻ çļĦ
13 9
çİĽæł¼ ä¸½
Ġ åı°æ¹¾
åľ¨ åħ¶ä¸Ń
å·¥ ä¿¡
æľĢ å¸¸è§ģçļĦ
æ³¨ å¡ĳ
å¸ķ åħĭ
åĽ½ ä¼ģ
æ²Ĳ æµ´
T M
æľī å¥½
åı¯ æ±Ĺ
æµ· å¾·
ç² ½
æİ¨ éĶĢ
æĽ² èīº
æ²¹ èıľ
å¦Ĥæŀľ è¯´
å®« å´İ
è½¯ åĮĸ
æķĻåŃ¦ çıŃ
éĻĢ ç½Ĺ
å®īå¾· é²ģ
u ro
æĿ¥ åĽŀ
æĥ °
å±± éĹ¨
ä¸ľ éĿ¢
å¸Ī å¤§
æŀĦ æĥ³
çıŃ è½¦
14 4
çĪ¶äº² æĺ¯
è¾ĸåĮº åĨħ
P N
ä»¥ ç¤º
è¾ ķ
èĢħ æĺ¯
ãģ ļ
éĺ¿ æ³¢ç½Ĺ
åĩı åİĭ
ç§ģ åĭŁ
æĮĩå¯¼ åĴĮ
çļĦ è¯Ħä»·
äºĨ çļĦ
åħ¬ åĬŀ
å®¶ è£ħ
æĸ° æľĪ
è¿Ĳ æ°Ķ
æĿ¡ å½¢
åºľ çŁ¥åºľ
æķ´ ä½ĵçļĦ
å®£ è®²
ä¼ª éĢł
è¯ķ åį·
ç¤¼ åłĤ
äºĨä¸Ģ ä¸ĭ
ç¨İ çİĩ
äºĮåįģ åĽĽå¹´
æĲħæĭĮ åĿĩåĮĢ
å® ķ
åº ¾
æ¯ ¡
çĸ £
åıª åī©ä¸ĭ
éĿĴ è®Ń
é¦Ļæ¸¯ çļĦ
æģ° å½ĵ
æī Ĵ
æĹ¥ ä»¥
çī¹ éĤĢ
ç§ĳ æķĻ
æĹł æ¯Ľ
åĽ¢ åĳĺ
æİ¨ æĸŃ
çĻ» åŁº
éĿĻ æŃ¢
æĳ© æĸ¯
åĳ¼ åĴĮ
å¹¸ç¦ı çļĦ
å¸ĥé²ģ åħĭ
éªļ æī°
Ġ ä¸Ĭæµ·
é«ĺ å¼ºåº¦
æ¥¼ çļĦ
åĵĪ èĲ¨åħĭ
å³° ä¼ļ
æĹ¢ èĥ½
åĢ¾ åĲ¬
å¤§ åľ°éľĩ
åĴĮ åħ¶
æĬ¥ ä»ĩ
ç»Ļ å¥¹
éĩįè¦ģ æĢ§
æ³½ è¥¿
è°¥ åı·
l ic
äºº ä¸į
åĲİ å°±
æŀĹ åľº
å¼ł åĽ½
åħ¸ ç±į
æľīä¸Ģ ä½į
åµĮåħ¥ å¼ı
åıĳ è´§
ä¹ĭ é£İ
åįİ å¾·
çı Ĥ
ç»Ļ åĩºäºĨ
çº¢ éħĴ
æŀģ åĬĽ
å¸Ĥåľº ç«ŀäºī
æ¥¼ æĪ¿
ä¸ĩåħĥ çļĦ
çĥŁ éĽ¾
éĵģéģĵ éĥ¨
ä¸įè®º æĺ¯
N o
åıĬ æľįåĬ¡
å¢ŀ å¹ħ
15 2
çŃī ä¼Ĺå¤ļ
åĬ¡ æ®µ
å°Ķ åħĭ
ç±³ åĭĴ
çīĩ åĲį
çĪ± æ²Ļå°¼äºļ
äº² çĪ±çļĦ
ç§ĳåŃ¦ çłĶç©¶éĻ¢
äº¿ åĲ¨
é¡º çķħ
ä¼ĺè´¨ æľįåĬ¡
åĭĥ åĭĥ
æłĸæģ¯ äºİ
å¢¨å°Ķ æľ¬
3 10
M an
ä¸ī éĹ¨
å®ī å®ģ
ä¿Ŀ æľī
è°ĥ éħį
çľĭ ä¸įåĪ°
æ²Ļ æĭī
è½¯ éª¨
çĪĨ çł´
ri pt
ä½Ľç½Ĺä¼¦ èĲ¨
åľ¨ ä»Ĭå¹´
æľĪ åĬłåħ¥
éĩį çİ°
åİŁ å±ŀ
äº¤ ç»ĩ
æĽ¾ åħĪåĲİ
åħ´ åĽ½
å¿ħ å°Ĩ
åį«çĶŁ éĹ´
ĠG o
r id
çļĦ åĵģè´¨
å¤§ éĿ©åĳ½
äºĮ éĥİ
å¥½ åŃ¦
ä½Ĩ æľī
æ³¢ çļĦ
åĵĪ é¡¿
es e
åħļæĶ¯éĥ¨ ä¹¦è®°
r ap
ä¸į ä¿Ĺ
ä½ĵ èĥ½
è¿ĩ éĩı
å¤© é¾Ļ
æ¸ħ æ²»
å§Ķ åĨħ
åħŃ è§Ĵ
èĲ½ äºİ
ä¸ªäºº èµĦæĸĻ
è§Ħæ¨¡ æľĢå¤§çļĦ
åĩºèº« äºİ
ä¹īåĬ¡ æķĻèĤ²
åĬłåĪ©ç¦ı å°¼äºļ
ä¸ī æľŁ
åı° å±±
æŃ£ å®Ĺ
æŃ¥ éģĵ
èĹ Ķ
åĮ»çĸĹ æľįåĬ¡
æĮ¤ åĩº
æľī æľŁå¾ĴåĪĳ
é«ĺ çº¦
åĳ¨ å²ģ
äººåĳĺ åĴĮ
uc k
A Y
ä¸Ń ç§ĳéĻ¢
å¤§ å£°
ç»ı ç»ľ
ç»ĵ çŁ³
çĿĢ éĻĨ
çł´ æįŁ
å¸ķ æĭī
åĽĬ èĤ¿
æ©Ļ èī²
å¤ĸåĽ´ èµĽ
æĪĲ åĽł
ä¾ ®
åŃ£ é£İ
å¾® ç±³
åĲī å£«
è¿ĺæĺ¯ åľ¨
OS S
ç»ıæµİæĬĢæľ¯ å¼ĢåıĳåĮº
çĶµ ä½į
åŀĭ åĴĮ
ç¬¬ä¸Ģ æ¬¾
é¸ ¯
åĨ» ç»ĵ
æĪªèĩ³ çĽ®åīį
çººç»ĩ åĵģ
èĢĮ å¯¹
æľĢ åĸľæ¬¢çļĦ
åı¯ä»¥ è¿½æº¯åĪ°
æ¬§ äºļ
åĲī éļĨ
å®½ éĺĶ
éĶĻ äºĨ
è¸ı ä¸Ĭ
G PS
Ð ±
æĭ ·
åŁº äºļ
æĴŃ éŁ³
å®Ŀ è´µçļĦ
éģĹ å¿ĺ
ĠT eam
æ£ķ æ¦Ī
éĤ£ä¸į åĭĴæĸ¯
p a
çŃī éĥ½
åľŁ å·¥
éĢĥ åĪ°
Ġ é»ĳ
å¤ Ķ
æµ ľ
è¡Į èĢħ
ä¹ĭ åŃĻ
è¡¨ çİ°åľ¨
å¸¦ åħ¥
æĭīä¸ģ è¯Ń
åīį åį«
ç»Ħ åĪĨ
åİ» æİī
çºª å¹´
èĩ´ æķ¬
çļĩ ä¸Ĭ
æ¿Ģ æĪĺ
è¯º åħĭ
å®¢æĪ· æľįåĬ¡
åĲŀ åĻ¬
æ¯Ķ çļĦ
èĲ½ ä¸ĭ
éĥ¡ çļĦ
æ¶Īéĺ² å®īåħ¨
çĺ¦ èĤī
åľ¨ çĶŁäº§
ä¸º çķĮ
ä¸º æ¯ı
çĶ¨ æĪ¿
çĿ ģ
è¯¯ ä¼ļ
ä¸Ńå±± å¤§åŃ¦
èĸª èµĦ
ä¼º æľį
åı¯ ä½¿çĶ¨
éģĵ ä¸Ń
å¸ĥ è¢ĭ
è®® å¸Ń
æłĳ ä¸Ĭ
å¡« è¯į
æ°´ æīĭ
æķĻ åĳĺ
å°Ĩ ä»İ
å¤ĸ åķĨ
æıĲä¾Ľ æľįåĬ¡
å¼Ģå§ĭ çļĦ
åįł äºĨ
å·¨ çŁ³
äºļæ´² çĶµè§Ĩ
å¯Įå£« çĶµè§Ĩåı°
çķľçī§ ä¸ļ
ãĦ§ ãĦ
æĭĩ æĮĩ
éĢį éģ¥
A g
M W
ä¸Ń åŃ¦çĶŁ
æĹ¶ èĩ³
ä¸İ ä¼łç»Ł
ä½ĵ åĴĮ
åħ¥ çĭ±
æĸ¯ å¾·
éĩĳ é©¬
å¯Į è±ª
è¾Ľ è¾£
åĶ¤ éĨĴ
F R
ä¼ļ åĲĪ
çĿĢ çľ¼
åĵ¥ æľ¬
åĬª å°Ķ
çĨŁæĤī çļĦ
æĸ¹ åĿĹ
é«ĺ éŁ³
åĪ¶ æŃ¢
ä¿¡æģ¯ åĴĮ
æłĳ åı¶
å·® çļĦ
ec k
Ġ 1995
çĶŁ çĮª
æ² ħ
æľ¬ ç§į
å¹¶ æł¹æį®
åį¡ æ´Ľ
æ±ī åĨĽ
é£ŀ å¾Ģ
å¾® è§Ĥ
æĸ¹å¼ı çļĦ
èĶ ·
å¼Ĺ åĲī
éĽĨä¸Ń äºİ
å°½ç®¡ å¦ĤæŃ¤
âħ ł
çĽ¸éĤ» è½¦ç«Ļ
åĪ ¨
åĪ ģ
åľ¨ å·¥ä½ľ
ä¸İ çİ°ä»£
åĪ© å°Ķ
åħĥ åĻ¨ä»¶
ä¸¤ åı¥
åı£ ä¸Ń
çĹħ æĤ£
å¤ª å¸Ī
18 70
æķĻåŃ¦ è´¨éĩı
å¤§ ä¹ĺ
è¡Į åĲĦ
éĢļ ç§°
çŁ³ æ¦´
è¿½ èµł
ç«¥ åĨĽ
ç¡®å®ļ äºĨ
éĺ¿å°Ķ å·´
åľ° åŁº
å·¥ æľŁ
is ion
é²ľ ç¾İ
æ©Ħæ¦Ħ çĲĥ
AK B
X å°Ħçº¿
æľī åĽĽ
äº¤ éħį
èĹı æĹı
ç§ģ æľī
æ²ī æ²¡
æĺı è¿·
çĥ Ļ
æ²» çĹħ
é¡¹ ç¾½
an o
ä¸ĸçķĮ åĨłåĨĽ
çļĩ å¤ªåŃĲ
åĩı åħį
ä¸įåĨį æĺ¯
è¤ ļ
MV P
ä»£ æķ°
æį® æŃ¤
åħī å¤§
çĹĩ çļĦ
åĬ³åĬ¨ æ¨¡èĮĥ
åĨłçĬ¶çĹħæ¯Ĵ çĹħ
åĬ¨ æ¤įçī©
ä¹Ł éļıä¹ĭ
çĻ½ å±±
ç®Ģ ä½ĵ
åįı åĴĮ
æ¹ĸ æ°´
éĿŀå¸¸ å¥½
çĴ ¨
çŃ¾è®¢ äºĨ
ä¸Ĭ çĸı
åī ģ
ä¹ĭ éĥ½
èĥ½ ä¸įèĥ½
å¤© å±±
æĿ¡ çłģ
æĴ ĩ
å®ĥ åħ·æľī
18 94
é¦Ļ å±±
éĻį æ°´
ç¬Ķ å¢¨
åĢŁ åı£
çļĦ åĬŀåŃ¦
åĴĮ ä½ł
å°Ĩ èĩªå·±
æĹł åıĮ
äºļ åĪ©
çĶ» å±ķ
éº ¾
æ³ķåĽ½ çļĦ
è¿Ĳè¡Į çļĦ
ä»£çĲĨ äºº
K G
äºĨ ä¸ĭæĿ¥
è¢« ä¿ĺ
åĪĽ ä½ľèĢħ
è¾ĥ æħ¢
åıĸä»£ äºĨ
åľ£è¯ŀ èĬĤ
å¹´ èĢģ
å¤§ åºĨ
å®ŀ åĬĽçļĦ
æĹł ç§ģ
æ¼Ķ åĩºçļĦ
æĶ¶ åĪ°äºĨ
æīĺ å¤«
åĪĨéĴŁ åĨħ
å¤ļå¹´ åīį
å¤ķ éĺ³
ä¸ŃåĽ½å¤§éĻĨ çļĦ
å«Įçĸĳ äºº
ä¸º éĩįçĤ¹
æľī å¤ļå°ĳ
æīĢ å¸¦æĿ¥çļĦ
ç¯ ±
æĹħæ¸¸ å±Ģ
ä¼ª è£ħ
å·¡åĽŀ èµĽ
ä¸Ģ æĸĩ
ä¸į åĲ¬
æĪĲ ä¸Ģä¸ª
æĹ¥ ä¸Ĭæĺł
éķ¿ ç¯ĩ
åı· åĴĮ
åıĳå±ķ æĶ¹éĿ©
åĽ¾ æłĩ
éĺ¿ å¾·
ç»Ĩ éķ¿
å©ļ åĲİ
åĪĨéĴŁ çļĦ
æĮ¯ èį¡
ä¹³ åĮĸ
å¤§ä¼ļ ä¸Ĭ
æıŃ å¹ķ
å¾Īé«ĺ åħ´
æĸ° åĵģ
äºĶ ç§į
æİ¨ åĲĳ
æ¸© å·ŀå¸Ĥ
æ½ Ł
è¡¨éĿ¢ ä¸Ĭ
å¼ĢæĶ¾ çļĦ
åĩłä¹İ æ²¡æľī
æľ¬ åİ¿
æķ° ä½į
ä¸¤ åı°
å¼ł æ°ı
æĪĲä¸º ä¸ĢåĲį
ä¸įåı¯ æĢĿè®®
èİī ä¸Ŀ
çĶŁéķ¿ åľ¨
èħĲèļĢ æĢ§
ä¸Ń éĵģ
åľ° åĿª
ä»İ å®¹
å¼Ĥ åľ°
çĶ¨æĪ· ä½ĵéªĮ
åĨĽ èĲ¥
çĹħ æĪ¿
ç®¡çĲĨ å§Ķåĳĺä¼ļ
æĻ® åĪ©
äº² åıĭ
äºī æī§
æģ¢å¤į äºĨ
åİ¿çº§ ä»¥ä¸Ĭ
å·¥ä¸ļåĴĮ ä¿¡æģ¯åĮĸ
É Ķ
åĲ ĭ
ä¸º è¾Ĳé³įé±¼çº²
åŃ¦ ä¸ĵä¸ļ
ç»ı æĸĩ
æľīéĻĲåħ¬åı¸ æĪĲç«ĭäºİ
å·²ç»ı å¼Ģå§ĭ
èĩªä¸» çłĶåıĳ
ä¸¤ æłĸ
æ®¿ åłĤ
å®¿ ä¸»
å®ŀéĻħä¸Ĭ æĺ¯
Ðµ Ð½
å®īä¸ľ å°¼å¥¥
Ġ 30
åĴĮ åįĹ
20 24
é«ĺ é¾Ħ
çŃī é¡¹çĽ®
åĲį åŃ¦çĶŁ
ç¾İ åıĳ
åĮĹ æľĿ
æĪĺ åĬŁ
ç§» éĻ¤
at ch
æµĵ åİļçļĦ
åıĺé¢ĳ åĻ¨
Î »
ä¸į ä»¥
å·¥ åĨľ
çī¹ æĽ¼
åŁº åºķ
è¾¾ æĸ¯
å¤į è®®
åħ¨åĽ½ æĢ§
äº¿ æ¸¯åħĥ
èĸ ¨
èĮĦ åŃĲ
å¼Ĺæĭī åŁº
èĩª å¦Ĥ
å¨ ©
å·¥ç¨ĭ éĻ¢
S I
æĸ° èĢģ
åĬł çıŃ
èĩ³ å°Ĭ
èĮ §
å·Ŀ æĿĳ
Ġ 1987
æľī äºĮ
åĨĽ è¡Ķ
èİ« å°Ķ
éĿ¢ä¸´ çļĦ
åīĬ åĩı
åĵ¥æľ¬ åĵĪæł¹
Ð ·
å¤§ æĢĴ
åĴĮ ä¸ĢäºĽ
è¥¿ åĳ¨
èµĽ ä¼ļ
åı¯ä»¥ å¯¹
çĥŃ è¡·
çº¢ æŁ¿
ç¬¬äºĮ å¹´
æ³ķå¾ĭ è´£ä»»
å®īè£ħ äºĨ
åĽ°éļ¾ çļĦ
Ġ )
ä¸Ģ èīĺ
ä¹ĭ æīĭ
å¼Ģ å±Ģ
åģ ĥ
åĨĽ æĸ¹
ç»Ī çĶŁ
ĠC or
åĲ¬ äºĨ
ä½ĵèĤ² ä¸Ńå¿ĥ
éĩįéĩı è½»
åı²èĴĤ èĬ¬
ä¸į éļ¾
åĩº éĶħ
è¦ģ ä»¥
åĪ° å¤§
éķ¿ ä¸īè§Ĵ
éĿ¢ çĽ®
è½¦ ä½į
åģļ å¼º
18 5
è¯¸ å¡ŀ
åįĸ å®¶
AC ç±³åħ°
åıĹå®³ èĢħ
èĬ± æľŁ
åĬŁ åĬ³
ä¹ł é¢ĺ
æĿ¿ æ¡¥
ĠL im
ä¸Ģ èº«
è· »
ä¼ģ é¹ħ
æĶ¹ çĶ±
æĥ³ çĿĢ
18 71
æ¥ Ĥ
çĸĹ åħ»
å£ģ ä¸Ĭ
ç´« çłĤ
ç¦ħ å¯º
éªĨ é©¼
Ġ åĽ½éĻħ
æķĻ ä¹ī
çłĶç©¶ æľºæŀĦ
ç¦ı å²Ľ
çº¦ç¿° éĢĬ
æĿ°åħĭ éĢĬ
ãĤ¿ ãĥ¼
å¹´ èį£èİ·
ä¸º ç¾İåĽ½
åĴĮ æ²»çĸĹ
è§Ĩ ç½ĳèĨľ
çº¢ å¤ĸçº¿
ar s
ä½Ĩæĺ¯ çĶ±äºİ
éĢı è§Ĩ
Ñģ ÑĮ
Ġ æĸĩ
çļĦ çľŁ
åľ¨ åİŁ
åı¯ä»¥ è¾¾åĪ°
æ¸ħ åĩĢ
ä½ľåĵģ åİŁæĸĩ
èŀį åĮĸ
** **
äºİ åĲĮå¹´
æĹ¶ éķ¿
åĪ° ä¸Ģä¸ª
å¯¹ ä»ĸçļĦ
åīį çŀ»
æŃ¤ é¡¹
éĻ¢ åĨħ
åı¯ä»¥ è¢«
åĽ½å®¶ æĿ¯
é¹ «
ä¸īåĽ½ å¿Ĺ
Ġl a
É Ļ
Ġ é¾Ļ
å® ¸
ä¸Ģ éģį
åĴĮ æĹ¥æľ¬
å¾Ī æĺ¯
é¢ĺ ä¸º
çľĭ å®Į
ç§¯ æ°´
åıį åĲĳ
äº² æĥħ
è®¾å¤ĩ åıĬ
æ´Ĺ æ¾¡
æ¯ıä¸ª äººçļĦ
èĥ°å²Ľ ç´ł
åħ¬ é¦Ĩ
éĢļ åħ³
å±± æľ¬
è®® éķ¿
ä¸ĥ æĺŁ
çľ¼ éĩĮ
è´´ å£«
G u
ä¸º ä¸Ĭ
æĥ¯ ä¾ĭ
æİĮæı¡ äºĨ
åħĥ é¦ĸ
åĪ« åħ·
éĻĦ æľī
èĪŀ æĽ²
åķĨä¸ļ æ¨¡å¼ı
éĤ® å±Ģ
è¡° èĲ½
å¾Ģå¾Ģ æĺ¯
ä¸º é¦Ļæ¸¯
è¿ĩ åĪĨ
æľĢ çĪ±
å®ī åº·
éĻ¢ æīĢ
çĭ¬ è¡Į
é¢Ŀ åº¦
æºª åİ¿
ot h
ä¼ĳéĹ² å¨±ä¹Ĳ
S R
æ²» æīĢåľ¨
ä½ł æĥ³
ä¾Ľ éľĢ
er a
ä¿® æĸ¯
åįļ å¼Ī
èĹı åľ¨
ĠS c
éªĳ å¸Ī
çĮĽ çĥĪ
æħ· æħ¨
O n
b le
çļĦ æĥħå½¢
æµģ æĶ¾
åįĩ æ¸©
å¤« åħ°
å¾ģ ç¨ĭ
è·¨ çķĮ
ç¼ł ç»ķ
çļĦ å¥³äºº
ä¸º çĶ¨æĪ·æıĲä¾Ľ
éķ¿ çĶŁ
åħ¨ å¥Ĺ
åľº æ¯ĶèµĽä¸Ń
åĽł ç¼ĺ
ä¸ŃåĽ½ è¶³çĲĥ
æľī åĪ«
åĩº äº§
éķ¿ ä¹Ĳ
ä¸ĩ äºĭ
ç©º è¢Ń
15 6
å²¸ çļĦ
éĺ¿å§Ĩ æĸ¯çī¹
) :
b e
åıĹ åĳ½
çłĶç©¶ åıĳçİ°
æŀģ å¤§åľ°
æł¸ æŁ¥
4 80
y m
åĩ Ľ
åıĳ ç»Ļ
åħ¶ èĮĥåĽ´
éķ¿ å¹´
å¹³ éĺ³
çĶ± åİŁ
æŃ£ éĢī
éļı åľ°
çĶ² çĥ·
æ´¾ å¾Ģ
çĥ§ å¼Ģ
å®£ä¼ł çīĩ
çļĦ çĶŁéķ¿
åĴĮ å®īåħ¨
æĹ¶ æķĪ
å°Ĩ è¿ĻäºĽ
çĶ± åĽ½å®¶
æĹł å®³
çĭ¬ èµĦ
å¼Ĥ åĳ³
ä»į æĹ§
éĻµ åİ¿
è½´ çº¿
åĪĽç«ĭ äºĨ
çļĦç¾İ å¥½
äºļçī¹åħ° å¤§
ä¸İ åĲĮ
æľº ç¥¨
å°± è¶Ĭ
æĹł é¡»
ä¿¡ å¥ī
ä½ł éľĢè¦ģ
éļ¾ æ°ĳ
å·Ŀ å¸Ĥ
åĽ½åĨħ çļĦ
æĹ¥ åıĳåĶ®
åĮĸ çī©
æĹł å¤Ħ
ĠA ss
ç²¾ç¥ŀ åĴĮ
éĺ¿å°Ķ åıĬ
ä¹¦çĶ» å®¶
èĦĬ é«ĵ
åĲİ æľī
è¡Į éĶĢ
åĪĨ æ²»
éĢļ åĭ¤
ç»ĵ ä¸º
åİ» çļĦ
åĬŁ åĭĭ
15 4
æ¸¡ è¾¹
åĬłå·ŀ å¤§åŃ¦
ä¸Ģ æĪĺ
å®ļ åŀĭ
æľĢ éĢĤåĲĪ
ç¾İ éĩĳ
çİ¯ çº¿
ä¹ī ä¹Į
çĭ¬ åĪĽ
è¿ľ è¿ĳ
åŃ¦çĶŁ ä¼ļ
æ¬¾ é¡¹
æıĴ çĶ»
æĭĴç»Ŀ äºĨ
çĽ¸ä¼¼ çļĦ
ich ard
g l
çĶ¨ å·¥
20 000
åįģ éĩĮ
éĥ½ ä¸įèĥ½
çłĶ åĪ¶çļĦ
æ® Ĩ
ä¸ĩ è¾¾
çļ® å°Ķ
å»ºç«ĭ ä¸Ģä¸ª
ä¸ºä¸» ä½ĵ
çķª ç¦º
Ch arl
åľ¨ åĲĮ
æ¶ Ŀ
è½¦ è½½
æĪĺ ä¹±
çļĩ åĨł
éĹª çĥģ
T T
ä¼ļ åıĳçĶŁ
è¡¨ å±Ĥ
ç»Ĩ å¾®
ä¿Ħ åĨĽ
æīĢ çĶŁ
éĢī ç¥¨
èĵĿ çīĻ
æĮĩæĮ¥ ä½¿
æ³¨ å®ļ
13 1
äººçī© çļĦ
æ±ĩ ä¸°
å¼Ĺ èİ±
æ¡ĥ æºĲ
æ¸¡ è¿ĩ
éĵŃ æĸĩ
ä¸į åģļ
éķ¿ å¾Ĺ
ä½İ è°ĥ
ç©¿ èĳĹ
st it
å·¥åķĨ ç®¡çĲĨ
Ð¸Ñ ĩ
åĮĹ ç«¯
æŃ¤ åĪ»
éĻ¢ ç³»
éĢĤ éĩıçļĦ
åıĳçĶŁ åĻ¨
èĤ¯ å°¼
åįĹäº¬ å¤§åŃ¦
èĮ¨ åħĭ
èĤĩ åºĨ
Î µ
è¯´ èµ·
æķħ ç§°
çº³ çļĦ
è¯» çī©
éĥ½æĺ¯ çĶ±
çļĦä¸» è§Ĵ
æĬ¢ åħĪ
èĬĤèĥ½ çİ¯ä¿Ŀ
åħħè¶³ çļĦ
n et
æ±Ł å®ģ
æĺ¯ä¸Ģ æ¬¡
å¿§ éĥģ
ç» ¶
ä¸ĭ é¢Į
æīĢ çĶ¨çļĦ
18 80
éĺ² æ½®
ä»¤ åħ¶
è¯º å°Ķ
çĶµåŃĲ ä¿¡æģ¯
æĽ¾ç»ı åľ¨
å¼¥ éĻĢ
Ġ 978
ä¼ļ è§ģ
åıĳ æĸĩ
å¾Ī ä¸į
åħĪ çŁ¥
åĬŁ èĢĹ
çĵ ®
äºĭä¸ļ åıĳå±ķ
éĹŃ å¡ŀ
os e
å¾Ĵ æŃ¥
è½° åĬ¨
åĨħ èĦı
ãģ °
ch e
éĢĤçĶ¨ èĮĥåĽ´
ä¸ĭè¾ĸ çļĦä¸Ģä¸ª
èĬ¹ èıľ
Ġ Q
çļĦ çİ°ä»£
å°± å·²
æıĲ åĪ°çļĦ
åįĩ åįİ
ç¬¬äºĮ ä½į
æ±ł å¡ĺ
çĥŃå¸¦ æ°ĶæĹĭ
æī³ å¹³
A lex
çļĦ ç»ıåħ¸
è¢« éĢīä¸º
æĻ® é¡¿
èĽ Ł
æ¯Ľ å·¾
ä¸¥æł¼ æī§è¡Į
çľŁå®ŀ æĢ§
èıł èıľ
B I
ä¸Ģ ä¸Ŀ
å¹´ ä»¥åĲİ
å½ĵ åīįçļĦ
éĩĳ éĴŁ
æĶ¹ åĬ¨
è¯Ń ç³»
çģµ é¡¿
è¿Ľä¸ĢæŃ¥ åĬłå¼º
è¿ħ çĮĽ
æ·¹ æ²¡
æĳĦæ°ı åº¦
Ù Ī
æĿ¥ åģļ
ç§¦ çİĭ
çļĦ å½¢çĬ¶
ç§ĳ ç½Ĺæĭī
äºĮåįģ äºĶå¹´
èĤº çĻĮ
æĶĢ çĻ»
Ġ 1994
ç§ ½
åĲĮ ä½į
åŃ¦çĶŁ ä»¬
çº¸ ä¸Ĭ
å®ľ å®¾
èµ¤ éģĵ
èĩªä¸» åĪĽæĸ°
i OS
çļĦ éŁ³
ä»¥ éĺ²æŃ¢
çİ° å°Ĩ
ãģ Ŀ
å®¹ è®¸
æ·± æµ·
æĬĬ èĩªå·±çļĦ
å®Ŀ é¸¡
å°Ħ ç¨ĭ
é¢Ĩå¯¼ åĴĮ
æĺĮ å¹³
åĽ½ æ³°
æŃ£ æĸĩ
å·² æķħ
è± Į
ä½ł å¥½
æ³¢ æµª
äºĮåįģ ä¸ĥ
çĤ® å¼¹
ç¨Ģ æľī
èĮī èİī
çļĦ ä¼ĺçĤ¹
ä¼ļ ç»Ļ
æ±Ł åı£
æ³¢ å¤ļ
èĦ± ç¡«
å¥ĭ è¿Ľ
èģĶåĲĪåĽ½ æķĻç§ĳæĸĩ
åĳ¼åĴĮ æµ©çī¹
èµ Ĥ
åıĳ äºĨ
æīĭ æĦŁ
åıĹ ç²¾
èħ¹ çĹĽ
é¢ĦéĢī èµĽ
f orm
Ġ ç¬¬ä¸Ģ
ä¸º ä»ĸä»¬
æĸ½ èĤ¥
è¿ľ åı¤
åĬª æĸ¯
ç¿» åĶ±
æ·¡ çļĦ
æĪĳ å¸ĮæľĽ
åİŁ çĶ»
ç»´ çī¹
çļĦä¸Ģ å¤©
è½» éĩį
ç»ıéªĮ ä¸°å¯ĮçļĦ
ä¿Ĺ åĲį
æĸĳ çº¹
æ£ĭ æīĭ
åīª çº¸
æĸ°ä¸Ģ è½®
å¾Ĺå¤© çĭ¬
å¤ļ æĿ¡
æį į
è·¯ çģ¯
13 4
éŃĶ å¥³
å¼ºåº¦ é«ĺ
æ£Ģå¯Ł å®ĺ
ç§¯åĪĨ æ¦ľ
å·ŀç«ĭ å¤§åŃ¦
çļĦ äºĮ
æĪĳ æľī
çİĭ æĿİ
å¤Ħ åĨ³
åĲĳ ä¸ľåįĹ
çĶ° éĹ´
å®½ æĿ¾
éķľ åŃĲ
w w
Ġ ä»ĸ
çļĦ èģĶç³»
ä¸º ä¸Ńå¿ĥçļĦ
åĮħ å¤´
çĥŃ æ³µ
éĺ² æ´ª
è§Ĵ èĨľ
åħ« è·¯åĨĽ
åįĥ ç§ĭ
çº¯ æŃ£
åĳ¨å¹´ çºªå¿µ
åįģåŃĹ æŀ¶
åĴ ķ
çĻ½ æ²Ļ
ç®¡çĲĨ å±Ĥ
éº» è¾£
å¿ħè¦ģ æĹ¶
ĠSt ud
ER P
äº²åŃĲ éī´å®ļ
çļĦ å¢ŀéķ¿
ä¸º çĶŁ
åı¯ æĢľ
ä¸İ æĹ¥æľ¬
æľ¬ ä½ĵ
åĦ¿ çļĦ
éĩįè¦ģ æĦıä¹ī
ç½Ĺé©¬ å¤©ä¸»æķĻ
åľ¨æŃ¤ ä¹ĭåīį
éĵĥ èĸ¯
20 6
âĢĿ ï¼īãĢĤ
æĿ¥ åİĨ
ä¸ĩ èĥ½
äºĶ å½©
è½¬ æĬĺ
14 8
ä¹ĭåĲİ åľ¨
åĨ¬ çĵľ
è§Ĵèī² çļĦ
è¾Ľ åĭ¤
æĿĤå¿Ĺ ç¤¾
ç²ĺ ç»ĵ
å¤ļ æĺ¯
æĸ° åĵģç§į
åĵģ å¾·
æĸĩåĮĸ ä¸Ńå¿ĥ
é¡¹çĽ® ä¸Ń
ar is
æłĳ çļ®
è¿½ èµ¶
çĴ ĩ
B E
å»º åº·
å¸ĥ åĪĹ
è°ĥ éĢŁ
ä¸įæĸŃ å®ĮåĸĦ
ç»¼åĲĪ æ²»çĲĨ
æ±ĩ åħ¥
A s
g o
çļĦ äº¤éĢļ
åľ¨ æ²»çĸĹ
åľ¨ è®¸å¤ļ
ä¸į å°ıå¿ĥ
æŃ¤ ä¸Ģ
åį¡ æ´Ľæĸ¯
ä»İæĿ¥ æ²¡æľī
åĬ¨ äºº
ä¿Ŀ åĪ©
çĹ ¢
åħļ åı²
æ¸¸æĪı æĪªåĽ¾
å¯Ł è§ī
æ±Ĺ åĽ½
å¤§ éĽĦ
åĴĮ åĲĦç§į
çĶŁ ä¸ĭ
é«ĺ è¶ħ
è£ħ æ½¢
åŁĭ èĳ¬
åľ£å½¼å¾Ĺ åł¡
æĺ¯ å±ŀäºİ
ä¸į ä½ľ
çģµ æ´»æĢ§
èĦĳ è¡Ģç®¡
åĨľæ°ĳ å·¥
æİ ĸ
æŃ¦ åĪĻå¤©
è¿Ļä¸ª ä¸ĸçķĮ
æ¿ ł
äº¦ ä¼ļ
åĲ´ åĽ½
ĠF l
èµĦæł¼ èµĽ
åľ¨ å®ŀéĻħ
ä¸Ń çĶ²
å¤ļ çĶ¨
çŃī åħ¶ä»ĸ
æĿĳ çº§
æ²¹ çļĦ
ä¾Ŀ å±±
è·Ł è¿Ľ
ĠG re
è·¨ åº¦
æ¯ģ åĿı
è§£ éĶģ
å¤ª è¡Į
ä¿® åīª
å¡Ķ åħĭ
åħ¨éĿ¢ åıĳå±ķ
ç§¦ å§ĭçļĩ
åŃŁ åŃĲ
æľ¬ç§ĳ ä¸ĵä¸ļ
çĻ¾ç§ĳ åĲįçīĩ
é£İæĻ¯åĲįèĥľ åĮº
S am
å½ĵ ä¸ŃçļĦ
ä¾Ľ è´§
æĪĳä»¬ åºĶè¯¥
èīºæľ¯ ä¸İ
æķ°æį® åĪĨæŀĲ
æĸ¹æ³ķ æĺ¯
è¿ª å¥¥
å¼± åĬ¿
Ï Ħ
çļĦ å·¥åħ·
å¿ ±
åĬ¨ èį¡
è¯¥ ç³»ç»Ł
æ·± èĢķ
çķĻ ç»Ļ
åĵª ç§į
ç»ĻäºĪ äºĨ
ä¸Ģ çıŃ
å¼Ģ è£Ĥ
ä¹Ł è¶ĬæĿ¥è¶Ĭ
çī¹ ç½Ĺ
é©¬ åĵĪ
æĴ ®
å°ģ åį°
å½© ç¥¨
æĽ¼ åĵĪé¡¿
æĹħæ¸¸ æĻ¯åĮº
çĦ¶åĲİ å°Ĩ
åĩĿ èĥ¶
ä¹¡éģĵ äºĳ
åĴĮ ç¾İ
æĶ¶ åħ»
åĢĴ å¡Į
æĽ¹ éŃı
çļĦ äº§çĶŁ
èĢ ĺ
ä¸İ åħ¶å®ĥ
å¯¹ å¥¹
æĥ «
ä¼¦ åł¡
æķħäºĭ çļĦ
ç¨Ģ åľŁ
éĴ¢çŃĭ æ··åĩĿåľŁ
æµ· æ¸¯
å¸¸ åľ¨
é£İ çĲ´
æ¢¦ ä¸Ń
éģ£ ä½¿
ãĢĢãĢĢ ãĢĢãĢĢ
c a
ä¸º æŃ£
ä¸Ĭ åįĬåľº
ä¹ĭ æĦŁ
è¡¨ åĨ³
ç®¡çĲĨ æľīéĻĲåħ¬åı¸
åħ´ éļĨ
èĲ¨ è¯¸å¡ŀ
èŃ¦ æĥķ
èī¾ æ»ĭ
æĦıè¯Ĩ å½¢æĢģ
å¸ĥæĭī æł¼
æĪ´ ç»´
çº¤ç»´ ç´ł
æĬ« éĴĪ
èĴĭä»ĭ çŁ³
çļĦ è´¹çĶ¨
å¤§ è¾ŀåħ¸
åĽ½ èĦļ
èµ Ī
æĹ¥ å¿Ĺ
é«ĺ ä½į
éļ ¼
ç² ±
èµ· äºİ
æ²¡ äºº
ä¸»è¦ģ çĶŁäº§
æĶ¿æ²» å§Ķåĳĺ
åģı åĲĳ
æ®ĭ ä½Ļ
è¿Ī éĺ¿
è¿Ļé¦ĸ è¯Ĺ
ä¸Ģ æł¼
ä¸Ģ æ¥¼
at es
èĲ¥åħ» æĪĲåĪĨ
çĸ¤ çĹķ
ä¸į åħ·å¤ĩ
èĢĮ å¯¹äºİ
ç§° å¸Ŀ
åı² åŃ¦
é¦ĸ ç§Ģ
ç½® æį¢
ç³»ç»Ł çŃī
åĪĩ åħ¥
è¯» åıĸ
ç¼º åı£
ä½ĵç³» å»ºè®¾
20 3
åĽ½å®¶ ä¸Ģçº§
åĳ¨ ä¸Ģ
é¦Ļ æ°´
æ½ ŀ
çļĨ æĺ¯
è±Į è±Ĩ
çļĦ æĪĺæĸĹ
åŃĲ çŃī
ï¼Ł ï¼ī
ç»ıæµİ åĴĮ
åį· åħ¥
æĹħæ¸¸ åĮº
æĺĤ è´µ
ç¾İèģĶ åĤ¨
åŁ ¤
æĹ¥ ç¨ĭ
é«ĺ åı¥
æŀģ ä½³
çł´ éĹ¨
è½¯ä»¶ å¼Ģåıĳ
çī¹æ®Ĭ æ´¥è´´
ãĤ· ãĥ§
å¹´ å°ĳ
ä¸į åºĶè¯¥
éĥ¨ ä½ľåĵģ
å¯¹ çĿĢ
æĢ§ çĬ¶
åĽŀ åĳ³
æ·· è¡Ģ
çĶĺ éľ²
å¤§å°ı çļĦ
è¿Ļ ä¸įæĺ¯
ä¸ī ç±»
å¤´ çļ®
å®ĥ èĥ½
çĶ» åĨĮ
æŀģ å°ĳ
éľĢè¦ģ è¿Ľè¡Į
æ²Ļ éĹ¨
æĸĩåŃ¦ ä½ľåĵģ
åĬłå·¥ åİĤ
ç¢ĳ æĸĩ
c el
äºº åĲį
åĴĮ å¼¦
ä¼ļ å¼ķèµ·
è² Ĥ
Î¼ m
Pa ul
åľ¨ æ¸¸æĪıä¸Ń
å¤ļ åıĺ
ä¸¤ åº¦
è¿Ĳ ç»´
å¤į å·¥
çļĦäºº æĸĩ
å¡Ķ æĸ¯
å¥Ĺ è£ħ
çļĦ ä½ľèĢħ
äºº è®¤ä¸º
åĨĽ åĮ»
èĬ± èįī
èŃ¦ æĪĴ
ĠW orld
âĸ ª
æ¯ıä¸ªäºº éĥ½
ä¸Ń ä¸º
æĹ¶ åĪĨ
éĢł è¯£
åĽ¢ å§Ķ
çº¢ è¢ľ
åłĤ åĮº
çĶ³ èĬ±
æľī ä¸į
æľī ä½ķ
çİ° è´§
æľĢ éĩįè¦ģçļĦæĺ¯
éĺ² ä¼ª
ï¼ģ ãĢį
ç¬¬äºĮ æĿ¡
ç¬¬äºĮ éĺ¶æ®µ
æŃ¢ è¡Ģ
ir l
å¥ĭ åĬĽ
éŃģ åĮĹ
out h
æ² Į
éķ¿ ç¯ĩå°ıè¯´
å°ı å°ıçļĦ
äº¤ æİ¥
é£Ł éĤĳ
ä½ı æĮģ
å¢ŀåĬł åĢ¼
æĸ°éĹ» ç½ĳ
é¸¦ çīĩ
g er
çŃī åİŁåĽł
æĸ¯ è¾¾
å®ī ä¹Ĳ
éĩĳ çĲĥ
é©¬ çī¹
æ°Ķ ä½ĵçļĦ
æ¸¸ èīĩ
åĦ¿ å²Ľ
æİĴ æĸ¥
è½¬ä¼ļ è´¹
éª¨å¹² æķĻå¸Ī
ç» ·
çĽ¸ è§ģ
åı° è¯į
è¿ŀ äºĳ
ä½Ļ é¡¹
ä½³ ä½ľ
ie w
Ġ x
ä¸º åħ¬åı¸
çĤ Ģ
æ°´ è·¯
ä½¿ ä»ĸä»¬
åħĪ ç«¯
åį¢ æ£®åł¡
Ġ çŃī
å¤§ æ»¡è´¯
é«ĺ ç®¡
éĽĨ éķĩ
åģļ åĩºçļĦ
æĢĿ ä¹ī
å¡Ķ åŁº
è¿ĺæľī å¾Īå¤ļ
åĨľä¸ļ åĨľæĿĳ
ä»»åĬ¡ çļĦ
éĩĳå±ŀ æĿĲæĸĻ
æĸĩä»¶ çļĦ
æĬķæłĩ äºº
åĸĩ åıŃ
è¶³æĢ» æĿ¯
è°´ è´£
N C
åĩº ä½¿
çĽ´ è·¯
æ´² éĻħ
èįī æľ¨
åıĳå¸ĥ ä¼ļä¸Ĭ
ĠCom m
æĽĻ åħī
äºĨ åľ¨
æĸ° ä¹¡
ä¿Ŀ ç¨İ
å¸¸ å¾·
äº¤ éĻħ
åĽ½å®¶ å®īåħ¨
ãĤ ¡
éĻĪ æ°ı
ä¸į æĿ¥
èĩª æĪĲç«ĭä»¥æĿ¥
æĸĩ éĿ©
å°ı åº·
æ°´ å¢¨
èİ Ĵ
æ¯ı ç§Ĵ
åħ« çĻ¾
æ³° åĿ¦
èģĮä¸ļ è¶³çĲĥ
äºĮåįģ åħŃ
ä¸ľè¥¿ åĲĳ
ä¸İ ä¸ĸçķĮ
å¼Ģ éĻ¤
é©¬ åĪ©
éĢģ åĩº
èµĦæºĲ åĴĮ
éĻµ å¢ĵ
éĢĤåĲĪ äºİ
å½ķéŁ³ å®¤
çĪ±åĽ½ ä¸»ä¹ī
ä¸Ģ è§ģ
å½ĵ æĪĳ
èĮ Ĺ
å¦Ĥæŀľ æĪĳä»¬
åħĪè¿Ľ æĬĢæľ¯
ãģª ãģĦ
S e
Ð ¡
åĴĮ æĪĳ
åıĬ åĳ¨è¾¹
å¤ĸ åŀĭ
00 00
ä¿Ŀ æ´ģ
äºĶ æĺŁçº§
é£ŀ è·ĥ
æķĳ åĩº
å¦Ī ç¥ĸ
ä¸įä¹ħ åĲİ
åį³ä½¿ åľ¨
çĥŃ çģ«
æĺ¥ æĹ¥
al a
æłĩåĩĨ åĴĮ
çİ°åľ¨ æĺ¯
å²© æµĨ
æĭŁ è®¢
å¹´ éĿĴ
æµ· åıĤ
çİĭ åħ¬
é£Ł çĸĹ
æ¡Ī çļĦ
å¨ģ å£«
æľĢåĲİ åľ¨
åĪ¤ å®ĺ
ä½ĵçİ° åĩº
åº¦åģĩ åĮº
çļĦ äºĨè§£
å®¶ èĩ£
å¸Ĥ éĿ¢ä¸Ĭ
æ¶ ķ
å£« æ°Ķ
åı¤ å»ºçŃĳ
æŃ¦ å¤·
æĶ¿åºľ åĴĮ
æĺ¥ æĻļ
æĿĢ ä¼¤
ç§¦ æ±ī
æ¼³ å·ŀ
9787 50
ä¸Ģ ç¬Ķ
åľ¨ ç¤¾ä¼ļ
åŃ¦ å¾Ĵ
åħ¶ ä¸Ĭ
æķĻ çļĦ
åĲĦ åįķä½į
æĶ¶ æĶ¯
æĿĳ åĨħ
åĽ¾ å°Ķ
åľŁ åºĵ
çĽĸ å°Ķ
åħīç¦Ħ å¤§å¤«
b l
æľĢ åı¤èĢģçļĦ
ç¾İ å¦Ļ
ç®¡ æĿĲ
æ¸ħ å»·
åŃĹ å¹ķ
å§ĶåĨħ çĳŀæĭī
O D
ä¸Ģ æľĪ
åįĥ æĪ·
çĽ´æİ¥ å½±åĵį
å°ıæĹ¶ åĲİ
åıĤèµĽ èµĦæł¼
ç»Ĵ æ¯Ľ
J ames
T BS
è·¯ è¾¹
çİĭ å»º
åŃ¦éĻ¢ éĻ¢éķ¿
è¯ķéªĮ æľº
w in
ç§ĳæĬĢ éĥ¨
æĸ¹æ³ķ çļĦ
çĿ£ æŁ¥
è¡ĮæĶ¿ æ³ķè§Ħ
ä¸Ĭ çļ®
ä¼ļ æĺ¯
æµģ åĲĳ
æĸ½ åĬł
å¿« é¤Ĳ
æŃĮ åī§éĻ¢
åĪļ æĢ§
è¿ĻéĩĮ æĺ¯
å¹´ è¡¨
ç§ ¸
ä¼ļ æĪĺ
éĩį åĲ¯
el le
å³° åĢ¼
Ð¾ ÑĢ
æĺŁæľŁ æĹ¥
èĤĽ éĹ¨
Ġ ISBN
çļĦ æĥħ
çļĦ åı¯èĥ½
çķĮ çº¿
é¢Ĩ ä¸»
åıª æĺ¯åľ¨
æĿ¿ å¼ı
èµĦæºĲ ä¸°å¯Į
èĥ¡ å®ī
éĿĴå¹´ éĺŁ
æ¹ĸåįĹ åį«è§Ĩ
éĢĤåºĶ æĢ§
åĪĿçº§ ä¸ŃåŃ¦
çļĦ èĥ½éĩı
è¯ ²
20 8
éģĵ å®¶
å°± å¥½
åħ» åŃĲ
è®² åŃ¦
çļĦå·¥ä½ľ äººåĳĺ
ä¼łè¯´ ä¸ŃçļĦ
æ¸©é¦¨ æıĲç¤º
çĤ¹ æĺ¯
å¼ł åŃ¦
æĬĳåĪ¶ åīĤ
Al l
å¤§ æķĻåłĤ
åĩº è´§
å¤ļ äºİ
æľ¬ åľº
äººæ°ĳ æĹ¥æĬ¥
è´¨éĩı ä½ĵç³»
ä¸Ģç§į æĺ¯
éŁ¦ æĸ¯
) ;
æľī å¾Īå¤§
ä¸į ç»ı
åĩº ç¤º
äºĭ çī©çļĦ
ä¸ĩ å¹´åīį
æ±Ł éĺ´
åİĭ æľº
åħ´ çĽĽ
éŃĶ çİĭ
ä¸ľ éģĵ
ç½ĳ è´Ń
åħĪ ç¥ĸ
èİ· æī¹
åĽŀ é¦Ī
æĸ°éĹ» åĩºçīĪ
åıĳè¡¨ åľ¨
ä»İèĢĮ è¾¾åĪ°
åį°åº¦ æ´ĭ
ä½ľå®¶ åįıä¼ļ
Ġ å¥¥
çļĦ æĿİ
éĥ½ ä¸įæĺ¯
åİŁ æĺ¯
åķĨ ä¸ĺ
è¯Ń åĴĮ
å¤ª åĤħ
er ry
çĸĹ ç¨ĭ
æ£Ģ æł¡
é¢Ħ ç¤º
ãĥ³ ãĤ°
åıĶ çĪ¶
åħ¨ä½ĵ åĳĺå·¥
B ar
L D
åħ¬ çīĽ
åķ ¶
ç«Ļ ä½įäºİ
æ¹ĸ å·ŀ
ä¸° èĩ£
åīįæīĢæľª æľīçļĦ
å¹´ åħ¥
é¾Ļ å±ŀ
æĹ¶éĹ´ éķ¿
åįļ å°Ķ
å¾® æľº
æĸĩæĺİ çļĦ
åī¥ ç¦»
t d
å¤© æŃ£
æīĭ æ¸¸
æĭī åĬ¨
æŃ¦ å½ĵ
å²Ľ ä¸ĬçļĦ
è´µ äºº
é½Ĳ é²ģ
çĽĽ ä¼ļ
çĦ¶åĲİ çĶ¨
ĠJ ohn
ä¸ŃåĽ½äººæ°ĳ å¤§åŃ¦
o on
åĴĮ æĿİ
å¯¹ æĪĳä»¬
ï¼ģ ï¼Ī
å¯Ĩ éĹŃ
çĶµè§Ĩ å¹¿æĴŃ
åĭĴ å§Ĩ
ä¸º æĪĳ
å°ı åŃ¦çĶŁ
åĨĽ æĶ¿
åıĹ è®¿
çĪ± ä¹Ĳ
æ³¢ çº¹
å¸Ĥåľº çĽĳç®¡
åĶĲ å®ĭ
å¥¶ èĮ¶
éĤĵ å°ıå¹³
åĩıéĢŁ æľº
ä¸ºå·± ä»»
M e
N a
åĴĮ åľ¨
æĽ ³
æ¡ ¢
åħĥ å®µ
è½¬ èº«
åįģä¸ī æĿ¡
åıĽ åĨĽ
æ¯«æĹł çĸĳéĹ®
é¢Ĩè¡Ķ ä¸»æ¼Ķ
è¦ģ åģļ
éĥ¨ ä¸»ä»»
æľ¬ åľºæ¯ĶèµĽ
åĬł çº³
çī¹ æĦı
æ¶ Ł
ç»Ł ç§°
æĶ¹ æĪĲ
æĺ¯ä¸Ģ æľ¬
äºĨä¸Ģ å¥Ĺ
åľ°æĸ¹ çļĦ
æ¼Ķåĳĺ éĺµå®¹
æ£Ģæµĭ ä»ª
éªĳ é©¬
è¿Ľä¸ĢæŃ¥ æıĲé«ĺ
å¤§éĥ¨åĪĨ çļĦ
ä¸ĩç¾İåħĥ çļĦ
ï¼ī âĢľ
å¦Ĥ åħ¶
åĮĹ éĹ¨
åı¯ä»¥ æĬĬ
åıª æĥ³
çĶ· çĪµ
è¿ĻäºĽ äºº
å®¡ è§Ĩ
èĦ± åıĳ
åĲĦåľ° çļĦ
ï¼Ľ ãĢĤ
å¤ĸ ä¼ł
18 88
å¡Ķ æĭī
å¼Ģåıĳ åĪ©çĶ¨
çŁŃ éĢĶ
is c
ur a
å¥¶ éħª
çłĤ å²©
åħĥç´ł çļĦ
èĦĬ æŁ±
åĵ Ĩ
åĲĪ èĳĹ
çİĭ å¦ĥ
å°ĳ äºĨ
çĹħ å®³
åĩºçīĪ æĹ¥æľŁ
éĶĢåĶ® çļĦ
åĬĽéĩı éĽĦåİļ
å¦Ĥä»Ĭ çļĦ
æł ¾
è¾ Ļ
è¥¿ å°Ķ
è¿Ľè¡Į åĪĨæŀĲ
æīĺ çĽĺ
çĽĲ éħ¸
æĽ¾ç»ı æĺ¯
çº½çº¦ å·ŀ
p ort
åĲį åĮ»
å¾Ĺ å¥½
èĢģ å®¶
ç§Ģ æīį
æĵįä½ľ ç®Ģåįķ
èĻļ å¼±
ad a
çĶŁéķ¿ äºİ
çłĶç©¶æīĢ æīĢéķ¿
æ»¡æĦı çļĦ
b all
Ġ å½ĵ
Ġ 50
æ¸ º
åħ¬ å®³
ç¾İ å¼ı
åľŁ åı¸
æĿ¿ åĴĮ
çĶŁçī© æĬĢæľ¯
çĴ Ĳ
çĥ§ çĥŃ
ĠF or
æĬ½ çŃ¾
çī¹ æľĹ
æĪ· æķ°
åĽ½éĻħ çĶµå½±èĬĤ
åħµ éĥ¨å°ļä¹¦
åģ¥ èĦ¾
çĶµå½± ä¸Ń
èĨ º
è½® æľº
åįĪ é¤Ĳ
èĳ¬ ç¤¼
éģ¥ è¿ľ
æĺ¾èĳĹ çļĦ
æ²īç§¯ çī©
å¸Įä¼¯ æĿ¥
ä¸Ń éĥİ
ä¼ļ ç¨½
æ°´ æµĴ
èİ· åĪ©
ç» ¯
å¹´ åıĬ
ä¸į è´¥
åĩº æµ·
è¿Ļ è®©
åĨħ åĲ«
åĬĽ å¼º
æīĢ éľĢè¦ģçļĦ
è¥¿ éĿ¢
ä½Ļ ä¸ª
åĩ¯ çĳŁ
éĴĪå¯¹ æĢ§
è¿Ļ é¢Ĺ
èĢĮ çŁ¥
åĽĽ åĪĨ
äº¤ ä»£
æĤ ĸ
ç»´ æĸ°
å°¿ éģĵ
å¾ĹçĽĬ äºİ
ç§ĳç½Ĺæĭī å¤ļ
E G
ä»¥ éģ¿åħį
å±± æ¥Ĥ
ä½Ĩ æĪĳä»¬
ä¼ģä¸ļ æıĲä¾Ľ
åıĪ åı¯
æĬĹ çĻĮ
è¿½ æĿĢ
åĩĨå¤ĩ å·¥ä½ľ
éĢļçŁ¥ ä¹¦
Mich ael
æľī èĥ½åĬĽ
ç¬ º
ä¹Ł ä»¥
çİĭ çīĮ
ç¾¤ ä½ĵçļĦ
åĲī æĭī
æī¾ å¯»
äº« èªī
le ge
ç©ºæ°Ķ è´¨éĩı
å±¡ æ¬¡
åĵ® åĸĺ
åĵģ æł¼
æľĢ ä¼ĺ
è¯¥ é¡¹
å¼º å£®
éļı åĲİçļĦ
æ´ŀ åºŃ
æįķ é£Ł
é£ŀè¡Į åĻ¨
çŃ· åŃĲ
W i
æ³ ĵ
åĪĨ å¨©
çļĦå°ı åŀĭ
éĦ ŀ
å½±è§Ĩ ä½ľåĵģ
å¼§ å½¢
è¿Ĳè½½ çģ«ç®Ń
åĨħ çĩĥ
çħ ľ
å¢ŀ æķĪ
ç¬¬ä¸Ģ ç§į
éĿŀå¸¸ éĩįè¦ģçļĦ
éĽħ åĽ¾
åºĩ æĬ¤
éĩĳåŃĹ å¡Ķ
é¸³ é¸¯
F O
åľ¨ åĽ½åĨħå¤ĸ
åĴĮ åĪĽæĸ°
æıĲ æĭĶ
çİĭ æľ±
è£ħ æī®
çłĶç©¶ ä¸Ń
é»Ħ åľŁ
åŃ¦ä¼ļ çĲĨäºĭ
éĽĩ åĳĺ
åľ¨è¿Ļç§į æĥħåĨµä¸ĭ
åĴĮ æŃĮ
èĢĮ å¼Ĥ
æĮģ æľīçļĦ
å°¼ é¾Ļ
èį¯ ä¸ļ
åŁºç¡Ģ çŁ¥è¯Ĩ
åĦĴ åŃ¦
éļĭ åĶĲ
äºļåĪ© æ¡ĳ
H ar
y r
å¹´ ä¸ĬåįĬå¹´
å¼ ©
ä¹ĭ å¹´
ä½İ å»ī
èĤļ åŃĲ
çļĦ èī¯å¥½
æľī ä»»ä½ķ
æį »
å¦Ĥ åľ¨
æŃ¤ ä¸º
çľŁ æĥħ
éļĨ èµ·
ç»¿èī² çİ¯ä¿Ŀ
åĪºæ¿Ģ æĢ§
S m
å¿ »
åĩº ä¸º
åĲİ ä¸İ
åĬ¨ æĦŁ
æľĢ çŁŃ
å¿ĥ æĢĿ
æ¸ħ é£İ
ç®¡çĲĨ æ¨¡å¼ı
æ¯ı èĤ¡
å®¢ æµģ
å¤§åŃ¦ æ¯ķä¸ļ
æ¸¯ å¸Ĥ
åĩł å¹´çļĦ
ä¸ºäºĨ éģ¿åħį
èľĤ çªĿ
æµ·å²¸ çº¿
ç¼¤ çº·
ä¸Ģ éĶ®
å¹³ ç«ł
ä¹Ĳ åºľ
è¶ħ å¼º
è¶³çĲĥ éĶ¦æłĩèµĽ
åĪĨç±» æ³ķ
éĿ©åĳ½ åĨĽ
å¯¹ æľ¬
ä¸ĩ å¼ł
åĬ© æķĻ
è¡Ģ èĦĤ
ç»Ŀ ä½³
çĽĽ å®´
çłĶåıĳ ä¸Ńå¿ĥ
ä¸į æĸĻ
è¡Į è¿Ľ
è¿Ļ åľºæ¯ĶèµĽ
æł¡ ä¼ģ
ä¹Ĳ äºİ
èı ħ
è®¾è®¡ æĸ¹æ¡Ī
ç¬¬ä¸Ģ éĺ¶æ®µ
çº¢ æľ¨
ä»ª åĲĮ
èľ ķ
èĮ¶ åĽŃ
æĹ§ çļĦ
ä¸§ çĶŁ
c k
æĿ¥ å®¾
éķ¿ å´İ
å°± æĺ¯ä¸Ģ
å®ī èĳ¬
çĹ Ķ
èĹı æľ¬
å»¶ä¼¸ åĪ°
è¾Ĺ è½¬
æĺİ æĺİ
ä¸ĸ è¢Ń
æĮĩ çļĦ
æĭħ è´Ł
ç»ıéªĮ ä¸°å¯Į
ç¾Ĭ æ¯Ľ
ers on
æĳĶ è§Ĵ
å¸· å¹ķ
ç§¦çļĩ å²Ľ
ä¸Ń ç«ĭ
æŀ ī
ä¸İ æĬĢæľ¯
çĲĨ ä¼ļ
çİ° éĺ¶æ®µ
éĩĮ å¸Į
çłĶ ä¿®
ä¸ĩ ä½Ļäºº
çļĦäºº æķ°
æĶ» åŁİ
åĪº å®¢
ç¬¬åįģ ç«ł
æĻ®æ´± èĮ¶
è¿ĺ åħ·æľī
èľ ´
ĠB ar
è°ĥæķ´ ä¸º
åī¥ å¤º
æľĪä¸Ĭ æĹ¬
çļĦ æ³ķ
æİ ı
çĽ¸ çĪ±
ä¿Ŀ è´¨
èµ° è·¯
å¤ļå¹´ çĶŁ
çĸ² æĥ«
åľ¨ åľº
åĴĮ å¤ĸ
æĽ´ è¦ģ
ç½® èº«
æī¿ å¾·
and er
æµģè¡Į éŁ³ä¹Ĳ
çĻ»åľº äººçī©
è¾ħå¯¼ åĳĺ
å¤§è§Ħæ¨¡ çļĦ
çļĦ éĻĲåĪ¶
æ¸© æ°´
æĺł å°Ħ
Ã¡ n
i or
åħ¬ æīĢ
éĢļ éī´
æĢ» å·¥ä¼ļ
äº² åĴĮ
åį« åĽ½
ä¹Į åħ°
é¢Ĩå¯¼ å¹²éĥ¨
ä¿ĿæĮģ äºĨ
ä¸Ń å¤§
å»ºè®¾ åįķä½į
ç§Ł æĪ¿
è´¯å½» æī§è¡Į
åĲİ åįĬ
èĢĮ ä»¥
å±± ä¹¡
æĹł éļľç¢į
ä½Ĩ å®ŀéĻħä¸Ĭ
æľ¨ åĪ¶
éĻĨ æĪĺéĺŁ
åĩŃ çĿĢ
ç²ĺ åľŁ
çĽĳæİ§ ç³»ç»Ł
ç» Ĭ
åıĳ ç¥¨
ä»ĸ èĩªå·±
åĲĮ ä¹¡
åħ¨ æķ°
éģĵ åľº
éĵ Ģ
å¥½ åĲĥ
èĭ± å±ŀ
æīĵ çĤ¹
C AD
åı ©
æł¼ ç½Ĺ
å·´ æ´Ľåħĭ
èĩ´ çļĦ
æĮī ä¸ĭ
at s
åĪĽä½ľ äºĨ
è¾© è¯ģ
F A
ä¸Ģ éĺŁ
çĽ¸ è·Ŀ
ä¼ł äºº
ç«Ļ ç«ĭ
èĬ± é¦Ļ
åıĮ è¯Ń
æ²Ļ æ²³
è¯ĳ ä½ľ
èµŀ åĲĮ
åıĳ çĤİ
éĩĳ å¸ģ
åĩĨ åħ¥
æ¸© å·®
åħ« æĻ¯
çĽĳ ç¦ģ
äºĨä¸Ģ æ®µ
åı« å£°
ç¡Ŀ éħ¸
å¤§æŃ£ ä¹Ŀå¹´
è¿Īéĺ¿ å¯Ĩ
Ġ å¤ļ
ä¸İ ä¼ģä¸ļ
ç®¡çĲĨ çŃī
æĿİ å®¶
å®ľ åħ´
æĵįä½ľ æĸ¹æ³ķ
æ»¡è¶³ äºĨ
çĽ¸å¯¹ åºĶ
èĸĦ èį·
á »
Ġ äºĶ
ä¸º å®ĺ
åĲİ æĪĲä¸º
èĢĮ äº§çĶŁ
åĲĪ ç§°
åħ± åĪĨ
æ¸¸æĪı ä¸ŃçļĦ
åħ´ ä¸ļ
èĩªçĶ± åŁº
èģĶçĽŁ çļĦ
çĶ±æŃ¤ åı¯è§ģ
è½¬æį¢ ä¸º
å¾Ĺ æĦı
æµ· æĪĺ
ç¥ŀ å·ŀ
18 8
è®¾è®¡ éĻ¢
è¯ķ è¯ķ
ç¬¬ä¸Ģ åº§
ç»¼åĲĪ åĪ©çĶ¨
çĲĨè®º çļĦ
âĳ ¥
èį¯çī© æ²»çĸĹ
æĺ¯ ä»ĸçļĦ
å± ģ
å¤§ éĽ¨
æĿĳ åĴĮ
æķ´ æľº
ol a
èĦ¸ éĥ¨
ä¸»èĲ¥ ä¸ļåĬ¡
åľ¨ åįİ
ä¸į è¯´
æĹł æĥħ
åħļ æĢ»æĶ¯
us h
è¶ĭ äºİ
é¢ĨåħĪ åľ°ä½į
M T
ä¸Ń åŃĲ
ä¸» æĿ¿
åĽĽ åįģå¹´
çĽĽ å¤§
å¿«éĢŁ çļĦ
èµĽåŃ£ çļĦ
èĤ¾ ä¸Ĭ
åķĨæłĩ æ³¨åĨĮ
å®ĩèĪª åĳĺ
éŃģåĮĹ åħĭ
çĿ ĳ
åħī åŃĲ
çİĩ è¾¾åĪ°
äºĮåįģ ä¹Ŀå¹´
çĲĥéĺŁ åľ¨
æľĢä½³ çļĦ
å¤º åĽŀ
ç¯® ç½ĳ
åĩĿ ç»ĵ
æĢ§è´¨ çļĦ
åºŁå¼ĥ çī©
æľī éĴ±
å¥¹ è¿ĺ
éĥ¨åĪĨ ç»ĦæĪĲ
æ¡¥ å¤´
åĨ³å®ļ å°Ĩ
çº¬ åº¦
è¶ģ æľº
æĺ¯ æĿ¥èĩª
åĮº éķ¿
ä½Ĩ å¯¹äºİ
çĿĢ ä¸Ģä¸ª
å¼Ģåıĳ åĩº
ä¸´åºĬ è¡¨çİ°
æ¼Ĥ æµ®
You Tube
S uper
çļĦ ä¿¡
ä¸Ĭ åı¤
å®ī å±ħ
éĴ ´
ç±» ä¸ĵä¸ļ
åĥ ĸ
éļı ç¬Ķ
åİĤ åĮº
æĭħä»» è¿ĩ
æ½ľ ä¼ı
ĠG u
æįķ é±¼
è¸¢ çĲĥ
åĩ¹ éĻ·
æľŃ å¹Į
åŃ¦ åºľ
æ² ±
ä¹ĭ çī©
ä¹ĭ æ¯į
è¯¥ ç»Ħç»ĩ
çŁ¥ æĻĵ
ç©º æł¼
ä»· éĴ±
ç»Ń èĪª
åįı å¥ıæĽ²
æıĲä¾Ľ äºĨä¸Ģä¸ª
ä½ľåĵģ å±ķ
å®½ çļĦ
éº¦ å½ĵ
åĪĽåĬŀ äºĨ
æģ° å¥½
æĸ¯æ´Ľ ä¼Ĳåħĭ
X box
åħ¨ ä¼ļ
ä¸ĵ éķ¿
åıĺ æĢģ
ç»Ļ åŃ©åŃĲ
é»Ħ æµ·
16 2
çıŃ éķ¿
id ae
æ²§ æ¡ĳ
ãĢīãĢģ ãĢĪ
ä¸İ éĺ¿
ç«Ļ åĴĮ
åįķ æľº
æĿ¾ å¼Ľ
äº¿ æ¬§åħĥ
ĠA ward
æĸ° åŀĭçļĦ
çĶµ çĥŃ
åįĹ å®ī
é» ¯
è¿ŀ çº¿
åİĨåı² å»ºçŃĳ
çĶ² éĨĩ
æĪ´ å°Ķ
æľĢå¤§ åĮĸ
äºº æµģ
ä¸Ĭ è¿Ľè¡Į
è¡Į åĨĽ
æľĪ åĪ°
ä¸ĭ åŀĤ
æĪĳ çĽ¸ä¿¡
å±± ä¹ĭ
å¸¸ æ¸©
æķ´ å¤©
çĮ ķ
é³ Ĺ
åıĳè¡Į äºĨ
ä¸¥éĩį å½±åĵį
èĤ¡ä»½ åĪ¶
éĻĦå±ŀ åĮ»éĻ¢
æĹłéĶ¡ å¸Ĥ
Ġ éĥŃ
æĶ Ĵ
åĲİ åı¯
é«ĺ åĥ§
åħĥ å®ĩå®Ļ
æŀĹ çļĦ
åĳ¨ è½¬
æķ´ ä¿®
è®¡åĪĴ äºİ
è¿½ å°ģ
ä»¥ä¸Ĭ åŃ¦åİĨ
åĩ¯ å°Ķ
ou d
Ġ çĶ°
æĺ¯ äººç±»
æĹ¥ éĹ´
æ¼Ķ ä¹ł
ä»¥ ä¸Ģ
åıĳ è§ī
åı¯ è°ĥ
è½¦ æ¬¡
ç±³ å¤Ħ
åıĤ ä¿Ŀ
èĬ± æľ¨
åĤ £
åŃĺåľ¨ çļĦéĹ®é¢ĺ
è¾ħ ä½Ĳ
å®Įæķ´ æĢ§
åĴ¸ éĺ³
æĳĦåĥı æľº
èĤ¾ä¸Ĭ èħº
Ġ Î
ä½į åĩºçīĪç¤¾
çģ« çļĦ
æ´»åĬ¨ åĴĮ
è¯Ĺ ä½ľ
åģı å¥½
åĽ½ ä¼ļè®®åĳĺ
å·ŀ åĴĮ
å¸ĥ è¾¾
ä»ĸä»¬ ä¼ļ
è½» åº¦
çĶŁçī© è´¨
ion s
èľĤ é¸Ł
è¯¾åłĤ æķĻåŃ¦
çļĦ æľªæĿ¥
æĸ° åı°å¸ģ
å®ĥ æĺ¯ä¸Ģç§į
åıĭ åĸĦ
èĥľ ä»»
çİ² çıĳ
ä»»æĦı çĲĥ
Ġ åħ¨
éĽ ī
æīĢ åĲ«
æĸ¯ å¤§æŀĹ
è½¦ åºĵ
åħĥ æĹ¦
æĦı æĮĩ
éª ĩ
æŃ¦ èŃ¦
åĩł åįģå¹´
åı¯èĥ½ ä¸İ
èİ·å¾Ĺ ç¬¬
20 30
åĩº æ²¡
æķĻ èģĮ
åħ¬åı¸ äº§åĵģ
åĲĦ è¡ĮåĲĦ
çĽ´ èĤł
åı¤ è£ħ
è¿ĳ äº²
è¯¾ å¤ĸ
ä¸ĢèĪ¬ è®¤ä¸º
çº¹ é¥°
çĩķ åŃĲ
æķ£çĥŃ åĻ¨
åĴĮ é»ĳ
ä¸į ç®Ĺ
éĥ½ ä¸İ
ç¼ İ
åįļ åŃ¦
çī¢ è®°
èľ¥ èľ´
çĮ© çĮ©
ä»£è¨Ģ äºº
ä¸º å¸Ī
äºĨ ä¸ª
åĩº éĻ¢
åı¯ä»¥ èİ·å¾Ĺ
å¯¼ ç®¡
å¾ģ è®¨
å¹´çļĦ åİĨåı²
åºı å¹ķ
çº¯ æĶ¶åħ¥
å¾Ĵ å¼Ł
æļĳ æľŁ
çļĦ ä¼ĺç§Ģ
çļĦ æĢ§è´¨
äº Ł
æľī å¦Ĥ
åĴĮ æİ§åĪ¶
æµ· ä¼¦
çĹħ åŃ¦
ä¿¡æģ¯ å®īåħ¨
å¡Ķ å°¼
éŁ³ä¹Ĳ åİħ
åıĳåĬ¨ æľºçļĦ
åĲı éĥ¨å°ļä¹¦
èģĮèĥ½ éĥ¨éĹ¨
å¦¨ ç¢į
ä¸Ń æĺ¯
ä¸į å¥½çļĦ
åıĳ èĬ½
ç§ĳ ä¸¾
å§ĭ åıĳ
è¡Ĺ çļĦ
ä½³ ç»©
éĢīæĭ© æĢ§
èĤī é£ŁæĢ§
çĴ Ģ
è¿ĩåİ» äºĨ
å¤ªéĺ³ ç³»
ç²® æ²¹
è¿Ļä¹Ī å¤ļ
éķ¿åº¦ ä¸º
æ°Ķè±¡ å±Ģ
æĶ¶ æĭ¾
ä½ķ ä»¥
ä½İ æĶ¶åħ¥
çĶŁæ´» åĴĮ
æ¹ĸ çķĶ
16 6
çľ¼ éĥ¨
æ¶² ä½į
æĢ§èĥ½ åĴĮ
éŃı æĻĭ
è´¢åĬ¡ ç®¡çĲĨ
ĠSt reet
è¸ı å®ŀ
çŃ¾ç½² äºĨ
çĪª åĵĩ
å·¥ åħļ
å¼Ģ åĩº
åĽĽ çº§
è§Ħ çŁ©
æĵ Ģ
âĢĶâĢĶ âĢĶâĢĶãĢĬ
çĨĶ å²©
æĭĺ çķĻ
çļĦ åĨĽäºĭ
ä¹ĭ æľ¬
ä¹ĭ å¦»
ä¸ľ èµ·
éĢī å®ļ
é¢Ĩ çķ¥
18 85
æŀ¶ ç©º
æ²ī éĻį
åĮĸåŃ¦ çī©è´¨
åĪĽéĢł åĬĽ
ä¼¸ å±ķ
åĽ½åĬ¡éĻ¢ æī¹åĩĨ
æķ² åĩº
å³¨ çľī
20 4
ä¹¦ ä¿¡
é©¬ éĵĥèĸ¯
æĭī èĦ±
åıĺ æĢ§
éĺ² éĶĪ
åıĮ éĿ¢
åĨł åĲį
èĪ¬ èĭ¥
æĢ¥ è¯Ĭ
åĪĽéĢł æĢ§
æµĭè¯ķ ä»ª
å¨ĺ å¨ĺ
æ¤Ń åľĨ
å·´æĭ¿ é©¬
ä¸Ģ çľ¼
åľ° è¿Ľè¡Į
å¹¶ åıĸå¾Ĺ
å±± æ²³
åħ³ æĿĳ
æŃ¤ æĹ¶çļĦ
èĢĥ çĤ¹
äºĨä¸Ģ ä½į
çº¸ ç®±
çĶŁåŃĺ äºİ
æİ§èĤ¡ æľīéĻĲåħ¬åı¸
åŁİéĻħ éĵģè·¯
åħĪå¤© æĢ§
åĴ İ
å¤Ħ å¢ĥ
æł¡ å¤ĸ
ä¹Ŀ ä¸ª
æ¼« æ¸¸
æ¼« éķ¿çļĦ
çģŃ èıĮ
éĩľ å±±
æľĢ åħĪè¿ĽçļĦ
èĪ µ
ç»Ħ åĽ¢
å¼ł å¤§
åĨĻ ä¿¡
éĩİ å¿ĥ
åħ±åĲĮ ä½ĵ
æĢĿæĥ³ çļĦ
è°ĭ æ±Ĥ
éĢĥ å¾Ģ
çĮķ çĮ´
P er
å¤ļ åľ¨
å¤© å¹³
åŁİ åĮĹ
åĬ© åŃ¦
ä¸Ńå¤® ç©ºè°ĥ
éº¦ åı¯
ä¸įä»ħ èĥ½
æĮĤ åľ¨
ä¼¸ åĩº
äºļåĪ©æ¡ĳ éĤ£
2 15
åľ¨ çİ°ä»£
éĩį å·¥
æīį çŁ¥éģĵ
åįĩ çıŃ
ä½įäºİ æľ¬åľ°åĮº
äºĨä¸Ģ é¡¹
é¡¾ åĲį
è£Ĥ çº¹
éĹ² ç½®
åľ¨ ä»»ä½ķ
åĴ Ĳ
ä»ĸ ä¸į
æľ¬ ç«ł
æ±Ł éĻµ
æ³¢ åĪ©
ãĢĤâĢĿ ï¼Ī
åĲī æĢĿ
åĶĲ çİĦå®Ĺ
äºĨä¸Ģ åĲį
çĽĨ æĻ¯
è£Ķ ç¾İåĽ½äºº
åĿł æ¯ģ
éķ° ä»ĵ
åı¯ æıĲä¾Ľ
åħ¶ ä½ľåĵģ
éĢļ åĳĬ
ç§ĳ æĸ¯
å¥³ åįķ
è´¢ åĽ¢
æ¢¦ è§ģ
as on
ç»ĺ åĽ¾
èİī èİİ
ä¿± åħ¨
æĸ°åĨł çĹħæ¯Ĵ
è´® èĹı
Ġ äºº
åĮ ®
ä¸Ĭ å¤©
è¥¿ çº¢æŁ¿
åıª ä¸º
æ£Ģ è®¨
åĨħå®¹ åĴĮ
èİ± æ¯Ķ
çĹī æĮĽ
åĲīéļĨ åĿ¡
z a
åľ¨ åħ¨
æĺ¯ ä¸Ń
æĹ¥ åĲĳ
éĿĴ èĽĻ
æľ¨ éĽķ
çĶĺ èĶĹ
æĶ¹éĿ© çļĦ
åĪĳ ç½ļ
æ»ĭ æ¶¦
Ġp ro
åįĥä¸ĩ ä¸įè¦ģ
ä½ĵç§¯ å°ı
éĹ¯ åħ¥
éģ´ éĢī
çļĦ åį±éĻ©
æľī å£°
åįĹ å²¸
å¼Ģå§ĭ æĹ¶
ĠT V
æİĴåĲį ç¬¬ä¸Ģ
ov er
åĿŁ å¢ĵ
æķ£éªĳ å¸¸ä¾į
I ON
çļĦ åĬ¨çī©
æľī çļĦäºº
äºĨ å¥¹
èĢĮ ä½¿
èĢĮ æ²¡æľī
åħ³ ç¾½
åĮĹ ä¸ľ
æĺİ æĻº
æķħ éĩĮ
åĪĩ å¼Ģ
å¿µ ä½Ľ
å¾ģ åľ°
çĥ§ ç»ĵ
ç¥Ń åı¸
Ġ çĶ±äºİ
å¤ļ å¹³æĸ¹ç±³
éĶ Ń
å½ĵ å½Ĵ
æķ° æľĪ
æį® ä»ĭç»į
é¢Ĩ æĤŁ
14 6
ä¹° åĪ°
åĨłåĨĽ èµĽ
çļĦ æĶ»åĩ»
çļĦ åĲįä¹ī
å¹´ åİ»ä¸ĸ
ä¸» è½´
å¤´ éª¨
å®¢ æłĪ
æĸĹ å£«
åīĤ åĴĮ
ç¬¬ä¸ĥ å±Ĭ
U P
åĪĨ åĩº
äºĮ æ®µ
éĽĨ æķ°
æļ ¹
éĩĬ åĩº
ĠO ne
ĠIn d
åº¶ åĲīå£«
çļĦ çĭ¬çī¹
å½ĵ åģļ
çĻ½ éĽª
çľĭ ä¸įè§ģ
äº« åıĹåĪ°
æłı æĿĨ
åįģåĽĽ æĿ¡
Ġ åį·
åľ° éģĵ
çŃī è®¾æĸ½
åıĬ åĲĦç§į
åĸ Ķ
åıĸ åĲĳ
è½» è½¨
å»ºç«ĭ åľ¨
èĨľ çļĦ
åı¦å¤ĸ ä¸Ģä¸ª
çĥĺ çĦĻ
æ¬º è¯Ī
I s
å¹´ éķ¿
çŃī ä¸ļåĬ¡
é©¬ å°¼
ãĥ į
ãĢį ï¼Ľ
çº¢ çĻ½
åĿĩ ä»¥
åħµ åºĵ
æķ£ å°Ħ
æ¯Ķè¾ĥ å¤§
ç½ª è¡Į
æģĲ æħĮ
æĺİç¡® æıĲåĩº
å¸ĮèħĬ è¯Ń
åĽł åľ¨
å·´ éĩĮ
çº¢ èĸ¯
æŃ¦ çİĭ
æĸŃ éĿ¢
æĳĦ åĪ¶
åĩ¡ æĺ¯
æİ¨åĬ¨ äºĨ
ä¾Ŀèµĸ äºİ
éķ Ĥ
åı¯ ä¿¡
è¥¿ è¾¹
å¤© ä¸»
éĩĳ é¾Ļ
çĤ¹ å¿ĥ
æĪĳä»¬ æĺ¯
å»ºè®¾ ä¸Ń
âĢĿãĢĤ ãĢĬ
æĬ¥åĳĬ ä¸Ń
å®ĪéĹ¨ åĳĺ
çļĦ çļĦ
å¾ Ĭ
æĹ¥ å®£å¸ĥ
åĬł åĨķ
å®ŀ ä¸º
çĸ Ŀ
é£İ åĲĳ
éĩĩ æĶ¶
çĿ£ å¯Ł
åĢį æ¶²
4 20
ä¸º æķ°
å¤§ æ±Ł
çĶ¨ èĩªå·±çļĦ
æµ· è±ļ
å®ĥ å°Ĩ
å¤į åı¤
å¤± æİ§
åĲī çĶ°
ä¸İ çłĶç©¶
ä½¿ å¾Ĵ
çĿ «
ä½Ĩ åıĪ
çİ¯ çĬ¶
èħ ±
åıį è½¬
èĳ± èĬ±
é©° åĲį
ä¸Ģ æĸ°
åľ¨ å¹¿å·ŀ
è¡Į éķ¿
å°ı äºº
æĪĺ å¹³
ä¸¤ åįĥ
éĤ£ æĹ¶åĢĻ
çĽĬ æ°Ķ
å¢ĥåĨħ åħ±æľī
åĲĳ éĩı
æĢ» éĺŁ
æĭ¥ æĬ¤
å¦ĩ äº§ç§ĳ
åįłé¢Ĩ äºĨ
ä¸Ĭ åĳ¨
çŃī è¿Ľè¡Į
éĢģ åħ¥
çıį åĵģ
è¾¨ è¯ģ
åģĩéĿ¢ éªĳå£«
éķ Į
ä¸ī èĢħ
åıį åıĽ
æī¿ ç§Ł
17 8
åºķ çļĦ
çıį ç¨Ģ
ç»ħ å£«
æĬ«éĴĪ å½¢
ä»¥ å¤§
å¤ļ åįĬ
ä¹Ł ä»İ
åĬŁ ç»©
ç²¾ åĪ¶
çŃĸ éªĳ
ç¬¬ä¸ī çĻ¾
æĿĤ èįī
æľīä¸Ģ çĤ¹
çİ© ç¬ĳ
æĮĳæĪĺ èµĽ
é«ĺè´¨éĩı çļĦ
é³Ħ é±¼
B o
Ġ on
çļĦ ç§°åı·
æĪĳ è¿ĺ
åı² åīį
éĿĴ äºĳ
äººæ°ĳ åĩºçīĪç¤¾
è¿ĲåĬ¨ åľº
è½¦ç«Ļ åĳ¨è¾¹
åı°æ¹¾ çļĦ
éĽ¶ é£Ł
çĪ¶æ¯į çļĦ
ç¥Ī æ±Ĥ
è¶³åįı æĿ¯
æŃ¼ çģŃ
æĹ¶ éĴŁ
å¹³ åľ°
ç½Ĺ åħ°
éĿĴ æ¢ħ
å¯Ĩ æŃĩ
åįģäºĮ äºĶ
åıįåºĶ åłĨ
çªĹ å¸ĺ
èģĶåĲĪåĽ½æķĻç§ĳæĸĩ ç»Ħç»ĩ
G S
Ġ 1993
ä¹ĭ å¼Ł
éĢļ è·¯
éĩĳ åŁİ
åĨĽ éĺĢ
åĲĦ æł·
åıĳå±ķ æĸ¹åĲĳ
çº¦ æĹ¦
èĢģ é¾Ħ
èĪª æ¯į
23 5
éĢĢ ä¼į
ä¿ĥ æĪĲ
ä¸Ģä¸ĭ åŃĲ
èĻĲ å¾ħ
ç¾¡ æħķ
ï¼Īï¼Ł âĢĶ
W S
æ¶ ª
æĹł æ±¡æŁĵ
èİ· åĽ½å®¶
çĹħ èıĮ
ä½ł ä»¬çļĦ
è´Łè´£ ç®¡çĲĨ
éĽª èĬ±
éĢĥ åĩº
ãİ¡ ï¼Į
è¿Ļ åıª
æĸĩ åįİ
å°± å°Ĩ
æĮģ èĬĤ
åı² ä¹¦
é»Ħ èĬ
ä½ķ ç§į
çº¢ æĸĳ
åİĭ æĬĳ
åĮ Ŀ
å£ ĳ
éĢł æŀĹ
è¿ľ å¤Ħ
æ°¸ ç»Ń
æķ£ æŃ¥
ĠW h
è¿Ī åĲĳ
æĢ§ æĦŁ
æ°ĳ ç±į
æ¼« æŃ¥
æ±¡æŁĵ éĺ²æ²»
æĭīèĦ± ç»´äºļ
å¯ĨæŃĩ æł¹
D on
çļĦ ä»ĭç»į
ä½ Ł
éĺ ĳ
çŃī å¤§åŀĭ
æĸĩ çİĭ
ä¸ī åĽĽ
å¾Ĺ ä¸Ĭ
å¾· æ¯Ķ
æ¸ħ åº·çĨĻ
ç»Ĩ åĮĸ
æł¸ å®ļ
éŁ³ä¹Ĳ ä½ľåĵģ
ç¼ĺ åħ³ç³»
ä¸İ å¼ł
æľĢ ç¾İ
å°± ä¸įèĥ½
è¢« åĪ¤
æİ¨ åĬĽ
æ¯į åħ¬åı¸
çī§ åĮº
åĪĽå»º äºĨ
èºº åľ¨
åĴ ¯
å¯¹ èģĶ
çŃī èį£èªīç§°åı·
ç»Ł å¸ħ
é£İ æ³¢
åĪĻ è®¤ä¸º
çĶŁäº§ æĬĢæľ¯
éħĴ åºĦ
åį« æĸ¯
åį° åľ°
å¿µ å¤´
è½½ äºº
å°Ħ é¢ĳ
æ·® å®ī
8 50
Ġ Qu
åĴĮ ç»´æĬ¤
è¦ģ ä»İ
å®ŀ æķĪ
ç®¡ è·¯
é©¬ æŀĹ
çĽ´ è¨Ģ
æķĻèĤ² åŃ¦
åĩł åįĥ
ç¬¬äºĮ æī¹
14 7
ä¸Ģå®ļ æĺ¯
çĮ´ åŃĲ
åĽ½èµĦ å§Ķ
çİĽæł¼ä¸½ çī¹
Ġ çº¦ç¿°
åĪĨ æľŁ
åħ¨ å¿ĥ
éĢļ èĪª
åıĹ è¿ĩ
æ±Ł æ·®
å¹² çļĦ
åľ°åĮº ä¸ºä¸Ģ
æľ¨ æĺŁ
å¡ŀ æĭī
è¯¸ åĨĽäºĭ
åī¯ä¸»ä»» åĮ»å¸Ī
åİ¦éĹ¨ å¸Ĥ
æľĿéĺ³ åĮº
aur us
æĺİ åı²
ä¹¦ å±Ģ
åı¯ä»¥ è¿Ľè¡Į
æĢ» åĪĨ
ä½įäºİ ä¸Ńåįİäººæ°ĳåħ±åĴĮåĽ½
14 1
éĽĦ åİļçļĦ
å®½ å¹¿
åľ°ä¸ĭ å®¤
åĲĪå¹¶ èĢĮæĪĲ
æľīæīĢ å¸®åĬ©
if ic
åħ¶æ¬¡ æĺ¯
åª³ å¦ĩ
åĴĮ çİ¯å¢ĥ
æľ¬ æĿ¡ä¾ĭ
è¿Ľ æ·±
ä¹Ł åĽłä¸º
çĪ± ä¸½ä¸Ŀ
æ·± åĬłå·¥
è§ī éĨĴ
åĪĨæŀĲ äºĨ
å¢ĵ ç¢ĳ
çĥŃå¸¦ é£İæļ´
ä¸įçŁ¥ ä¸įè§ī
çīŁ å°¼
å¹´ æ¯ķä¸ļ
ç¨ ¼
å¾Ĺ åħ¶
éģĵ äºº
äºĮ åº¦
å¸ĥ éĩĮæĸ¯
è¾¾ å·ŀ
æį® ç»Łè®¡
è¯Ħ è®®
äºī çĽ¸
ç«¯ åįĪ
çİī çŁ³
åĪĨåĪ« äºİ
æĥł æ°ĳ
ä¸ªæľĪ åĲİ
è§£æĶ¾ åĲİ
åĲįäºº åłĤ
åĲ» åĲĪ
åĬł çī¹
ä»£ ä¹ĭ
åı· åľ¨
åı¤ æĸĩ
çŁ¿ åĮº
çŁ¥è¯Ĩ çĤ¹
èĵ¬ èİ±
G E
Ï ĥ
çĶµ è®¯
æ°´ åĬĽ
æĹł èģĬ
åĲĦ å®¶
æł¡ æŃ£
èĢģ çĪ·
åĪĺ å®¶
æ±½ è½¦ç«Ļ
æ¯Ķè¾ĥ å¤ļ
è°Ī åıĬ
æĪĴ æĮĩ
å·« å¸Ī
Ġ å¹³
çļĦ æĢ§æł¼
åīį åįģ
å¹¶ åħ·æľī
äºĶ æĺŁ
æīĵ ä¸ĭ
æŃ¦ åĬĽ
ç¦ı åħĭ
çļĩ çĶ«
éĻĨ ä¸Ĭ
æ³° å®ī
èģĶç³» æĸ¹å¼ı
f er
Ġ æ¬§æ´²
æĢ ¯
å¤© çľŁ
åŃ¦æł¡ åĴĮ
èĪ° éķ¿
ç¡¬ è´¨
çģ¾ åĮº
æ¡£æ¡Ī é¦Ĩ
æĮ½ åĽŀ
== ==
ä¸Ŀç»¸ ä¹ĭè·¯
æĺİæ²»ä¸īåįģ åĽĽå¹´
é¡¾åĲį æĢĿä¹ī
åŁº çŁ³
éŁ³ åĥı
ç½® ä¸ļ
æ¨¡ ç»Ħ
åŃĺ çļĦ
æ¦ »
éĿĴå¹´ æķĻå¸Ī
ãĥ© ãĤ¤
è¿Ń ä»£
åĽļ ç¦ģ
p lay
åĽĽ æĿ¡
äº¤ åıĭ
çĶ² æĿ¿
ç§» èĩ³
åĭĩ èĢħ
åĵ Ĺ
å¤© ç¥ŀ
çº¦ åľ¨
æ±Ł æ²³
ç´ł æıı
åĽ½éĻħ æłĩåĩĨ
éĴ± å¡ĺ
ä¸ļåĬ¡ èĮĥåĽ´
è®¢ ç«ĭ
æĪĺçķ¥ æĢ§
æŁ³ å·ŀ
ç¥Ŀ æĦ¿
åĩºåľŁ çļĦ
å¶ ĭ
ä¸Ģ åĵģ
ä¸º åįķ
ä¸Ĭ åı°
æĿ¥ å¾Ĺ
åıį æ´¾
çĶµè§Ĩ è¿ŀç»Ńåī§
è¡ĮæĶ¿ éķ¿å®ĺ
å¿ł ä¹ī
åħįè´¹ çļĦ
å¤§çº¦ æľī
ĠIn ternational
è¾ĥä½İ çļĦ
Ġ åĲİ
Ġ 1992
çļ Ī
å¾ ĺ
ä¸ī ä¸Ģ
åķĨ çļĦ
æĿĳ æĶ¹åĪ¶ä¸º
çĢ ¬
æĭ §
å¥³ ä¼ĺ
è§Ĥ æĻ¯
éĿŀå¸¸ æľī
åģľ äº§
æĭ¿ èµ·
it a
æ³Ľ æĮĩ
å¤§çº¦ åľ¨
æ¸Ķ èĪ¹
æĭĸ æĭī
å¹¶æŃ¢äºİ çľģéģĵåı°
ä¹ĭ åĬŁ
åĨħ è¡£
åıĤ æĪĺ
å¤ª ä»Ĩ
äº§åĵģ çłĶåıĳ
åį³ ä»Ĭ
ä¸Ńå¿ĥ ä¸»ä»»
å·¥ç¨ĭ è´¨éĩı
å®£ å¸Ŀ
ä¼¯ æĺİ
èĻ½çĦ¶ æĺ¯
å½ĵåľ° å±ħæ°ĳ
èµŀ æĪĲ
çļ®èĤ¤ çļĦ
éĴĪå¯¹ æĢ§çļĦ
ä¸ªæĿĳæ°ĳ å°ıç»Ħ
èĶ· èĸĩ
é Ĭ
è¦ģ çŁ¥éģĵ
è¿Ļ å¯¹äºİ
ä½ĵ èī²
ä¸ĩ è±¡
15 1
ä¸Ķ æľī
ä¼ĺç§Ģ è®ºæĸĩ
è¯Ńè¨Ģ åŃ¦
èħĲ çĥĤ
çļĦä¸»è¦ģ åİŁåĽł
ä¹ĭ æŃ»
ä¸ĭ å±±
å¾Ĺ ç¥¨
éĴ Ĭ
æł¼ çº³
çİ¯ åį«
åĪĻ äºİ
ç»¼åĲĪ ç´łè´¨
å¸ĮæľĽ éĢļè¿ĩ
å¿ł å®ŀ
æ·ĩ æ·ĭ
å¹´ ä¹ĭåĲİ
åĴĮ åĲİ
æĪĲ ä¹¦
æľ¬ çĶ°
çĶ° éĩİ
å§Ķåĳĺä¼ļ ä¸»ä»»
åĽ¢éĺŁ çļĦ
æĶ¶çĽĬ çİĩ
N E
ä»ĸ å¼Ģå§ĭ
æĸ° ä»»
å¹¶ è¡¨ç¤º
ä¸ľ åįİ
æµ· æ£ł
18 84
äº§åĵģ è®¾è®¡
åıĬæĹ¶ çļĦ
ç¦ħ å®Ĺ
æĸ¯ç§ĳ çī¹
æ¹Ľ æ±Ł
Ġ å®ĭ
åĽ½ åĲĽ
å¼ı ä¸º
äºļ åĨł
åħŃ çĶ²
å¥Ī ä½ķ
In t
å¼łå®¶ çķĮ
åĽ½ åĢº
è¢« æīĵ
éĴ Ĺ
åºĶçĶ¨ é¢ĨåŁŁ
ĠAn d
çĤĢ å¸Ŀ
Ġ åĨłåĨĽ
åĴĮ åľ£
ä¸į å¿ħè¦ģçļĦ
çĶ¨ æĸĻ
æīĺ åĭĴ
ä¸° æ»¡
æĴĴ ä¸Ĭ
å®ī æıĲ
æŃ£ ä¸Ń
ä¹ī è¯į
äº² æīĭ
å¿Ĺ æĺİ
éĢģ èĩ³
ç¯ĩ è®ºæĸĩ
é²ľ åįĳ
å®ŀéĻħ çļĦ
çŁ¥éģĵ äºĨ
ä¸ĵå®¶ åŃ¦èĢħ
æģ° æģ°
çī² çķľ
å¡ŀæĭľ çĸĨ
åĴĮ M
è¿Ļ è¾¹
æĹł åģ¿
è®© çĶ¨æĪ·
é»Ħ æĹĹ
16 9
å·¥ä¸ļ çĶŁäº§
éª¨ ç§ĳ
ä»Ĭå¹´ ä»¥æĿ¥
åıªèĥ½ åľ¨
ç§Ĵ éĴŁ
ä¸Ńèį¯ æĿĲ
åħĭéĩĮæĸ¯ èĴĤå®ī
Ø ¨
ä¸ī æĸ¹
ä¸¤ æĹģ
æĬĢæľ¯ çłĶç©¶
èīº æĸĩ
äººåĳĺ åľ¨
è´Ŀ åĪ©
éªĳå£« åĽ¢
åİĮ æģ¶
ä¸º é«ĺ
ä¸Ĭ ä¸İ
éĹ´ æŃĩ
éĢļ è´§
çĥŃ æ½®
åĲ¬ è§ī
è·³ æ°´
T om
åľ¨ ä»»
è´ °
æİ¥ è½¨
æĪĳä»¬ å¿ħé¡»
ä¸»è¦ģ äººçī©
æ¯Ķè¾ĥ é«ĺ
åĩ¯ æĹĭ
åĪĽéĢł çļĦ
æĥĬ æĤļ
æ³³ æ±ł
å±±æ°´ çĶ»
æµ· è¾¹
éĻ¢ èĲ½
é»Ħ èľĤ
å¸Ĥåľº ä¸Ń
è¯Ŀ è¯Ń
éĽĨåĽ¢ æĹĹä¸ĭ
å¯º åį¿
å¡ĳ åĥı
çİĽ åĪ©äºļ
ç¢³ æ°´
âĺħ âĺħ
å®¹ç§¯ çİĩ
å¤§ è±¡
ä¹Ł å¥½
åĽŀ èĲ½
ä¸»è¦ģ æ¼Ķåĳĺ
çģ« çĥŃ
ä¸ĥ å¤§
èŀ Ĥ
25 6
éĥĳ åĽ½
ev el
æ¼Ĥäº® çļĦ
E m
Ġ åĶĲ
äºº æĦı
åĽ½ åĨĽ
åĴĮ æĸ¹æ³ķ
20 7
èĪ ·
é¾Ļ å²Ĺ
æĻ® éĻĢ
14 3
åģľ çķĻåľ¨
åĨ² æ³¡
è¡¡ æ°´
æ»´ æ»´
æĴŀåĩ» åĿĳ
ä¸ºä»£è¡¨ çļĦ
S u
çļĦ è¶ĭåĬ¿
å¹´ æľŁ
ä¹ĭ äºī
æ³ķ çĶ²
æķĻ ä¹¦
èµ· åĬ¨
èĲ¥ åķĨ
ãģ µ
18 86
ä¿ĿæĬ¤ çļĦ
........ ........
èŃ¬ å¦Ĥ
ä¸İ ä½ł
ä¸ĭ æ²ī
å°ı éĺŁ
ä¸ľ éĥ¨çļĦ
åŀ ®
å¸¸ æķ°
èĬ± éĴ±
è¿ĳ ä¹İ
æĻ¯ æ³°
åį« æµ´
éĹ®é¢ĺ æĺ¯
æ¶² çļĦ
è´µ å®¾
èı² äºļ
å±ı ä¸ľ
å¹¿æĴŃ çĶµè§Ĩåı°
çĬ¯ç½ª çļĦ
ç¾Ł åŁº
i P
Ġ åĨħ
è¿Ľ æ°Ķ
èĬ ¡
å¾· å®Ĺ
æµģ è½¬
18 93
éĺ¿ åŁº
ä¹¡ åľŁ
è¹ ¦
å¹´ èĢĥåħ¥
äºĨ è¿Ļä¸Ģ
åīį æľī
åħī å½©
æĿĢ éĿĴ
ä¸įæĺ¯ å¾Ī
èĬ į
ç§ĳ åįı
éĢģ ä¸Ĭ
å·¨ é¢Ŀ
äº¤æĺĵ å¹³åı°
ç¨İåĬ¡ å±Ģ
æµģåŁŁ éĿ¢ç§¯
ç¥· åĳĬ
è·» èº«
å¤§ å±Ģ
åĽ½ è¶³
å¼Ģ æĮĸ
æĸĩ ç§ĳ
èį ļ
æĺİ ç»Ĩ
çħ ¸
çīĪ åĿĹ
æĸĩåĮĸ ä¸İ
åĿļ æŀľ
ä¹° äºĨ
æĳ© å¤©
éŃĶ æĪĴ
æ²ĥ å°Ķå¤«
é¦ĸåħĪ æĺ¯
æľīäºº è¯´
æİ© çĽĸ
D B
Ç İ
ä¸į åĴĮ
ä¸į åıª
ä¸į è®¸
æľ¬ ä¼ļ
æ¯Ķ åħ¶ä»ĸ
éĤ ķ
çĽ´ éĶĢ
18 91
éĺ¿ æĭīæĸ¯
ç¦» éĺŁ
è¿ľ æĸ¹
é£ŀ éĢŁ
åıĳçİ° æľī
èİ± æĺĤ
åįıä¼ļ çļĦ
ç§»åĬ¨ äºĴèģĶç½ĳ
ç¨» çĶ°
åĬĿ è¯´
æĴ°åĨĻ çļĦ
çĻ¾ç§ĳ åħ¨ä¹¦
Ġ 1990
éĽĨ æķ£
æ·± æĥħ
ä¼¤ åĬ¿
èĩªçĦ¶ çİ¯å¢ĥ
å¿ħé¡» æĺ¯
çº¸ å¸ģ
æ½ľ åħ¥
è¿Ľä¸ĢæŃ¥ çļĦ
å±¯ éĹ¨
é«ĺéĽĦ å¸Ĥ
æ¾İ æ¹ĸ
h u
Ġ æ±Ł
ä¸º å®ľ
æ´ Ļ
ä¸ī æ±Ł
å¼ķ æ°´
çĶ· å£«
å°½ å¤´
éĢļå¸¸ ä¸º
å¸¸è§ģ äºİ
ä¸´åºĬ ä¸Ĭ
åįľ æĿľ
èİ±æ¯Ķ éĶ¡
ä¸į è®¾
å¸¸ çĶ¨äºİ
åĽ½éĻħ ç±³åħ°
çĶ² å£³
æĿĢ èĻ«
åĬŁèĥ½ æĢ§
ĠA m
åħĪè¿Ľ æ°´å¹³
åĵŃ æ³£
Ġ åħ«
çŃī å½¢å¼ı
èĮ ģ
åıĳå±ķ æĪĲ
èı ı
ç¬¬ä¸Ģ å¤§
ç¬¬ä¸Ģ æŃ¥
å®ĺ åºľ
åī¯ å¤Ħéķ¿
éĻį æ°´éĩı
æĿ¨ æ¢ħ
åĲİæĿ¥ åıĪ
åĪĳ èŃ¦
æĭĵ æīĳ
æ£Ĵ éĺŁ
ç§ĺä¹¦ å¤Ħ
å¼ĢåĪĽ äºĨ
åľ¨ ç»ıè¿ĩ
åĩº åĲį
ä¹ĭ ä½į
åħ¨ èģĮ
èĭ± æīį
æĺĵ çĩĥ
ç¼ĸ å®¡
å¥¹ ä»¬çļĦ
ä¸ĵä¸ļ äººåĳĺ
14 2
å¥Ĺ é¤Ĳ
æĹ¥åĨħ çĵ¦
Ġ éŁ©
ä¹Ł ä¸įè¦ģ
éĥ½ ä¸º
éĺŁ åı²
é¾Ļ åĩ¤
çİĩ éĥ¨
å¤« çļĦ
ic an
åĪº ç»£
ç»Ħå»º äºĨ
N H
å¹´ éĢļè¿ĩ
éĩĮ çº¦
æĢ» ä¹¦è®°
äºĶ åĽĽ
ãĥ Ħ
éĻĲ æľŁ
ä»ĸçļĦ åĦ¿åŃĲ
é¡¿ æĹ¶
çĽĹ çªĥ
å°¤æĸĩ åĽ¾æĸ¯
O P
å¸¸ çĨŁ
ä½Ĩ éļıçĿĢ
çľĭ çļĦ
åĳĬ ç»Ī
ä¸¥ å¯Ĩ
åħ¼ å¤ĩ
Ð¾Ð ¼
åĸĩ åĺĽ
2 18
z e
ä¸Ń å¤©
æľĪ çĶ±
å®ŀ è¯ģ
å¿ĥ çĹħ
å¼ı åĴĮ
æºĲ æµģ
å¸¦ éĺŁ
ä½¿çĶ¨ æĸ¹æ³ķ
éĺ¿ åį¡
ä¸įå¾Ĺ è¶ħè¿ĩ
å®ª å®Ĺ
ç¨Ģ å°ĳ
ï¼ī ,
ä¸ī çĤ¹
æ°ĳ æ³ķ
èį ŀ
åŁİ ä¸ľ
å·¥ä½ľ ä¼ļè®®
æĪĳä»¬ æľī
ä¸»è¦ģ ç»ıèĲ¥
er r
åľ°åĮº åĴĮ
åĩı éĢĢ
æ²ī éĩį
åľŁåľ° ä½¿çĶ¨æĿĥ
æĶ¯ä»ĺ å®Ŀ
ä»¥æŃ¤ ä¸º
èĵ¬åĭĥ åıĳå±ķ
Ġ åĮĹäº¬
è¿Ļ ä¸īä¸ª
æ· ŀ
ç»ĵ å®ŀ
åĲĳ ä¸ĬçļĦ
åİ¿ åĴĮ
åĽ½å®¶ èĩªçĦ¶ç§ĳåŃ¦åŁºéĩĳ
å®īåħ¨ ç®¡çĲĨ
æĥħåĨµ è¿Ľè¡Į
åĽº çĦ¶
äºĨè§£ äºĨ
T H
èĥ½ æľīæķĪ
å°Ĩ èĩªå·±çļĦ
æ¯ı ç§į
åħ¶ä¸Ń ä»¥
è½® æ¤ħ
åĲ¸ å°ĺ
æıĲé«ĺ åĪ°
åĬ¨çĶ» çĶµå½±
æĭ¼ æİ¥
åĩ½ æİĪ
æ·® æ²³
åĩ¯çĳŁ çĲ³
% ï½ŀ
D J
ä¸ī åº§
é£ŀ å¤©
ä¸´ æµ·
è¯¯ åĮº
ç©Ĩ å°Ķ
å°¤åħ¶ åľ¨
åĩºæĿ¥ äºĨ
Ġ ä½ľæĽ²
åĨ Ĺ
åŃ¦ ä¸İ
çī¹ åĬ¡
éļ ½
åĽŀ æµģ
å¤´ è§Ĵ
æŃ¥ æŃ¥
å®½ å®¹
é¤Ĳ åħ·
éº» å°Ĩ
ä»Ļ å¢ĥ
æĤł æĤł
æ¯ħ çĦ¶
è¯¥åºĦ éļ¶å±ŀäºİ
Ì ģ
Ġ ;
Ġ æł¹æį®
çļĦ æĸĩåŃĹ
ä¸ª æĿĳ
å¿ĥ çĽ®
æľŁ æĿĥ
ç±³ æĭī
ç»ıæµİ åĪ©çĶ¨
èĩªçĦ¶ çķĮ
ä¹Ļ çº§èģĶèµĽ
é¹¿ åĦ¿å²Ľ
P ar
o int
ãĢĤ ï¼Į
æĸ Ľ
çī¹ å¾ĭ
èĭ± å®Ĺ
è½¬ å¼¯
åĨį æĿ¥
æĸĩåĮĸ äº§ä¸ļ
å®ŀéĻħ è¡ĮåĬ¨
ä½ĵèĤ² è¿ĲåĬ¨
ä¸ĩåħĥ äººæ°ĳå¸ģ
åįłæľī çİĩ
å½±è¯Ħ äºº
çļĦ M
æĺ¯ æĪĳä»¬çļĦ
âĢĿ ï¼ģ
ä¸İ è¥¿
æľ¬ æĺ¯
è· ¤
åĽĽ åĨĽ
åı¯ä»¥ çĶ¨æĿ¥
ç¥ŀ çģµ
é² ·
èĤ¿ èĥĢ
æĭīä¸ģ ç¾İæ´²
å¾ĺ å¾Ĭ
r ich
æĹ¥ åĩºçĶŁ
æµ· åķ¸
å¥½ æľĭåıĭ
ä¹¦ çĽ®
æ±Ĥ åĬ©
å¤´ çĲĥ
æĬĢæľ¯ æĶ¯æĮģ
å© ¢
æ´Ľ éĺ³å¸Ĥ
è®² è°Ī
æĿĤ çī©
èĬĤèĥ½ åĩıæİĴ
åįĹ è¾¹
æĹł ä»»ä½ķ
æīĵ åĬ¨
åħ¨åĽ½ çļĦ
éĿŀå¸¸ éĢĤåĲĪ
èĭ±åĽ½ äºº
è¡¨çİ° äºĨ
èĦī ç»ľ
Ð° ÑĢ
å¿§ èĻĳ
åįģäºĶ æĿ¡
éģ¥ æĦŁ
Ġ å¥³
çļĦ åı¦ä¸Ģ
çļĦ ä¹łæĥ¯
åº ł
åĪĨ éĺŁ
åĨħ èĨľ
å¤ĩ æĪĺ
ä¾¿ æ°ĳ
åį« éĹ¨
ä½ľä¸º ä¸ŃåĽ½
ç»Ħç»ĩ éĥ¨
éģĹ çī©
éĤ® å¯Ħ
ä¿ĥè¿Ľ ä¼ļ
éŀĭ åŃĲ
ä½¿çĶ¨å¯¿åĳ½ éķ¿
åħ¬ æĺł
ç¥ ī
æķ° ä¸ĩ
æĬĢ å·¥
ä¸¤ åĿĹ
åĶ ¾
åıĳå±ķ åİĨç¨ĭ
æĽ¾ åıĤä¸İ
çĽĽ äº§
å¦Ĥä½ķ åľ¨
é¦ĸæ¬¡ åľ¨
å¹´ æľī
ä»ĸ ä¹Łæĺ¯
é«ĺ æķĪçİĩ
åħ¥ åħļ
æĹł ä¸º
èī² æĥħ
å¢ŀ äº§
äº¬ åħĨ
æĽ¾ ç¥ĸçĪ¶
çĦ¶èĢĮ åľ¨
ç»¿èī² çļĦ
ä¸ªæľĪ åĨħ
Ġ ä¸ĭ
æĸ° çīĪ
åħī åįİ
åı² ä»¥æĿ¥
æİ¢ å¯»
ä»ĭç»į ä¸Ģä¸ĭ
çĴ ŀ
è·ĳ åĪ°
é¼İ çĽĽ
æĿĢæŃ» äºĨ
âĪ Ĵ
H y
çł ¥
å°± è¡Į
åıĤ äºĪ
ä¸»è¦ģ åĨħå®¹
åį¡ æĻ®
æľīéĻĲåħ¬åı¸ æĺ¯
çĺ «çĹ
åįĸ ç»Ļ
ç»ıåİĨ è¿ĩ
å½°åĮĸ åİ¿
å«ī å¦Ĵ
ä¼ļ æĬĬ
åıĬ åºĶçĶ¨
çĹħ èĻ«å®³
èĭ± åĨł
åĳ¨ æģ©
æİĮ å£°
å°Ĭ ä¸¥
åĨĪ å±±
3 40
ä¸Ģ åı¥è¯Ŀ
èĢĮ èĩ³
æīĭ è¶³
åı¤ ç½Ĺé©¬
çı ª
çĪ± ä¸ģåł¡
åĩ» èĲ½
åī¯ äº§åĵģ
å®īåħ¨ åı¯éĿł
ç²ī çº¢èī²
ä¿Ħ æ¯Ķäºļ
å¸®åĬ© ä¼ģä¸ļ
åıĸæ¶Ī äºĨ
Ġ ë
æĸ° å®ī
èĢĮ ä¸İ
ä½Ĩ å½ĵ
å®ĥ è¢«
è®¸ æĺĮ
åĲ¬ éĹ»
å¸ĮæľĽ èĥ½å¤Ł
äººåı£ å¯Ĩåº¦
è¸ Ĭ
èĩ³ä»Ĭ ä»į
Ġd es
åĩºå¸Ń äºĨ
å¤ļ å±Ĥæ¬¡
è¿ĺ æ¬¾
èģĶ è½´
ç¼ĸ ä¸º
åį« å°ĨåĨĽ
è¡Įä¸ļ æłĩåĩĨ
ä¹° ä¸ĭ
èİ² åŃĲ
ä¸ĵéĹ¨ ä»İäºĭ
æĸĩ çĲĨ
ç«ĭ ä¸º
åı¯ä»¥ å®ŀçİ°
è¾¾ åħĭ
18 92
ä¿Ŀåģ¥ åĵģ
çŁŃæľŁ åĨħ
éĶ» éĢł
ä¸īåĪĨ çĲĥ
å¤§åŃĹ äº¦æĶ¹åĪ¶ä¸º
çĺ«çĹ ª
åľ¨ éĢīæĭ©
æĺ¯ ç§į
ä¸İ æ°´
çĶµ ç¦»
éĩį çĶ¨
åĲĳ è¥¿åĮĹ
æ¯ı éļĶ
an i
ä¹¡ çļĦ
æĶ¿åºľ åľ¨
é¢Ħ æľŁçļĦ
éļĲ çŀĴ
ĠD r
åŃ¤ ç«ĭ
åįĹæĺĮ å¸Ĥ
è¯įè¯Ń è§£éĩĬ
åĳµ æĬ¤
ä½Ľç½ĹéĩĮè¾¾ å·ŀ
åŁĥå¡ŀ ä¿Ħæ¯Ķäºļ
Ð ¿
å¤§ åĵ¥
ä¼ļ ä¸įä¼ļ
èĢĮ ä¸įèĥ½
åįĹ éĹ¨
ä¿Ŀ æ¹¿
æ¬¡ ä¼ļè®®
ä¸¤ æĶ¯
çļĦä¸Ģ æĶ¯
è±¡ çīĻ
èŀ ĥ
è§¦ è§Ĵ
æĪĲåĳĺ çļĦ
èķ Ļ
çĤ® å¡Ķ
èĴĻåı¤ æĹı
æİ¥è§¦ åĪ°
å¯¹è±¡ çļĦ
ï¼ļ ãĢĲ
è¿Ļ éĥ¨åĪĨ
è¢« ä¸ŃåĽ½
æ¬§ å¼ı
çĶµè§Ĩ æľº
è¿Ļä¸Ģ å¤©
èĭ¦ éļ¾
èĢĲ ä¹ħ
ç§ĳçłĶ æľºæŀĦ
è®¤è¯Ĩ äºĨ
åıĳæĺİ äºĨ
åħ¬äº¤ çº¿è·¯
B OSS
M ed
å¹´ äººåı£æĻ®æŁ¥
åħ¶ äºº
åŁİ æ±ł
è´¨ åŃĲ
è¿ĺ ä¸º
è± ī
éĹ® åĢĻ
åº· ä¹Ĳ
æ¹¾ ä»Ķ
åºĬ ä½į
èĥ¶ å¸¦
éĴ» äºķ
æĲŀ å¥½
ï¼ļ ãĢĤ
è¿ĩ å¹´
ä¸ī å®Ŀ
å¤ª é«ĺ
15 3
ç¬¬äºĮ éĥ¨
èĪª ç«Ļ
èĲ¨ çĵ¦
çº½ å¸¦
ç»ıå¸¸ è¢«
å¤©çĦ¶ çļĦ
å®ŀçĶ¨ æĸ°åŀĭ
çº§åĪ« çļĦ
A F
ä¼ļ éĿ¢
èĢĮ æĹłæ³ķ
è§Ĵ çĲĥ
in n
èīºæľ¯ è®¾è®¡
çĻ½çĻľé£İ çļĦæ²»çĸĹ
ä¾µ è¢Ń
çİ» åĪ©
ç¥ŀç»ı åħĥ
ä»ªåĻ¨ ä»ªè¡¨
æķ°åŃĹåĮĸ è½¬åŀĭ
å¦Ĥ æľŁ
å¥³ è£ħ
é¢Ĩ åħµ
è½¬ æĪĺ
éĿĴ èĹı
åĨłåĨĽ èģĶèµĽ
åįĪ å¤ľ
çĬ¶æĢģ çļĦ
è¿ŀæİ¥ åĻ¨
åºĶå½ĵ æĮīçħ§
çļĦå¥½ å¤Ħ
äº§åŃ¦ çłĶ
æĹ Į
äºº èĦ¸
ä¸į çĶ±
é«ĺ åĪĨ
æľ¬ åĽ½
æĸ° ä¸ĸçķĮ
18 68
è¯į æĽ²
åĬ³ ä¼¦æĸ¯
èĮ¨ åŁº
è¿Ī è¿Ľ
ä¸Ģ åĪ°
ä¹ĭ åĽ½
æīĢ ä¸º
åı¸ éĵİ
å¾® ä¼ģä¸ļ
èĻ½ æľī
é£Łåĵģ èį¯åĵģ
åĬ¨çĶ» çīĩ
é¡½ å¼º
åĭī å¼º
ä¸İæĹ¶ ä¿±
åĪĨ åıĳ
äº¤ éĶĭ
çĻ½ é¢Ĩ
åİ»å¹´ åĲĮæľŁ
èĹ© ä¸»
äººæĢ§ åĮĸ
äºĮç»´ çłģ
é¥º åŃĲ
3 16
çĶ ¥
åľ¨ èĩªå·±
ä¸Ń å±Ĥ
å¿ ı
å£ ķ
å½¢ åĪ¶
èĲ¥ æķĳ
é¾Ļ éª¨
äºĳ éĽĨ
å®« çļĦ
å¸®åĬ© çĲĥéĺŁ
å²¸ è¾¹
èµĦæł¼ çļĦ
æ³ķå®ļ ä»£è¡¨
J os
å¹´ æĹ¥æľ¬
æĺ¯ äºİ
ä¹Ł åĽł
ä¸ī åı·
æľĢ åĸľæ¬¢
ä½ł è¯´
15 9
in al
ĠL ove
45 00
çİ©å®¶ åı¯ä»¥
æī¶ æīĭ
åı± åĴ¤
Ġ åŃĲ
çļĦ æĹ§
æĺ¯ æĬĬ
ä¸º å°ı
ä¸į åıªæĺ¯
çĶŁ äºĨ
åīį èĮħ
åħĪ çĶ¨
æĺĵ ç»ı
å¾Ģ åĲİ
åĽ½éĻħ åĲĪä½ľ
åıĮ åıĮ
ic o
è¿½ å¯»
äºĮåįģ ä¹Ŀ
è§Ħæ¨¡ æľĢå¤§
é«ĺåı¥ ä¸½
æĺ¯ å°ı
ä¸Ĭ ç©º
å¼Ģ åºľ
çĽ¸ äº¤
ç§° è°ĵ
æĬķ ä¿Ŀ
åį«çĶŁ éĻ¢
æĤ¬ çĸĳ
çĽĹ è´¼
Ã ¹
ä¸Ń åĬłåħ¥
åĲĳ ä¸ľåĮĹ
é¦ĸ æŃĮ
åį³ ä»¥
åľ£ åħ¬ä¼ļ
æ°¸ åĺī
æħİ éĩį
çļĦ æľīåħ³
åľ¨ èĩªå·±çļĦ
æľ¬ æ³ķ
ä¹Ł åįģåĪĨ
èĢħ ä¹ĭä¸Ģ
å¤ĸ è²Į
åĪ© æ¯Ķäºļ
åıĳå±ķ ä¸Ń
æİ§åĪ¶ åĴĮ
ä¹Ķ ä¸¹
çīµ æ¶ī
å¤¯ å®ŀ
èŀĥ èŁ¹
çļĦ å¹¿åĳĬ
æĪĳä»¬ éĥ½
æĸŃ è·¯
äºĮåįģ åħ«å¹´
èĢ¶ é²ģ
æľīæĹ¶ ä¼ļ
æĸ© é¦ĸ
æ¿Ĵ ä¸´
ä¸į ç¦»
çŃī çĿĢ
å¥½ çİ©
åıĮ èĥŀèĥİ
çĭ¬ å¥ı
èµµ åĽ½
åĩĨç¡® åľ°
éļıæĹ¶ éļıåľ°
è¯ºæĽ¼ åºķ
æ²Ļçī¹ éĺ¿æĭīä¼¯
Ġ ï¼į
å·¥ åĨµ
å¯¹ ç¤¾ä¼ļ
ä¸¤ å¹´çļĦ
ä¼ł æĿ¥
æł¡ åĩĨ
å¾Ī çŁŃ
åįİ æ¶¦
å¤´ æĻķ
åħ´ æĹº
æ´»åĬ¨ ä¸Ńå¿ĥ
è´¥ ç»Ļ
æĺ¾ç¤º äºĨ
åįķè¡Į æľ¬
çļĦ åĪĨç±»
åħ¶ä¸Ń ä¹ĭä¸Ģ
åħį éĻ¤
å®£ä¼ł æ´»åĬ¨
å®¢è¿Ĳ ä¸ĵçº¿
ä¹ĭ åħī
éģĵ å¥ĩ
18 87
æī¿ å»º
é±¼ èĤī
çªģ è¢Ń
å¥Ĺ è·¯
å¼¹ éģĵ
æįŁ æ¯ģ
æł¸å¿ĥ æĬĢæľ¯
åľ°ä¸ĭ éĵģ
å¿«ä¹Ĳ çļĦ
æĵ¦ æĭŃ
è½¬æį¢ æĪĲ
ä¸īåĪĨ ä¹ĭä¸Ģ
æ´»è·ĥ äºİ
åĴĮ æ¬§æ´²
å¤ļ çĵ¦
ä¸ŃåĽ½ çī¹èī²
ç»Ł æĪĺ
å°¼ åŁº
çĶ· äººçļĦ
çĽĺ ä¸Ń
åĨ° æ·ĩæ·ĭ
æĸ°éĹ» åıĳå¸ĥä¼ļ
U I
é¦ĸ åľº
éħį åĪ¶
æ³¢ å¾·
çīĽ é¡¿
æ¸Ĳ è¿Ľ
åľ¨ æ¸¸æĪı
è¦ģ åİ»
èİ ħ
ä¸ĸ åįļ
çīĪ çĶ»
æ¯Ľ åĽĬ
åľ°ä¸ĭ äºĮå±Ĥ
æĨ İ
R ed
çļĦ äºĭä»¶
æĹ¥ åĿĩ
è¥¿ å²¸
ä¸ŃåĽ½ ä¹¦çĶ»
å°ĳ éĩıçļĦ
è°ĥ åĪ°
15 7
èĩ´ çĻĮ
ä»ĸä»¬ å°Ĩ
çļĦäºº éĥ½
å°ģ ä¿¡
åŁ¹è®Ń åĴĮ
å¼± çĤ¹
å¸¸ä½ı äººåı£
O M
çļĦ é»Ħ
åŃ¦ åĪĨ
åı¯ ä»İ
å¯¹ çİ¯å¢ĥ
æľĢ ä¸»è¦ģçļĦ
çłĶ ä¹ł
åİ¿ æ²»
åįİ å°Ķ
æ¸ħ çĪ½
åħ´ å®ī
çĶ±äºİ åľ¨
ç¬¬ä¸ī æĿ¡
ä¼łç»Ł ä¸Ĭ
å®ŀæĸ½ çļĦ
åıĮæĸ¹ çļĦ
å®¶ å¸¸
æĸ° éĻĪä»£è°¢
åĲĦ åİ¿
è§£ æķĳ
é¾ Ī
ä¸»è¦ģ è§Ĵèī²
ä¹ħ ä¹ĭ
åĶ± èħĶ
åĲİæĿ¥ æĪĲä¸º
æ²ĥ çī¹
è§ħ é£Ł
çļĦ åĲ«éĩı
éĹ ¾
åıĬ ç¬¬
èĢĮ æĺĵ
ä½Ĩ æľª
æ±Ĥ å©ļ
æĻ¯ çī©
åĩı ä½İ
é©¬è¾¾ åĬłæĸ¯
å¼Ģ ç«¯
åħ¨ éĥ½
å¾· æĸĩ
åı¯ä»¥ ä½ľä¸º
å·¥ä½ľ ç»Ħ
åĬŁ çĶ¨
er m
[...]
