{"!":0,"\"":1,"#":2,"$":3,"%":4,"&":5,"'":6,"(":7,")":8,"*":9,"+":10,",":11,"-":12,".":13,"/":14,"0":15,"1":16,"2":17,"3":18,"4":19,"5":20,"6":21,"7":22,"8":23,"9":24,":":25,";":26,"<":27,"=":28,">":29,"?":30,"@":31,"A":32,"B":33,"C":34,"D":35,"E":36,"F":37,"G":38,"H":39,"I":40,"J":41,"K":42,"L":43,"M":44,"N":45,"O":46,"P":47,"Q":48,"R":49,"S":50,"T":51,"U":52,"V":53,"W":54,"X":55,"Y":56,"Z":57,"[":58,"\\":59,"]":60,"^":61,"_":62,"`":63,"a":64,"b":65,"c":66,"d":67,"e":68,"f":69,"g":70,"h":71,"i":72,"j":73,"k":74,"l":75,"m":76,"n":77,"o":78,"p":79,"q":80,"r":81,"s":82,"t":83,"u":84,"v":85,"w":86,"x":87,"y":88,"z":89,"{":90,"|":91,"}":92,"~":93,"¡":94,"¢":95,"£":96,"¤":97,"¥":98,"¦":99,"§":100,"¨":101,"©":102,"ª":103,"«":104,"¬":105,"®":106,"¯":107,"°":108,"±":109,"²":110,"³":111,"´":112,"µ":113,"¶":114,"·":115,"¸":116,"¹":117,"º":118,"»":119,"¼":120,"½":121,"¾":122,"¿":123,"À":124,"Á":125,"Â":126,"Ã":127,"Ä":128,"Å":129,"Æ":130,"Ç":131,"È":132,"É":133,"Ê":134,"Ë":135,"Ì":136,"Í":137,"Î":138,"Ï":139,"Ð":140,"Ñ":141,"Ò":142,"Ó":143,"Ô":144,"Õ":145,"Ö":146,"×":147,"Ø":148,"Ù":149,"Ú":150,"Û":151,"Ü":152,"Ý":153,"Þ":154,"ß":155,"à":156,"á":157,"â":158,"ã":159,"ä":160,"å":161,"æ":162,"ç":163,"è":164,"é":165,"ê":166,"ë":167,"ì":168,"í":169,"î":170,"ï":171,"ð":172,"ñ":173,"ò":174,"ó":175,"ô":176,"õ":177,"ö":178,"÷":179,"ø":180,"ù":181,"ú":182,"û":183,"ü":184,"ý":185,"þ":186,"ÿ":187,"Ā":188,"ā":189,"Ă":190,"ă":191,"Ą":192,"ą":193,"Ć":194,"ć":195,"Ĉ":196,"ĉ":197,"Ċ":198,"ċ":199,"Č":200,"č":201,"Ď":202,"ď":203,"Đ":204,"đ":205,"Ē":206,"ē":207,"Ĕ":208,"ĕ":209,"Ė":210,"ė":211,"Ę":212,"ę":213,"Ě":214,"ě":215,"Ĝ":216,"ĝ":217,"Ğ":218,"ğ":219,"Ġ":220,"ġ":221,"Ģ":222,"ģ":223,"Ĥ":224,"ĥ":225,"Ħ":226,"ħ":227,"Ĩ":228,"ĩ":229,"Ī":230,"ī":231,"Ĭ":232,"ĭ":233,"Į":234,"į":235,"İ":236,"ı":237,"Ĳ":238,"ĳ":239,"Ĵ":240,"ĵ":241,"Ķ":242,"ķ":243,"ĸ":244,"Ĺ":245,"ĺ":246,"Ļ":247,"ļ":248,"Ľ":249,"ľ":250,"Ŀ":251,"ŀ":252,"Ł":253,"ł":254,"Ń":255,"ï¼":256,"ä¸":257,"ï¼Į":258,"ãĢ":259,"çļ":260,"çļĦ":261,"äº":262,"ãĢĤ":263,"æľ":264,"åı":265,"åħ":266,"ä»":267,"å¤":268,"å®":269,"åĪ":270,"ãĢģ":271,"åĲ":272,"åľ":273,"çĶ":274,"å¹":275,"ä½":276,"è¿":277,"åĽ":278,"æĺ":279,"æĸ":280,"ç»":281,"ä¹":282,"åĬ":283,"åį":284,"æĹ":285,"æĪ":286,"å°":287,"åŃ":288,"ä¸Ģ":289,"ä¼":290,"è¯":291,"å¹´":292,"è®":293,"âĢ":294,"æĿ":295,"åĮ":296,"åľ¨":297,"å¸":298,"æĺ¯":299,"å·":300,"åĨ":301,"åº":302,"éĩ":303,"ä¸Ń":304,"ä¸º":305,"æľī":306,"å¼":307,"äºº":308,"æī":309,"åĩ":310,"ç§":311,"éĢ":312,"çī":313,"å¾":314,"å±":315,"è¡":316,"æķ":317,"å¤§":318,"èĢ":319,"åĴ":320,"çĽ":321,"åĽ½":322,"åĴĮ":323,"å¯":324,"çº":325,"èµ":326,"çİ":327,"åİ":328,"æł":329,"æ°":330,"éĻ":331,"ä¸į":332,"è´":333,"å¥":334,"è§":335,"äºĨ":336,"éĥ":337,"å½":338,"æŃ":339,"æĶ":340,"æĬ":341,"ä»¥":342,"åŃ¦":343,"ï¼ī":344,"æĢ":345,"ï¼Ī":346,"äºİ":347,"æ³":348,"æµ":349,"èĩ":350,"èĥ":351,"çĶŁ":352,"çĲ":353,"éĹ":354,"åĳ":355,"ï¼ļ":356,"æ²":357,"æĹ¶":358,"ä¸Ĭ":359,"éĺ":360,"éĿ":361,"å¿":362,"çĶ¨":363,"ä¿":364,"æŀ":365,"ä½ľ":366,"çŃ":367,"æĪĲ":368,"æĭ":369,"ä¼ļ":370,"ç«":371,"è¾":372,"20":373,"ä¸ļ":374,"ä¸ª":375,"åľ°":376,"åŁ":377,"æİ":378,"è½":379,"åıĳ":380,"åĩº":381,"åī":382,"åĲİ":383,"åĵ":384,"âĢľ":385,"æ¯":386,"æ¸":387,"è¡Į":388,"âĢĿ":389,"åħ¬":390,"æľĪ":391,"æ±":392,"¦ģ":393,"å®¶":394,"æ´":395,"æĹ¥":396,"å·¥":397,"éķ":398,"ç¬":399,"åĪĨ":400,"è¦ģ":401,"åı¯":402,"é¢":403,"ä¸İ":404,"ä¹ĭ":405,"èĥ½":406,"åĪ°":407,"ç½":408,"çľ":409,"æĮ":410,"æĽ":411,"éģ":412,"ä¾":413,"æĿ¥":414,"è¿Ļ":415,"éĥ¨":416,"æĸ¹":417,"ãĢĭ":418,"ãĢĬ":419,"é«":420,"ä»ĸ":421,"å¯¹":422,"19":423,"çĲĨ":424,"å¤ļ":425,"é«ĺ":426,"ç®":427,"ä¸»":428,"çŃī":429,"å»":430,"éĽ":431,"æľ¬":432,"åħ¶":433,"åĬ¨":434,"èĤ":435,"ä¸ĭ":436,"èī":437,"æ¬":438,"ç¬¬":439,"åŃĲ":440,"èĩª":441,"æĥ":442,"å¸Ĥ":443,"è·":444,"æĸ°":445,"åĮº":446,"åĮĸ":447,"è¿Ľ":448,"åĲį":449,"å¦":450,"ç»ı":451,"æ³ķ":452,"äº§":453,"å¼Ģ":454,"æľº":455,"ä½ĵ":456,"åıĬ":457,"èĢĮ":458,"æĸĩ":459,"çİ°":460,"æĦ":461,"çŁ":462,"éķ¿":463,"ç¾":464,"åĲĮ":465,"è¿ĩ":466,"åĲĪ":467,"èģ":468,"é¡":469,"çĶµ":470,"åħ¨":471,"æĻ":472,"èĬ":473,"éĿ¢":474,"åĵģ":475,"ç±":476,"å»º":477,"ä¹Ł":478,"å§":479,"é£":480,"åĿ":481,"ç¨":482,"è®¾":483,"çī©":484,"åĬł":485,"æĢ§":486,"åĨħ":487,"åĬĽ":488,"è°":489,"å°ı":490,"æı":491,"çĤ":492,"çĻ":493,"ä¸ī":494,"æīĢ":495,"å®ļ":496,"ç©":497,"æĪĳ":498,"ä½į":499,"ç¤":500,"æ°´":501,"é¦":502,"åīį":503,"å¾Ĺ":504,"è¥":505,"è¢":506,"èĭ":507,"æľĢ":508,"åĪ¶":509,"å¹¶":510,"åº¦":511,"èĢħ":512,"è¥¿":513,"è¶":514,"çł":515,"ä»¬":516,"éĹ´":517,"äºĭ":518,"ç³":519,"éĢļ":520,"ï¼Ľ":521,"çī¹":522,"å®ŀ":523,"æķĻ":524,"éļ":525,"åģ":526,"åĳĺ":527,"åľº":528,"æį":529,"å¤©":530,"ç§į":531,"å¿ĥ":532,"åħ¥":533,"èĲ":534,"æĸ¯":535,"å°Ĩ":536,"çķ":537,"éĩį":538,"åįĹ":539,"éģĵ":540,"å£":541,"ç¥":542,"å¢":543,"äºĮ":544,"å°±":545,"ä»£":546,"å¤ĸ":547,"åı¸":548,"å¹³":549,"è¢«":550,"å±±":551,"éħ":552,"åĬ¡":553,"çĶ±":554,"åįģ":555,"éĩĮ":556,"æģ":557,"ä¸ľ":558,"åħ³":559,"åĽł":560,"ç§ĳ":561,"èĪ":562,"ç¾İ":563,"å±ķ":564,"ç³»":565,"00":566,"åĪ©":567,"æŁ":568,"éĩı":569,"éĥ½":570,"é©":571,"æľŁ":572,"éĵ":573,"æ¶":574,"å¦Ĥ":575,"çĽ®":576,"ä½¿":577,"èİ":578,"æıĲ":579,"ä»»":580,"çĽ¸":581,"åĮĹ":582,"éĶ":583,"å®ī":584,"å½ĵ":585,"æµ·":586,"æ°ĳ":587,"æķ°":588,"æľ¯":589,"ç®¡":590,"è½¦":591,"ç¼":592,"è¡¨":593,"è·¯":594,"èį":595,"åĢ":596,"æŃ¤":597,"Â·":598,"å°Ķ":599,"éĩĳ":600,"å²":601,"åºĶ":602,"æ¡":603,"ä¿Ŀ":604,"è®¡":605,"åĨĽ":606,"çĦ":607,"æĶ¿":608,"çĪ":609,"ç¨ĭ":610,"æĺİ":611,"çĥ":612,"ç²":613,"çģ":614,"å¼ı":615,"æ¬¡":616,"åŁº":617,"å¥½":618,"éľ":619,"çĿ":620,"åŀ":621,"èµĦ":622,"æ¯Ķ":623,"çĤ¹":624,"ä¸ĸ":625,"éĤ":626,"èĩ³":627,"æĪĸ":628,"ä»İ":629,"åħ¬åı¸":630,"çĲĥ":631,"çĹ":632,"éĻ¢":633,"èµĽ":634,"ä¸Ģä¸ª":635,"æĹł":636,"ç«ĭ":637,"æ·":638,"éĴ":639,"çĸ":640,"ä¸ŃåĽ½":641,"æ¼":642,"æĬĢ":643,"çº¿":644,"ä¿¡":645,"åİŁ":646,"è£":647,"å¸¸":648,"èµ·":649,"æĥħ":650,"ä½Ĩ":651,"ç´":652,"è¯´":653,"åı°":654,"ä¹¦":655,"èī²":656,"åħĥ":657,"å¾·":658,"æŃ£":659,"é»":660,"åŁİ":661,"ç¦":662,"éĺŁ":663,"201":664,"çĦ¶":665,"åħĭ":666,"æĪĺ":667,"æĦı":668,"ä¸¤":669,"æĽ´":670,"ç»Ł":671,"åķ":672,"ä¸ĵ":673,"200":674,"åĽĽ":675,"éª":676,"çľģ":677,"æº":678,"ç»Ħ":679,"æīĭ":680,"è´¨":681,"å·ŀ":682,"ç»ĵ":683,"ç¡":684,"çłĶ":685,"è¿ĺ":686,"è¿Ĳ":687,"æ´»":688,"æµģ":689,"æł¼":690,"èģĶ":691,"éŁ":692,"åŀĭ":693,"éĹ¨":694,"ä¼ł":695,"ç½ĳ":696,"é£İ":697,"äº¤":698,"æ£":699,"ç§°":700,"æİ¥":701,"åĲĦ":702,"å½¢":703,"é©¬":704,"åı¯ä»¥":705,"æľį":706,"æ²»":707,"çº§":708,"å¹¿":709,"äºļ":710,"æŀľ":711,"éĽĨ":712,"çİĭ":713,"å¤Ħ":714,"æ®":715,"èĮ":716,"å½±":717,"å¸Ī":718,"åĲĳ":719,"æ»":720,"åı£":721,"å¸ĥ":722,"ç±»":723,"èĦ":724,"èº":725,"è¾¾":726,"åĶ":727,"ç«Ļ":728,"æĢ»":729,"ç¤¾":730,"å·¥ä½ľ":731,"åįķ":732,"åı·":733,"éĢł":734,"åķĨ":735,"æłĩ":736,"10":737,"éĢī":738,"æ°Ķ":739,"æł¡":740,"åĸ":741,"åİ¿":742,"ç±³":743,"å¯¼":744,"æį®":745,"ä»¶":746,"è§£":747,"è¯¥":748,"æ¹":749,"èº«":750,"æ¸¸":751,"ä¸ĩ":752,"å¥³":753,"å·²":754,"èĳ":755,"åĪĽ":756,"åĻ":757,"æ¢":758,"åħ·":759,"æĭī":760,"çĿĢ":761,"æĤ":762,"åħ±":763,"é¥":764,"èĬĤ":765,"é¡¹":766,"äºĽ":767,"å¾Ī":768,"åıĹ":769,"ä¹Ĳ":770,"æ¼Ķ":771,"å¡":772,"å£«":773,"è§Ħ":774,"çĻ½":775,"åħī":776,"æĮģ":777,"åħĪ":778,"ä¼ģ":779,"æĶ¹":780,"åĻ¨":781,"åıĺ":782,"åĽ¢":783,"çķĮ":784,"èĻ":785,"æĸĻ":786,"å¼º":787,"è§Ĩ":788,"âĢĶ":789,"äºĶ":790,"åıĳå±ķ":791,"çŁ¥":792,"çĽ´":793,"åıĤ":794,"æĮĩ":795,"æĶ¶":796,"è£ħ":797,"æĿĳ":798,"åįİ":799,"å¤ĩ":800,"åİĨ":801,"åı²":802,"åİ»":803,"åĮħ":804,"èĤ²":805,"ç©¶":806,"å°ĳ":807,"æ¸ħ":808,"é¢ĺ":809,"çº¦":810,"åĮ»":811,"é¾":812,"èİ·":813,"æ±Ł":814,"æĬ¥":815,"é¦ĸ":816,"ä¼ģä¸ļ":817,"åĪ«":818,"é¢Ĩ":819,"ç©º":820,"çĹħ":821,"çĭ":822,"æ±Ĥ":823,"æŀĹ":824,"æ¨":825,"ç¥ŀ":826,"åĽŀ":827,"éľĢ":828,"çĬ":829,"è¿Ľè¡Į":830,"è±":831,"çŁ³":832,"æŀĦ":833,"æĶ¾":834,"æºĲ":835,"å±ŀ":836,"å¤´":837,"ä½ł":838,"æĬĢæľ¯":839,"ä¾Ľ":840,"æĦŁ":841,"è°ĥ":842,"ç½Ĺ":843,"æķĪ":844,"èĬ±":845,"ãĥ":846,"åıª":847,"èĲ¥":848,"åĪĹ":849,"çłĶç©¶":850,"åĽ¾":851,"ï¼īï¼Į":852,"å¸¦":853,"çİ¯":854,"ç®¡çĲĨ":855,"èĭ±":856,"æ²³":857,"æ²¡":858,"æł·":859,"æĿ¡":860,"æĪĳä»¬":861,"åıĸ":862,"è¯Ń":863,"çľĭ":864,"æĪ·":865,"å®Į":866,"æľįåĬ¡":867,"å¨":868,"éŁ³":869,"åĬŁ":870,"ãģ":871,"å®¹":872,"æīĵ":873,"åŃĹ":874,"è®°":875,"æĴ":876,"ä½¿çĶ¨":877,"ç²¾":878,"ä¼ĺ":879,"å§ĭ":880,"è®¤":881,"ç»´":882,"è®º":883,"å¤ª":884,"åĬŀ":885,"åĪĻ":886,"éĹ®":887,"è½¬":888,"çīĩ":889,"è§Ĥ":890,"æģ¯":891,"åı¤":892,"å®ĥ":893,"éĻħ":894,"å·±":895,"æ¯ı":896,"ç¤º":897,"è¾ĥ":898,"12":899,"çı":900,"å®¢":901,"èı":902,"åĩĨ":903,"ä¹ī":904,"åıĪ":905,"èģĮ":906,"è¿ĳ":907,"åĭ":908,"å±Ģ":909,"åģļ":910,"ä»·":911,"è¯ģ":912,"çħ":913,"æĥ³":914,"å¢ŀ":915,"å§Ķ":916,"äº¬":917,"èĢģ":918,"èĢĥ":919,"èħ":920,"éĿŀ":921,"æĶ¯":922,"åĽ½å®¶":923,"å¼ł":924,"å¤§åŃ¦":925,"åł":926,"èīº":927,"åºľ":928,"ä»Ĭ":929,"çĥŃ":930,"å¤į":931,"çīĪ":932,"çĪ±":933,"æĳ":934,"é¾Ļ":935,"æĬķ":936,"ä¸»è¦ģ":937,"èĩªå·±":938,"è®©":939,"åħ°":940,"åĳ¨":941,"è§ģ":942,"18":943,"éĺ²":944,"éĻĲ":945,"äº§åĵģ":946,"éĤ£":947,"æķ´":948,"è®®":949,"é¦Ļ":950,"æİ¨":951,"æ·±":952,"ç»Ļ":953,"ãĢį":954,"ãĢĮ":955,"é£Ł":956,"æĸ½":957,"æĬ¤":958,"åĨį":959,"éĢŁ":960,"åĨ³":961,"åĽŃ":962,"er":963,"åį³":964,"å¢ĥ":965,"éĺ¿":966,"åĦ":967,"æ³¨":968,"è´¹":969,"æĺŁ":970,"ç§¯":971,"ç®Ģ":972,"çľŁ":973,"æł¹":974,"åī§":975,"éĺ³":976,"éªĮ":977,"è¿ŀ":978,"å¥ĸ":979,"è¶³":980,"æĺĵ":981,"çİĩ":982,"ç½®":983,"11":984,"åĳ½":985,"åıį":986,"åĪĴ":987,"æ¨¡":988,"ãĤ":989,"åĬ©":990,"éħį":991,"è®¾è®¡":992,"å°¼":993,"è¯ķ":994,"ç¬¬ä¸Ģ":995,"æĪı":996,"å¼ķ":997,"çĶ»":998,"ç¼ĸ":999,"æĹ¶éĹ´":1000,"æĽ¾":1001,"æĿĥ":1002,"ä¹Ī":1003,"ç³»ç»Ł":1004,"çĮ":1005,"æµİ":1006,"æīį":1007,"çĻ¾":1008,"é²":1009,"æ¸¯":1010,"å¥¹":1011,"çª":1012,"æŃ¥":1013,"ä»ĭ":1014,"199":1015,"åĦ¿":1016,"æ²¡æľī":1017,"æľª":1018,"éķĩ":1019,"æĻ¯":1020,"éĩĩ":1021,"é»Ħ":1022,"ç¢":1023,"ç»Ń":1024,"éĵģ":1025,"éĿĴ":1026,"åŃĺ":1027,"å·´":1028,"è¶ħ":1029,"åįĩ":1030,"ç¦»":1031,"è§Ĵ":1032,"æĪĲä¸º":1033,"ç¿":1034,"æ¸©":1035,"ä¿®":1036,"éĢļè¿ĩ":1037,"æµĭ":1038,"15":1039,"æĽ²":1040,"æĿĲ":1041,"an":1042,"åį¡":1043,"æŁ¥":1044,"ç«ł":1045,"åħŃ":1046,"åľŁ":1047,"å®¤":1048,"èĴ":1049,"æ®µ":1050,"ä¸ĸçķĮ":1051,"åįı":1052,"çĵ":1053,"æ¥":1054,"æ¶Ī":1055,"èĳĹ":1056,"çĬ¶":1057,"ç¡®":1058,"ä½ķ":1059,"ä½İ":1060,"åĨľ":1061,"çº¢":1062,"çļĦä¸Ģ":1063,"ä¸Ķ":1064,"çºª":1065,"ä»¥åıĬ":1066,"æĪ¿":1067,"å®ĺ":1068,"åĩ»":1069,"éĻ¤":1070,"çģ«":1071,"ç´ł":1072,"èĩ´":1073,"ï¼Ł":1074,"åĥ":1075,"æŃ¦":1076,"in":1077,"éļı":1078,"æķħ":1079,"è¯Ħ":1080,"ä»ĸä»¬":1081,"æ²¹":1082,"å±Ĥ":1083,"åŁŁ":1084,"æİ§":1085,"é¸":1086,"å¿«":1087,"åħ»":1088,"æ¡Ī":1089,"åĪĿ":1090,"æĢģ":1091,"å¤«":1092,"æĬĬ":1093,"çĶŁäº§":1094,"æŀģ":1095,"è¶Ĭ":1096,"ä¾¿":1097,"æıĲä¾Ľ":1098,"on":1099,"èĮĥ":1100,"æļ":1101,"ä¸Ńå¿ĥ":1102,"å¹²":1103,"æĺ¯ä¸Ģ":1104,"ç»Ĩ":1105,"æİĴ":1106,"æĸĩåĮĸ":1107,"ä¿¡æģ¯":1108,"æĿİ":1109,"çĸĹ":1110,"åİĭ":1111,"å±ħ":1112,"æķĻèĤ²":1113,"ä¼Ĺ":1114,"æĹı":1115,"è®¸":1116,"èĹ":1117,"ç¾İåĽ½":1118,"æħ":1119,"å½ķ":1120,"è¾¹":1121,"åĳĬ":1122,"è¨":1123,"åħļ":1124,"åĵį":1125,"åħ«":1126,"ä¸¾":1127,"å¾Ģ":1128,"çīĮ":1129,"è¨Ģ":1130,"åŃ£":1131,"ç¦ı":1132,"èį¯":1133,"å·¥ç¨ĭ":1134,"æĻ®":1135,"å¼Ģå§ĭ":1136,"èĭı":1137,"è´£":1138,"è±¡":1139,"ä¾ĭ":1140,"æĸŃ":1141,"âĢĿï¼Į":1142,"ç»Ī":1143,"æĢĿ":1144,"é¡¹çĽ®":1145,"æľĿ":1146,"åĨµ":1147,"äº²":1148,"åĲĮæĹ¶":1149,"ä¹ł":1150,"çŃĳ":1151,"å¿Ĺ":1152,"åĽ½éĻħ":1153,"ç»ĩ":1154,"ï¼ģ":1155,"æ³¢":1156,"è¯Ĩ":1157,"ç¤¾ä¼ļ":1158,"æĭ¬":1159,"éĢĤ":1160,"å¸Ĥåľº":1161,"æĺ¾":1162,"ä¸ŃçļĦ":1163,"æ¤":1164,"ç»ıæµİ":1165,"åĢ¼":1166,"åĿĩ":1167,"èĲ½":1168,"çº³":1169,"åįļ":1170,"ä¸ĵä¸ļ":1171,"è¯Ŀ":1172,"åĽ´":1173,"è¯·":1174,"åĩł":1175,"åıĮ":1176,"å²Ľ":1177,"æŃĮ":1178,"éĥ¨åĪĨ":1179,"çĶŁæ´»":1180,"æ£Ģ":1181,"é¥°":1182,"åľ°åĮº":1183,"åº·":1184,"äºĳ":1185,"éħĴ":1186,"æ»¡":1187,"æ¸¸æĪı":1188,"æ¹ĸ":1189,"æ±ī":1190,"å»ºè®¾":1191,"åį«":1192,"æľ¨":1193,"åĮħæĭ¬":1194,"éĶĢ":1195,"åħ¶ä»ĸ":1196,"ä½įäºİ":1197,"30":1198,"16":1199,"éľĢè¦ģ":1200,"çĶ°":1201,"éĹ®é¢ĺ":1202,"ç¬¬äºĮ":1203,"å£°":1204,"ä¹¡":1205,"çħ§":1206,"åħ´":1207,"éļ¾":1208,"å¥¥":1209,"âĢĿãĢĤ":1210,"æĶ¿åºľ":1211,"å¯Ĩ":1212,"äºī":1213,"æĿ¿":1214,"æī¿":1215,"ï¼īãĢĤ":1216,"åĥı":1217,"å¤±":1218,"é¦Ĩ":1219,"å¿ħ":1220,"çĽĳ":1221,"åŃ¦æł¡":1222,"åĽłä¸º":1223,"è´Ł":1224,"æĲ":1225,"çļ®":1226,"æ´²":1227,"åº§":1228,"ä»½":1229,"ä¸įåĲĮ":1230,"ar":1231,"ä¸ĥ":1232,"åİĨåı²":1233,"åĪĩ":1234,"ä½ı":1235,"åıĭ":1236,"é¢Ħ":1237,"äººæ°ĳ":1238,"åĬ¿":1239,"ä¹Ŀ":1240,"ä½ľä¸º":1241,"æĵ":1242,"æĹ©":1243,"åŃ¦éĻ¢":1244,"åħµ":1245,"æ¦":1246,"åį°":1247,"å¯Į":1248,"å®Ĺ":1249,"ç¾¤":1250,"åı¯èĥ½":1251,"å°±æĺ¯":1252,"åī¯":1253,"èİ·å¾Ĺ":1254,"å»ºçŃĳ":1255,"æŃ»":1256,"åĨĻ":1257,"æ´»åĬ¨":1258,"çĭ¬":1259,"æ½":1260,"æľĽ":1261,"çĶ·":1262,"å¿µ":1263,"æĴŃ":1264,"ç®Ĺ":1265,"éŃ":1266,"198":1267,"ä½Ļ":1268,"åħ¶ä¸Ń":1269,"è¿ľ":1270,"ä»ħ":1271,"èŀ":1272,"æĹ¥æľ¬":1273,"çļĦäºº":1274,"å®Ŀ":1275,"åºĹ":1276,"æ¯į":1277,"è¡Ģ":1278,"ä»¤":1279,"çĳ":1280,"å¸Ŀ":1281,"çĨ":1282,"åħ·æľī":1283,"åģ¥":1284,"å½±åĵį":1285,"è¿Ļä¸ª":1286,"en":1287,"éĻį":1288,"æľīéĻĲ":1289,"é»ĳ":1290,"åįĥ":1291,"åįĬ":1292,"éº":1293,"èµ°":1294,"17":1295,"ãĢģãĢĬ":1296,"é£ŀ":1297,"22":1298,"ä¾Ŀ":1299,"ãĢĤâĢĿ":1300,"å·Ŀ":1301,"åĢĻ":1302,"æł¸":1303,"éĩįè¦ģ":1304,"ç»Ħç»ĩ":1305,"æĻº":1306,"çıŃ":1307,"ä»Ģ":1308,"éĵ¶":1309,"æĹħ":1310,"å©":1311,"çİ¯å¢ĥ":1312,"æĮī":1313,"å®īåħ¨":1314,"æĭħ":1315,"èĤ¡":1316,"åŁ¹":1317,"çĶ±äºİ":1318,"å²ģ":1319,"æ¬§":1320,"ï¼ļâĢľ":1321,"å¾ĭ":1322,"14":1323,"åİĤ":1324,"éĻĪ":1325,"å¸Į":1326,"æ¥¼":1327,"è®¾å¤ĩ":1328,"50":1329,"æĺ¥":1330,"ç¯":1331,"æĸ¹éĿ¢":1332,"åĶ®":1333,"å¦Ĥæŀľ":1334,"çĪ¶":1335,"å¥ĩ":1336,"å¾®":1337,"åı¦":1338,"çķĻ":1339,"èĥľ":1340,"æĶ»":1341,"æŃ¢":1342,"21":1343,"ä½ľåĵģ":1344,"âĢĶâĢĶ":1345,"äººçļĦ":1346,"è½½":1347,"åľ£":1348,"åºķ":1349,"å®£":1350,"å¤§çļĦ":1351,"åĲ«":1352,"æİĪ":1353,"èī¯":1354,"åĨł":1355,"åĽłæŃ¤":1356,"ç»§":1357,"éĻ©":1358,"å°Ħ":1359,"å¨ģ":1360,"åĸĦ":1361,"æĥħåĨµ":1362,"13":1363,"çŃĸ":1364,"ä¼Ĭ":1365,"åĮĹäº¬":1366,"è¯»":1367,"æł¹æį®":1368,"èĽ":1369,"èĪª":1370,"è½»":1371,"å¾ģ":1372,"åŃ¦çĶŁ":1373,"ä¸´":1374,"å¡Ķ":1375,"æ²Ļ":1376,"åħ¸":1377,"è¯Ĺ":1378,"è®Ń":1379,"or":1380,"çĽĬ":1381,"åı¶":1382,"èĪ¬":1383,"åĲī":1384,"åĺ":1385,"å³":1386,"æ¬¾":1387,"è¿ĻäºĽ":1388,"åįł":1389,"æ¡¥":1390,"åĩºçİ°":1391,"åłĤ":1392,"è¦ģæ±Ĥ":1393,"åħħ":1394,"å®ģ":1395,"é¦Ļæ¸¯":1396,"åį´":1397,"ä¸¥":1398,"æī¹":1399,"è¡Ĺ":1400,"al":1401,"åħ¨åĽ½":1402,"æľīéĻĲåħ¬åı¸":1403,"çļĩ":1404,"äººåĳĺ":1405,"èīºæľ¯":1406,"ç§Ģ":1407,"åħį":1408,"è¿°":1409,"åıĳçİ°":1410,"åĪĺ":1411,"æķ°æį®":1412,"åįķä½į":1413,"ãĢĭãĢģãĢĬ":1414,"è¡Įä¸ļ":1415,"åĳ³":1416,"é±":1417,"åĸľ":1418,"åŁİå¸Ĥ":1419,"çĽ¸åħ³":1420,"æīĺ":1421,"Ġ*":1422,"ä¹ĭä¸Ģ":1423,"ç«¯":1424,"é¼":1425,"å·²ç»ı":1426,"çĶ²":1427,"åĨħå®¹":1428,"ç£":1429,"è´Ń":1430,"çĶµè§Ĩ":1431,"é±¼":1432,"çĻ»":1433,"ä¸°":1434,"è¯į":1435,"æ¿":1436,"æ¹¾":1437,"æ´¾":1438,"å¼Ģåıĳ":1439,"åĩı":1440,"å·¦":1441,"çĶµå½±":1442,"çł´":1443,"ç§»":1444,"é½":1445,"æłĳ":1446,"ä½Ľ":1447,"èĹı":1448,"ä¸ĬçļĦ":1449,"çĽ®åīį":1450,"è¾ĵ":1451,"ä¹ĭåĲİ":1452,"ç§ĳåŃ¦":1453,"è¯¾":1454,"ä¹Łæĺ¯":1455,"ç§ĳæĬĢ":1456,"æĭ©":1457,"èįī":1458,"éĽ·":1459,"äºĴ":1460,"åĩºçīĪ":1461,"ä¼¤":1462,"è®¤ä¸º":1463,"æĸ¹å¼ı":1464,"æĿĢ":1465,"èĥ½åĬĽ":1466,"çľ¼":1467,"éĻĨ":1468,"æ°ı":1469,"è´¢":1470,"åºĵ":1471,"æī§":1472,"æĸ¹æ³ķ":1473,"âĢ¦":1474,"éĢģ":1475,"äº¦":1476,"at":1477,"æīĢä»¥":1478,"ç´¢":1479,"ä»£è¡¨":1480,"åĤ":1481,"é¹":1482,"èŀį":1483,"ä»Ģä¹Ī":1484,"å±Ĭ":1485,"å¼Ĥ":1486,"åı³":1487,"å¯Ł":1488,"è§ī":1489,"å¥½çļĦ":1490,"çģµ":1491,"è´¨éĩı":1492,"åºĶçĶ¨":1493,"æĿ¾":1494,"25":1495,"çªģ":1496,"ç»ľ":1497,"å¤Ł":1498,"æĬķèµĦ":1499,"ä½³":1500,"åıĳçĶŁ":1501,"ä»ĸçļĦ":1502,"æīĢæľī":1503,"æ¤į":1504,"å°½":1505,"å®Ī":1506,"åĵĪ":1507,"è¿ĩç¨ĭ":1508,"ä¸½":1509,"å°ģ":1510,"æ´Ľ":1511,"çķ¥":1512,"ä¸Ĭæµ·":1513,"åºĦ":1514,"æĭ¥":1515,"æį¢":1516,"é¡»":1517,"äº¿":1518,"æłĩåĩĨ":1519,"éĻĦ":1520,"éĢīæĭ©":1521,"å´":1522,"çŁŃ":1523,"å§Ķåĳĺ":1524,"æĬĹ":1525,"æĤ£":1526,"éĽĨåĽ¢":1527,"ç»ĥ":1528,"es":1529,"å¤ı":1530,"ç»ĵæŀĦ":1531,"çĩ":1532,"ç¬¬ä¸ī":1533,"æ²»çĸĹ":1534,"èĨ":1535,"å®«":1536,"è½®":1537,"éĿ©":1538,"000":1539,"ä¸ĢäºĽ":1540,"åĲ¸":1541,"åŁºæľ¬":1542,"æĿĲæĸĻ":1543,"éĴ¢":1544,"åĲĪä½ľ":1545,"éĴŁ":1546,"è®²":1547,"åĬŁèĥ½":1548,"èĲ¨":1549,"æ°¸":1550,"è¡¥":1551,"åĪ°äºĨ":1552,"å¹´çļĦ":1553,"è¿ĲåĬ¨":1554,"åºı":1555,"å¤ĦçĲĨ":1556,"ä¿ĿæĬ¤":1557,"åŃ¦ä¹ł":1558,"æĪĲç«ĭ":1559,"èį£":1560,"Ġ(":1561,"ç»¿":1562,"èĵ":1563,"ä¸ĢèĪ¬":1564,"å®³":1565,"æ¬¢":1566,"ç®Ģä»ĭ":1567,"åŃ©":1568,"æŀĲ":1569,"æ£®":1570,"å°ļ":1571,"å®¡":1572,"éħ¸":1573,"åºĨ":1574,"åıĤåĬł":1575,"è´§":1576,"ä¼¯":1577,"éĩĩçĶ¨":1578,"ä¹ħ":1579,"23":1580,"æİ§åĪ¶":1581,"çĵ¦":1582,"éĿ¢ç§¯":1583,"ç»Ŀ":1584,"ä½ľçĶ¨":1585,"äº§ä¸ļ":1586,"å®ĮæĪĲ":1587,"æľºæŀĦ":1588,"é¢ĳ":1589,"èĩªå·±çļĦ":1590,"å¡ŀ":1591,"æ¯ĶèµĽ":1592,"é²ģ":1593,"éĿŀå¸¸":1594,"ä¾§":1595,"ĠS":1596,"å¯¹äºİ":1597,"ä½Ĩæĺ¯":1598,"éĩİ":1599,"ä¼¦":1600,"åĶĲ":1601,"ä»į":1602,"ç¤¼":1603,"è½¯":1604,"éŁ³ä¹Ĳ":1605,"çĿ£":1606,"çĽŁ":1607,"æ¶²":1608,"æ¿Ģ":1609,"å·¥ä¸ļ":1610,"åĿļ":1611,"æ¯ķ":1612,"ä»ª":1613,"æĤ¨":1614,"æ±½":1615,"ï¼īãĢģ":1616,"ä¸ªäºº":1617,"å·®":1618,"ç»į":1619,"ä¸ºäºĨ":1620,"åĵģçīĮ":1621,"åĪ¶ä½ľ":1622,"è®¡åĪĴ":1623,"åŁºç¡":1624,"çļĦæĺ¯":1625,"éĹ»":1626,"èĻ½":1627,"åİħ":1628,"èĥĮ":1629,"åĪ»":1630,"è¯º":1631,"ä¹ĭéĹ´":1632,"åŁºç¡Ģ":1633,"ic":1634,"èľ":1635,"ç¥ĸ":1636,"å¸®":1637,"ä¼¼":1638,"åģľ":1639,"è´Łè´£":1640,"æĿĤ":1641,"èģļ":1642,"ç³»åĪĹ":1643,"æŁĵ":1644,"æ´ĭ":1645,"è´µ":1646,"èıľ":1647,"æĭ¥æľī":1648,"é¡º":1649,"æ¯Ĵ":1650,"197":1651,"ç½ĳç»ľ":1652,"æĵį":1653,"æıĲé«ĺ":1654,"å¸Ń":1655,"çīĽ":1656,"ãĢĭï¼Į":1657,"åĽº":1658,"å½¢æĪĲ":1659,"åºŃ":1660,"æ¾":1661,"çİ°åľ¨":1662,"ç²ī":1663,"24":1664,"ç¥¨":1665,"åħ¬éĩĮ":1666,"æĸĹ":1667,"éģĹ":1668,"èĤī":1669,"æ³°":1670,"çĶ³":1671,"ç»¼":1672,"åīĤ":1673,"éĢĢ":1674,"is":1675,"è¡¨ç¤º":1676,"å½Ĵ":1677,"è¿Ļç§į":1678,"åħ³ç³»":1679,"èĮ¶":1680,"çĽĸ":1681,"è´¥":1682,"è¿Ľåħ¥":1683,"è¿Ļæł·":1684,"çİī":1685,"å®ŀçİ°":1686,"å¾Īå¤ļ":1687,"æķ£":1688,"èĸ":1689,"æ¯Ľ":1690,"æľĢåĲİ":1691,"å»¶":1692,"èĭ¥":1693,"æĹ¶åĢĻ":1694,"æģ©":1695,"åĨ²":1696,"ä¸įæĺ¯":1697,"èµĦæºĲ":1698,"å½©":1699,"æī¾":1700,"åĨ·":1701,"el":1702,"èĩªçĦ¶":1703,"ĠC":1704,"çĶ¨äºİ":1705,"äº«":1706,"é¢Ŀ":1707,"åĬ³":1708,"196":1709,"è¿½":1710,"éĨ":1711,"çīĻ":1712,"åĭĴ":1713,"194":1714,"å¹³åı°":1715,"åĲĦç§į":1716,"çĹĩ":1717,"åį·":1718,"å¯º":1719,"ï¼į":1720,"å®¢æĪ·":1721,"å¥Ĺ":1722,"åĵ¥":1723,"æĭĽ":1724,"é¡¶":1725,"åª":1726,"ä¸įèĥ½":1727,"éª¨":1728,"çłģ":1729,"äºĨä¸Ģ":1730,"èŃ":1731,"åĶ±":1732,"çĽĺ":1733,"åĿĹ":1734,"æĭ¿":1735,"éĥ¨éĹ¨":1736,"ç«ŀ":1737,"åĮ»éĻ¢":1738,"æŀ¶":1739,"éĥ½æĺ¯":1740,"èĪ¹":1741,"æĿ¥çļĦ":1742,"äº§çĶŁ":1743,"èİ±":1744,"åĽ½åĨħ":1745,"æľīä¸Ģ":1746,"å¾ħ":1747,"åĲĥ":1748,"å½ĵæĹ¶":1749,"ãĢĭï¼Ī":1750,"åĪĽæĸ°":1751,"çİ©":1752,"èŃ¦":1753,"æĿ¯":1754,"éĽĦ":1755,"æĳĦ":1756,"195":1757,"ä¸Ŀ":1758,"åĪĨæŀĲ":1759,"ç¨³":1760,"è´Ŀ":1761,"--":1762,"æĻļ":1763,"åĲ¬":1764,"æİ¢":1765,"äº¤éĢļ":1766,"ãĢĢ":1767,"æĪĲåĬŁ":1768,"èĥ½å¤Ł":1769,"èĴĻ":1770,"æ¦Ĥ":1771,"åĪ©çĶ¨":1772,"çĶµåŃĲ":1773,"åľ°æĸ¹":1774,"ä¼łç»Ł":1775,"è¡ĮæĶ¿":1776,"æĽ¼":1777,"æĿ¨":1778,"å»ºç«ĭ":1779,"æĶ¯æĮģ":1780,"ç§°ä¸º":1781,"å¤®":1782,"Ġ-":1783,"èĪŀ":1784,"it":1785,"å®ĭ":1786,"28":1787,"ä¸ĸçºª":1788,"ä¹°":1789,"æľīåħ³":1790,"åģ¥åº·":1791,"å±ŀäºİ":1792,"100":1793,"å¼¹":1794,"å¼Ł":1795,"æķĻåŃ¦":1796,"¤Ĳ":1797,"éĢĲ":1798,"ä»¥ä¸Ĭ":1799,"æįŁ":1800,"æľ«":1801,"åĺī":1802,"åĲ¯":1803,"ç»©":1804,"éĴ±":1805,"æĹ§":1806,"ç»ıèĲ¥":1807,"çĳŀ":1808,"é½Ĳ":1809,"é¡¿":1810,"éĢı":1811,"ä¸ģ":1812,"ä¸įæĸŃ":1813,"æľŁéĹ´":1814,"éļľ":1815,"è¿Ļä¸Ģ":1816,"åľĨ":1817,"ä¸¤ä¸ª":1818,"æ¢ħ":1819,"éģĩ":1820,"è¾ĳ":1821,"å®ļçļĦ":1822,"è®¸å¤ļ":1823,"è·Ŀ":1824,"çĮ®":1825,"äºĪ":1826,"åģĩ":1827,"ç¯ĩ":1828,"å§Ĩ":1829,"çİ°ä»£":1830,"æĪĸèĢħ":1831,"ç»¼åĲĪ":1832,"éĩĬ":1833,"å¤ľ":1834,"çĶ¨æĪ·":1835,"ä¸ļåĬ¡":1836,"è¿ª":1837,"åĲ¦":1838,"å©ļ":1839,"çī¹åĪ«":1840,"éĽħ":1841,"ä¸¹":1842,"éĺ¶":1843,"æĮ¥":1844,"éĥ¡":1845,"ä»ĭç»į":1846,"40":1847,"éĴĪ":1848,"å¢ŀåĬł":1849,"è°·":1850,"çĸ«":1851,"ç´§":1852,"èª":1853,"çĽĽ":1854,"çļĦå¤§":1855,"é²ľ":1856,"åŃĻ":1857,"åŃĺåľ¨":1858,"ä¹Į":1859,"60":1860,"é¢ĨåŁŁ":1861,"æ¯Ķè¾ĥ":1862,"æŁĲ":1863,"è½¦ç«Ļ":1864,"æĦ¿":1865,"ç½ĳç«Ļ":1866,"ç«¥":1867,"çĶļ":1868,"ï¼İ":1869,"æĶ¿æ²»":1870,"è·Ł":1871,"é¡¾":1872,"å§Ķåĳĺä¼ļ":1873,"éļĨ":1874,"éŁ©":1875,"åªĴ":1876,"åĲ´":1877,"ç¼º":1878,"åĪ¶éĢł":1879,"èģĮä¸ļ":1880,"å¹³æĸ¹":1881,"éĵģè·¯":1882,"æĭį":1883,"ï¼ĮâĢľ":1884,"ç»ĦæĪĲ":1885,"æ´Ĺ":1886,"ä¿Ħ":1887,"æ³ķåĽ½":1888,"è¿ĺæĺ¯":1889,"ä¸Ģèµ·":1890,"ĠM":1891,"çĶŁçī©":1892,"åıĤä¸İ":1893,"æķĳ":1894,"æ´¥":1895,"éĿł":1896,"æĭħä»»":1897,"ç¨İ":1898,"èĭ±åĽ½":1899,"çŁ¿":1900,"ç¬Ķ":1901,"å®½":1902,"åŃ©åŃĲ":1903,"å¤§å®¶":1904,"å¿ħé¡»":1905,"çŃ¾":1906,"åı°æ¹¾":1907,"æ¯ķä¸ļ":1908,"æķħäºĭ":1909,"é¥®":1910,"æľĢç»Ī":1911,"åĨĮ":1912,"le":1913,"æ··":1914,"èĻ½çĦ¶":1915,"æ±½è½¦":1916,"ä¼ĳ":1917,"æ±ł":1918,"äºĮåįģ":1919,"æĸ°çļĦ":1920,"å³°":1921,"èĦĳ":1922,"èĶ":1923,"éĽ¨":1924,"æŃ£å¼ı":1925,"åĩĢ":1926,"26":1927,"èĥŀ":1928,"åĪ¤":1929,"åħ¼":1930,"ä¸Ńå¤®":1931,"éĽª":1932,"æ¢ģ":1933,"å±ĭ":1934,"æĹ¶ä»£":1935,"æī©":1936,"æĹ¶æľŁ":1937,"çĲĥéĺŁ":1938,"æ¢¦":1939,"æĤ£èĢħ":1940,"2010":1941,"è§ĦåĪĴ":1942,"çĽ®æłĩ":1943,"ç§ĭ":1944,"äº®":1945,"ç»ıè¿ĩ":1946,"am":1947,"æĹħæ¸¸":1948,"èĮĥåĽ´":1949,"å²©":1950,"åĪº":1951,"è§£åĨ³":1952,"èĢĮä¸Ķ":1953,"æĿ°":1954,"éĺµ":1955,"çº¸":1956,"åĨłåĨĽ":1957,"æ²¿":1958,"äººçī©":1959,"æĢ¥":1960,"å¹´ä»£":1961,"çĽ´æİ¥":1962,"èĥ¡":1963,"éĿĻ":1964,"åĪĨåĪ«":1965,"è°¢":1966,"27":1967,"è¿ĺæľī":1968,"ç»ĵæŀľ":1969,"çĸ¾":1970,"ĠA":1971,"ä¿ĥ":1972,"èĽĭ":1973,"éľĢæ±Ĥ":1974,"å·¨":1975,"åĢŁ":1976,"ï½":1977,"ä¼ļè®®":1978,"åİļ":1979,"as":1980,"åŁĥ":1981,"è¾¾åĪ°":1982,"æ¶Īè´¹":1983,"èİ«":1984,"åįıä¼ļ":1985,"éĥİ":1986,"èªī":1987,"æ±¡":1988,"ç²¾ç¥ŀ":1989,"åĿĢ":1990,"åºĬ":1991,"å®ľ":1992,"å°¾":1993,"æ¢°":1994,"åĪļ":1995,"ä¸ĢçĽ´":1996,"éĶĢåĶ®":1997,"æĻĭ":1998,"ch":1999,"ç§ĺ":2000,"æľīæķĪ":2001,"èĥ¶":2002,"èĦ±":2003,"ä¸įä¼ļ":2004,"æĿ¡ä»¶":2005,"us":2006,"æĳ©":2007,"ro":2008,"çĨŁ":2009,"çŁ¥è¯Ĩ":2010,"å¯¼èĩ´":2011,"ç©¿":2012,"80":2013,"æ¨¡å¼ı":2014,"æ³ī":2015,"ĠãĢĬ":2016,"ä»ĺ":2017,"å¾ĹåĪ°":2018,"è¡£":2019,"åĬłåħ¥":2020,"è¿İ":2021,"ä»»ä½ķ":2022,"åĨ³å®ļ":2023,"å¸®åĬ©":2024,"äºĨè§£":2025,"éľ²":2026,"ä½ľèĢħ":2027,"éĢłæĪĲ":2028,"èģĶåĲĪ":2029,"é¤Ĳ":2030,"è¯¸":2031,"èıĮ":2032,"ä»·åĢ¼":2033,"..":2034,"æ±ĩ":2035,"éº¦":2036,"çĥĪ":2037,"å¦Ĥä½ķ":2038,"è¿Ļæĺ¯":2039,"éģ¿":2040,"é¢Ĩå¯¼":2041,"æ¸Ĳ":2042,"éĢĶ":2043,"æĺł":2044,"ãĢĲ":2045,"è§Ħå®ļ":2046,"äº¡":2047,"åıĸå¾Ĺ":2048,"æĢĢ":2049,"å¹¶ä¸Ķ":2050,"èĩªåĬ¨":2051,"il":2052,"è¡¨çİ°":2053,"ä»ģ":2054,"åį±":2055,"åĪĨéĴŁ":2056,"è®¯":2057,"ãĢĳ":2058,"å®ŀéªĮ":2059,"2011":2060,"æ¾³":2061,"åºŁ":2062,"è®¡ç®Ĺ":2063,"æĹĹ":2064,"et":2065,"è®¿":2066,"æĿŁ":2067,"åĲĽ":2068,"éĶĻ":2069,"ç³ĸ":2070,"ä»¥ä¸ĭ":2071,"ä¸Ńåįİ":2072,"è¯ī":2073,"æĢ§çļĦ":2074,"éĵ¶è¡Į":2075,"æ°§":2076,"ãĢģâĢľ":2077,"åħ¨çĲĥ":2078,"éĶ®":2079,"æ°´å¹³":2080,"ç¬¦":2081,"ä¸»ä¹ī":2082,"çĽĲ":2083,"æĶ¿çŃĸ":2084,"ç»ĵåĲĪ":2085,"å²¸":2086,"æıĲåįĩ":2087,"ĠP":2088,"ä¹İ":2089,"å°¤":2090,"å¾Ħ":2091,"æĵįä½ľ":2092,"å¸ĮæľĽ":2093,"åł¡":2094,"å®ŀéĻħ":2095,"æķĪæŀľ":2096,"éĩįçĤ¹":2097,"è¶ħè¿ĩ":2098,"ä½ĵèĤ²":2099,"ç©ºéĹ´":2100,"ä¹ĺ":2101,"æıĲåĩº":2102,"åıĹåĪ°":2103,"å¡ĳ":2104,"29":2105,"è°Ī":2106,"ol":2107,"åŃĶ":2108,"åĮºåŁŁ":2109,"æ³Ľ":2110,"èĪ°":2111,"ï½ŀ":2112,"åıªæľī":2113,"åĿĲ":2114,"±ä¹Ĳ":2115,"åŁ¹è®Ń":2116,"èĵĿ":2117,"èĦļ":2118,"æľ±":2119,"è®¨":2120,"ĠB":2121,"ä»·æł¼":2122,"åħ³äºİ":2123,"193":2124,"âĢ¦âĢ¦":2125,"çĴ":2126,"ç»§ç»Ń":2127,"æ³½":2128,"æĹłæ³ķ":2129,"åĳĪ":2130,"æĺ¯åľ¨":2131,"äººåı£":2132,"è¸":2133,"çģ¯":2134,"åĿ¦":2135,"åı«":2136,"åĨ°":2137,"è¯¢":2138,"ä¸ĢæŃ¥":2139,"éĽ¶":2140,"è¯ĳ":2141,"å¼Ģå±ķ":2142,"å®ŀæĸ½":2143,"äººä»¬":2144,"ç¼ĺ":2145,"ä¸įè¿ĩ":2146,"çŁ¥éģĵ":2147,"è¿ģ":2148,"ç»Ĩèĥŀ":2149,"2012":2150,"ä½ĵçļĦ":2151,"èģĶèµĽ":2152,"ä¼ĺç§Ģ":2153,"åĲİæĿ¥":2154,"æĺĮ":2155,"re":2156,"çĹĽ":2157,"ç¡¬":2158,"2009":2159,"åĬª":2160,"åįģäºĮ":2161,"æķĻå¸Ī":2162,"2022":2163,"2008":2164,"Ġé¥°":2165,"æĽ´å¤ļ":2166,"æ¼«":2167,"åĲįä¸º":2168,"çĲĨè®º":2169,"çļĦä¸Ģä¸ª":2170,"äºķ":2171,"çĪĨ":2172,"æ»ĳ":2173,"èĨľ":2174,"è®¢":2175,"æ³¨æĦı":2176,"ä¸Ģç§į":2177,"éĺ´":2178,"æķĻæİĪ":2179,"æĥł":2180,"å®¶åºŃ":2181,"å¹¼":2182,"ä¸°å¯Į":2183,"èµµ":2184,"æľĹ":2185,"èĬĤçĽ®":2186,"èĭ¦":2187,"è¡Įä¸º":2188,"è¶³çĲĥ":2189,"æľºæ¢°":2190,"æĺ¾ç¤º":2191,"èĢ³":2192,"åĪĬ":2193,"èļ":2194,"æĿ¥èĩª":2195,"éķľ":2196,"å¾·åĽ½":2197,"çĥ§":2198,"èĩ£":2199,"æĸ¹æ¡Ī":2200,"åĤ¨":2201,"é¸Ł":2202,"éŃĶ":2203,"è¾ĸ":2204,"ç±į":2205,"æľĢä½³":2206,"ç§¯æŀģ":2207,"ï¼ĮãĢĬ":2208,"ç¬¬åĽĽ":2209,"ä¸Ģæ¬¡":2210,"æ±¤":2211,"æľĭ":2212,"æ´ŀ":2213,"ion":2214,"è§¦":2215,"éļĶ":2216,"ç«¹":2217,"æĻºèĥ½":2218,"ä¸ĵå®¶":2219,"è¯Ĭ":2220,"åıĺåĮĸ":2221,"å«":2222,"é¸¡":2223,"çĺ":2224,"å¸ģ":2225,"åįĸ":2226,"å¢ŀéķ¿":2227,"åıĳå¸ĥ":2228,"åķĨä¸ļ":2229,"çļĦæĹ¶åĢĻ":2230,"åħ±åĲĮ":2231,"çĤİ":2232,"å½¢å¼ı":2233,"éĥĳ":2234,"å®ĩ":2235,"å¯»":2236,"èĳĹåĲį":2237,"è®¾æĸ½":2238,"æĮģç»Ń":2239,"ä¸»ä»»":2240,"åĨľä¸ļ":2241,"è¯ļ":2242,"ç»ıéªĮ":2243,"åĪ©äºļ":2244,"ä½įç½®":2245,"ç½ª":2246,"èī¾":2247,"åı¥":2248,"æĺ¯ä¸Ģä¸ª":2249,"åĽ°":2250,"ä¸ºä¸»":2251,"æĸĩåŃ¦":2252,"æħ¢":2253,"ä¸Ģå®ļ":2254,"è§Ī":2255,"åĬ¨çī©":2256,"æ³ķå¾ĭ":2257,"ç¤¾åĮº":2258,"å½ĵåľ°":2259,"ä¸ĩåħĥ":2260,"åĩºçĶŁ":2261,"å¹ķ":2262,"æµĻ":2263,"æİĮ":2264,"åİŁåĽł":2265,"å¯¿":2266,"å®¾":2267,"ç¼©":2268,"æķĮ":2269,"è§Ħæ¨¡":2270,"æºª":2271,"äº¤æµģ":2272,"2020":2273,"ä¸Ģæł·":2274,"èĢĲ":2275,"æĪĲåĳĺ":2276,"èµĦæĸĻ":2277,"çĥŁ":2278,"å±±ä¸ľ":2279,"ç§ģ":2280,"äº¤æĺĵ":2281,")ï¼Į":2282,"éļıçĿĢ":2283,"æĪĳåĽ½":2284,"2000":2285,"æ¤įçī©":2286,"æľĢé«ĺ":2287,"åĢĴ":2288,"é³":2289,"æī¬":2290,"èĤ¤":2291,"æ¶¦":2292,"æĺ¯ä¸Ģç§į":2293,"çĶ³è¯·":2294,"éĢļå¸¸":2295,"å½¹":2296,"çī¹çĤ¹":2297,"å§ĵ":2298,"å¼Ĺ":2299,"ç¦ģ":2300,"ç¿»":2301,"è´£ä»»":2302,"åĨ¬":2303,"2019":2304,"è´¸":2305,"æıı":2306,"æĸ¹åĲĳ":2307,"é¡µ":2308,"å¹¸":2309,"éľĩ":2310,"åĬłå·¥":2311,"çĦ¶åĲİ":2312,"å°ıæĹ¶":2313,"ä¸įä»ħ":2314,"èĴĤ":2315,"åĪĨå¸ĥ":2316,"çĶļèĩ³":2317,"æ¨ª":2318,"å¢Ļ":2319,"éĤ¦":2320,"æī§è¡Į":2321,"âĢĿãĢģâĢľ":2322,"è±Ĩ":2323,"ĠT":2324,"ç®±":2325,"2007":2326,"2006":2327,"ä¹±":2328,"æģ¶":2329,"è¾Ĩ":2330,"å¾¡":2331,"ä¿ĿæĮģ":2332,"å®Įåħ¨":2333,"çī¹èī²":2334,"è¿ĻéĩĮ":2335,"åħĪè¿Ľ":2336,"éº»":2337,"ä»¥æĿ¥":2338,"åĵª":2339,"éĵ¾":2340,"å·¥èīº":2341,"çıł":2342,"çº¯":2343,"æ¬§æ´²":2344,"æľīçļĦ":2345,"è¶£":2346,"ä»Ļ":2347,"æĸ°éĹ»":2348,"çĸĳ":2349,"èı²":2350,"åĬŀåħ¬":2351,"åĽ¢éĺŁ":2352,"çİĽ":2353,"ä½ĵç³»":2354,"éĻ¤äºĨ":2355,"è½¯ä»¶":2356,"èĦī":2357,"çŃĶ":2358,"èĻ«":2359,"æĢİ":2360,"ãĢĭãĢĤ":2361,"åıĳè¡Į":2362,"ä¸¾è¡Į":2363,"æ½®":2364,"åħ¬è·¯":2365,"åĳ¼":2366,"%ï¼Į":2367,"èµı":2368,"å·¦åı³":2369,"æĭľ":2370,"é£Łåĵģ":2371,"ä¼´":2372,"2021":2373,"è¯Ńè¨Ģ":2374,"æİ¥åıĹ":2375,"éĤ£ä¹Ī":2376,"æ¡£":2377,"å°ıè¯´":2378,"çļĦé«ĺ":2379,"åįĪ":2380,"éĺ»":2381,"åħ¬åĽŃ":2382,"æ¹¿":2383,"æĬ¥åĳĬ":2384,"2018":2385,"è¾ħ":2386,"ç¹":2387,"é¢ľ":2388,"åħ¨éĿ¢":2389,"è¿ĩç¨ĭä¸Ń":2390,"å¤§éĩı":2391,"è¿·":2392,"åĩºçļĦ":2393,"éļĲ":2394,"ç½²":2395,"æĿľ":2396,"å¤º":2397,"åħ±åĴĮ":2398,"om":2399,"æ²ī":2400,"åĿı":2401,"åĮĸåŃ¦":2402,"æľĭåıĭ":2403,"ç½Ĺæĸ¯":2404,"é¼ĵ":2405,"èį·":2406,"æľªæĿ¥":2407,"è¿¹":2408,"æĪĺäºī":2409,"ç´¯":2410,"æĮĩå¯¼":2411,"çĩĥ":2412,"æ´ģ":2413,"70":2414,"çĭ¬ç«ĭ":2415,"ac":2416,"çĶĺ":2417,"å¦ĩ":2418,"ä»İäºĭ":2419,"åĮ»çĸĹ":2420,"ä¼ĺåĬ¿":2421,"he":2422,"æ¼Ķåĳĺ":2423,"æĢ§èĥ½":2424,"éĶ¦":2425,"ç§Ł":2426,"åĪĨä¸º":2427,"å¹¿ä¸ľ":2428,"è¯¯":2429,"ä»»åĬ¡":2430,"æĹ¢":2431,"ur":2432,"åĲįç§°":2433,"ç¹ģ":2434,"åĪ¶åº¦":2435,"å¾Ĳ":2436,"åĶ¯":2437,"èĢ¶":2438,"èĤ¥":2439,"å¢¨":2440,"äººæīį":2441,"å°º":2442,"ä¹ĭåīį":2443,"èĻļ":2444,"æ£Ģæµĭ":2445,"åĲİçļĦ":2446,"æ¯«":2447,"åĿ¡":2448,"ä¹Łæľī":2449,"åºĶè¯¥":2450,"å¹ħ":2451,"é©»":2452,"å¦»":2453,"çĶŁæĢģ":2454,"æĿ¥è¯´":2455,"åĩºçīĪç¤¾":2456,"è´¡":2457,"éģŃ":2458,"çļĨ":2459,"å¥ı":2460,"ç§¦":2461,"åªĴä½ĵ":2462,"90":2463,"35":2464,"æ¶ī":2465,"éªĳ":2466,"ĠL":2467,"äºĭä¸ļ":2468,"èµ·æĿ¥":2469,"äº¿åħĥ":2470,"ä¸ŃåŃ¦":2471,"2017":2472,"æ®¿":2473,"æ²Ł":2474,"çĶº":2475,"è½¨":2476,"å®¹æĺĵ":2477,"çģŃ":2478,"çĸ¾çĹħ":2479,"å¹´åº¦":2480,"åį¢":2481,"æķ°åŃĹ":2482,"ãĢĤâĢľ":2483,"æ½ľ":2484,"è¿Ľä¸ĢæŃ¥":2485,"æ®Ĭ":2486,"å¿«éĢŁ":2487,"åĩ¯":2488,"æĬĺ":2489,"æ£ĢæŁ¥":2490,"å·ŀå¸Ĥ":2491,"æĮīçħ§":2492,"çĬ¯":2493,"æĪĲç»©":2494,"ä¸įåĲĮçļĦ":2495,"2016":2496,"çĻľ":2497,"åľĪ":2498,"æĮ¯":2499,"å®īè£ħ":2500,"åĲ§":2501,"æĹĭ":2502,"åĩºäºĨ":2503,"è§Ĵèī²":2504,"ä¸įåı¯":2505,"ãĢĤï¼Ī":2506,"éĻµ":2507,"å¹¿æ³Ľ":2508,"åºĻ":2509,"éħĴåºĹ":2510,"ç¬ĳ":2511,"æµĻæ±Ł":2512,"ç±»åŀĭ":2513,"æĽ´åĬł":2514,"åıįåºĶ":2515,"åĩıå°ĳ":2516,"çĻ½çĻľ":2517,"çĻ½çĻľé£İ":2518,"éĺ¶æ®µ":2519,"æĽ¿":2520,"ä¿Ĺ":2521,"å¿ł":2522,"æµª":2523,"ing":2524,"æ°ĳæĹı":2525,"åĸľæ¬¢":2526,"äºĭä»¶":2527,"2005":2528,"åı¦å¤ĸ":2529,"åĪĽä½ľ":2530,"éĵľ":2531,"éĽķ":2532,"çº¹":2533,"åŁºåľ°":2534,"å¹´æĿ¥":2535,"åį«çĶŁ":2536,"æ¥ļ":2537,"æŃ¤å¤ĸ":2538,"èµ«":2539,"åĳ¢":2540,"æļ´":2541,"éŃı":2542,"çĬ¶æĢģ":2543,"éĶħ":2544,"åĪĢ":2545,"å£ģ":2546,"æķı":2547,"ä¾ĭå¦Ĥ":2548,"å°Ĭ":2549,"éĩĳèŀį":2550,"è¿Ĳè¡Į":2551,"åŁºéĩĳ":2552,"è½´":2553,"è´´":2554,"èĻĳ":2555,"æĭŁ":2556,"è¯¾ç¨ĭ":2557,"un":2558,"èµŀ":2559,"éĤ®":2560,"éķ¿æľŁ":2561,"æĸ½å·¥":2562,"ĠR":2563,"èĩªçĶ±":2564,"åīĳ":2565,"ä¹Ļ":2566,"æ´ª":2567,"èĻİ":2568,"ç»ĺ":2569,"2013":2570,"çļĦåıĳå±ķ":2571,"çłĶåıĳ":2572,"2015":2573,"åħ±åĴĮåĽ½":2574,"æ³¥":2575,"éī":2576,"éĻ¶":2577,"æĪĲæľ¬":2578,"å¥ī":2579,"åĽ¾ä¹¦":2580,"ç´«":2581,"çĦ¶èĢĮ":2582,"æĺ¯åĲ¦":2583,"åĭĩ":2584,"åŁ¹åħ»":2585,"æĶ¶åħ¥":2586,"èĪªç©º":2587,"ç®Ģåįķ":2588,"ĠG":2589,"è°ĵ":2590,"çº½":2591,"åħĦ":2592,"æŀª":2593,"è¡¡":2594,"èĳ£":2595,"âĳ":2596,"æĮĳ":2597,"åįģåĪĨ":2598,"%ãĢĤ":2599,"éĢŁåº¦":2600,"è°ĥæŁ¥":2601,"æķ´ä¸ª":2602,"èķ":2603,"ä¸ĭçļĦ":2604,"èģĶçĽŁ":2605,"é£İæł¼":2606,"ç²Ĵ":2607,"ĠH":2608,"æ¸©åº¦":2609,"å®ĥä»¬":2610,"ä¸¥éĩį":2611,"é»İ":2612,"çĲĥåĳĺ":2613,"èº«ä½ĵ":2614,"æĪª":2615,"åı¬":2616,"è®¾ç½®":2617,"èĿ":2618,"è¡¨éĿ¢":2619,"åĨħçļĦ":2620,"æ²³åįĹ":2621,"éī´":2622,"æļĹ":2623,"æı´":2624,"æŁ±":2625,"æ®ĸ":2626,"è¯¦":2627,"ä¿Ŀè¯ģ":2628,"èĪį":2629,"ç¨³å®ļ":2630,"ç»ĵæĿŁ":2631,"ç£¨":2632,"åįģä¸Ģ":2633,"åĬłå¼º":2634,"è¿Ķ":2635,"çļĦæĸ°":2636,"æ©":2637,"å»·":2638,"éĤ»":2639,"å¢ĵ":2640,"æł¸å¿ĥ":2641,"åģı":2642,"ä¼°":2643,"å¹³æĸ¹ç±³":2644,"åħ¨éĥ¨":2645,"ä¸īå¹´":2646,"éĹŃ":2647,"æħ§":2648,"2014":2649,"ä¿ĥè¿Ľ":2650,"æĶ¹éĿ©":2651,"è·¨":2652,"æµĵ":2653,"äººç±»":2654,"çĲ´":2655,"å®£ä¼ł":2656,"æİª":2657,"å»ºè®®":2658,"ä¾µ":2659,"31":2660,"åħĪçĶŁ":2661,"çľĭåĪ°":2662,"åĬªåĬĽ":2663,"è¾Ľ":2664,"åĳĺå·¥":2665,"åıĳè¡¨":2666,"éŀ":2667,"è£ģ":2668,"å°¼äºļ":2669,"ä¼Ł":2670,"é«ĺéĢŁ":2671,"ĠD":2672,"åĬ±":2673,"åĩ¤":2674,"åĮĸçļĦ":2675,"åĽĽå·Ŀ":2676,"èĦĤ":2677,"éĩĳå±ŀ":2678,"éĿĴå¹´":2679,"æĪĳçļĦ":2680,"å¾½":2681,"ä¸¾åĬŀ":2682,"å·§":2683,"ä¼į":2684,"æĪ´":2685,"å¼ķèµ·":2686,"çģ°":2687,"çĪ¶äº²":2688,"èĤ¯":2689,"å¿ĥçĲĨ":2690,"èµĽåŃ£":2691,"æĻ®éĢļ":2692,"å¦Ī":2693,"æĢĿæĥ³":2694,"ä»İèĢĮ":2695,"éģĵè·¯":2696,"èµ¢":2697,"ä¹ĥ":2698,"2004":2699,"os":2700,"ä»ĸåľ¨":2701,"çİ°åľº":2702,"å·¡":2703,"æ³¨åĨĮ":2704,"èĥ½æºĲ":2705,"ä½łçļĦ":2706,"å°ĨåĨĽ":2707,"æ³¡":2708,"æĻ¶":2709,"ä¾¯":2710,"çĶŁåĳ½":2711,"åĦ¿ç«¥":2712,"æīįèĥ½":2713,"è¦":2714,"å²Ĺ":2715,"éļ¶":2716,"è±ª":2717,"ä¹³":2718,"åĪĽéĢł":2719,"åİĭåĬĽ":2720,"æľĢå¤§":2721,"45":2722,"äºİæĺ¯":2723,"æĪĳä»¬çļĦ":2724,"æĸĳ":2725,"å¾Ĵ":2726,"è·ĳ":2727,"çĮª":2728,"åįļå£«":2729,"å¼±":2730,"æĪĺçķ¥":2731,"åĩ¡":2732,"çĽ®çļĦ":2733,"æ¶Ĥ":2734,"æľºä¼ļ":2735,"çģ¾":2736,"åĿļæĮģ":2737,"çī©è´¨":2738,"è£Ĥ":2739,"åħĪåĲİ":2740,"èµĦéĩĳ":2741,"æģĴ":2742,"æĭĶ":2743,"ad":2744,"æĸ¯çī¹":2745,"çĲĨå¿µ":2746,"è°ĭ":2747,"ç¼ĵ":2748,"ç«ŀäºī":2749,"ãĢĤãĢĬ":2750,"è¿ŀç»Ń":2751,"åĪĳ":2752,"æĽ°":2753,"è´¯":2754,"è°ĥæķ´":2755,"æĲŃ":2756,"çıį":2757,"çħ¤":2758,"è¿ĲèĲ¥":2759,"ç¯®":2760,"id":2761,"éĺħ":2762,"çļĦå°ı":2763,"ä¸īä¸ª":2764,"å¤§åŀĭ":2765,"å¹¿åĳĬ":2766,"ĠF":2767,"ä¸įå¾Ĺ":2768,"èħĲ":2769,"ä¿Ŀéļľ":2770,"æ»¡è¶³":2771,"æĺİæĺ¾":2772,"æĥĬ":2773,"åĿĽ":2774,"è¿Ĳè¾ĵ":2775,"è¿ŀæİ¥":2776,"æ²ĥ":2777,"æ¡ĥ":2778,"çī¹å¾ģ":2779,"ä¸įè¦ģ":2780,"åĩĿ":2781,"ãĢįï¼Į":2782,"ç¢³":2783,"å¸ķ":2784,"åĢį":2785,"çļĦä¸»":2786,"åīįå¾Ģ":2787,"æ®ĭ":2788,"å¼ĥ":2789,"åĩĨå¤ĩ":2790,"é¾Ħ":2791,"æį·":2792,"å¯Ĵ":2793,"æķ°éĩı":2794,"åıĬæĹ¶":2795,"ç¨ĭåºı":2796,"ä½Ĳ":2797,"é¦ĸæ¬¡":2798,"æı¡":2799,"åį°åº¦":2800,"è¡ĮåĬ¨":2801,"å¼ĢæĶ¾":2802,"åħ¬åħ±":2803,"çŀ":2804,"æĶ¹åıĺ":2805,"åľŁåľ°":2806,"è·µ":2807,"æŃ£åľ¨":2808,"æĬµ":2809,"åĴ¨":2810,"è¿Ŀ":2811,"ä¹Ķ":2812,"æĩ":2813,"çĽĳçĿ£":2814,"éĢĥ":2815,"éģį":2816,"é»ĺ":2817,"è®Ńç»ĥ":2818,"åħ¬å¼Ģ":2819,"æİī":2820,"ç¾½":2821,"éĩįæĸ°":2822,"èģĶç½ĳ":2823,"å¨ľ":2824,"è·Ŀç¦»":2825,"èģĺ":2826,"éĻįä½İ":2827,"èĭĹ":2828,"ç¾İåħĥ":2829,"è¦Ĩ":2830,"åľ³":2831,"æĺ¯çĶ±":2832,"åħ¹":2833,"æľºåľº":2834,"å¹¶åľ¨":2835,"åĮ»åŃ¦":2836,"å±ı":2837,"æĭĵ":2838,"ä¸ľåĮĹ":2839,"åĲĹ":2840,"å¦¹":2841,"åĪ¸":2842,"çī¹æ®Ĭ":2843,"ç»ıå¸¸":2844,"of":2845,"çļ®èĤ¤":2846,"ä¸»æĮģ":2847,"åĬĽéĩı":2848,"ç£ģ":2849,"å¹³åĿĩ":2850,"ä¿Ħç½Ĺæĸ¯":2851,"IS":2852,"ç¾Ĭ":2853,"æķ¬":2854,"çªĹ":2855,"ç»ķ":2856,"é½¿":2857,"åĲ¨":2858,"é©¾":2859,"è¾½":2860,"è°±":2861,"ä¸ľè¥¿":2862,"ç¨ĭåº¦":2863,"ç»¿èī²":2864,"é£İéĻ©":2865,"èĢħçļĦ":2866,"500":2867,"æĸĩä»¶":2868,"ç¡®å®ļ":2869,"æ±Łèĭı":2870,"åĸ·":2871,"é«ĺçļĦ":2872,"åįļçī©":2873,"æģ¢":2874,"èħ¹":2875,"å®£å¸ĥ":2876,"åĽłç´ł":2877,"åħ³æ³¨":2878,"èĢģå¸Ī":2879,"ä¹¦è®°":2880,"åı¦ä¸Ģ":2881,"æº¶":2882,"åħ³éĶ®":2883,"çĪµ":2884,"å¤ļç§į":2885,"ed":2886,"ä¸ľåįĹ":2887,"å¹¶ä¸į":2888,"and":2889,"éĩįè¦ģçļĦ":2890,"36":2891,"2003":2892,"å¾ª":2893,"åħħåĪĨ":2894,"éĥ½æľī":2895,"äº©":2896,"ç¬¬äºĶ":2897,"åĴ¨è¯¢":2898,"åħ¶å®ŀ":2899,"çİ»":2900,"æ¶¯":2901,"æīĵéĢł":2902,"çĽ¸å½ĵ":2903,"åĪ·":2904,"é¥Ń":2905,"æ·±åľ³":2906,"å°ıåŃ¦":2907,"ç§»åĬ¨":2908,"ç¿°":2909,"å®¿":2910,"åĨįæ¬¡":2911,"æµĭè¯ķ":2912,"ä¿ĿéĻ©":2913,"è®¾æľī":2914,"æ»¨":2915,"ä¸»å¸Ń":2916,"åĪĹè½¦":2917,"æİ¨åĬ¨":2918,"æīİ":2919,"æµ®":2920,"ä½©":2921,"çĤ®":2922,"æŃ£å¸¸":2923,"ter":2924,"æĽ¹":2925,"è¯Ħä»·":2926,"è®°èĢħ":2927,"èĢĥè¯ķ":2928,"å´ĩ":2929,"éģ¿åħį":2930,"ç¬¬åįģ":2931,"åĬ³åĬ¨":2932,"é©±":2933,"ä»ĵ":2934,"å±ħæ°ĳ":2935,"é¬":2936,"çĴĥ":2937,"èµĦäº§":2938,"éĻĦè¿ĳ":2939,"è·³":2940,"æ·¡":2941,"è¿ĩåİ»":2942,"åĨ³èµĽ":2943,"æ¬²":2944,"çºªå¿µ":2945,"åŃ¦æľ¯":2946,"æģĲ":2947,"åĬĽçļĦ":2948,"èģĶç³»":2949,"æ¦ľ":2950,"åıĬåħ¶":2951,"éĥ¨çļĦ":2952,"éĻ·":2953,"ï¼īï¼ļ":2954,"æĸ¹ä¾¿":2955,"çİ©å®¶":2956,"åıªæĺ¯":2957,"é«ĺçº§":2958,"æĮĤ":2959,"åĪĨç±»":2960,"çº·":2961,"ç¢ĳ":2962,"çĶŁå¹³":2963,"å¥¶":2964,"æ¯ıä¸ª":2965,"37":2966,"èĳ¡":2967,"æĪĲæŀľ":2968,"å¹¿å·ŀ":2969,"æĿ¥æºĲ":2970,"190":2971,"çĤ¸":2972,"çĵľ":2973,"å¤ļä¸ª":2974,"éĴĪå¯¹":2975,"çĦ¦":2976,"æģ¢å¤į":2977,"ä¹ĭéĹ´çļĦ":2978,"ä¼ı":2979,"æŃĮæĽ²":2980,"éĹ²":2981,"å®ĥçļĦ":2982,"å¤ļæķ°":2983,"åįĹäº¬":2984,"çĶ¨çļĦ":2985,"åºĶå½ĵ":2986,"ãĢįãĢĤ":2987,"é¢Ĺ":2988,"å¤§åĪ©":2989,"æ²Ī":2990,"æľºåħ³":2991,"èĪĴ":2992,"ãĥ»":2993,"æĹ¨":2994,"æļĸ":2995,"è¾ŀ":2996,"å¤ªéĺ³":2997,"ç¾İæľ¯":2998,"åľ°çĲĨ":2999,"ç§ĳçłĶ":3000,"ãĥ¼":3001,"è¥¿åįĹ":3002,"ç©ºæ°Ķ":3003,"æµ¦":3004,"ãģ®":3005,"ç©Ĩ":3006,"å§Ĳ":3007,"æīĭæľº":3008,"ç»ª":3009,"çļĦæĥħåĨµ":3010,"ç¬¦åĲĪ":3011,"æĦıä¹ī":3012,"åĵ²":3013,"è¿ħ":3014,"æĢª":3015,"åŃ¦å®¶":3016,"ä»ĸä»¬çļĦ":3017,"èįĲ":3018,"å¯¼æ¼Ķ":3019,"æĬĵ":3020,"å®ŀè·µ":3021,"çĽ¸å¯¹":3022,"æķ¦":3023,"ä»Ĭå¹´":3024,"èµĦæł¼":3025,"è§ĦèĮĥ":3026,"åŃ¦ä¼ļ":3027,"çļĦéĩįè¦ģ":3028,"å£®":3029,"å°±ä¼ļ":3030,"åĩºåı£":3031,"éĶĭ":3032,"æ¡ĳ":3033,"æ¸¡":3034,"åħ·ä½ĵ":3035,"å°¤åħ¶":3036,"èĸĦ":3037,"ç»ıåİĨ":3038,"çİ¯ä¿Ŀ":3039,"75":3040,"åĭ¤":3041,"48":3042,"æİ¨è¿Ľ":3043,"è®°å½ķ":3044,"çī§":3045,"éĢĤåĲĪ":3046,"å®ħ":3047,"æ¼Ķåĩº":3048,"èĭ±è¯Ń":3049,"ä»Ĭå¤©":3050,"æĺ¯æĮĩ":3051,"åĲĮå¹´":3052,"ç»Łä¸Ģ":3053,"éĤĢ":3054,")ãĢĤ":3055,"å»ī":3056,"å¥³æĢ§":3057,"çļĦäºĭ":3058,"ot":3059,"æļĤ":3060,"è¥¿åĮĹ":3061,"ä¼ļåĳĺ":3062,"æķ´ä½ĵ":3063,"ay":3064,"èĢĥèĻĳ":3065,"èİī":3066,"åįļçī©é¦Ĩ":3067,"å°ĳå¹´":3068,"å¸¦æĿ¥":3069,"éĶģ":3070,"ä¼¸":3071,"åıĳæĮ¥":3072,"ä»¥åĲİ":3073,"éľį":3074,"è®ºæĸĩ":3075,"ä½ĵéªĮ":3076,"2002":3077,"æ§":3078,"èĢĹ":3079,"å·¥åħ·":3080,"è¾ī":3081,"78":3082,"æįķ":3083,"èĤĮ":3084,"æŁı":3085,"è¢Ń":3086,"ä¸»æķĻ":3087,"æ£Ĵ":3088,"å¤©æ´¥":3089,"èĹ¤":3090,"æģĭ":3091,"åķĨåĵģ":3092,"ä¸īåįģ":3093,"å½»":3094,"å¥¹çļĦ":3095,"æİªæĸ½":3096,"çºµ":3097,"ig":3098,"è¹":3099,"æĪĺæĸĹ":3100,"å°ĸ":3101,"æĮĩæĮ¥":3102,"æ¯ģ":3103,"æĢİä¹Ī":3104,"èĴ¸":3105,"38":3106,"åĲĪåĲĮ":3107,"åĩŃ":3108,"å®ĮåĸĦ":3109,"ä¸Ģå¹´":3110,"æ±¡æŁĵ":3111,"ç¿¼":3112,"æľĢå¤§çļĦ":3113,"æ¹ĸåįĹ":3114,"éĢĲæ¸Ĳ":3115,"èĤł":3116,"æĺĨ":3117,"åı·çº¿":3118,"æ°§åĮĸ":3119,"ä¸įå°ĳ":3120,"ä¸»é¢ĺ":3121,"éĥ½ä¼ļ":3122,"çĶŁæ¶¯":3123,"èĽĭçĻ½":3124,"å¤§éĻĨ":3125,"èµĸ":3126,"æ£ĭ":3127,"ĠW":3128,"çļĦä¸»è¦ģ":3129,"è®¾ç«ĭ":3130,"åĶ¯ä¸Ģ":3131,"åĵģè´¨":3132,"æĿĨ":3133,"å¤ļæ¬¡":3134,"çŃ¹":3135,"é©¶":3136,"éĻķ":3137,"æľīäºĽ":3138,"èĲĦ":3139,"ĠI":3140,"åŃĲçļĦ":3141,"èİ²":3142,"æŁ³":3143,"çĤī":3144,"ĠE":3145,"å¹´éĹ´":3146,"çº¤":3147,"èĥĮæĻ¯":3148,"èĳ¡èĲĦ":3149,"ç½Ĺé©¬":3150,"æŁĶ":3151,"éķ¿çļĦ":3152,"å¡«":3153,"çļĦä¸Ģç§į":3154,"300":3155,"éĥŃ":3156,"æĲľ":3157,"éĿ¢çļĦ":3158,"çİ°è±¡":3159,"åķĨåĬ¡":3160,"çİ»çĴĥ":3161,"å¤ļçļĦ":3162,"çĽ¸åĲĮ":3163,"åĩºæĿ¥":3164,"ç¡®ä¿Ŀ":3165,"å¹»":3166,"è§Ĩé¢ĳ":3167,"éĿ©åĳ½":3168,"è¯´æĺİ":3169,"åĢº":3170,"å¦ĤæŃ¤":3171,"ç»Łè®¡":3172,"è°ģ":3173,"è¿«":3174,"å½¢è±¡":3175,"éŁ©åĽ½":3176,"è´¤":3177,"è¥¿äºļ":3178,"åĹ":3179,"å±ķç¤º":3180,"äºļæ´²":3181,"é¢ģ":3182,"éĽĨä¸Ń":3183,"æĭįæĳĦ":3184,"çŁ¥åĲį":3185,"è´¸æĺĵ":3186,"ä¾ĽåºĶ":3187,"çĩķ":3188,"ir":3189,"å¹´è½»":3190,"è¯ķéªĮ":3191,"ia":3192,"ä¼Ļ":3193,"èĩ³ä»Ĭ":3194,"å½¼":3195,"ç²®":3196,"æİ¨å¹¿":3197,"st":3198,"æĶ»åĩ»":3199,"åľ°ä¸ĭ":3200,"åĮħè£ħ":3201,"çľŁæŃ£":3202,"åĮħåĲ«":3203,"çĸ«æĥħ":3204,"ent":3205,"å°ĺ":3206,"åĨħéĥ¨":3207,"å²Ń":3208,"ç¡ķ":3209,"é¬¼":3210,"èĤ¿":3211,"åĲĦç±»":3212,"ä¿±ä¹Ĳ":3213,"éŁ¦":3214,"åĩī":3215,"å¥Ī":3216,"éĶ¡":3217,"æĹģ":3218,"æ¯įäº²":3219,"çī©çĲĨ":3220,"ä¸Ńæĸĩ":3221,"Ġd":3222,"ä¼ĺè´¨":3223,"å®¶æĹı":3224,"im":3225,"èĤ¡ä»½":3226,"åŃĿ":3227,"æıĴ":3228,"âĢĵ":3229,"éĩįåºĨ":3230,"åľ¨æŃ¤":3231,"33":3232,"ç¢İ":3233,"èĲ¥éĶĢ":3234,"æĽ¾ç»ı":3235,"æ¡Ĥ":3236,"ä¾į":3237,"åİĺ":3238,"2001":3239,"çļĦå·¥ä½ľ":3240,"å¸¸è§ģ":3241,"æĺŃ":3242,"æŀĿ":3243,"ç»ıçĲĨ":3244,"çīĪæľ¬":3245,"ç¦»å¼Ģ":3246,"æĬ½":3247,"æķĪçİĩ":3248,"æ¬¢è¿İ":3249,"ä¹Łä¸į":3250,"è´¡çĮ®":3251,"ç»´æĬ¤":3252,"æł¼åħ°":3253,"çĶµåĬĽ":3254,"ç½ļ":3255,"ç¥¥":3256,"åĨľæĿĳ":3257,"å¤§ä¼ļ":3258,"è´«":3259,"èĲ¥åħ»":3260,"ul":3261,"å¥³åŃĲ":3262,"46":3263,"è½¦è¾Ĩ":3264,"èº«ä»½":3265,"åģ¶":3266,"éĥ¨éĺŁ":3267,"ä»įçĦ¶":3268,"åıĳå±ķçļĦ":3269,"åĲĦåľ°":3270,"æµ·åĨĽ":3271,"èĩªæ²»":3272,"32":3273,"âĢĻ":3274,"æ¯ıå¹´":3275,"æĸĩæĺİ":3276,"è£ħç½®":3277,"è¶ĭ":3278,"è²":3279,"éĺģ":3280,"åħ½":3281,"ç¦ıå»º":3282,"å£¤":3283,"éĵº":3284,"å¿Ĩ":3285,"å¹¿åľº":3286,"æĸĩçī©":3287,"åĨĪ":3288,"åĦ¿åŃĲ":3289,"æĬķåħ¥":3290,"åĲĪçĲĨ":3291,"å®ı":3292,"æĤī":3293,"çº¿è·¯":3294,"åıĤèĢĥ":3295,"çĹĩçĬ¶":3296,"æĪĲäºĨ":3297,"åĨĽäºĭ":3298,"çļĦéĹ®é¢ĺ":3299,"ä¸´åºĬ":3300,"çĶµè¯Ŀ":3301,"æĦŁè§ī":3302,"èµĽäºĭ":3303,"èį¯çī©":3304,"ut":3305,"è¿Ľè¡ĮäºĨ":3306,"é£Łçī©":3307,"åİŁåĪĻ":3308,"ag":3309,"æ·»":3310,"åİ¦":3311,"åĬ¨åĬĽ":3312,"åĲĪå¹¶":3313,"æľºåĻ¨":3314,"ç«Ł":3315,"äºĴèģĶç½ĳ":3316,"ä¸ĵè¾ĳ":3317,"èĬ¬":3318,"ãĢĭãĢĬ":3319,"ä¸ºä¸Ģ":3320,"mm":3321,"èĩªèº«":3322,"æĻĵ":3323,"ĠN":3324,"èį£èªī":3325,"éĿ¢å¯¹":3326,"ap":3327,"åĽĽå¹´":3328,"ä¸ªæľĪ":3329,"ç±»ä¼¼":3330,"çĤ¼":3331,"éĵĿ":3332,"åħĭæĸ¯":3333,"èµ¤":3334,"é¦ĸåħĪ":3335,"å¨±ä¹Ĳ":3336,"è´Ńä¹°":3337,"åĮºçļĦ":3338,"æĿŃ":3339,"å¥ĭ":3340,"åĪĨåŃĲ":3341,"è¶ĬæĿ¥":3342,"è£ħé¥°":3343,"åŃ¦ç§ĳ":3344,"åį³åı¯":3345,"æĦıè¯Ĩ":3346,"éĢĴ":3347,"ä¸ĺ":3348,"åįĵ":3349,"è¯ģæĺİ":3350,"åĮ¹":3351,"å¹´åľ¨":3352,"è¶ĬæĿ¥è¶Ĭ":3353,"æĦŁæŁĵ":3354,"æłı":3355,"çļĦå½±åĵį":3356,"çĹħæ¯Ĵ":3357,"æīĢåľ¨":3358,"è¡¨æ¼Ķ":3359,"æĦıå¤§åĪ©":3360,"å¸ĿåĽ½":3361,"å¯¸":3362,"æĹ©æľŁ":3363,"äººæ°ĳåħ±åĴĮåĽ½":3364,"åģļå¥½":3365,"çĶŁçļĦ":3366,"èµł":3367,"æİĴåĲį":3368,"å®īæİĴ":3369,"å§ľ":3370,"èī²çļĦ":3371,"çĽ´åĪ°":3372,"åĲĮæł·":3373,"æ»¤":3374,"äºŃ":3375,"æľºåĪ¶":3376,"å¦Ļ":3377,"åĲįåŃĹ":3378,"èħĬ":3379,"å¸Ĥéķĩ":3380,"çĶµè§Ĩåı°":3381,"ä¿±ä¹Ĳéĥ¨":3382,"åĪĽå»º":3383,"çĻĮ":3384,"éĨĴ":3385,"æĹ¦":3386,"çŃīå¥ĸ":3387,"47":3388,"è¡Ĺéģĵ":3389,"èī¯å¥½çļĦ":3390,"å¹´èĩ³":3391,"99":3392,"å¹¿æĴŃ":3393,"ation":3394,"ç¥Ŀ":3395,"åŃ¦ä½į":3396,"åĢ¾":3397,"æ¦Ĥå¿µ":3398,"éĩįå¤§":3399,"è®°è½½":3400,"ç®Ģç§°":3401,"æĭĴ":3402,"çĭ¬çī¹":3403,"iv":3404,"ä»Ķ":3405,"çłĤ":3406,"èĥİ":3407,"æ¯Ķå¦Ĥ":3408,"åħ¬åı¸çļĦ":3409,"æ²³åĮĹ":3410,"è¥¿çıŃ":3411,"åıĮæĸ¹":3412,"é«ĺåº¦":3413,"çķª":3414,"é¥°æ¼Ķ":3415,"ä¹Łåı¯ä»¥":3416,"è¥¿çıŃçīĻ":3417,"ä¹Łä¼ļ":3418,"çĸı":3419,"æŃ»äº¡":3420,"ç¥ŀç»ı":3421,"æĸĩç«ł":3422,"æ¶Īè´¹èĢħ":3423,"äºĶå¹´":3424,"æµħ":3425,"æĴ¤":3426,"æĿĤå¿Ĺ":3427,"éļıåĲİ":3428,"ä½¿å¾Ĺ":3429,"ãĥ³":3430,"å±ķå¼Ģ":3431,"55":3432,"Ġï¼Ī":3433,"æİ¨èįĲ":3434,"å¤§å°ı":3435,"æĮĩåĩº":3436,"Ġof":3437,"è¿Ļæł·çļĦ":3438,"çĵ·":3439,"èŀº":3440,"æī¹åĩĨ":3441,"åħ±æľī":3442,"åĬŀæ³ķ":3443,"äºĨä¸Ģä¸ª":3444,"çĮ«":3445,"æĢķ":3446,"èĴĻåı¤":3447,"um":3448,"éĩĮçļĦ":3449,"åıªè¦ģ":3450,"æĪĲéĥ½":3451,"ä»¿":3452,"ç»ĦåĲĪ":3453,"éĺ¿å°Ķ":3454,"æĬĢèĥ½":3455,"ä¸¥æł¼":3456,"è§Ĥä¼Ĺ":3457,"æĪĲçļĦ":3458,"å¤©çĦ¶":3459,"è®¤è¯Ĩ":3460,"æĭĨ":3461,"ç¥Ń":3462,"çĶŁéķ¿":3463,"å®īå¾½":3464,"æ¢¯":3465,"åŁºäºİ":3466,"åħ¬åħĥ":3467,"èĤĿ":3468,"æ³ķéĻ¢":3469,"âĦ":3470,"ç¬¬åħŃ":3471,"ä¼łæĴŃ":3472,"è®¡ç®Ĺæľº":3473,"ow":3474,"åĬŀåħ¬å®¤":3475,"å¤§éĥ¨åĪĨ":3476,"ä¸Ńåįİäººæ°ĳåħ±åĴĮåĽ½":3477,"æİ¥è§¦":3478,"od":3479,"è§£éĩĬ":3480,"åħ¬å¸ĥ":3481,"åĬ¨çĶ»":3482,"ç¾¤ä¼Ĺ":3483,"ç²ĺ":3484,"34":3485,"âĢĺ":3486,"åĩłä¹İ":3487,"è¿ĲçĶ¨":3488,"æĶ¹åĸĦ":3489,"çºªå½ķ":3490,"å¤įæĿĤ":3491,"æľ¬ä¹¦":3492,"èĭ±æĸĩ":3493,"äººå£«":3494,"æĥ¯":3495,"çłĶç©¶æīĢ":3496,"è´·":3497,"è´¹çĶ¨":3498,"åıĳåĬ¨":3499,"èĥ¸":3500,"åįıè®®":3501,"ĠK":3502,"åĿĬ":3503,"åĲķ":3504,"æĦıè§ģ":3505,"æµģè¡Į":3506,"çĤĴ":3507,"æĺİç¡®":3508,"èĦı":3509,"å§Ķä¼ļ":3510,"1999":3511,"ä½ľå®¶":3512,"85":3513,"æ£®æŀĹ":3514,"æİ¨åĩº":3515,"åľ°ä½į":3516,"çĶľ":3517,"çĬ¹":3518,"èĮ¨":3519,"å£³":3520,"è·ĥ":3521,"è²Į":3522,"è®¤è¯ģ":3523,"ä¸Ĭå¸Ĥ":3524,"æħĪ":3525,"æī¶":3526,"åİĺç±³":3527,"ä¸Ģä¸ĭ":3528,"åĽ½çİĭ":3529,"æĮĳæĪĺ":3530,"ä¿Ĭ":3531,"çĬ¶åĨµ":3532,"çļĦè¯Ŀ":3533,"æııè¿°":3534,"åľ°åĽ¾":3535,"èħ¾":3536,"ä¼Ĳ":3537,"åĪĽä¸ļ":3538,"æĪĲéķ¿":3539,"é«ĺçŃī":3540,"èĤº":3541,"çī©æµģ":3542,"æĹ¶çļĦ":3543,"å¿ĺ":3544,"èħĶ":3545,"æµĭéĩı":3546,"éĢĿ":3547,"ç¬¬ä¸Ģæ¬¡":3548,"çļĦçłĶç©¶":3549,"èĳ£äºĭ":3550,"åľ°äº§":3551,"çİĦ":3552,"éĻķè¥¿":3553,"è´º":3554,"çĶµè§Ĩåī§":3555,"å¤Ħäºİ":3556,"åħĥç´ł":3557,"æĪĪ":3558,"äººåľ¨":3559,"å°½ç®¡":3560,"æľºçļĦ":3561,"å°¿":3562,"å¢ŀå¼º":3563,"åıªèĥ½":3564,"çŃīçŃī":3565,"èĬ³":3566,"åĵģç§į":3567,"ä¸Ģä½į":3568,"è§īå¾Ĺ":3569,"ï¼ļãĢĬ":3570,"å°Ŀ":3571,"å¹¿å¤§":3572,"ç§Ĵ":3573,"çģĮ":3574,"äºĳåįĹ":3575,"æĤ¬":3576,"æĹłè®º":3577,"ä¸ĭéĻį":3578,"äºĭåĬ¡":3579,"æ·±åħ¥":3580,"op":3581,"æĦĪ":3582,"çĲĨè§£":3583,"ä¹ĭå¤ĸ":3584,"39":3585,"em":3586,"1998":3587,"èĥĥ":3588,"çļĦåľ°æĸ¹":3589,"æī¾åĪ°":3590,"ä¸ĭæĿ¥":3591,"èµĭ":3592,"å±±è¥¿":3593,"åŃŁ":3594,"åľ°çĲĥ":3595,"âĦĥ":3596,"åĽ½æ°ĳ":3597,"æ¯«ç±³":3598,"åħģ":3599,"èĲ§":3600,"åĬĽäºİ":3601,"èĦ¸":3602,"åĮĢ":3603,"ç¼ĸè¾ĳ":3604,"æ¹ĸåĮĹ":3605,"æ¸ł":3606,"ä¿¡åı·":3607,"è§Ĥå¯Ł":3608,"åŀĤ":3609,"åįıåĬ©":3610,"çĿ¡":3611,"ç²Ĺ":3612,"çļĩå¸Ŀ":3613,"æĶ¹ä¸º":3614,"åĪ¶å®ļ":3615,"é¼ł":3616,"æĳĦå½±":3617,"æĹ¥å¸¸":3618,"åľ¨ä¸ŃåĽ½":3619,"æ¯ıå¤©":3620,"å¤ªå¹³":3621,"æĻºæħ§":3622,"è¿ħéĢŁ":3623,"çĶµèĦĳ":3624,"å¤ļå¹´":3625,"åģ¿":3626,"æĬ¢":3627,"èĳ¬":3628,"æľºè½¦":3629,"å¼ĺ":3630,"èĢĮæĺ¯":3631,"æĭ¼":3632,"å±ħä½ı":3633,"æ¶īåıĬ":3634,"éĩĩåıĸ":3635,"è¿Ī":3636,"åŃķ":3637,"ä¸įè¶³":3638,"åĨĽéĺŁ":3639,"éģĤ":3640,"å®ŀéªĮå®¤":3641,"æŃ¦æ±ī":3642,"65":3643,"æĬ¥éģĵ":3644,"æĳĺ":3645,"å®ĺæĸ¹":3646,"æŁ´":3647,"çĨĻ":3648,"åħ·å¤ĩ":3649,"åįµ":3650,"è¦ĨçĽĸ":3651,"åŃ¦èĢħ":3652,"åħĦå¼Ł":3653,"å¯Ħ":3654,"çĵ¶":3655,"æ¬£":3656,"ç¢į":3657,"ä¸¤ç§į":3658,"æľīæīĢ":3659,"ä¸ľäº¬":3660,"çĺ¤":3661,"åĲ¸å¼ķ":3662,"è¿ĲåĬ¨åĳĺ":3663,"é¹¿":3664,"æķ¢":3665,"æ¶µ":3666,"çķħ":3667,"ec":3668,"èµĦæľ¬":3669,"äºĮå¹´":3670,"èĤĥ":3671,"åī²":3672,"çīµ":3673,"æľīæľº":3674,"Ġt":3675,"èĭıèģĶ":3676,"éħįåĲĪ":3677,"è´¢æĶ¿":3678,"çļĦæĸ¹å¼ı":3679,"æ±Łè¥¿":3680,"âĢĿï¼Ī":3681,"åħįè´¹":3682,"çĲĨäºĭ":3683,"ä¸ŃåĮ»":3684,"è§£æĶ¾":3685,"æ±Ĺ":3686,"çĪ¶æ¯į":3687,"ä¸įåĪ°":3688,"çļĦåīį":3689,"æľīäºº":3690,"å®Įæķ´":3691,"å¨ĺ":3692,"åĬłæĭ¿":3693,"æĢ»ç»Ł":3694,"äººæ°ĳæĶ¿åºľ":3695,"æ¤Ĵ":3696,"----":3697,"éĺŁä¼į":3698,"å¢ĥåĨħ":3699,"è¿Ľå£«":3700,"ä»²":3701,"åĽ°éļ¾":3702,"ç¨¿":3703,"åįĩçº§":3704,"å¡ĺ":3705,"é¢ľèī²":3706,"ï¼ı":3707,"åĮ»çĶŁ":3708,"çľŁå®ŀ":3709,"åĽºå®ļ":3710,"è´¦":3711,"å°ıç»Ħ":3712,"æĹ¥åľ¨":3713,"1000":3714,"æĬļ":3715,"ä¹ı":3716,"éĻĲåĪ¶":3717,"Ð°":3718,"çĨĬ":3719,"éĩıçļĦ":3720,"éģµ":3721,"ç»ıåħ¸":3722,"æĺ¯ä¸ŃåĽ½":3723,"æīĭæľ¯":3724,"é¼»":3725,"åĬ²":3726,"é£ŀè¡Į":3727,"ä»£çĲĨ":3728,"éĥ¨éķ¿":3729,"åħ¶å®ĥ":3730,"éĤ£äºĽ":3731,"è¢ĭ":3732,"å¥³åĦ¿":3733,"åħĥå¹´":3734,"åĨĴ":3735,"åı¤ä»£":3736,"èĬĿ":3737,"å»ºéĢł":3738,"æŀļ":3739,"æ¼ı":3740,"èİİ":3741,"ç®Ń":3742,"çĶµæ±ł":3743,"ä¹¾":3744,"åĬłä¸Ĭ":3745,"ä¸ĢåĪĩ":3746,"èĳĹä½ľ":3747,"çĽ¸ä¿¡":3748,"åĽŀåĪ°":3749,"èµ¢å¾Ĺ":3750,"æ··åĲĪ":3751,"èµ´":3752,"æĸĩåŃĹ":3753,"å»ºæĪĲ":3754,"éĺĢ":3755,"å·¥åİĤ":3756,"è¡¨è¾¾":3757,"åĿĳ":3758,"95":3759,"ä¸ĢåĲį":3760,"og":3761,"av":3762,"åĬ¨ä½ľ":3763,"å¤©ä¸ĭ":3764,"éĢļçŁ¥":3765,"è´¾":3766,"éŃĤ":3767,"å¾ªçİ¯":3768,"æ³µ":3769,"å¯¹è±¡":3770,"1997":3771,"ä¹¦æ³ķ":3772,"åĳĬè¯ī":3773,"åŀĭçļĦ":3774,"åī§æĥħ":3775,"æĶ¹éĢł":3776,"éĢĨ":3777,"åŃ¤":3778,"çĭĤ":3779,"è¶ħçº§":3780,"å³¡":3781,"æłĩå¿Ĺ":3782,"æľīçĿĢ":3783,"åĲĮåŃ¦":3784,"é£ŀæľº":3785,"å¹½":3786,"2023":3787,"âĨ":3788,"æī°":3789,"åĴ¸":3790,"æĳĨ":3791,"åº¦çļĦ":3792,"æĺĤ":3793,"èĲ½å®ŀ":3794,"åħļåĳĺ":3795,"èµ¶":3796,"çĽĹ":3797,"åīįçļĦ":3798,"æ¶Īæģ¯":3799,"ä¸¤äºº":3800,"èļĢ":3801,"äº§åĵģçļĦ":3802,"è£ħå¤ĩ":3803,"çº¦ç¿°":3804,"åįłåľ°":3805,"å®ļä¹ī":3806,"åİ»ä¸ĸ":3807,"åİŁæĸĻ":3808,"çļĦæĹ¶éĹ´":3809,"çº¢èī²":3810,"è¥¿éĥ¨":3811,"åįģå¹´":3812,"è§ĦåĪĻ":3813,"çłĸ":3814,"ä¸°å¯ĮçļĦ":3815,"éĺ²æŃ¢":3816,"æĲº":3817,"èĽĩ":3818,"æ¼«çĶ»":3819,"æī¿æĭħ":3820,"äººå·¥":3821,"é¸£":3822,"è¡°":3823,"çĮİ":3824,"ä¸ľæĸ¹":3825,"è½¨éģĵ":3826,"å¹¼åĦ¿":3827,"æľ¬èº«":3828,"åĬłæĭ¿å¤§":3829,"é¢ĨåħĪ":3830,"åıĪç§°":3831,"æī©å¤§":3832,"åĳ¨è¾¹":3833,"çĽ®å½ķ":3834,"çļĦåŁºç¡Ģ":3835,"çħ®":3836,"éĢĤåºĶ":3837,"é«ĺä¸Ń":3838,"äºĭæķħ":3839,"ä¸ĵéĹ¨":3840,"æİĮæı¡":3841,"å®¶çļĦ":3842,"åĪĨäº«":3843,"åĩłä¸ª":3844,"æ°ĳéĹ´":3845,"ä¸įä¹ħ":3846,"å½ĵçĦ¶":3847,"åľ°éĵģ":3848,"åľ¨è¿Ļ":3849,"æ¯ķä¸ļäºİ":3850,"æľĢåĪĿ":3851,"æī«":3852,"å²³":3853,"éĩįè§Ĩ":3854,"æĢ§åĴĮ":3855,"æ¶¨":3856,"ç§įæ¤į":3857,"è¢«ç§°ä¸º":3858,"æĻ¨":3859,"ie":3860,"çº²":3861,"åįģåħŃ":3862,"æĸ¹éĿ¢çļĦ":3863,"æĭ³":3864,"æĿ¥çľĭ":3865,"æĥ³è¦ģ":3866,"æĸ¤":3867,"çĸĨ":3868,"éĿĸ":3869,"æµ©":3870,"çŃīåľ°":3871,"è¯ŀ":3872,"æŀĦæĪĲ":3873,"çĻ½èī²":3874,"æķĻç»ĥ":3875,"æĹłçº¿":3876,"æĤ²":3877,"oc":3878,"æ¯Ķä¾ĭ":3879,"1996":3880,"æħķ":3881,"å¤§èµĽ":3882,"çĽ¸åºĶ":3883,"åĩ»è´¥":3884,"å°Ĩåħ¶":3885,"èŀįåĲĪ":3886,"éĺħè¯»":3887,"è¯ģåĪ¸":3888,"æŃ£ç¡®":3889,"å¾Ģå¾Ģ":3890,"æĪĲç«ĭäºİ":3891,"åĩ½":3892,"åľ¨çº¿":3893,"ä¹ĭä¸Ń":3894,"æĬĳ":3895,"è¿ĽæŃ¥":3896,"æĴŀ":3897,"æĸľ":3898,"æĴĴ":3899,"å°±ä¸ļ":3900,"åĬŀçĲĨ":3901,"çĶŁäºİ":3902,"ä¸»è§Ĵ":3903,"åĽĬ":3904,"çİ°å®ŀ":3905,"âĹ":3906,"èĭ±éĽĦ":3907,"æ»ļ":3908,"ç¬¬ä¸Ģä¸ª":3909,"ç¡ķå£«":3910,"æĬ±":3911,"æĴ°":3912,"ä¼Ĺå¤ļ":3913,"æĹ¶å°ļ":3914,"éĺĶ":3915,"èģĮå·¥":3916,"ä¸ºä»Ģä¹Ī":3917,"æľĢæĹ©":3918,"å®ŀè¡Į":3919,"æ·®":3920,"åĨľæ°ĳ":3921,"èĶ¡":3922,"44":3923,"çĽ¸æ¯Ķ":3924,"çªģçł´":3925,"è¿½æ±Ĥ":3926,"ĠJ":3927,"èĥĨ":3928,"éĢīä¸¾":3929,"çľģçº§":3930,"çļĦäº§åĵģ":3931,"æİ¢ç´¢":3932,"åĸĿ":3933,"è¯Ħä¼°":3934,"ï¼īï¼Ľ":3935,"å®ª":3936,"æµĨ":3937,"æłª":3938,"è¯¦ç»Ĩ":3939,"ä»¤äºº":3940,"ä¸Ģå®¶":3941,"01":3942,"èĮĤ":3943,"åįģåħ«":3944,"åĭĭ":3945,"çº¤ç»´":3946,"æŃĮæīĭ":3947,"å¿ħè¦ģ":3948,"ç¾İä¸½":3949,"çĻ»è®°":3950,"ä»°":3951,"è°Ĳ":3952,"è¯Ħä¸º":3953,"åĻ¨çļĦ":3954,"åŁºæľ¬ä¿¡æģ¯":3955,"1990":3956,"å¤§çº¦":3957,"çĪ±æĥħ":3958,"88":3959,"ä¼łè¯´":3960,"åĪĻæĺ¯":3961,"èĳĽ":3962,"èĢķ":3963,"å®¤åĨħ":3964,"æ¼ĶåĶ±":3965,"åĮĸå·¥":3966,"å»ºäºİ":3967,"æİĺ":3968,"æī£":3969,"åĬłçĽŁ":3970,"çĶ·åŃĲ":3971,"ä¸ŃéĹ´":3972,"ç³»ç»ŁçļĦ":3973,"æĸ¯åĿ¦":3974,"åĮĹéĥ¨":3975,"éĵ¸":3976,"çĳŁ":3977,"è´¢åĬ¡":3978,"å°±åı¯ä»¥":3979,"åı¯èĥ½ä¼ļ":3980,"å¿§":3981,"ç»ĻäºĪ":3982,"å¹¿è¥¿":3983,"èĤ¾":3984,"åĲįçļĦ":3985,"ä¼ģä¸ļçļĦ":3986,"éħįå¥Ĺ":3987,"éĢĬ":3988,"å¹²éĥ¨":3989,"çĭ±":3990,"ä½Ĩåľ¨":3991,"æł¡åĽŃ":3992,"åĽ½çļĦ":3993,"æ°ĶåĢĻ":3994,"1995":3995,"ä¼ĺåĮĸ":3996,"éģ£":3997,"ç¤ºèĮĥ":3998,"å¤§å¤ļæķ°":3999,"éĴ»":4000,"åłĨ":4001,"èľľ":4002,"æ¨¡åŀĭ":4003,"å¿½":4004,"å¥¥è¿Ĳ":4005,"ç¬¬ä¸ĥ":4006,"åįıè°ĥ":4007,"çº½çº¦":4008,"ç§°åı·":4009,"åĽ¢ä½ĵ":4010,"æĻ¯åĮº":4011,"åĲ¸æĶ¶":4012,"åİŁçĲĨ":4013,"å¥Ķ":4014,"ä»¥ä¸º":4015,"åıĳçĶµ":4016,"å±ķè§Ī":4017,"æĭĴç»Ŀ":4018,"è¸ª":4019,"ĠO":4020,"åŁİåĮº":4021,"å¸ħ":4022,"400":4023,"æ°¨":4024,"æĪĲå°±":4025,"çİ°æľī":4026,"æĮĸ":4027,"çł´åĿı":4028,"å¸ĪèĮĥ":4029,"æ¸Ķ":4030,"æ±ģ":4031,"å¹´è¢«":4032,"åĨ¯":4033,"çĭĹ":4034,"ç¨į":4035,"åħħæ»¡":4036,"åľ°åĿĢ":4037,"66":4038,"èģĶéĤ¦":4039,"åħ´è¶£":4040,"æľīä¸Ģä¸ª":4041,"éŁµ":4042,"ãĢı":4043,"æľīæĹ¶":4044,"å·¥ä½ľçļĦ":4045,"ãĢİ":4046,"ĠV":4047,"èħ¿":4048,"åıĻ":4049,"éĥģ":4050,"è¾£":4051,"æĶ¯ä»ĺ":4052,"äº«åıĹ":4053,"çĽ¸äºĴ":4054,"å¼ºåº¦":4055,"150":4056,"å¿į":4057,"å½±çīĩ":4058,"å°Ķæĸ¯":4059,"å¤¹":4060,"çļĦæ°´":4061,"åıįæĺł":4062,"ab":4063,"åĳ¨åĽ´":4064,"æĽ´æĸ°":4065,"å®ŀåĬĽ":4066,"åį¿":4067,"ç»§æī¿":4068,"é©¾é©¶":4069,"ä½ĵçİ°":4070,"æĪĲçĨŁ":4071,"å¹¸ç¦ı":4072,"èĬ¯":4073,"éĢīæīĭ":4074,"ç»´ä¿®":4075,"çĭ®":4076,"ä¸Ńåħ±":4077,"çĲĨæĥ³":4078,"ä¾Ŀæį®":4079,"èİ·å¾ĹäºĨ":4080,"ä¸»ç®¡":4081,"åĩĮ":4082,"åĽ½åĬ¡":4083,"ä¸įåĨį":4084,"åŁºåĽł":4085,"åľ°åĮºçļĦ":4086,"æĭīæĸ¯":4087,"49":4088,"ç¼Ŀ":4089,"åĩĨç¡®":4090,"åīª":4091,"åįģä¸ī":4092,"èħº":4093,"éĤĢè¯·":4094,"å¯¹æĸ¹":4095,"çĩ¥":4096,"ä¸Ī":4097,"1994":4098,"éĢļä¿¡":4099,"åįľ":4100,"åĺ´":4101,"å¦Ĥä»Ĭ":4102,"éĽ¾":4103,"éĹª":4104,"äº¨":4105,"éŀĭ":4106,"åµ":4107,"éĨĩ":4108,"æµ·æ´ĭ":4109,"ÃĹ":4110,"æĹº":4111,"æľ¬ç§ĳ":4112,"æ·ĺ":4113,"æįĲ":4114,"äººçĶŁ":4115,"ãĦ":4116,"å¹´é¾Ħ":4117,"åĥ§":4118,"åľ°éľĩ":4119,"åĲ¯åĬ¨":4120,"å¼¯":4121,"å¯¹æīĭ":4122,"è¯Ħè®º":4123,"é«ĺæł¡":4124,"å©Ĩ":4125,"æĺ¯ä»¥":4126,"ä¹łæĥ¯":4127,"76":4128,"èĢĮè¨Ģ":4129,"åıĶ":4130,"å¹³æĸ¹åħ¬éĩĮ":4131,"ç¾İçļĦ":4132,"æ°ĳä¸»":4133,"çªģåĩº":4134,"åľºæīĢ":4135,"ä¼ļè®¡":4136,"çĶµåĬ¨":4137,"é¢Ī":4138,"è¾¨":4139,"Ð¾":4140,"åįĴ":4141,"æĲ¬":4142,"å¼¥":4143,"åĪ°è¾¾":4144,"éĩĮæĸ¯":4145,"ä¸ĵåĪ©":4146,"æĪĴ":4147,"æľŁçļĦ":4148,"åį³ä½¿":4149,"å¦Ĥä¸ĭ":4150,"èŁ":4151,"ä¸»æ¼Ķ":4152,"æĶ¾åľ¨":4153,"çī¹åĪ«æĺ¯":4154,"æıĲä¾ĽäºĨ":4155,"æķ°åŃ¦":4156,"æĤ¨çļĦ":4157,"ä¸ĩäºº":4158,"æĦıæĢĿ":4159,"è¯ģä¹¦":4160,"é»ĳèī²":4161,"æľ´":4162,"è®¨è®º":4163,"çĶ¨æĿ¥":4164,"çī©ç§į":4165,"è¡Ķ":4166,"å®ļä½į":4167,"ç¨Ģ":4168,"ä½¿çĶ¨çļĦ":4169,"__":4170,"éĤĵ":4171,"éħ±":4172,"çĦĬ":4173,"çĽĨ":4174,"èįĴ":4175,"èµĲ":4176,"åĪ°çļĦ":4177,"å¹¶äºİ":4178,"ra":4179,"åįģäºĶ":4180,"åķĨæłĩ":4181,"æĹ¥èµ·":4182,"èĩ´åĬĽäºİ":4183,"æĳĩ":4184,"ri":4185,"é«ĺæķĪ":4186,"å¸ĮèħĬ":4187,"å¼ºçļĦ":4188,"æıŃ":4189,"è¡¨æĺİ":4190,"åľ¨äºİ":4191,"çº¿çļĦ":4192,"æĪ¿å±ĭ":4193,"èħ°":4194,"ç¼´":4195,"å½ĵä¸Ń":4196,"å½¢æĢģ":4197,"æĪĲåĪĨ":4198,"çŁ³æ²¹":4199,"åıĺå¾Ĺ":4200,"æĿ¥åĪ°":4201,"å®ĹæķĻ":4202,"å¯ĵ":4203,"1992":4204,"åħ¬ä¸»":4205,"éĢıè¿ĩ":4206,"ä¸ĸçķĮæĿ¯":4207,"å°Ĩä¼ļ":4208,"å½°":4209,"BA":4210,"å§ĭç»Ī":4211,"æł·çļĦ":4212,"æĭĮ":4213,"th":4214,"å±¥":4215,"éģĹåĿĢ":4216,"æŃ¤æ¬¡":4217,"æµģç¨ĭ":4218,"èľĤ":4219,"å¿«ä¹Ĳ":4220,"42":4221,"å¤§éģĵ":4222,"98":4223,"å¦®":4224,"çĽ¾":4225,"ä¸Ľ":4226,"åĽłèĢĮ":4227,"ç§ĺä¹¦":4228,"å¤ĸçļĦ":4229,"é¥®é£Ł":4230,"åĲĦä¸ª":4231,"æłĸ":4232,"æĶ¾åħ¥":4233,"å¿Ļ":4234,"ä¸ĢæĿ¡":4235,"1993":4236,"åĵªäºĽ":4237,"æ½ĺ":4238,"æĦŁåĪ°":4239,"ä½ĽæķĻ":4240,"çļĦå¤ĸ":4241,"æ³³":4242,"èĥľåĪ©":4243,"æĢĴ":4244,"æł¡éķ¿":4245,")ãĢģ":4246,"æŁ¯":4247,"é³į":4248,"éĶĪ":4249,"æľīäºĨ":4250,"ä¼ļçļĦ":4251,"è¿ĽæĶ»":4252,"åįĹéĥ¨":4253,"æĶ¶èĹı":4254,"é¢Ħéĺ²":4255,"çĲ³":4256,"ç¦ħ":4257,"ä¼ĳéĹ²":4258,"æľĢè¿ĳ":4259,"é¢ĳéģĵ":4260,"å£°éŁ³":4261,"çļĦæĸ¹æ³ķ":4262,"åį°åĪ·":4263,"NA":4264,"åĲ¹":4265,"åī©":4266,"ãĢįï¼Ī":4267,"åĲįåįķ":4268,"å¥ĳ":4269,"åĲĦé¡¹":4270,"å¹³è¡¡":4271,"èĩªè¡Į":4272,"éħįç½®":4273,"æ²ŁéĢļ":4274,"èĳ±":4275,"å¤§æĪĺ":4276,"ä¸§":4277,"äººä½ĵ":4278,"é¥¼":4279,"è§Ĵåº¦":4280,"çī©çļĦ":4281,"å¯»æī¾":4282,"å®Ļ":4283,"Ch":4284,"åĲĲ":4285,"åįĹåĮĹ":4286,"åıī":4287,"è¶ĭåĬ¿":4288,"å·´é»İ":4289,"åŁºçĿ£":4290,"é¢Ħè®¡":4291,"éľ¸":4292,"èµĦè®¯":4293,"....":4294,"Ġç¬¬":4295,"æ»©":4296,"ä¾ł":4297,"çĤŃ":4298,"åĢ¼å¾Ĺ":4299,"ä¸ĢçĤ¹":4300,"çŃīçº§":4301,"èĩªæĪĳ":4302,"èĢĢ":4303,"éĦ":4304,"æ£ī":4305,"é©¬æĿ¥":4306,"æĴŃåĩº":4307,"ä¸Ĭä¸ĭ":4308,"å©´":4309,"æĮĩæłĩ":4310,"çĻ¾åº¦":4311,"æ°¢":4312,"åı¯éĿł":4313,"çļĦæľįåĬ¡":4314,"56":4315,"ä¸²":4316,"å½Ń":4317,"åĩºçĶŁäºİ":4318,"åĽ¾ä¹¦é¦Ĩ":4319,"å¦»åŃĲ":4320,"å°ıçļĦ":4321,"é»Ħéĩĳ":4322,"ers":4323,"ä¿ĿåŃĺ":4324,"åĭĥ":4325,"St":4326,"åľ°è´¨":4327,"åıĺæĪĲ":4328,"ä¸»åĬ¨":4329,"å¯¹å¤ĸ":4330,"å·¥ç¨ĭå¸Ī":4331,"å¥´":4332,"ãĢī":4333,"åĮĹäº¬å¸Ĥ":4334,"åĳĪçİ°":4335,"ç»Łæ²»":4336,"ä¸Ļ":4337,"è¯ĬæĸŃ":4338,"æ³ķè§Ħ":4339,"ell":4340,"åĽĽä¸ª":4341,"æī®":4342,"è¢ģ":4343,"æķĻåłĤ":4344,"é¡ºåĪ©":4345,"é¢ĩ":4346,"èĢĮä¸į":4347,"ard":4348,"è¿Ľåı£":4349,"æŀ¢":4350,"ãĢĪ":4351,"è¿Ļæ¬¡":4352,"æīĭæ®µ":4353,"ou":4354,"æ¼Ĩ":4355,"ill":4356,"åľ°çĤ¹":4357,"æĽ´å¤ļçļĦ":4358,"åĽ½åĬ¡éĻ¢":4359,"ä¸Ĭè¿°":4360,"æĢ§è´¨":4361,"è¥¿å®ī":4362,"æľĢæĸ°":4363,"éĶ¦æłĩ":4364,"æĶ¶éĽĨ":4365,"æİĪäºĪ":4366,"é£ŁçĶ¨":4367,"ï¼ļãĢĮ":4368,"æ¹ĺ":4369,"å¯¨":4370,"æŃ¤æĹ¶":4371,"çļĦçĶŁæ´»":4372,"çĽĳæµĭ":4373,"çľŁçļĦ":4374,"è´ŀ":4375,"çī¹æĢ§":4376,"ç¿ł":4377,"Ġåľ¨":4378,"åħįçĸ«":4379,"å¡ĳæĸĻ":4380,"ç¡«":4381,"æµ¸":4382,"åį±éĻ©":4383,"åģļåĪ°":4384,"çĪ¸":4385,"ä½ıå®ħ":4386,"åıł":4387,"åıĽ":4388,"å»Ĭ":4389,"ä»ªåĻ¨":4390,"äºĭå®ŀ":4391,"éħįéŁ³":4392,"éĩĩè´Ń":4393,"æŃ¦åĻ¨":4394,"æİ¥è¿ĳ":4395,"å°¤åħ¶æĺ¯":4396,"çļĦè®¾è®¡":4397,"èī²å½©":4398,"æª":4399,"åĨ»":4400,"æįŁå¤±":4401,"æĴĳ":4402,"æĪĺå½¹":4403,"è·Į":4404,"çłĶç©¶çĶŁ":4405,"æ¾³å¤§":4406,"éĿĴå²Ľ":4407,"å¹¶æ²¡æľī":4408,"äººæķ°":4409,"æĪĸæĺ¯":4410,"æīĢè°ĵ":4411,"åıįå¯¹":4412,"åĪĨç¦»":4413,"åĪ¶åĵģ":4414,"çŃīäºº":4415,"ä¸»è¦ģæĺ¯":4416,"æľ¬æ¬¡":4417,"å¤±åİ»":4418,"éĻ¢éķ¿":4419,"ä¿ĿçķĻ":4420,"åıĤèµĽ":4421,"åĬłåĿ¡":4422,"68":4423,"æ°Ķä½ĵ":4424,"å¤§å¸Ī":4425,"èĩ³å°ĳ":4426,"âĨĴ":4427,"åĿĿ":4428,"å²ģçļĦ":4429,"åİ¨":4430,"æĵħ":4431,"æ²»çĲĨ":4432,"ç´łè´¨":4433,"ä¹¦çĶ»":4434,"åħļå§Ķ":4435,"å¤ļå°ĳ":4436,"æĽ´æĺ¯":4437,"è®ºåĿĽ":4438,"åĪ©çĽĬ":4439,"æĹ¥æľŁ":4440,"åħ±äº§":4441,"è´Łè´£äºº":4442,"çĲĥåľº":4443,"è¿Ł":4444,"åľ°éĿ¢":4445,"ĠçļĦ":4446,"åıĳå°Ħ":4447,"58":4448,"çĽĳç®¡":4449,"è£Ķ":4450,"èĥ½éĩı":4451,"æĻ¯è§Ĥ":4452,"èį£èİ·":4453,"æľįè£ħ":4454,"éļ¾ä»¥":4455,"ov":4456,"è´Ŀå°Ķ":4457,"ä¸Ģä½ĵ":4458,"ak":4459,"ĠSt":4460,"å¹¿ä¸ľçľģ":4461,"Ġï¼Į":4462,"èĩªä¸»":4463,"é¸¿":4464,"ç»Īäºİ":4465,"éĺ¿æĭī":4466,"ä»¥åīį":4467,"èĳĹåĲįçļĦ":4468,"çºº":4469,"åĲ«æľī":4470,"ä½ľæĪĺ":4471,"ç¦Ħ":4472,"èĢĮæĪĲ":4473,"ä¼¦æķ¦":4474,"è°ĥèĬĤ":4475,"æīĢå±ŀ":4476,"å´İ":4477,"åħ¶åĲİ":4478,"èīĩ":4479,"éĢĤçĶ¨äºİ":4480,"ä¸Ńæľī":4481,"å¦ĥ":4482,"43":4483,"æ¡Ĩ":4484,"è¾°":4485,"æ£ĢéªĮ":4486,"ä¸ĵä¸ļçļĦ":4487,"æĻ®éģį":4488,"æĸ°åĬłåĿ¡":4489,"åįģåĽĽ":4490,"æ»´":4491,"åı¯ä»¥åľ¨":4492,"åľ°çļĦ":4493,"åĪĽåĬŀ":4494,"éħ¶":4495,"ä½ľä¸ļ":4496,"ç¿»è¯ĳ":4497,"BN":4498,"éļ¶å±ŀäºİ":4499,"çĥ¤":4500,"ä½ľæĽ²":4501,"æ¡Į":4502,"96":4503,"æĿī":4504,"ä¸īè§Ĵ":4505,"æĿŃå·ŀ":4506,"åľºæĻ¯":4507,"æĢ»éĥ¨":4508,"å¼ºåĮĸ":4509,"æĩĤ":4510,"åĬłå¿«":4511,"èĭ±æł¼åħ°":4512,"è¾Ĳ":4513,"ç¢§":4514,"åģľæŃ¢":4515,"ä»ªå¼ı":4516,"èĶ¬":4517,"æľ¬æĸĩ":4518,"èĢĮåľ¨":4519,"åĳ½åĲį":4520,"å¾Īå¤§":4521,"è®©äºº":4522,"ç»´æĮģ":4523,"ce":4524,"çļĦä½ľçĶ¨":4525,"éģ¥":4526,"ä¸ľéĥ¨":4527,"ç½ĳä¸Ĭ":4528,"æĤł":4529,"å¸ĥå±Ģ":4530,"æŁĲäºĽ":4531,"éĺŁçļĦ":4532,"å½ĵä»£":4533,"çĮĽ":4534,"ä¸Ģçº§":4535,"èī¯å¥½":4536,"èĪŀåı°":4537,"ç°":4538,"åĽ¾çīĩ":4539,"è·¯çº¿":4540,"å±ķçİ°":4541,"ä¼ļåľ¨":4542,"TC":4543,"ç¡ħ":4544,"æµģéĩı":4545,"æ¾³éĹ¨":4546,"âĢĿâĢľ":4547,"åĲĬ":4548,"1991":4549,"æ·Ģ":4550,"åĤħ":4551,"åİŁæľ¬":4552,"å¸¦é¢Ĩ":4553,"çĪ±çļĦ":4554,"åħ¥éĢī":4555,"Ð¸":4556,"åı¯è§ģ":4557,"å°ļä¹¦":4558,"éĢļéģĵ":4559,"åĲĮä¸Ģ":4560,"å¾ĭå¸Ī":4561,"åķĬ":4562,"å¦Ĩ":4563,"ç»ĵå©ļ":4564,"ine":4565,"åĪºæ¿Ģ":4566,"è®¿éĹ®":4567,"ä¸ªæĢ§":4568,"è®¸åı¯":4569,"ä¼ļéķ¿":4570,"çħ§çīĩ":4571,"ãĤ¹":4572,"åĴĸ":4573,"è¯±":4574,"ä»¬çļĦ":4575,"ç¢±":4576,"çļĦåĲĮæĹ¶":4577,"åħ¬ä¼Ĺ":4578,"çĤ¹åĩ»":4579,"ä¸¸":4580,"åĪĽæĦı":4581,"çĽĪ":4582,"åįģä¸ĥ":4583,"æ³Ĭ":4584,"ãģĦ":4585,"å¼ºè°ĥ":4586,"å§¿":4587,"ç¡®è®¤":4588,"ä¸Ģå®ļè¦ģ":4589,"è£ķ":4590,"çİ°ä»»":4591,"æĬ¥åĲį":4592,"åı¯èĥ½æĺ¯":4593,"åĲĮæĦı":4594,"çĭ¼":4595,"èĦĬ":4596,"åĽ½åĨħå¤ĸ":4597,"æŁľ":4598,"è¾ĥä¸º":4599,"æł¹æľ¬":4600,"çļĦæĥħåĨµä¸ĭ":4601,"41":4602,"æĽ¾åľ¨":4603,"ï¼ħ":4604,"åĿª":4605,"æ¶Īéĺ²":4606,"åħģè®¸":4607,"å¹´èµ·":4608,"åı¸é©¬":4609,"æĥľ":4610,"æĪ¿åľ°äº§":4611,"ok":4612,"çĶ¨éĢĶ":4613,"æĺ¾èĳĹ":4614,"æ¯Ķäºļ":4615,"ç¦»åŃĲ":4616,"åħ¥åı£":4617,"ä¸Ĭåįĩ":4618,"é«ĺéĢŁåħ¬è·¯":4619,"åıĳçļĦ":4620,"çĪ·":4621,"IN":4622,"æŀĦå»º":4623,"çļĦæķħäºĭ":4624,"ä¹Łå°±æĺ¯":4625,"è¾½å®ģ":4626,"æ¯ĶèµĽä¸Ń":4627,"é¡¾éĹ®":4628,"å®ĩå®Ļ":4629,"çļĦå¿ĥ":4630,"æ¡Īä»¶":4631,"èĬ±åĽŃ":4632,"åĦĴ":4633,"åı¬å¼Ģ":4634,"èµ°åĲĳ":4635,"é¹°":4636,"æĽ´ä¸º":4637,"èį·åħ°":4638,"è§£åĨ³æĸ¹æ¡Ī":4639,"å±±ä¸ľçľģ":4640,"æ¾³å¤§åĪ©äºļ":4641,"éļľç¢į":4642,"å°Ĩåľ¨":4643,"çŃĸçķ¥":4644,"è¿ĳå¹´æĿ¥":4645,"çªģçĦ¶":4646,"çĬ¯ç½ª":4647,"çº¿ä¸Ĭ":4648,"å·®å¼Ĥ":4649,"çļĦæĬĢæľ¯":4650,"çĥ¯":4651,"ç²¤":4652,"æĺ¯ä¸Ģå®¶":4653,"ä¼Ļä¼´":4654,"å±¯":4655,"åĵ²åŃ¦":4656,"ist":4657,"æĺİæľĿ":4658,"è´µå·ŀ":4659,"åĲĮæ¯Ķ":4660,"èĲ¥ä¸ļ":4661,"ä¸Ģèĩ´":4662,"77":4663,"Ġ1":4664,"å¿ĥçļĦ":4665,"ISBN":4666,"åģ·":4667,"æĤ¦":4668,"å¹´åĲİ":4669,"1988":4670,"æ°Ľ":4671,"åłª":4672,"èĬĤèĥ½":4673,"æķ´åĲĪ":4674,"ç¬¬åħ«":4675,"åŀĴ":4676,"ä¹Łåľ¨":4677,"è¸ı":4678,"æµ´":4679,"åľ¨ä¸Ģèµ·":4680,"æĵ¦":4681,"ä¸Ģæ®µ":4682,"çłĶç©¶éĻ¢":4683,"çĥ¦":4684,"ç½ķ":4685,"è¡Ģç®¡":4686,"ï¼ļï¼Į":4687,"ç¼ºä¹ı":4688,"åĲ¾":4689,"ä¸Ńå±±":4690,"ob":4691,"æ¼Ĥ":4692,"å¼ķè¿Ľ":4693,"åı°åĮĹ":4694,"è¯»èĢħ":4695,"æ©¡":4696,"ä¾Ŀæ³ķ":4697,"æĹħè¡Į":4698,"åĪ©æ¶¦":4699,"éĻ¢æł¡":4700,"æĥħåĨµä¸ĭ":4701,"ä¹¾éļĨ":4702,"æ·»åĬł":4703,"åĪ¶çļĦ":4704,"ä¸ĬäºĨ":4705,"åĴĮå¹³":4706,"éĢłåŀĭ":4707,"çľł":4708,"æĶ¹ç¼ĸ":4709,"ç«ŀèµĽ":4710,"æµ·å¤ĸ":4711,"çĶµæ°Ķ":4712,"è¶ĬåįĹ":4713,"æ¸Ĺ":4714,"ç§įç±»":4715,"éĥ½åľ¨":4716,"é¼ĵåĬ±":4717,"ä¸Ĭæľī":4718,"å°ī":4719,"æīĢæľīçļĦ":4720,"æ½Ń":4721,"ä¸Ĭæµ·å¸Ĥ":4722,"æĶ¶å½ķ":4723,"é¼İ":4724,"ĊĠ":4725,"å°ĳæķ°":4726,"ç»µ":4727,"æĽ´å¥½":4728,"ä¼ª":4729,"èĪŁ":4730,"å¼¦":4731,"çĽ¸ä¼¼":4732,"æľĿé²ľ":4733,"è¿Ļä¹Ī":4734,"çļĦå¥½":4735,"æĪªèĩ³":4736,"æĿĳæ°ĳ":4737,"éĿ¢ä¸´":4738,"äººåĴĮ":4739,"è®¤çľŁ":4740,"æ¸ħæ´ģ":4741,"ĠÐ":4742,"å¾Īå¿«":4743,"è©":4744,"åģļæ³ķ":4745,"æ»ĭ":4746,"å°¸":4747,"äºĭé¡¹":4748,"çĶŁç´ł":4749,"ç¬¬äºĮæ¬¡":4750,"å¹²çĩ¥":4751,"éĺ³å¸Ĥ":4752,"ï¼ģâĢĿ":4753,"ä¸ĭåįĪ":4754,"åĲ«éĩı":4755,"IP":4756,"Ġå¤§":4757,"1980":4758,"ä¸Ģå¸¦":4759,"æĸ¯ç§ĳ":4760,"ç©·":4761,"åŁĶ":4762,"çĢ":4763,"ç«ĭåį³":4764,"åĲĪæĪĲ":4765,"åĪĽç«ĭ":4766,"çİ¯èĬĤ":4767,"æĸ¹çļĦ":4768,"ç¼ĸçłģ":4769,"éĢĲæŃ¥":4770,"ä¸»ä½ĵ":4771,"äºĭæĥħ":4772,"åĬłçĥŃ":4773,"II":4774,"åı¯æĺ¯":4775,"å¯¿åĳ½":4776,"çĶŁåŃĺ":4777,"97":4778,"åįģä¹Ŀ":4779,"æ·ĭ":4780,"ip":4781,"å¤±è´¥":4782,"86":4783,"å½±è§Ĩ":4784,"åĽŃåĮº":4785,"Ġ2":4786,"art":4787,"æīĵå¼Ģ":4788,"ä¿®å¤į":4789,"çŃĸåĪĴ":4790,"ï¼ŁâĢĿ":4791,"æĺŁæľŁ":4792,"æĸĩçĮ®":4793,"å²Ĺä½į":4794,"çļĩå®¶":4795,"å¹´åīį":4796,"äºĴåĬ¨":4797,"åĳ¨æľŁ":4798,"æĥħç»ª":4799,"ä¿¡çĶ¨":4800,"ä¸Ģåľº":4801,"ä¾ĿçĦ¶":4802,"éĺ³åħī":4803,"è¹Ī":4804,"ä¿Ŀåģ¥":4805,"ä¼ļæľī":4806,"éĥ½å¸Ĥ":4807,"é¹¤":4808,"ç¾İæ´²":4809,"å·¥åķĨ":4810,"æĺİæĺŁ":4811,"è´·æ¬¾":4812,"1989":4813,"æĢĿèĢĥ":4814,"èį¡":4815,"å¿Į":4816,"æĭĸ":4817,"çļĦä¸į":4818,"The":4819,"åĬŁçİĩ":4820,"çļĦä¸Ń":4821,"120":4822,"æ¡£æ¡Ī":4823,"ub":4824,"éĤª":4825,"æĸĩèīº":4826,"çºł":4827,"1985":4828,"ang":4829,"å§»":4830,"èĲĿ":4831,"äººä¸º":4832,"èĤ¡ä»½æľīéĻĲåħ¬åı¸":4833,"è©¹":4834,"å´Ķ":4835,"å¦Īå¦Ī":4836,"çĽĴ":4837,"å¤įåĲĪ":4838,"åı¸ä»¤":4839,"æµģåĬ¨":4840,"æĢģåº¦":4841,"ç®¡éģĵ":4842,"æĤŁ":4843,"åħŃå¹´":4844,"éħ·":4845,"åĪĨéħį":4846,"TV":4847,"æ¸¸å®¢":4848,"æ·±åº¦":4849,"1987":4850,"æĮĩæķ°":4851,"äº§çĶŁçļĦ":4852,"à¸":4853,"æĿĥåĪ©":4854,"çĶ±æŃ¤":4855,"åħļçļĦ":4856,"æĪıåī§":4857,"ç©´":4858,"å½¦":4859,"ç¬¼":4860,"è¯Ĺäºº":4861,"å¤ªåŃĲ":4862,"57":4863,"æ»¡æĦı":4864,"èĸª":4865,"å°ºå¯¸":4866,"å½ĵå¹´":4867,"åģļåĩº":4868,"82":4869,"è¤Ĳ":4870,"æĸ°åŀĭ":4871,"éĽĨä½ĵ":4872,"æĹ¥èĩ³":4873,"å¼ķå¯¼":4874,"çŃĴ":4875,"å§ĳ":4876,"éĿ¢åĲĳ":4877,"åŀĥ":4878,"èĩªæ²»åĮº":4879,"èĤ©":4880,"é¸Ń":4881,"åľĨå½¢":4882,"æĽ¾ä»»":4883,"åıĳæĺİ":4884,"è½¬ç§»":4885,"ä¸Ĭæĺł":4886,"64":4887,"åľ¾":4888,"åħĭåħ°":4889,"æľĪä»½":4890,"æĬĢå·§":4891,"å¹´å¼Ģå§ĭ":4892,"æĺ¯ä¸ª":4893,"æĦŁåıĹ":4894,"åĲı":4895,"æ¸łéģĵ":4896,"åŀĥåľ¾":4897,"çļĦä¼ģä¸ļ":4898,"å®ļæľŁ":4899,"ä¹Łåı¯":4900,"å¡ŀå°Ķ":4901,"åŁİéķĩ":4902,"å«ģ":4903,"éĥĬ":4904,"ä¸Ģä¸ĸ":4905,"ãĥ«":4906,"åŁĭ":4907,"çĥŃå¸¦":4908,"ä¼ļä¸Ĭ":4909,"æĨ":4910,"1986":4911,"è¾ĵåħ¥":4912,"å®ĹæĹ¨":4913,"åĪĿæľŁ":4914,"Ġ3":4915,"è®²è¿°":4916,"çķĻä¸ĭ":4917,"æħİ":4918,"çļĦåİĨåı²":4919,"å®¶éķ¿":4920,"åĴĮåħ¶ä»ĸ":4921,"Ġs":4922,"å¥ĸé¡¹":4923,"åĿĩåĮĢ":4924,"èĻ¾":4925,"æłĭ":4926,"åıĤæķ°":4927,"çĬ¬":4928,"èī³":4929,"åĽ´ç»ķ":4930,"æĶ¾å¼ĥ":4931,"02":4932,"å±ĳ":4933,"çĽ´æĴŃ":4934,"ED":4935,"ä¸Ģå¤©":4936,"è¾©":4937,"ç¢°":4938,"è§ĤçĤ¹":4939,"çĿĽ":4940,"ä¼¼ä¹İ":4941,"æĢ»ç»ĵ":4942,"èĤ¯å®ļ":4943,"Â°":4944,"æ¸ħæ´Ĺ":4945,"æľµ":4946,"éĢļè®¯":4947,"æł½":4948,"è¡į":4949,"ç§ī":4950,"åį§":4951,"çĪĨåıĳ":4952,"éĵģéģĵ":4953,"1984":4954,"èĵĦ":4955,"é¢ĸ":4956,"å®ŀéĻħä¸Ĭ":4957,"å®´":4958,"æĭ¨":4959,"è£ħä¿®":4960,"æ¢¨":4961,"æĲľç´¢":4962,"æ¶ħ":4963,"æ¸ħæ¥ļ":4964,"æľīåĪ©":4965,"52":4966,"67":4967,"çļĦé¦ĸ":4968,"æ±Łèĭıçľģ":4969,"600":4970,"æĬ«":4971,"é«ĺæ¸©":4972,"æĦıåĳ³":4973,"è¿ĺè¦ģ":4974,"Ðµ":4975,"éĵŃ":4976,"è¾ĥå¤§":4977,"eb":4978,"æĺ¯ä»Ģä¹Ī":4979,"å±Ī":4980,"éĢ¢":4981,"è¾Ī":4982,"èĤĸ":4983,"æķĪçĽĬ":4984,"âĢĭ":4985,"äº§æĿĥ":4986,"é¾Ł":4987,"éģĩåĪ°":4988,"éĥ¨ä½į":4989,"ç¨»":4990,"åİĤå®¶":4991,"åľŁå£¤":4992,"å®ł":4993,"æľ¬ç«Ļ":4994,"Ã©":4995,"äººæ°ĳå¸ģ":4996,"èĻ¹":4997,"åĬ¨æĢģ":4998,"å¾ĹåĪ°äºĨ":4999,"åĳ¼åĲ¸":5000,"æµ·æĭĶ":5001,"æŃ£æĺ¯":5002,"çĻ¾å§ĵ":5003,"éĶĲ":5004,"è¿ĶåĽŀ":5005,"ä¸Ńå°ı":5006,"åĤ¬":5007,"ãĤ¤":5008,"æŃ¤åĲİ":5009,"å¤ķ":5010,"ä¸»åĬŀ":5011,"éĨī":5012,"å¤«äºº":5013,"åķ¡":5014,"å¨ĥ":5015,"éĻª":5016,"éķ¿æ±Ł":5017,"éĻĢ":5018,"çİĭæľĿ":5019,"æĸ°æĬĢæľ¯":5020,"é»Ħèī²":5021,"An":5022,"æ¿Ģåħī":5023,"å¤§èĩ£":5024,"å®ŀçĶ¨":5025,"åĲĪéĩĳ":5026,"çĶµæºĲ":5027,"åĲĪæł¼":5028,"åįķæĽ²":5029,"æĸ¯çļĦ":5030,"èİ·åıĸ":5031,"è®¤åı¯":5032,"å·´è¥¿":5033,"ç¿Ķ":5034,"æĬ¤çĲĨ":5035,"ä¹ĭä¸ĭ":5036,"è¯ı":5037,"æİĪæĿĥ":5038,"åĽ½å¤ĸ":5039,"æ´»æĢ§":5040,"å¤·":5041,"all":5042,"ç£·":5043,"è½»æĿ¾":5044,"éī´å®ļ":5045,"éĩįå»º":5046,"å¿ĹæĦ¿":5047,"èĥģ":5048,"éĹ´çļĦ":5049,"èĤ¡ç¥¨":5050,"çĶ»éĿ¢":5051,"ne":5052,"è§Ĩè§ī":5053,"é©±åĬ¨":5054,"å¼ºçĥĪ":5055,"æĢ»ç»ıçĲĨ":5056,"è¾ħåĬ©":5057,"åī¯ä¸»ä»»":5058,"é©¬åħĭ":5059,"åį«æĺŁ":5060,"æĹ¥çļĦ":5061,"èīĺ":5062,"åĴĮè°Ĳ":5063,"å¹´åºķ":5064,"æĶ¯æĴĳ":5065,"çĥĤ":5066,"èĪŀè¹Ī":5067,"äºĮä¸ĸ":5068,"å¤ıåŃ£":5069,"éĤ£éĩĮ":5070,"å½¢çĬ¶":5071,"ç§įåŃĲ":5072,"ä¹¡æĿĳ":5073,"è¾ĵåĩº":5074,"æĪĲä¸ºäºĨ":5075,"æ³ª":5076,"ä¸įçŁ¥":5077,"51":5078,"åŃ¦åĲį":5079,"èĬ½":5080,"èĥĢ":5081,"ä¼¤å®³":5082,"è®°å¿Ĩ":5083,"ä½ľåĩº":5084,"å¤§ä¼Ĺ":5085,"è´Ńçī©":5086,"å¤§å¤§":5087,"ä¾¦":5088,"åĿİ":5089,"è¡¥åħħ":5090,"æ²³åįĹçľģ":5091,"ç´¯è®¡":5092,"é£İæĻ¯":5093,"ep":5094,"è§Ĩä¸º":5095,"æ±¡æ°´":5096,"èĤ¢":5097,"âĶ":5098,"ess":5099,"çļĦä¸Ģéĥ¨åĪĨ":5100,"ä»¥ä¸ĬçļĦ":5101,"éĵĥ":5102,"ç§ĳåŃ¦éĻ¢":5103,"é©¬æĿ¥è¥¿äºļ":5104,"æľªèĥ½":5105,"æ§½":5106,"åıĳåĩº":5107,"åħ±äº«":5108,"ä¸ºP":5109,"éĶ¦æłĩèµĽ":5110,"éļ§":5111,"åħĨ":5112,"æ³Ħ":5113,"èĭĳ":5114,"å·²æľī":5115,"çŃĭ":5116,"é¤Ĳåİħ":5117,"åĬłéĢŁ":5118,"è´§å¸ģ":5119,"çīł":5120,"æ°¯":5121,"éĿŀæ´²":5122,"å¥³äºº":5123,"æĶ¶è´Ń":5124,"est":5125,"åİŁå§ĭ":5126,"ä¸ĭéĿ¢":5127,"èĶ¬èıľ":5128,"è¡ĮæĶ¿åĮº":5129,"éĢĿä¸ĸ":5130,"å§ļ":5131,"ç¾¤å²Ľ":5132,"Ġm":5133,"çļĦç¬¬ä¸Ģ":5134,"èĭį":5135,"å¹¶éĿŀ":5136,"æĺ¯ä¸į":5137,"å¸Ĥæ°ĳ":5138,"ä¸Ńéĥ¨":5139,"AP":5140,"ä»»åĳ½":5141,"å¾·éĩĮ":5142,"åıĸä»£":5143,"æľĢå¥½":5144,"ä»ĩ":5145,"èī°":5146,"åİ»å¹´":5147,"è¯ĨåĪ«":5148,"ç¿ģ":5149,"æµĻæ±Łçľģ":5150,"Ġc":5151,"çļĦè¦ģæ±Ĥ":5152,"æģ°":5153,"çļĦåİŁåĽł":5154,"æ°¸è¿ľ":5155,"çī¢":5156,"ä¸ĩåĲ¨":5157,"èĤ¿çĺ¤":5158,"ĠU":5159,"ä¸ĵçĶ¨":5160,"éĶĻè¯¯":5161,"53":5162,"éĺ²æ²»":5163,"å»¶ä¼¸":5164,"èĩĤ":5165,"å½ĵåīį":5166,"è°¨":5167,"ä½łä»¬":5168,"éĢĤéĩı":5169,"åĴĸåķ¡":5170,"ä¾¿åĪ©":5171,"ç¤¾ä¼ļä¸»ä¹ī":5172,"åĢ¡":5173,"èģª":5174,"å·¢":5175,"æĹĹä¸ĭ":5176,"ä¸Ģä»£":5177,"èĹ©":5178,"å®¶åħ·":5179,"åĪĹè¡¨":5180,"å¯Ĩåº¦":5181,"éĢ¸":5182,"åĲİæľŁ":5183,"å±Ģéķ¿":5184,"é¡¾å®¢":5185,"ä»ĸæĺ¯":5186,"æĦŁæĥħ":5187,"æ¡Īä¾ĭ":5188,"ĠCh":5189,"åħ¬äº¤":5190,"æ¢¦æĥ³":5191,"åĬŀäºĭ":5192,"ĠĠ":5193,"è®®ä¼ļ":5194,"åįķåħĥ":5195,"çĻ£":5196,"åĲīæŀĹ":5197,"ç§ĺå¯Ĩ":5198,"åĨħå®¹ç®Ģä»ĭ":5199,"Ġp":5200,"åºŀ":5201,"æĵİ":5202,"åĪºåı²":5203,"éĩįéĩı":5204,"æĢĿç»´":5205,"å°Ķå¾·":5206,"äº¿ç¾İåħĥ":5207,"ç¿ħ":5208,"ä¸ĸçķĮä¸Ĭ":5209,"å®ĥæĺ¯":5210,"å°±èĥ½":5211,"åĽĽå·Ŀçľģ":5212,"çĽ¸åħ³çļĦ":5213,"å¨ģå»ī":5214,"éĥ½ä¸į":5215,"æ³¨éĩį":5216,"ä¼łç»ŁçļĦ":5217,"åĮ»å¸Ī":5218,"èĢģå¹´":5219,"Ð½":5220,"ant":5221,"æ¨¡æĭŁ":5222,"è¢«è®¤ä¸º":5223,"éģĹäº§":5224,"ç¼ĸåī§":5225,"è¾Ĳå°Ħ":5226,"72":5227,"ï¹":5228,"å±±åĮº":5229,"çķľ":5230,"çİĭåĽ½":5231,"éģĵå¾·":5232,"çľī":5233,"çĶµè·¯":5234,"è¯·æ±Ĥ":5235,"åĽ½å®¶çº§":5236,"æĸĭ":5237,"åĪĨå¸ĥäºİ":5238,"æĬĽ":5239,"ER":5240,"åīĬ":5241,"èŃ¦å¯Ł":5242,"åºĶçĶ¨äºİ":5243,"ç¥ł":5244,"èĭıå·ŀ":5245,"ç©ºè°ĥ":5246,"éĻĨåĨĽ":5247,"ç½ĳåıĭ":5248,"è¥¿æĸ¹":5249,"åĮºåĪ«":5250,"åĪ«äºº":5251,"çī©åĵģ":5252,"åĬŀåŃ¦":5253,"é¥±":5254,"IC":5255,"çĭ¬çī¹çļĦ":5256,"Ġé¥°æ¼Ķ":5257,"å»ºçŃĳéĿ¢ç§¯":5258,"æľ¬åľ°":5259,"è¿ĺåı¯ä»¥":5260,"æĹ¶åĪ»":5261,"æ¦Ĥè¿°":5262,"ï¼īï¼Ī":5263,"æ³ķåħ°":5264,"AC":5265,"è½¬æį¢":5266,"å¼Ĥå¸¸":5267,"éķ¿åº¦":5268,"å®ĺåĳĺ":5269,"èģĬ":5270,"ä¸´æĹ¶":5271,"è¯ļä¿¡":5272,"æĬ¼":5273,"89":5274,"æ°´åºĵ":5275,"åĻª":5276,"å¤ĸåĽ½":5277,"æĸ°å¢ŀ":5278,"æķĪåºĶ":5279,"æĢ»æĺ¯":5280,"åľ¨ç¾İåĽ½":5281,"å¼Ħ":5282,"åĮ»èį¯":5283,"æĥŁ":5284,"åħ¬æĸ¤":5285,"è¢ĸ":5286,"åĲĪçī©":5287,"åıĸæ¶Ī":5288,"54":5289,"éĿĴæĺ¥":5290,"çĹķ":5291,"æĭĽèģĺ":5292,"ä¸ĢåĲĮ":5293,"æ¸Ĭ":5294,"éĽĢ":5295,"å¤©ä¸»æķĻ":5296,"èįĨ":5297,"è¯´æ³ķ":5298,"çŃīæĸ¹éĿ¢":5299,"æķ´çĲĨ":5300,"èĩªåĬ¨åĮĸ":5301,"ç½Ĳ":5302,"AR":5303,"åİŁæĿ¥":5304,"é¥²":5305,"çĶµæľº":5306,"éľŀ":5307,"ä¿®æĶ¹":5308,"æĲŀ":5309,"å¸ĤåľºçļĦ":5310,"ãĢĤãĢį":5311,"æĴŃæĶ¾":5312,"ç»³":5313,"å®¶äºº":5314,"å¾¡åı²":5315,"äº¤æį¢":5316,"å°ĳå¥³":5317,"éĤ£ä¸ª":5318,"åĩºåıĳ":5319,"åĩºçİ°åľ¨":5320,"59":5321,"å±Ĥæ¬¡":5322,"åĮĸçŁ³":5323,"åŃ¦åİĨ":5324,"çŁ©":5325,"èĢĥçĶŁ":5326,"å¼ķåıĳ":5327,"é¤Ĳé¥®":5328,"æĢ»ä½ĵ":5329,"çļĦä¸ī":5330,"åıĳåĬ¨æľº":5331,"è¯¾é¢ĺ":5332,"åı¸æ³ķ":5333,"æºĲäºİ":5334,"if":5335,"éĩĮéĿ¢":5336,"æĮ¡":5337,"62":5338,"æĢ§æł¼":5339,"ä¸¤æ¬¡":5340,"çĶĺèĤĥ":5341,"æĲħ":5342,"èĢĥå¯Ł":5343,"éĢ¼":5344,"å¤§åĬĽ":5345,"çľ¼çĿĽ":5346,"è§Ħæł¼":5347,"äº§éĩı":5348,"éĤĳ":5349,"up":5350,"åİĨåı²ä¸Ĭ":5351,"å¤§åİ¦":5352,"è®®åĳĺ":5353,"å¥¥æĸ¯":5354,"å¾Ĺä»¥":5355,"çī©ä¸ļ":5356,"å§Ķæīĺ":5357,"å°Ŀè¯ķ":5358,"æ··åĩĿ":5359,"åĵĪå°Ķ":5360,"èĴĭ":5361,"æľĢä½İ":5362,"åĳ¨å¹´":5363,"âĸ":5364,"è½°":5365,"å¤§æ¥¼":5366,"åĪ¤æĸŃ":5367,"180":5368,"ä¸ĢæĹ¦":5369,"ç³Ĭ":5370,"ÑĢ":5371,"åĨ²åĩ»":5372,"å¸ĤåĮº":5373,"å¸½":5374,"åĬĿ":5375,"æ¶Į":5376,"çĶ·æĢ§":5377,"å¤©æ°Ķ":5378,"èĿ¶":5379,"ç¢Ĺ":5380,"åĨ¶":5381,"å©ļå§»":5382,"åĶ±çīĩ":5383,"ç¼ĸåĪ¶":5384,"å¦ĩå¥³":5385,"ç»Ŀå¯¹":5386,"æĻļä¸Ĭ":5387,"æĹħå®¢":5388,"æ¯ıä¸Ģä¸ª":5389,"OS":5390,"èĮħ":5391,"çīĽçļ®":5392,"èĤ¡ä¸ľ":5393,"ä½İäºİ":5394,"å·¥ä½ľäººåĳĺ":5395,"æĸ©":5396,"æĻ°":5397,"çĪ½":5398,"å¤ļåħĥ":5399,"åľ¨è¿ĻéĩĮ":5400,"è¤":5401,"è½¬åĮĸ":5402,"1983":5403,"Ġå¹´":5404,"ç¬¬ä¹Ŀ":5405,"éĢĤå½ĵ":5406,"åħ»æ®ĸ":5407,"æķħéļľ":5408,"äºīè®®":5409,"åıĪåĲį":5410,"æĳĺè¦ģ":5411,"èĩ³äºİ":5412,"In":5413,"åħ¬åĳĬ":5414,"978":5415,"åħ¨ä½ĵ":5416,"Ñģ":5417,"éģŃåĪ°":5418,"å·¥äºº":5419,"çļĦä¸ĵä¸ļ":5420,"èľĢ":5421,"å··":5422,"åĽ½æľī":5423,"ä¸Ģåº§":5424,"ev":5425,"æĽ´åĲįä¸º":5426,"å¼Ģè®¾":5427,"çĸ¼":5428,"éĽĨæĪĲ":5429,"å¤©çļĦ":5430,"åĨ·åį´":5431,"è¡ĮçļĦ":5432,"æ¤İ":5433,"çļĩåĲİ":5434,"ç»Ħå»º":5435,"éĩĬæĶ¾":5436,"800":5437,"åįĹæĸ¹":5438,"æ³Į":5439,"ç¾İå®¹":5440,"èĬ¦":5441,"æĹ¥æĬ¥":5442,"æ°´çļĦ":5443,"ç¼ĸåı·":5444,"åĽ¾åĥı":5445,"ãģĹ":5446,"å¤ªå¹³æ´ĭ":5447,"éļ§éģĵ":5448,"èĪĴéĢĤ":5449,"åİ¿åŁİ":5450,"èĢģäºº":5451,"åı¦ä¸Ģä¸ª":5452,"1982":5453,"è¿ĩçļĦ":5454,"æľĪåı°":5455,"åĩºä»»":5456,"**":5457,"63":5458,"èħĲèļĢ":5459,"éĥ¨ä»¶":5460,"1950":5461,"å§Ĩæĸ¯":5462,"ä¼łæĦŁ":5463,"åĨ³çŃĸ":5464,"èı©":5465,"ä¼Ĭæĸ¯":5466,"åıĳçĹħ":5467,"ud":5468,"çĽĳæİ§":5469,"éĿĴå°ĳå¹´":5470,"èĢĥæł¸":5471,"çļĦåŁºæľ¬":5472,"éĥ½èĥ½":5473,"æıĲåīį":5474,"åį±æľº":5475,"åįģåŃĹ":5476,"æ²³æµģ":5477,"éĢ»":5478,"æĶ¹è¿Ľ":5479,"æīĵåĩ»":5480,"è½¬åŀĭ":5481,"å¤§æ¡¥":5482,"ç»´çĶŁç´ł":5483,"èµĶ":5484,"åĽŀåºĶ":5485,"çļĦçĥŃ":5486,"æĮ¤":5487,"ä¹ĲåĽ¢":5488,"éķ¿æ²Ļ":5489,"ian":5490,"èīºæľ¯å®¶":5491,"åĭĺ":5492,"å°¼æĸ¯":5493,"ç»ĻäºĨ":5494,"çº±":5495,"é¹ı":5496,"è¿ĩæ»¤":5497,"ç¼Ĩ":5498,"èº«ä¸Ĭ":5499,"æĭĽçĶŁ":5500,"éĽĮ":5501,"è°Ĭ":5502,"èİ·å¥ĸ":5503,"åİĨä»»":5504,"å°±åĥı":5505,"æĽ´å¥½çļĦ":5506,"æĥħæĦŁ":5507,"èĭ¹":5508,"è´§çī©":5509,"çļĦåĨħå®¹":5510,"åĽ½å®¶éĺŁ":5511,"å«©":5512,"ä¸Ģå®ļçļĦ":5513,"Ġf":5514,"AS":5515,"å»ºç«ĭäºĨ":5516,"åĩŃåĢŁ":5517,"ç³ķ":5518,"æĶ¹åĪ¶":5519,"è®¼":5520,"åľºæ¯ĶèµĽ":5521,"æĸ°çĸĨ":5522,"çĶµåİĭ":5523,"æľĢå¥½çļĦ":5524,"èĮĥåĽ´åĨħ":5525,"èį¯åĵģ":5526,"ä½ıæĪ¿":5527,"è±¡å¾ģ":5528,"æĶ¶çĽĬ":5529,"é¢Ħæµĭ":5530,"æ··åĩĿåľŁ":5531,"åħ¬çĽĬ":5532,"æĹłäºº":5533,"å¥³åŃ©":5534,"ä¼ĺçĤ¹":5535,"ä¿±":5536,"èģĮè´£":5537,"87":5538,"åģľè½¦":5539,"å¾Īéļ¾":5540,"æīĩ":5541,"åħ¨å¸Ĥ":5542,"ä¸ĭè½½":5543,"å¸¸è§ģçļĦ":5544,"çļĦäºĭæĥħ":5545,"ä¸Ģæµģ":5546,"61":5547,"å¼ıçļĦ":5548,"åľ¨å¤§":5549,"æ¯ıä¸Ģ":5550,"åį³å°Ĩ":5551,"çŁĽ":5552,"æģ¨":5553,"ä¸ŃåĽ½äººæ°ĳ":5554,"åĩºèº«":5555,"æīĢéľĢ":5556,"AT":5557,"å½¢æĪĲäºĨ":5558,"æµ·åįĹ":5559,"åı¹":5560,"è¥Ħ":5561,"åĨ¬åŃ£":5562,"è¶³å¤Ł":5563,"æİĴæĶ¾":5564,"ä½Ļäºº":5565,"å»¶éķ¿":5566,"å¼ķæĵİ":5567,"å¨ģå°Ķ":5568,"å¼ĢéĢļ":5569,"cm":5570,"å§¬":5571,"ä¹ĭåŃĲ":5572,"åŃĺåĤ¨":5573,"ä¸ºäºº":5574,"ä»£çłģ":5575,"çŃ¾è®¢":5576,"åį±å®³":5577,"éĴ¦":5578,"ik":5579,"çĻ»åľº":5580,"ãĢĤ(":5581,"åĨħå¤ĸ":5582,"åŃ¦å£«":5583,"æµ·å²¸":5584,"69":5585,"å¹³éĿ¢":5586,"å®¡æŁ¥":5587,"å°ıåŀĭ":5588,"åħĶ":5589,"ç²¾å½©":5590,"çĽ´èĩ³":5591,"ä¸ĬéĿ¢":5592,"è±«":5593,"ä»ĬæĹ¥":5594,"ç»´å°Ķ":5595,"ä¸ĬåįĪ":5596,"æ°´åĪ©":5597,"æĹ¬":5598,"å½ĵéĢī":5599,"åĨĻä½ľ":5600,"äºĮçº§":5601,"åıĤåĬłäºĨ":5602,"ich":5603,"çıĬ":5604,"è´¼":5605,"èŀįèµĦ":5606,"æ¯ħ":5607,"èĳ£äºĭéķ¿":5608,"é²į":5609,"äººå¤§":5610,"å¤§éĩıçļĦ":5611,"åİĦ":5612,"åįģå¤§":5613,"åŀ«":5614,"ä¸¤ä¾§":5615,"åħ¬å®ī":5616,"ä¸ĳ":5617,"çļĦåħ³ç³»":5618,"åĬŁæķĪ":5619,"åĳ½ä»¤":5620,"çĹħäºº":5621,"è¿Ĳä½ľ":5622,"Ġde":5623,"ä¹Ŀå¹´":5624,"ç¥ĸçĪ¶":5625,"å¤ļæł·":5626,"3000":5627,"çĶ³æĬ¥":5628,"å°±åľ¨":5629,"æĮĩå®ļ":5630,"çĲ¼":5631,"éĶĪéĴ¢":5632,"æ¼ł":5633,"ä¼łåªĴ":5634,"åĩºåľº":5635,"éĹ¹":5636,"é«ĺè´¨éĩı":5637,"å¹¶ä¸įæĺ¯":5638,"å¦ĸ":5639,"å°ıåĮº":5640,"åĲĦèĩª":5641,"åį¡å°Ķ":5642,"åĩºæĿ¥çļĦ":5643,"çĨĶ":5644,"æĦıå¤ĸ":5645,"æ¯ıæ¬¡":5646,"åĮĹæĸ¹":5647,"çĽ´å¾Ħ":5648,"å¯Ĩå°ģ":5649,"æĶ¶è´¹":5650,"åħ´å»º":5651,"PC":5652,"è¡Įä¸ļçļĦ":5653,"éŃħ":5654,"é«ĺåİĭ":5655,"çľģä»½":5656,"é¦ĸéĥ½":5657,"å¤§åŃ¦çĶŁ":5658,"ç¦ģæŃ¢":5659,"è®¾å®ļ":5660,"åĨįåº¦":5661,"è¾¹ç¼ĺ":5662,"é¾Ļæ±Ł":5663,"éĢıæĺİ":5664,"éĢĢä¼ĳ":5665,"è´¯å½»":5666,"ä¿Ŀæ¸©":5667,"çİ°ä»£åĮĸ":5668,"ç»ĨèĬĤ":5669,"ç¥ŀç§ĺ":5670,"æľ¬äºº":5671,"å´ĸ":5672,"æķĻä¼ļ":5673,"ç»´å¥ĩ":5674,"ç§»æ°ĳ":5675,"SE":5676,"æ¸ħæľĿ":5677,"è´¢äº§":5678,"ãĥĪ":5679,"éĽ¶åĶ®":5680,"éĥ¨ç½²":5681,"ä»ķ":5682,"éĢĤçĶ¨":5683,"éª¤":5684,"æķĻæĿĲ":5685,"åıĳèĤ²":5686,"çĶ¸":5687,"ä¸¤å¹´":5688,"éħ¯":5689,"çªĳ":5690,"åĪĹä¸º":5691,"çĶ»å®¶":5692,"çİ°åľ¨çļĦ":5693,"äººåĬĽ":5694,"çĶµåĻ¨":5695,"å®Įç¾İ":5696,"ry":5697,"åĭŁ":5698,"çĶµåı°":5699,"ä¹Įåħĭåħ°":5700,"æĸ¹ä½į":5701,"è½¬åıĺ":5702,"éĴĻ":5703,"âĶĢ":5704,"èĤª":5705,"å®°":5706,"æĬĳåĪ¶":5707,"æıĲäº¤":5708,"é«ĺè¾¾":5709,"é¢Ĺç²Ĵ":5710,"è¾Ł":5711,"çļĦç¾İ":5712,"çħĮ":5713,"èĽĭçĻ½è´¨":5714,"ä¸įèī¯":5715,"79":5716,"æ±ª":5717,"éĺ²å¾¡":5718,"èĦĤèĤª":5719,"å¸ĤæĶ¿åºľ":5720,"æŁ¥è¯¢":5721,"ĠãĢĤ":5722,"èĸĽ":5723,"æ³ķçļĦ":5724,"å®¢è¿Ĳ":5725,"éĺ²æĬ¤":5726,"æľĢå¤ļ":5727,"éħ¿":5728,"é¢ĨåŁŁçļĦ":5729,"PS":5730,"åĩºçīĪç¤¾åĩºçīĪ":5731,"æŀĦéĢł":5732,"åħ¬å°º":5733,"èıĬ":5734,"éªĳå£«":5735,"å¤§å¤ļ":5736,"è¾¹çķĮ":5737,"æĮº":5738,"é£ĺ":5739,"å¤§å¹ħ":5740,"åħ¶ä½Ļ":5741,"åı¯è¾¾":5742,"ç½©":5743,"è¯ģæį®":5744,"å¹¶å°Ĩ":5745,"ç»ĺçĶ»":5746,"é¢Ħç®Ĺ":5747,"å¤ĦçļĦ":5748,"çĶµæµģ":5749,"08":5750,"ç½¢":5751,"æ£Ģå¯Ł":5752,"å·ŀçļĦ":5753,"å·¨å¤§":5754,"09":5755,"IT":5756,"éļĭ":5757,"ä¹ĭæĪĺ":5758,"éªĹ":5759,"çĲĥä¼ļ":5760,"ä¹ĭä¸º":5761,"çļĦä¸ĢäºĽ":5762,"çĶŁæ´»ä¸Ń":5763,"æ±Ŀ":5764,"é³ŀ":5765,"çļĦä½¿çĶ¨":5766,"ç»´äºļ":5767,"Ġthe":5768,"æ¸ħæĻ°":5769,"ä»ĸäºº":5770,"åħĪè¿ĽçļĦ":5771,"ä¸ļç»©":5772,"æ·±åĪ»":5773,"çŁŃæľŁ":5774,"ä¸ĵæ³¨":5775,"èģĮåĬ¡":5776,"ãĥ©":5777,"è·¯æĺĵ":5778,"ç¥Ģ":5779,"ä¾¨":5780,"åºĶæĢ¥":5781,"ä¸ĵç§ĳ":5782,"éĥ¨ä»½":5783,"å·ŀåĪºåı²":5784,"åĮĪ":5785,"åıĸå¾ĹäºĨ":5786,"ran":5787,"æĢİæł·":5788,"CO":5789,"æģŃ":5790,"è½©":5791,"05":5792,"æī©å±ķ":5793,"åħ«å¹´":5794,"æĹ©å·²":5795,"æīģ":5796,"ind":5797,"æĦıåĳ³çĿĢ":5798,"æľºåĻ¨äºº":5799,"å¸¸åĬ¡":5800,"ç©ºåĨĽ":5801,"æĦ¿æĦı":5802,"ä»ĳ":5803,"çĶ¨åĵģ":5804,"æķĻåĮº":5805,"çīĽçļ®çĻ£":5806,"ä¸ĥå¹´":5807,"è¾ĥé«ĺ":5808,"åĲĮæŃ¥":5809,"ç»ĥä¹ł":5810,"å¤§èĩ´":5811,"æĿ¥äºĨ":5812,"1970":5813,"æĥĳ":5814,"ens":5815,"å¨ģèĥģ":5816,"ä¼ĺæĥł":5817,"ä¸Īå¤«":5818,"çĶŁäº§çļĦ":5819,"æľīæķĪçļĦ":5820,"æĸĩçī©ä¿ĿæĬ¤":5821,"æĻ¯çĤ¹":5822,"ç¾¤ä½ĵ":5823,"çĳŀåħ¸":5824,"æĬĢæľ¯çļĦ":5825,"å¾Īå¤§çļĦ":5826,"æ¶Īå¤±":5827,"è¯»ä¹¦":5828,"çģ«ç®Ń":5829,"èĭ¹æŀľ":5830,"åŁ¹èĤ²":5831,"åİĮ":5832,"åįĬå¹´":5833,"qu":5834,"é¢ĳçİĩ":5835,"å¸¦æľī":5836,"ĠæĿİ":5837,"è®¤å®ļ":5838,"è¡Ģæ¶²":5839,"éĶ»":5840,"å¤ºå¾Ĺ":5841,"åº·çĨĻ":5842,"åĲįäºº":5843,"1960":5844,"æī®æ¼Ķ":5845,"å¸¦çĿĢ":5846,"åĽŀæĶ¶":5847,"èĬĴ":5848,"è¡ĮæĺŁ":5849,"æĦŁè°¢":5850,"æ¶Ľ":5851,"å¸¸å¸¸":5852,"io":5853,"ĠIn":5854,"æµİåįĹ":5855,"ä¹Łèĥ½":5856,"è§Ħå®ļçļĦ":5857,"ity":5858,"æ°´æ³¥":5859,"æī¹è¯Ħ":5860,"åİŁåĲį":5861,"åĬ«":5862,"ä¸ĭäºĨ":5863,"æľĢä¸º":5864,"æīĳ":5865,"æ³¢åħ°":5866,"æ¨±":5867,"åħ¨çľģ":5868,"æĳ¸":5869,"ä¸ŃåĽ½çļĦ":5870,"æĬķç¥¨":5871,"çĪ±å¥½":5872,"ä¸įéĶĪéĴ¢":5873,"æ±ŁåįĹ":5874,"è¾¾æĪĲ":5875,"å¯¹æŃ¤":5876,"å¹¼åĦ¿åĽŃ":5877,"ä¸»åľº":5878,"æķĻèĤ²éĥ¨":5879,"å®ģæ³¢":5880,"ãĢĭï¼ļâĢľ":5881,"å¼ºå¤§çļĦ":5882,"çİ²":5883,"å¤ĸäº¤":5884,"çļĦèĥ½åĬĽ":5885,"ä¿®å»º":5886,"çĳŀå£«":5887,"äºĴçĽ¸":5888,"ä¸įçĶ¨":5889,"éħįå¤ĩ":5890,"éĤ®æĶ¿":5891,"æĸ¯åŁº":5892,"çļĦä½ľåĵģ":5893,"éĹ¸":5894,"èĭ¯":5895,"1958":5896,"æĽ´æį¢":5897,"å¤ļå®¶":5898,"å¼ĢåĲ¯":5899,"æĺİæ²»":5900,"åĵŃ":5901,"åĴĮç¤¾ä¼ļ":5902,"é¡·":5903,"uc":5904,"å¥ĸåĬ±":5905,"73":5906,"å¤§å¤«":5907,"ä¸ºæŃ¢":5908,"è¿ĺåľ¨":5909,"å¼ķåħ¥":5910,"çĭŃ":5911,"ä¸īå¤§":5912,"èĦ¾":5913,"é¡¹çĽ®çļĦ":5914,"æ¤ħ":5915,"æ³°åĽ½":5916,"Al":5917,"ä¸Ģç³»åĪĹ":5918,"çĹħæĥħ":5919,"èĪĮ":5920,"åħ³éĹŃ":5921,"ä½¿åħ¶":5922,"æĭĵå±ķ":5923,"ä¸Ģæĺ¯":5924,"æĿ¥æºĲäºİ":5925,"åįłé¢Ĩ":5926,"å¤ĸè§Ĥ":5927,"ç®¡çĲĨå±Ģ":5928,"é«ĺç«¯":5929,"ç®¡è¾ĸ":5930,"è¯īè®¼":5931,"å¯¹åºĶ":5932,"æ¯ıæĹ¥":5933,"æľĪåĪĿ":5934,"ä¸įéĶĻ":5935,"åį°è±¡":5936,"åĽŃæŀĹ":5937,"CD":5938,"ãģĭ":5939,"æĢ¨":5940,"å¦Ĥæŀľä½ł":5941,"92":5942,"åĩºå¸Ń":5943,"å¯¼å¸Ī":5944,"ä»İæŃ¤":5945,"æ°Ķè±¡":5946,"ç²®é£Ł":5947,"éĺ²æİ§":5948,"å®¡æł¸":5949,"å¤ļäºº":5950,"éļıæĹ¶":5951,"ãģª":5952,"æ©¡èĥ¶":5953,"å¸ĤçļĦ":5954,"åįłåľ°éĿ¢ç§¯":5955,"å¤ļé¡¹":5956,"æķĮäºº":5957,"äºĮäºº":5958,"è§Ħå¾ĭ":5959,"ç¡®å®ŀ":5960,"åĩºçİ°äºĨ":5961,"æĬķèµĦèĢħ":5962,"éħµ":5963,"å°±è¯»":5964,"ge":5965,"çĨŁæĤī":5966,"çŃĽ":5967,"äººæĸĩ":5968,"å¤§å¥ĸ":5969,"æŃĩ":5970,"ä¹ĭå¤Ħ":5971,"å°Ķçī¹":5972,"çĶŁæ´»çļĦ":5973,"éĥ½åı¯ä»¥":5974,"1945":5975,"åĲŀ":5976,"åĬ©çĲĨ":5977,"èĪªå¤©":5978,"åĨ²çªģ":5979,"çĻ½æĸĳ":5980,"ä¸Ģåº¦":5981,"ä¸Ģè·¯":5982,"æľīå¾Īå¤ļ":5983,"æ¸ħæ°´":5984,"èĴľ":5985,"BS":5986,"åĿĩä¸º":5987,"æ±°":5988,"èĮİ":5989,"éĹ½":5990,"å¹´åĪĿ":5991,"71":5992,"ç¾½æ¯Ľ":5993,"è¯ķåĽ¾":5994,"åĪĽå§ĭ":5995,"è¾ĵéĢģ":5996,"åĽ½éĺ²":5997,"åĩ¶":5998,"åĲĪéĢĤ":5999,"åĬłå¤§":6000,"83":6001,"æĹĭè½¬":6002,"æľĪèĩ³":6003,"æļ¨":6004,"çļĦåŁºç¡Ģä¸Ĭ":6005,"å·¥èµĦ":6006,"åħ³èĬĤ":6007,"ç±»çļĦ":6008,"çªĿ":6009,"åĹ£":6010,"å½¼å¾Ĺ":6011,"è®¾è®¡çļĦ":6012,"å¹¶åħ¥":6013,"ä¸īåĽ½":6014,"ä¹īåĬ¡":6015,"è®¾è®¡å¸Ī":6016,"éºŁ":6017,"å·¨å¤§çļĦ":6018,"1978":6019,"åĸĢ":6020,"é©°":6021,"çłĶåĪ¶":6022,"éķ¿çº¦":6023,"åı¤åħ¸":6024,"æĲŃéħį":6025,"æĭ±":6026,"èĢĥåı¤":6027,"æĿĢæŃ»":6028,"AM":6029,"æī¿è¯º":6030,"Ġ4":6031,"1981":6032,"1949":6033,"74":6034,"ç±³çļĦ":6035,"æľĿå»·":6036,"å¤§æ°Ķ":6037,"åįĬå²Ľ":6038,"å½ĵæĹ¶çļĦ":6039,"ä¹Ķæ²»":6040,"åŁºå±Ĥ":6041,"åĲ¦åĪĻ":6042,"ãĥª":6043,"æ£ļ":6044,"ä¼¯çī¹":6045,"1979":6046,"ä¸ŀ":6047,"éĻ¶çĵ·":6048,"æľŁå¾ħ":6049,"åĸ»":6050,"æĺ¯åĽłä¸º":6051,"%ï¼Ľ":6052,"åıĳèµ·":6053,"åĩºæĪĺ":6054,"èıĩ":6055,"æĶ¿æ²»äººçī©":6056,"åį¸":6057,"åıĹä¼¤":6058,"ãĢįãĢģ":6059,"ãĤ¯":6060,"çŃ¾çº¦":6061,"å¾ĹçŁ¥":6062,"ä¼łè¾ĵ":6063,"åİļçļĦ":6064,"ong":6065,"ç¯®çĲĥ":6066,"æĢ»è£ģ":6067,"é£İæľº":6068,"èº«è¾¹":6069,"ãģ¨":6070,"æĿı":6071,"åĲİèĢħ":6072,"ä¸¢":6073,"åħ±äº§åħļ":6074,"æł¡åĮº":6075,"å°ĶçļĦ":6076,"è°¦":6077,"å£«åħµ":6078,"åĬ£":6079,"æīŃ":6080,"åİ¿äºº":6081,"çģ«å±±":6082,"åİĭç¼©":6083,"åľ¨ä¸Ģ":6084,"æİ¥å£¤":6085,"éĩįå¤į":6086,"çĶ«":6087,"5000":6088,"è¯Ħå®¡":6089,"æĸ°åĮº":6090,"ãģŁ":6091,"ä¸ĩåİĨ":6092,"èĩŃ":6093,"çĵ£":6094,"çĻ¾åº¦åľ°åĽ¾":6095,"æĥ§":6096,"ä¸İåħ¶ä»ĸ":6097,"èĵ¬":6098,"éĽĩ":6099,"ç»ĦæĪĲçļĦ":6100,"ä¸įçŁ¥éģĵ":6101,"çººç»ĩ":6102,"å°±æľī":6103,"å¤ªç©º":6104,"æĺ¯ä¸Ģä½į":6105,"ä¸ŃåĽ½å¤§éĻĨ":6106,"æ¡Ĳ":6107,"ãĤ¢":6108,"ä¸»ç¼ĸ":6109,"çĶ·äºº":6110,"å®ļä»·":6111,"ä¼łéĢĴ":6112,"éĺ¿æĭīä¼¯":6113,"æĺ¥ç§ĭ":6114,"æĭīåħĭ":6115,"ç²¾åĵģ":6116,"ç»ĵæĿŁåĲİ":6117,"åĽŀå½Ĵ":6118,"å¸Ĩ":6119,"è¾ĸåĮº":6120,"å¸ĸ":6121,"æİ§èĤ¡":6122,"å¸¦æĿ¥çļĦ":6123,"è¿Ļä½į":6124,"æ¼Ķå¥ı":6125,"åī§éĻ¢":6126,"å«Į":6127,"çī¹å®ļ":6128,"ç§ĳåŃ¦å®¶":6129,"å½»åºķ":6130,"æ¯ķä¸ļçĶŁ":6131,"ä¹¦ç±į":6132,"çİĩé¢Ĩ":6133,"ãĤĵ":6134,"åľ°ä¸Ĭ":6135,"å¾Īæľī":6136,"åĮĻ":6137,"éĻĦå±ŀ":6138,"åħīç»ª":6139,"ä¸īåĪĨ":6140,"èķ¾":6141,"åĽ½å®¶çļĦ":6142,"æĶ¶åĪ°":6143,"93":6144,"é»ĳé¾Ļæ±Ł":6145,"03":6146,"æĶ¯éĥ¨":6147,"æľįåĬ¡çļĦ":6148,"æ¹ĸåįĹçľģ":6149,"Âł":6150,"é¢ģå¥ĸ":6151,"çĸ²":6152,"èĥº":6153,"èĮĦ":6154,"ä¼ĺèī¯":6155,"Ð¾Ð":6156,"å¸Ĳ":6157,"ä¹ĭè·¯":6158,"æ°´ä¸Ń":6159,"å¯ĨåĪĩ":6160,"åĮĸå¦Ĩ":6161,"çĶŁæĪĲ":6162,"åıĺå½¢":6163,"èĨı":6164,"å¤§è¿ŀ":6165,"èĦĨ":6166,"å°¹":6167,"å¸ĥé²ģ":6168,"çļĦåĲİ":6169,"éĺŁéķ¿":6170,"çģµæ´»":6171,"æµı":6172,"84":6173,"çİĭåŃĲ":6174,"æĿ¡ä¾ĭ":6175,"éĹ®é¢ĺçļĦ":6176,"ä¸ĵé¡¹":6177,"æĺ¯ä¸ĢåĲį":6178,"å®īå¾½çľģ":6179,"çłĶç©¶ä¸Ńå¿ĥ":6180,"åĲĮå¿Ĺ":6181,"å¤ļå¹´çļĦ":6182,"ç»ĨèıĮ":6183,"åŃ¦çļĦ":6184,"æŁ´æ²¹":6185,"åĿĲèĲ½":6186,"åĩłå¹´":6187,"æ°ĳåĽ½":6188,"éģĹä¼ł":6189,"ç±»åĪ«":6190,"å¼Ģæĭĵ":6191,"å®ĮæĪĲäºĨ":6192,"è°Ń":6193,"æĸ°å»º":6194,"çļĦæ²»çĸĹ":6195,"å¯¹åħ¶":6196,"éĶĮ":6197,"æ¶²ä½ĵ":6198,"æ°®":6199,"çŁ£":6200,"ï¼Ľï¼Ī":6201,"é¦ĸå¸Ń":6202,"ä¸ĵé¢ĺ":6203,"åħ¬æ°ĳ":6204,"éĢīçĶ¨":6205,"æ¨¡åĿĹ":6206,"ä¼łæĦŁåĻ¨":6207,"åİ¦éĹ¨":6208,"å¢¨è¥¿":6209,"åĪĹåħ¥":6210,"å®¹éĩı":6211,"æıĲç¤º":6212,"åŁĥåıĬ":6213,"åįĳ":6214,"07":6215,"æĻĴ":6216,"æµĵåº¦":6217,"åĮł":6218,"çĪ¬":6219,"ç§¯ç´¯":6220,"ãĢĭ(":6221,"ä¼łå¥ĩ":6222,"åħ»èĢģ":6223,"å¸ĪèĮĥå¤§åŃ¦":6224,"åŃ£åº¦":6225,"çĻ¾å¹´":6226,"ort":6227,"åĪ°åºķ":6228,"éĩĩè®¿":6229,"æŁĦ":6230,"å®Ŀå®Ŀ":6231,"å¾Īå¥½":6232,"æ°ĳä¼Ĺ":6233,"åĵĢ":6234,"æī§æ³ķ":6235,"ä¹Łè¢«":6236,"ç²¾åº¦":6237,"æĻ´":6238,"åıĤè§Ĥ":6239,"é¦¨":6240,"AN":6241,"çĥĺ":6242,"eg":6243,"ä¼°è®¡":6244,"å°½éĩı":6245,"çķĶ":6246,"åĽ¾æ¡Ī":6247,"æĥ³åĪ°":6248,"æ¶ĪéĻ¤":6249,"ä¸ºæŃ¤":6250,"ä¿¡ä»°":6251,"çĭĲ":6252,"è§£æĶ¾åĨĽ":6253,"ä¸İåħ¶":6254,"å°ļæľª":6255,"ç§ĳæĬĢæľīéĻĲåħ¬åı¸":6256,"æĢ»çĲĨ":6257,"oh":6258,"è¿ĽçĲĥ":6259,"åľ¨åħ¶":6260,"å®¶å±ħ":6261,"ä¸ĩå¹³æĸ¹ç±³":6262,"110":6263,"æ¡¥æ¢ģ":6264,"ä¸įç®¡":6265,"å±±å¸Ĥ":6266,"ç¼ħ":6267,"æī¿è®¤":6268,"æ¾³æ´²":6269,"æĮĩåįĹ":6270,"æľĢåĲİä¸Ģ":6271,"æħ°":6272,"æĵħéķ¿":6273,"åīįåĲİ":6274,"æ¶ĪåĮĸ":6275,"é¹ħ":6276,"æĸĩçī©ä¿ĿæĬ¤åįķä½į":6277,"åĨħèĴĻåı¤":6278,"æĶĢ":6279,"ä¸ĩç¾İåħĥ":6280,"åĩ½æķ°":6281,"å¸¸è§Ħ":6282,"äºļåİĨ":6283,"è¯´æĺ¯":6284,"éķ¿æĹ¶éĹ´":6285,"ä»¥æŃ¤":6286,"æ¸©æ³ī":6287,"å°±è¦ģ":6288,"94":6289,"åŃ¦åĳĺ":6290,"è¿Ļéĥ¨":6291,"ãĢĭãĢģ":6292,"è¤Ĳèī²":6293,"ain":6294,"åĩ¸":6295,"ä¼łæī¿":6296,"è®¾å¤ĩçļĦ":6297,"çĶ¨ä½ľ":6298,"å±¿":6299,"éļĻ":6300,"Ġb":6301,"ç»£":6302,"çĪĨçĤ¸":6303,"å¾Īå¥½çļĦ":6304,"06":6305,"èĢĮä¸įæĺ¯":6306,"å·¥ä½ľèĢħ":6307,"æĹłéĻĲ":6308,"åĩºæ¼Ķ":6309,"èĳ¡èĲĦçīĻ":6310,"åĺīéĿĸ":6311,"éķĢ":6312,"éķ¿å®ī":6313,"åĲĦçº§":6314,"åĽ¢ç»ĵ":6315,"çľĭè§ģ":6316,"igh":6317,"æĹ±":6318,"åĩĢåĮĸ":6319,"åŃĲå¥³":6320,"éĥ½è¦ģ":6321,"åĲĮæĹ¶ä¹Ł":6322,"éĽį":6323,"éĢļçĶ¨":6324,"åºĶå¯¹":6325,"åĸľçĪ±":6326,"è¿Ŀæ³ķ":6327,"æĹ¥åĨĽ":6328,"ãĥĥ":6329,"çļĦåħ¨":6330,"04":6331,"ID":6332,"çº¬":6333,"æŀ£":6334,"è¿ĳæĹ¥":6335,"èķ´":6336,"ert":6337,"å¾Īå°ĳ":6338,"æºĥ":6339,"æĸĩåĮĸçļĦ":6340,"å¸ĤæĶ¿":6341,"æľŁåĪĬ":6342,"æıĲåĲį":6343,"ç«ĭæĸ¹":6344,"èĪ°éĺŁ":6345,"ES":6346,"åłµ":6347,"åľ°å¤Ħ":6348,"èĹ»":6349,"å¢¨è¥¿åĵ¥":6350,"çªĦ":6351,"æĭħå¿ĥ":6352,"åĪĨåĪ«ä¸º":6353,"æĿĲè´¨":6354,"åıĳåĶ®":6355,"åĭ¾":6356,"æĪ¿éĹ´":6357,"æŃ¦è£ħ":6358,"æĺ¯å¯¹":6359,"åĶ¤":6360,"one":6361,"åħ¥ä¾µ":6362,"éĥĳå·ŀ":6363,"é«ĺäºİ":6364,"æ£ķ":6365,"çļĦç®¡çĲĨ":6366,"åıĳè¾¾":6367,"çĽ²":6368,"ä¸ªä½ĵ":6369,"åī§æľ¬":6370,"å¼Ģå·¥":6371,"æĭīä¸ģ":6372,"åŃ£èĬĤ":6373,"æŃ¦å¸Ŀ":6374,"æ¸ħä»£":6375,"æ´»è·ĥ":6376,"1956":6377,"ä¼ĳæģ¯":6378,"æº¯":6379,"å¹¶æľª":6380,"ä»¥å¤ĸ":6381,"æĹ¥åŃĲ":6382,"åĲĪæ³ķ":6383,"å¥ł":6384,"æĸ°èĥ½æºĲ":6385,"ä¼ĺåħĪ":6386,"åľºåľ°":6387,"æıĲåĩºäºĨ":6388,"åĽĽå¤§":6389,"çĻ¾åĪĨ":6390,"91":6391,"ä»Ĩ":6392,"æ·ĺæ±°":6393,"å°Ĩäºİ":6394,"è¯´éģĵ":6395,"ä¸įä½Ĩ":6396,"èĢģæĿ¿":6397,"ç¾İé£Ł":6398,"éĦĤ":6399,"è¶ħè¶Ĭ":6400,"éĺª":6401,"ä¿¡æģ¯åĮĸ":6402,"æİ¥æĶ¶":6403,"ä¹Łæ²¡æľī":6404,"çĭĦ":6405,"éĢĶå¾Ħ":6406,"åľ°å¸¦":6407,"åľ¨è¿Ļä¸ª":6408,"æĿĥå¨ģ":6409,"çļĦéķ¿":6410,"æİ©":6411,"å£¶":6412,"ç¤¾äº¤":6413,"çĩĥçĥ§":6414,"æľŁæľĽ":6415,"æ¾Ħ":6416,"åİŁåĪĽ":6417,"éĶĢéĩı":6418,"æĪĸè®¸":6419,"çĹħä¾ĭ":6420,"çħ§æĺİ":6421,"æ²³åĮĹçľģ":6422,"çº¦ä¸º":6423,"è¿ĺèĥ½":6424,"æ¸¸æ³³":6425,"åĲ¯çĶ¨":6426,"åĩºåĶ®":6427,"æļĳ":6428,"è§Ĥçľĭ":6429,"æĽ¿ä»£":6430,"æłĹ":6431,"å¤©æĸĩ":6432,"æľ¬æĸĩæĳĺè¦ģ":6433,"çļĦçī¹çĤ¹":6434,"æī§å¯¼":6435,"åŀĭåı·":6436,"æ²ª":6437,"äººç¾¤":6438,"çĲĨå·¥":6439,"èĤ¡æĿĥ":6440,"å¹´æ¯ķä¸ļäºİ":6441,"å®ļåĪ¶":6442,"ĠâĢľ":6443,"éĢĢå½¹":6444,"å¼ĵ":6445,"çļĦéľĢæ±Ĥ":6446,"å¯¹æ¯Ķ":6447,"éľľ":6448,"çļĦæµ·":6449,"ä¸ºåĩĨ":6450,"äº²èĩª":6451,"81":6452,"å±±æ°´":6453,"èµļ":6454,"åİ¢":6455,"æ·±åľ³å¸Ĥ":6456,"é¡µç¬¬":6457,"å®ŀçİ°äºĨ":6458,"åĪ¶æĪĲ":6459,"çĪ±å°Ķ":6460,"ah":6461,"UTC":6462,"è¿Ļå°±æĺ¯":6463,"çĮ´":6464,"å¾®ä¿¡":6465,"çŃīå¾ħ":6466,"æĴ°åĨĻ":6467,"å²ģæĹ¶":6468,"å¼Ģåħ³":6469,"æ¸¯åı£":6470,"æľĪçļĦ":6471,"æĲħæĭĮ":6472,"èĢĮè¢«":6473,"çĽ¸åºĶçļĦ":6474,"ä¿¡å¿ĥ":6475,"ç»¿åĮĸ":6476,"èĵĿèī²":6477,"æķĪåĬĽ":6478,"ï¼ĳ":6479,"çĶµç«Ļ":6480,"åīįè¿Ľ":6481,"æº¢":6482,"å©´åĦ¿":6483,"çŁĽçĽ¾":6484,"åİŁåŃĲ":6485,"åµĮ":6486,"æĺ¯æľī":6487,"äºİä¸Ģ":6488,"ç§ģäºº":6489,"åĳ½åĲįä¸º":6490,"è§Ĥå¿µ":6491,"è¾ĥä½İ":6492,"æĬµè¾¾":6493,"åĳ³éģĵ":6494,"å¤§ä½¿":6495,"åħ¸åŀĭ":6496,"é¦Ī":6497,"åŁºç¡Ģè®¾æĸ½":6498,"æĿĥçĽĬ":6499,"å¤©åľ°":6500,"å¥İ":6501,"åł¤":6502,"çĩĥæĸĻ":6503,"è®©æĪĳä»¬":6504,"æīĢå¾Ĺ":6505,"ãĤĬ":6506,"æ²Īéĺ³":6507,"è·¯åı£":6508,"æĢ¡":6509,"éĴ¢éĵģ":6510,"çĦĬæİ¥":6511,"çĤ¹çļĦ":6512,"æīĵåį°":6513,"âĢĿï¼Ľ":6514,"ä¸ĸçķĮå¤§æĪĺ":6515,"çļĦä¸¤":6516,"æĥ¨":6517,"æķ°åįģ":6518,"æ¡¶":6519,"çļĦå½¢å¼ı":6520,"å¹´åı·":6521,"çº·çº·":6522,"ä¸Ńèį¯":6523,"æħ¢æħ¢":6524,"æĥħèĬĤ":6525,"æ¬§åħĥ":6526,"è§Ĥæµĭ":6527,"éĩĳé¢Ŀ":6528,"åº¦åģĩ":6529,"çĸ¯":6530,"ç¦ıå»ºçľģ":6531,"æĶ¿æĿĥ":6532,"è´¢å¯Į":6533,"çº§çļĦ":6534,"ä¹Łè®¸":6535,"ç¼ĸåĨĻ":6536,"èģĶåĲĪåĽ½":6537,"èµ·äºĨ":6538,"äººæ°ĳæ³ķéĻ¢":6539,"ä¸Ģä¸ªäºº":6540,"åŃ¦çĶŁçļĦ":6541,"åģļäºĨ":6542,"ä¸įå¥½":6543,"sh":6544,"ä¸ºæĤ¨":6545,"BC":6546,"èĻļæĭŁ":6547,"ark":6548,"çŀ¬":6549,"å±¡":6550,"è¿ĳæľŁ":6551,"ä¿Ŀç½Ĺ":6552,"äºĪä»¥":6553,"å¹²åĩĢ":6554,"ä¸Ģäºº":6555,"ãĢĭï¼ļ":6556,"æŃ¥éª¤":6557,"æ¯ĶåĪ©":6558,"å®īå¾·":6559,"è¿Ļä¹Łæĺ¯":6560,"åıįå¤į":6561,"ä¸»ç®¡éĥ¨éĹ¨":6562,"å®¶ä¸Ń":6563,"æ¹ĸåĮĹçľģ":6564,"åĮºä¸º":6565,"å±¥è¡Į":6566,"æ°´æŀľ":6567,"ç¥¸":6568,"èĲ¥éĢł":6569,"ä¾ĽåºĶåķĨ":6570,"äºĶä¸ª":6571,"æ¯ķä¸ļåĲİ":6572,"å·«":6573,"Ðº":6574,"åı¤èĢģ":6575,"åķ¦":6576,"å±Ģéĥ¨":6577,"èµģ":6578,"å¼ķé¢Ĩ":6579,"çļĦæĹ¶":6580,"æĥ³æ³ķ":6581,"çħİ":6582,"ä½¿åĳ½":6583,"èµ·åĪ°":6584,"åı²ä¸Ĭ":6585,"ç»ıæµİåıĳå±ķ":6586,"ä»¥ä¾¿":6587,"æŃ»åĲİ":6588,"çĽĳå¯Ł":6589,"åľ°åĪ©":6590,"çĺ¦":6591,"äºĮæĺ¯":6592,"ç¥ŀè¯Ŀ":6593,"ãĤĭ":6594,"çĶµåŃĲåķĨåĬ¡":6595,"èŁ¹":6596,"äºļåĨĽ":6597,"éĩįçļĦ":6598,"éģ®":6599,"åģ¥èº«":6600,"åİī":6601,"æīĵçł´":6602,"ack":6603,"å¼ĢåıĳåĮº":6604,"çķĻåľ¨":6605,"éŃĶæ³ķ":6606,"å®¡è®¡":6607,"åĽŀçŃĶ":6608,"ä¹Łè¦ģ":6609,"åı¯åľ¨":6610,"åı¯æĮģç»Ń":6611,"ç§Łèµģ":6612,"ç¦½":6613,"çĶ·å¥³":6614,"åĸī":6615,"è¿ĻæĹ¶":6616,"åĲĪçº¦":6617,"å¥¥æŀĹ":6618,"èīºäºº":6619,"æıĲéĨĴ":6620,"æ´»åĬ¨çļĦ":6621,"ng":6622,"å¤§äºİ":6623,"å£°æĺİ":6624,"ç¹ģæ®ĸ":6625,"æįŁå®³":6626,"ä¾Ŀæīĺ":6627,"å´©":6628,"æĹ¶ä»£çļĦ":6629,"åľ°åŁŁ":6630,"èº«ä¸º":6631,"å±±èĦī":6632,"å®ŀä½ĵ":6633,"çİĽä¸½":6634,"å±ł":6635,"çŁ¶":6636,"èĸĩ":6637,"åĨĴéĻ©":6638,"åĩ°":6639,"æĪĺå£«":6640,"æįŁä¼¤":6641,"çİ°å·²":6642,"æįī":6643,"ä¾įéĥİ":6644,"ä¼½":6645,"åı¦ä¸Ģæĸ¹éĿ¢":6646,"çľŁç©º":6647,"éľī":6648,"ä¸»å¼ł":6649,"ib":6650,"åıĹæ¬¢è¿İ":6651,"ä¸ĭåİ»":6652,"Ġæĸ°":6653,"ä¾¿æĺ¯":6654,"åĪĨæ³Į":6655,"æĢ»çĿ£":6656,"æĺ¨":6657,"çĹħçļĦ":6658,"åĽŀå®¶":6659,"æĹ¨åľ¨":6660,"åįĵè¶Ĭ":6661,"çļĦçĶŁäº§":6662,"å¹³åİŁ":6663,"ç«Ń":6664,"ä»£è°¢":6665,"çŁ¥åİ¿":6666,"1955":6667,"åī§åľº":6668,"ä¸ĢçŃīå¥ĸ":6669,"ãģĨ":6670,"ãĢįãĢģãĢĮ":6671,"å¥¹ä»¬":6672,"âĺ":6673,"æĶ¯æı´":6674,"çĸ«èĭĹ":6675,"ä¸ºä¸ŃåĽ½":6676,"åĪł":6677,"åĿĤ":6678,"è½¬åĲĳ":6679,"ord":6680,"æĦıä¸º":6681,"çĶŁçĲĨ":6682,"å¾ĹåĲį":6683,"åĽŀå¿Ĩ":6684,"æ°ĽåĽ´":6685,"åĮĹæµ·":6686,"çľŁæŃ£çļĦ":6687,"æµıè§Ī":6688,"Ġl":6689,"èģĮèĥ½":6690,"å¢ŀåĬłäºĨ":6691,"ä¸»äºº":6692,"æĺı":6693,"æ¬ł":6694,"å±ĤçļĦ":6695,"ç¼¸":6696,"åľŁèĢ³":6697,"è¿ĺä¼ļ":6698,"çİ°çĬ¶":6699,"è¯´çļĦ":6700,"æķ°åŃĹåĮĸ":6701,"æľ¬åľŁ":6702,"æĽ´æľī":6703,"æ®ĸæ°ĳ":6704,"æıĲä¾ĽçļĦ":6705,"çĵ¦å°Ķ":6706,"å¾Īå¤ļäºº":6707,"èı©èĲ¨":6708,"åĲĦå¤§":6709,"èĪ±":6710,"éĢ»è¾ĳ":6711,"ç®ĢåįķçļĦ":6712,"éĽķå¡ĳ":6713,"å¸¦åĬ¨":6714,"ä¸ĭè¾ĸ":6715,"è´µæĹı":6716,"æ£ĺ":6717,"çĳ°":6718,"å®ŀæĹ¶":6719,"our":6720,"æĸ¼":6721,"å¢ħ":6722,"åįĥç±³":6723,"åħ¬åħĥåīį":6724,"èİŀ":6725,"å¥½è¯Ħ":6726,"MP":6727,"èµĦè´¨":6728,"ç¡¬ä»¶":6729,"æłĸæģ¯":6730,"çĲĨçĶ±":6731,"åľŁèĢ³åħ¶":6732,"æĮĸæİĺ":6733,"é©¬å°Ķ":6734,"å»ºçŃĳçī©":6735,"çķĮçļĦ":6736,"æĺ¯ä¸º":6737,"åı¥è¯Ŀ":6738,"å¯Ĥ":6739,"è¸¢":6740,"åı¯ä»¥éĢļè¿ĩ":6741,"æķ²":6742,"æ¶µçĽĸ":6743,"è¥¿èĹı":6744,"ç§°ä¹ĭä¸º":6745,"çĥŃæĥħ":6746,"æĪĲå¹´":6747,"åĬĽåĴĮ":6748,"åĽ½éģĵ":6749,"æ¬£èµı":6750,"çĶ¨æ°´":6751,"250":6752,"çĥ¹":6753,"èĲĿåįľ":6754,"çĬ¹å¤ª":6755,"æĺĶ":6756,"è´ª":6757,"çī²":6758,"éĩĩéĽĨ":6759,"ä¸Ĭä¸Ģ":6760,"man":6761,"æ¶ĤæĸĻ":6762,"å¹´èİ·":6763,"å½¢åĬ¿":6764,"åĬ©äºİ":6765,"æĢ»çĽĳ":6766,"æĺ¯ç¾İåĽ½":6767,"è¾ħå¯¼":6768,"åĽ½ç«ĭ":6769,"åĲ»":6770,"ph":6771,"ä¸įå¦Ĥ":6772,"å¿ĥèĦı":6773,"è¿ĲåĬ¨ä¼ļ":6774,"æĺİçĻ½":6775,"æĬ¹":6776,"æĪĲäºº":6777,"åĬŀäºĭå¤Ħ":6778,"ç«£":6779,"åıĳçİ°äºĨ":6780,"ç´§å¼ł":6781,"æīįæĺ¯":6782,"ä¸ĢçĶŁ":6783,"æ´ĹåĩĢ":6784,"åħ³å¿ĥ":6785,"çº§åĪ«":6786,"ç©ºä¸Ń":6787,"çĲĥè¿·":6788,"âĳł":6789,"åħ¨åĬĽ":6790,"å¼Łå¼Ł":6791,"åĽĽåįģ":6792,"è¢«è¯Ħä¸º":6793,"ast":6794,"éĤµ":6795,"éĢļè½¦":6796,"ä¹ĭåľ°":6797,"çĪ±å°Ķåħ°":6798,"å¥¥è¿Ĳä¼ļ":6799,"æİ¢è®¨":6800,"åľºçļĦ":6801,"å¹³æĹ¶":6802,"æĪĺåĲİ":6803,"æµģä¼ł":6804,"çŁ¥è¯Ĩäº§æĿĥ":6805,"åŀĤçĽ´":6806,"èħ»":6807,"æĦ¤":6808,"è®©ä½ł":6809,"åħ¬å¯ĵ":6810,"æ°Ł":6811,"ate":6812,"å¤ļå¹´æĿ¥":6813,"çŃ¾ç½²":6814,"ĠY":6815,"ä»»èģĮ":6816,"èµĦåĬ©":6817,"çĻ¾ä¸ĩ":6818,"è¿¦":6819,"åĵįåºĶ":6820,"ÑĤ":6821,"ä¸ºå®¢æĪ·":6822,"ä¸īç§į":6823,"éĺŁåĳĺ":6824,"ãģ¾":6825,"åħ¸ç¤¼":6826,"æ²¦":6827,"æ¹Ľ":6828,"å¯¹æĬĹ":6829,"åħ¨éķ¿":6830,"éĩĳçīĮ":6831,"æĸ¯æĭī":6832,"éĢ¾":6833,"äºĭä¸ļåįķä½į":6834,"æĺİä»£":6835,"äºı":6836,"æĮģæľī":6837,"æķ°æį®åºĵ":6838,"å¹³å®ī":6839,"äº¤åıī":6840,"çīĪæĿĥ":6841,"éĥ¨èĲ½":6842,"çİīç±³":6843,"æ´Ľéĺ³":6844,"ä¿¡ä»»":6845,"ç²īä¸Ŀ":6846,"æµĳ":6847,"æĹ¶æľŁçļĦ":6848,"ãĢĤãĢĲ":6849,"æĶ¹åĪ¶ä¸º":6850,"æŃ¥åħµ":6851,"èĴ²":6852,"æłĩæľ¬":6853,"ç»Ħç»ĩçļĦ":6854,"çĽ¸ç»ĵåĲĪ":6855,"é¢Ĥ":6856,"åĿ¦åħĭ":6857,"éĴł":6858,"çļĦæīĭ":6859,"Ġä¸Ń":6860,"èĨ¨":6861,"å¼§":6862,"åĳ½è¿Ĳ":6863,"åıĪæľī":6864,"å¤ĸç§ĳ":6865,"çļĦçİ¯å¢ĥ":6866,"è¿Ļåº§":6867,"æĺŃåĴĮ":6868,"å¸¸çĶ¨":6869,"èµ·ä¹ī":6870,"900":6871,"çĲī":6872,"éĺ¿éĩĮ":6873,"éĴ¢çĲ´":6874,"åįģæľĪ":6875,"å½¢æĪĲçļĦ":6876,"ãĥ¼ãĥ":6877,"é»Ħæ²³":6878,"é©¬æĭī":6879,"æĮª":6880,"ç§¯åĪĨ":6881,"è¥¿æ´ĭ":6882,"ä¸īæľĪ":6883,"çŃīçļĦ":6884,"èĤĮèĤī":6885,"æ´Ĵ":6886,"æľīåĪ©äºİ":6887,"äº²çİĭ":6888,"æ¦ĤåĨµ":6889,"å¯¹è¯Ŀ":6890,"æķĳæı´":6891,"å¤©çļĩ":6892,"æĺ¯ä¸Ģéĥ¨":6893,"åįİäºº":6894,"äºļåİĨå±±":6895,"çĪª":6896,"åĮĸåĲĪçī©":6897,"çłģå¤´":6898,"äºĶåįģ":6899,"æĬĬæı¡":6900,"ä¸Ģä»½":6901,"ç²¹":6902,"æ¸©æļĸ":6903,"Ġand":6904,"LED":6905,"åĪĨè§£":6906,"åĤ²":6907,"US":6908,"æĢĸ":6909,"åŁİåł¡":6910,"åĴı":6911,"éļ¾åº¦":6912,"äº¦æľī":6913,"èĬ¯çīĩ":6914,"æīĵç®Ĺ":6915,"çļĦä¸ĸçķĮ":6916,"æŃ¤åīį":6917,"è½´æī¿":6918,"è¿Ŀåıį":6919,"æĸ°é²ľ":6920,"æ·±åıĹ":6921,"ç¨İåĬ¡":6922,"è½¬ä¼ļ":6923,"åĩ¤åĩ°":6924,"åįķçĭ¬":6925,"å¥¥æŀĹåĮ¹":6926,"åī¯ä¸»å¸Ń":6927,"ä¸ºåħ¶":6928,"ew":6929,"ä¹¦ä¸Ń":6930,"æıĲåĪ°":6931,"æľºç»Ħ":6932,"km":6933,"å½¼æŃ¤":6934,"æĥħå½¢":6935,"ç«Ļåı°":6936,"å®¡æī¹":6937,"éĿ¢ä¸Ĭ":6938,"ont":6939,"æĺ¾å¾Ĺ":6940,"åŁİä¹¡":6941,"ç²¾åĩĨ":6942,"ç§ĺä¹¦éķ¿":6943,"éĿ¢åīį":6944,"åı°ä¸Ń":6945,"è¡£æľį":6946,"çļĦåŃ¦çĶŁ":6947,"æ»ŀ":6948,"ä¸¹éº¦":6949,"ä¸¤ä½į":6950,"è¿ŀéĶģ":6951,"éħ¬":6952,"èĭıæł¼åħ°":6953,"äº¨åĪ©":6954,"è®©æĪĳ":6955,"å½±åĥı":6956,"æĬĦ":6957,"åľ¨ä¸Ģä¸ª":6958,"ä¹ĲéĺŁ":6959,"CC":6960,"åĨĽçļĦ":6961,"å¤Ħç½ļ":6962,"Ġ5":6963,"çħ§é¡¾":6964,"çļĦäººåı£":6965,"ä½ľçī©":6966,"âĳ¡":6967,"1500":6968,"Ġ/":6969,"æ¶ĪèĢĹ":6970,"ON":6971,"åĪĿæŃ¥":6972,"éļĶç¦»":6973,"åĬĽåº¦":6974,"å¤ıå¤©":6975,"äºĮçŃīå¥ĸ":6976,"åĬłä»¥":6977,"å¹´çĶ±":6978,"çļĦä½įç½®":6979,"ey":6980,"çļĦæľºä¼ļ":6981,"âĢĿãĢģ":6982,"æ¡Ĩæŀ¶":6983,"è¢Ńåĩ»":6984,"åľ¨æĸ°":6985,"æĸ¯åħĭ":6986,"é¢ĺæĿĲ":6987,"æĻ®åıĬ":6988,"è¯ĹæŃĮ":6989,"å¼Ģæľ¬":6990,"æĺ¯æĹ¥æľ¬":6991,"å¸Ĥå§Ķ":6992,"çĶµç¼Ĩ":6993,"æľĢåħ·":6994,"æ·³":6995,"çłĶç©¶åĳĺ":6996,"ä»¥åħ¶":6997,"æľ¬åľ°åĮº":6998,"éĺµå®¹":6999,"è¿Ľç¨ĭ":7000,"æ¬¡å¹´":7001,"ä½ĵåĨħ":7002,"ä¾ĿéĿł":7003,"å¥¥åľ°åĪ©":7004,"åģļçļĦ":7005,"ä¸įäºĨ":7006,"éĤ£æł·":7007,"ä¸Ģæī¹":7008,"é¾ĻçļĦ":7009,"ä¸¾äºº":7010,"åĲĪèĤ¥":7011,"Ġ18":7012,"ä¹Łå°±":7013,"èī²åĪĹ":7014,"äºĮæ¬¡":7015,"éĢļé£İ":7016,"åĲĦåĽ½":7017,"ä½ĵåĪ¶":7018,"æĢ»éĿ¢ç§¯":7019,"é«ĵ":7020,"å¾®åįļ":7021,"æĿ¿åĿĹ":7022,"æº¶æ¶²":7023,"æ®·":7024,"ä¸»æĮģäºº":7025,"åľ¨è¯¥":7026,"åħ¶æ¬¡":7027,"ç¨£":7028,"æĭĽæłĩ":7029,"ç§ĳåŃ¦æĬĢæľ¯":7030,"åħ¬é¡·":7031,"ä¾Ŀèµĸ":7032,"æĶ¶è§Ĩ":7033,"å¹¶ä¸İ":7034,"ä½ĵéĩį":7035,"ä¸ĭåĪĹ":7036,"åįıåĲĮ":7037,"éĻĨç»Ń":7038,"å¤§è¡Ĺ":7039,"æĹ¥åīį":7040,"åĨįçĶŁ":7041,"æĶ¶èİ·":7042,"ç§©":7043,"å¸ĥæĭī":7044,"æĹ©å¹´":7045,"âĢķ":7046,"çĶµç£ģ":7047,"çĶŁåĬ¨":7048,"ç²¾å¿ĥ":7049,"æħ¢æĢ§":7050,"åįģäºĮå¹´":7051,"ä½ľè¯į":7052,"æľīéĻĲè´£ä»»":7053,"é¢ĦæľŁ":7054,"æ¡ĵ":7055,"èĮ¶åı¶":7056,"ç®¡çĲĨçļĦ":7057,"æ¿ĢçĥĪ":7058,"åŁºéĩĳä¼ļ":7059,"ä¿ĺ":7060,"ook":7061,"æ¸´":7062,"çº³åħ¥":7063,"èģĮä½į":7064,"æĹŃ":7065,"åĪĨæĶ¯":7066,"è°ĥçłĶ":7067,"ue":7068,"å·¥ä½ľå®¤":7069,"ä¼Ĭæĸ¯åħ°":7070,"é¢Ĩè¢ĸ":7071,"æİ¢æµĭ":7072,"èĢ¶ç¨£":7073,"æ¶¦æ»ĳ":7074,"è®©ä»ĸ":7075,"ç¥¨æĪ¿":7076,"ç´§æĢ¥":7077,"æ¬º":7078,"ä¸Ńå¿ĥçļĦ":7079,"ç»Īç«¯":7080,"å¤©ä½¿":7081,"çĲĥåŃ£":7082,"åį«è§Ĩ":7083,"ass":7084,"æľīä»Ģä¹Ī":7085,"æĢ§åĪ«":7086,"èı²å¾ĭ":7087,"ä¸įéľĢè¦ģ":7088,"ä¸įåľ¨":7089,"æĸ¯å¡Ķ":7090,"å¯¹éĺµ":7091,"éĨĭ":7092,"å½ķéŁ³":7093,"æ·ĳ":7094,"ai":7095,"æİĴåĪĹ":7096,"é½Ĳåħ¨":7097,"èĬĤåº¦":7098,"è°ľ":7099,"GB":7100,"ä¸įå¤ļ":7101,"ĠåĴĮ":7102,"åº·å¤į":7103,"åĭĭç«ł":7104,"æŁıæŀĹ":7105,"oun":7106,"ä¸İæŃ¤":7107,"é«ĺèĢĥ":7108,"æĮĩç¤º":7109,"ä¿Ŀåħ»":7110,"èı²å¾ĭå®¾":7111,"ex":7112,"è¿Ľå±ķ":7113,"æŁĲç§į":7114,"è¡¬":7115,"éĺĲ":7116,"æĪĲåĬŁçļĦ":7117,"æĺİæĺ¾çļĦ":7118,"åįļè§Ī":7119,"äºĮæľĪ":7120,"ç±³åħ°":7121,"å¯¼å¼¹":7122,"çļĦåĨħ":7123,"éĻķè¥¿çľģ":7124,"åħ¼ä»»":7125,"åĶ®åĲİ":7126,"åįĥä¸ĩ":7127,"å½ĵäºĭ":7128,"è§ĤéŁ³":7129,"çĮľ":7130,"å¸Ĥéķ¿":7131,"åĶĲæľĿ":7132,"çļĦå®īåħ¨":7133,"çļĦä¿¡æģ¯":7134,"å°Ķå¤«":7135,"ç¡®è¯Ĭ":7136,"çĻ»éĻĨ":7137,"åŁİçļĦ":7138,"è¯¥åħ¬åı¸":7139,"æĪĺèĥľ":7140,"åįķä¸Ģ":7141,"å®ŀåľ¨":7142,"æĴ¤éĶĢ":7143,"æľªæĿ¥çļĦ":7144,"éĺ²æ°´":7145,"èģĮä¸ļçĶŁæ¶¯":7146,"åŃĹæ¯į":7147,"æł½åŁ¹":7148,"æľīåĵªäºĽ":7149,"æĪ¿åŃĲ":7150,"äºĶæľĪ":7151,"éĻĦè¿ĳçļĦ":7152,"çīµå¼ķ":7153,"å®Ľ":7154,"åĨĢ":7155,"æģĲæĢĸ":7156,"au":7157,"ç±³å°Ķ":7158,"èµ·çĤ¹":7159,"å¤´éĥ¨":7160,"èģļéĽĨ":7161,"ç»ıæµİåŃ¦":7162,"æįŀ":7163,"éĢĢåĩº":7164,"éĩĮäºļ":7165,"éĢıéľ²":7166,"ive":7167,"åīĸ":7168,"è¿Ļé¦ĸ":7169,"Ġ19":7170,"Ġv":7171,"æŀ¯":7172,"çķı":7173,"åİĤåķĨ":7174,"ect":7175,"å¼ŁåŃĲ":7176,"å®¶åįıä¼ļ":7177,"æĿĥåĬĽ":7178,"åĩ¹":7179,"åĬ¿åĬĽ":7180,"ä¹¦éĻ¢":7181,"åĬ©æĶ»":7182,"è§Ĥèµı":7183,"AI":7184,"æĹłè®ºæĺ¯":7185,"æĺİçļĦ":7186,"æĺ¥èĬĤ":7187,"ä»ĸè¯´":7188,"1954":7189,"åĪĽå§ĭäºº":7190,"æ²§":7191,"å·²æĪĲä¸º":7192,"æĻĭçº§":7193,"æ²¸":7194,"å±ŀæĢ§":7195,"åĪĳäºĭ":7196,"èŀįåħ¥":7197,"éŃħåĬĽ":7198,"ä¹¡éķĩ":7199,"èĬĤå¥ı":7200,"ãģ«":7201,"çļĦåħī":7202,"ä¸ľèİŀ":7203,"Ġçİĭ":7204,"éħįä»¶":7205,"çĶµåķĨ":7206,"åħ¨æĸ°":7207,"å¾Īå®¹æĺĵ":7208,"æĥ³è±¡":7209,"å¹¶ä»¥":7210,"é¦ĸå±Ĭ":7211,"åĨħæľī":7212,"éģŃéģĩ":7213,"äºĭå®ŀä¸Ĭ":7214,"æĥħæĬ¥":7215,"åº¸":7216,"æĲı":7217,"ç¼ĸçłģä¸ºP":7218,"çī©æĸĻ":7219,"å¤§åŃ¦çļĦ":7220,"åľ¨ä»ĸ":7221,"son":7222,"çļĦæķ°æį®":7223,"å®¶éĩĮ":7224,"èĪ¶":7225,"å§Ĭ":7226,"æİ¥å¾ħ":7227,"åĸľåī§":7228,"å±±åİ¿":7229,"é¥®æĸĻ":7230,"Ġå¼ł":7231,"ä¸įåıĹ":7232,"è¯ģå®ŀ":7233,"ç¥Ī":7234,"æłĩåĩĨåĮĸ":7235,"èĲ¥è¿Ĳ":7236,"æĽĿ":7237,"å±±çļĦ":7238,"ä»¥èī²åĪĹ":7239,"åĢºåĬ¡":7240,"å·¾":7241,"åĪĨæķ°":7242,"å®¹åĻ¨":7243,"çĸ¼çĹĽ":7244,"å¼ºå¤§":7245,"æĬĹæĹ¥":7246,"è¾ĥé«ĺçļĦ":7247,"æİĴæ°´":7248,"éĢłæĪĲçļĦ":7249,"è§Ĥåħī":7250,"1959":7251,"æľīåı¯èĥ½":7252,"æ¸£":7253,"æ¯Ĺ":7254,"åħ¬åĬ¡":7255,"éĴ©":7256,"ä½ĵç§¯":7257,"åĪ¶éĢłä¸ļ":7258,"ä¸»è¦ģçļĦ":7259,"åĢĻéĢī":7260,"ä½Ĩä»ĸ":7261,"æķıæĦŁ":7262,"çī©èµĦ":7263,"å½ĵå¤©":7264,"ff":7265,"æĦģ":7266,"å¥¹åľ¨":7267,"çĽ¸è¿ŀ":7268,"ä¸ĢæĶ¯":7269,"éĻ¢å£«":7270,"1975":7271,"1964":7272,"åħ¨èº«":7273,"æ±Ģ":7274,"äººäºĭ":7275,"åī¥":7276,"1963":7277,"æĭĽåķĨ":7278,"æĤ£èĢħçļĦ":7279,"è¢«è®¤ä¸ºæĺ¯":7280,"éĵ¶å±ĳ":7281,"åľŃ":7282,"åķĨåľº":7283,"ä¸ĸçķĮçļĦ":7284,"ä¸ĢçĻ¾":7285,"åĽĽæľĪ":7286,"1962":7287,"åĮ»åŃ¦éĻ¢":7288,"å°Ĭéĩį":7289,"å¾ĹåĪĨ":7290,"çģµéŃĤ":7291,"ä»£æĽ¿":7292,"æŁ¥çľĭ":7293,"æĢĿè·¯":7294,"çİ«":7295,"èİ«æĸ¯ç§ĳ":7296,"è½¦çļĦ":7297,"1952":7298,"å§ĵåĲį":7299,"ç«£å·¥":7300,"è¿Ļç±»":7301,"å¸ĥç½®":7302,"ä¸»è¦ģæľī":7303,"å½ķåıĸ":7304,"äº§åľ°":7305,"âħ":7306,"ä¾£":7307,"è¿Ļä¸¤":7308,"é¸¡èĽĭ":7309,"åĵªéĩĮ":7310,"çļĦå¤§åŀĭ":7311,"å±ıå¹ķ":7312,"1976":7313,"1965":7314,"ä¸»åĬĽ":7315,"æµģéĢļ":7316,"è£ħçĶ²":7317,"èģĶç»ľ":7318,"éĻ·åħ¥":7319,"è¯ĦéĢī":7320,"åĩºåİ»":7321,"æĹ¥çĽĬ":7322,"å·²è¢«":7323,"çļĦæķĪæŀľ":7324,"åħĭæĭī":7325,"æħĪåĸĦ":7326,"ç´§å¯Ĩ":7327,"ä»ħæľī":7328,"äºīåıĸ":7329,"ä¸įå¾Ĺä¸į":7330,"ä¾¿æį·":7331,"çļĦç²¾ç¥ŀ":7332,"æ¸ħåįİ":7333,"ï¼ļï¼Ī":7334,"æ°´åĪĨ":7335,"æĶ¿åįı":7336,"æĬ¥å¯¼":7337,"ä¸Ģçº¿":7338,"ä¹ĺå®¢":7339,"Ġ6":7340,"ä¸įæĺĵ":7341,"åĴĮæľįåĬ¡":7342,"çŁ¢":7343,"è·Łéļı":7344,"æ¨¡åħ·":7345,"å²©çŁ³":7346,"ä¸Ĭæ¶¨":7347,"ISO":7348,"èĭ¥å¹²":7349,"å¤§è§Ħæ¨¡":7350,"æŀģä¸º":7351,"æµªæ¼«":7352,"èĸ¯":7353,"è®·":7354,"è¿ĩäºİ":7355,"è¿ĩäºĨ":7356,"ä½ĨçĶ±äºİ":7357,"æĬķæłĩ":7358,"è¿ľç¨ĭ":7359,"çĲª":7360,"åŃĺåľ¨çļĦ":7361,"è®®éĻ¢":7362,"éŁ§":7363,"å¼Ģå¹ķ":7364,"çħ¤çĤŃ":7365,"çļĦè¿ĩç¨ĭ":7366,"è¾¹çļĦ":7367,"äº«æľī":7368,"å¼Ģä¸ļ":7369,"å§ĭå»ºäºİ":7370,"åŁºçĿ£æķĻ":7371,"åħ¬çĪµ":7372,"èĳĹæľī":7373,"æĦıå¿Ĺ":7374,"æ²¿æµ·":7375,"æľīéĻĲè´£ä»»åħ¬åı¸":7376,"ç¦ıåĪ©":7377,"åħ¨åİ¿":7378,"ä¸¾è¡ĮçļĦ":7379,"æĿ¡çº¦":7380,"æıĲé«ĺäºĨ":7381,"å¤§åĮº":7382,"æĸ°çĶŁ":7383,"æĢ»å±Ģ":7384,"è¯¾åłĤ":7385,"æĸ¹éĴĪ":7386,"å·¥ä¼ļ":7387,"åĪĨåĪ«æĺ¯":7388,"1940":7389,"çĹĽèĭ¦":7390,"å¼¹æĢ§":7391,"æ¶¡":7392,"æŃ£æľĪ":7393,"è¯¸å¤ļ":7394,"çĽ¸å½ĵäºİ":7395,"ç½ĳé¡µ":7396,"1961":7397,"åıĳçĶŁåľ¨":7398,"ä¸īä¸ĸ":7399,"æŀĹä¸ļ":7400,"ç»ĳ":7401,"å¹²æī°":7402,"çĢĳ":7403,"åŃ©åŃĲçļĦ":7404,"èĲĮ":7405,"å¤©åłĤ":7406,"ç«Ļåľ¨":7407,"Ġå°ı":7408,"æīĢåľ¨åľ°":7409,"æµ·ä¸Ĭ":7410,"è±¹":7411,"end":7412,"ä¸¥éĩįçļĦ":7413,"ãĢĤâĢĿãĢĤ":7414,"çļĦä»·æł¼":7415,"çľĭçľĭ":7416,"ä¸Ģåıª":7417,"å¤įåħ´":7418,"å¸ĪçĶŁ":7419,"æĺ¯æľĢ":7420,"CP":7421,"çİ°éĩĳ":7422,"éĿ¢è¯ķ":7423,"ä¸įåıĺ":7424,"æĪ·å¤ĸ":7425,"å®Įæķ´çļĦ":7426,"æĸ¥":7427,"åıĤè°ĭ":7428,"åĶĲä»£":7429,"çļĦå¥³":7430,"å®¶ä¹¡":7431,"åķ¤":7432,"å·©":7433,"æŃ£è§Ħ":7434,"è¿ĽèĢĮ":7435,"é¥¶":7436,"è£ģåĪ¤":7437,"æµĩ":7438,"ä¹ĭéĻħ":7439,"NBA":7440,"çĸĹæ³ķ":7441,"æįŁåĿı":7442,"åĿ¤":7443,"å®¶åºĦ":7444,"ç¬¬äºĮèĬĤ":7445,"éĺ»æŃ¢":7446,"éĥ¨å°ļä¹¦":7447,"é»ı":7448,"è¦ģç´ł":7449,"è·ĭ":7450,"åĪ«å¢ħ":7451,"ä½ľèĢħç®Ģä»ĭ":7452,"æ²«":7453,"çłĶè®¨":7454,"ric":7455,"çļĦæľī":7456,"æłĳèĦĤ":7457,"è´§è¿Ĳ":7458,"éªĳåħµ":7459,"åĲ¬åĪ°":7460,"é¡ºåºı":7461,"ä¾ĭåŃĲ":7462,"è¾ĥå¤§çļĦ":7463,"åĿł":7464,"ina":7465,"çĶ¨åľ°":7466,"æ´¾éģ£":7467,"å¤Ħç½®":7468,"æ¶²åİĭ":7469,"å¥¥æŀĹåĮ¹åħĭ":7470,"åĲįä¹ī":7471,"ç«ĭæ³ķ":7472,"éĻĦåĬł":7473,"éªĮè¯ģ":7474,"åħĭéĩĮæĸ¯":7475,"åİļåº¦":7476,"é¦ĸä¸ª":7477,"éĢĶä¸Ń":7478,"è·¯ä¸Ĭ":7479,"1972":7480,"ç¨İæĶ¶":7481,"çŃĶæ¡Ī":7482,"ç¨³å®ļæĢ§":7483,"æģ¼":7484,"æľºåĬ¨":7485,"æ¢µ":7486,"ä»ĸä»¬åľ¨":7487,"ä¸įå¤Ł":7488,"éķľå¤´":7489,"æĿĲæĸĻçļĦ":7490,"åĶĩ":7491,"æ²¼":7492,"ç»¼åĲĪæĢ§":7493,"ä¸Ģçīĩ":7494,"...":7495,"å°Ħåĩ»":7496,"åıĳéĢģ":7497,"æ¸ĹéĢı":7498,"åĩºåľŁ":7499,"Ġé«ĺ":7500,"ç«ĭä½ĵ":7501,"ET":7502,"ãĢķ":7503,"èĢĮæĿ¥":7504,"æĺĨæĺİ":7505,"æĹłéľĢ":7506,"æĿ¡ä»¶ä¸ĭ":7507,"æĲºå¸¦":7508,"ä¸ºåŁºç¡Ģ":7509,"æľŁéĻĲ":7510,"é¾Ļå¤´":7511,"ä¸ŃæľĢ":7512,"éĺ³åİ¿":7513,"åĪĩåī²":7514,"ç»Ĵ":7515,"ç¼ł":7516,"åľ¨åħ¨åĽ½":7517,"èĵī":7518,"è´µçļĦ":7519,"åħ¬åĪĨ":7520,"å¦¥":7521,"å³»":7522,"åĩıè½»":7523,"1957":7524,"åĲĪå¹¶ä¸º":7525,"è´¢ç»ı":7526,"æĬµæĬĹ":7527,"ãĢĶ":7528,"çĸ¹":7529,"æĿ°åĩº":7530,"æī©å¼ł":7531,"å¯ĩ":7532,"å¾Īé«ĺ":7533,"éªĮæĶ¶":7534,"1946":7535,"éķ¿è¾¾":7536,"AD":7537,"ç«ŀæĬĢ":7538,"ä¸ĢæĹ¥":7539,"ãģ¿":7540,"ct":7541,"ç¬¬ä¸ĢèĬĤ":7542,"éĺ¿æł¹":7543,"å¹¿å·ŀå¸Ĥ":7544,"æ´¾åĩº":7545,"åĺīå®¾":7546,"èªĵ":7547,"è½¦éĹ´":7548,"ä¸Ģè¾¹":7549,"1968":7550,"åľ¨åĮĹäº¬":7551,"æĸ°åĨł":7552,"éļ¶å±ŀ":7553,"å¼ķèµ·çļĦ":7554,"æľīçĤ¹":7555,"æĽ´é«ĺ":7556,"èĪ¹èĪ¶":7557,"äºĭåĬ¡æīĢ":7558,"è®²è§£":7559,"è¥¿åħ°":7560,"çĶŁèĤ²":7561,"ãģķ":7562,"ãĢĭï¼ī":7563,"è¿Ļé¡¹":7564,"æ³ķäºº":7565,"çļĦçĽ®çļĦ":7566,"çĥŃæ°´":7567,"è¡¥åģ¿":7568,"è¯ŀçĶŁ":7569,"åĲĮæľŁ":7570,"éĵ¾æİ¥":7571,"åįłæį®":7572,"åı¦æľī":7573,"å¤ªåİŁ":7574,"å¤«å¦»":7575,"è®¤çŁ¥":7576,"ä¸ĭä¸Ģ":7577,"æĸĮ":7578,"1941":7579,"éģĵçļĦ":7580,"æĹłæķ°":7581,"æİ¥åı£":7582,"æľįåĬ¡åĻ¨":7583,"éķ¿æĺ¥":7584,"Ġ10":7585,"ï¼Ĳ":7586,"å¤ĸéĥ¨":7587,"äººå·¥æĻºèĥ½":7588,"çīĻé½¿":7589,"130":7590,"ç¬¬ä¸ĢçĻ¾":7591,"åĬłå·ŀ":7592,"æ¦Ħ":7593,"æľ¬æĿ¥":7594,"äººåĬĽèµĦæºĲ":7595,"æĺ¯ä»İ":7596,"æķ·":7597,"æİĴè¡Į":7598,"çļĦç»ĵæŀľ":7599,"éĺ¿æł¹å»·":7600,"èĬĤçľģ":7601,"åħ»çĶŁ":7602,"åħ«æľĪ":7603,"1973":7604,"èĬĻ":7605,"åįİçĽĽ":7606,"è¿ĳä»£":7607,"çļĦä¸ľè¥¿":7608,"å¯Įæľī":7609,"åĵ¥åĵ¥":7610,"å¹´ç¬¬":7611,"éº¦åħĭ":7612,"åıĺæĽ´":7613,"ä»ĭç»įäºĨ":7614,"1953":7615,"å¤¸":7616,"æ´»åĬĽ":7617,"åĪ©çİĩ":7618,"æŀ¶æŀĦ":7619,"åºµ":7620,"çļĦä¸Ģåº§":7621,"Sh":7622,"ä»»æĦı":7623,"åĵĪå°Ķæ»¨":7624,"éĹ»åĲį":7625,"ä¾Ŀçħ§":7626,"çļĦä¸Ĭ":7627,"åħ±è®¡":7628,"ç«ŀäºīåĬĽ":7629,"ä¸¤èĢħ":7630,"çľģéģĵ":7631,"èªīä¸º":7632,"âĹı":7633,"çİ°ä¸º":7634,"æ¶Īæ¯Ĵ":7635,"èģļèĲ½":7636,"çļĦä¸ŃåĽ½":7637,"oy":7638,"åīįæĻ¯":7639,"é¢ł":7640,"éĽģ":7641,"åħŃæľĪ":7642,"1977":7643,"æ¯ıä¸ªäºº":7644,"åı¯çĶ¨":7645,"çīłä»¬":7646,"çļĦåĬŁèĥ½":7647,"å¤§åľ°":7648,"éĩĳåĪļ":7649,"1944":7650,"æİ¥çĿĢ":7651,"è½¦åŀĭ":7652,"åĬ©åĬĽ":7653,"æļĤæĹ¶":7654,"æĺ¯ä¸ºäºĨ":7655,"ãģį":7656,"åĪ¶çīĩ":7657,"æ©Ļ":7658,"éŃģ":7659,"az":7660,"çİ°æĹ¶":7661,"æĪĺåĽ½":7662,"ä¸ĥæľĪ":7663,"ä¼łåĬ¨":7664,"çľĭèµ·æĿ¥":7665,"å®¢æĪ·çļĦ":7666,"åı¯åīįå¾Ģ":7667,"éĴĵ":7668,"ä¼ŀ":7669,"æ¸¸æĪıçļĦ":7670,"åīįæĿ¥":7671,"çģ«çģ¾":7672,"ä¹Łå°Ĩ":7673,"1969":7674,"åĽ½å®¶åĴĮ":7675,"çĳ¶":7676,"æŀ¢çº½":7677,"æģĴæĺŁ":7678,"çªĹåı£":7679,"PP":7680,"ãĤ·":7681,"èŀºæĹĭ":7682,"çļĦè§Ħå®ļ":7683,"700":7684,"çļĦåĲĮ":7685,"1920":7686,"çł²":7687,"åİĨç¨ĭ":7688,"åĽŀæĿ¥":7689,"ç¦ıå·ŀ":7690,"è©¹å§Ĩæĸ¯":7691,"è¡Ģåİĭ":7692,"Ar":7693,"çļĦåıĺåĮĸ":7694,"æĭ¾":7695,"åħ¨æĸ¹ä½į":7696,"å°ģéĹŃ":7697,"èĩªæĿĢ":7698,"ä¹¦åĲį":7699,"å¾®çĶŁçī©":7700,"å±±è¥¿çľģ":7701,"çĽ®çļĦæĺ¯":7702,"åķĨå®¶":7703,"æ¿Ģç´ł":7704,"æ¸Ĳæ¸Ĳ":7705,"åĨħåľ°":7706,"æĶ¯åĩº":7707,"åįģä¸Ģå¹´":7708,"åĲİç»Ń":7709,"ç©Ĺ":7710,"è¢«è¿«":7711,"äº§åĵģè´¨éĩı":7712,"æ±īæĹı":7713,"èģĮæ£Ĵ":7714,"å¤ªéĺ³èĥ½":7715,"é©³":7716,"ä½ĳ":7717,"åĪĨæķ£":7718,"å·¥ä½ľä¸Ń":7719,"æ¢Ĺ":7720,"ä¹ĭä¸Ĭ":7721,"ä»ĭè´¨":7722,"åĲĪä½ľä¼Ļä¼´":7723,"å¯®":7724,"ä¿ĿæĬ¤åĮº":7725,"ust":7726,"éģµå®Ī":7727,"ä¸ŃæľŁ":7728,"å¯»æ±Ĥ":7729,"èľ¡":7730,"åĤ¨åŃĺ":7731,"çļĦè¿ĩç¨ĭä¸Ń":7732,"æĸĲ":7733,"åħ¬å¹³":7734,"äºİæŃ¤":7735,"1966":7736,"åĨĽåĽ¢":7737,"ç¨³å®ļçļĦ":7738,"åį¡æĭī":7739,"å»¶ç»Ń":7740,"Ph":7741,"å»ºæĿĲ":7742,"åħ¨å¹´":7743,"ç»ıè´¹":7744,"MS":7745,"å¤ªåĲİ":7746,"ä¸Ĭéĺµ":7747,"åĪĩå®ŀ":7748,"åİ»äºĨ":7749,"æııç»ĺ":7750,"çĽ¸åıį":7751,"çĶµä¿¡":7752,"ç®Ĺæ³ķ":7753,"ãĤī":7754,"æĸĹäºī":7755,"åĲĮæ¯Ķå¢ŀéķ¿":7756,"åŃĲåħ¬åı¸":7757,"çķĮéĿ¢":7758,"åİĿ":7759,"çĸ«æĥħéĺ²æİ§":7760,"è°¥":7761,"ç¬¦åı·":7762,"åŁºç¡Ģä¸Ĭ":7763,"çļĦéĥ¨åĪĨ":7764,"å¥½åıĭ":7765,"Ġ:":7766,"å¦¹å¦¹":7767,"å¥ĭæĸĹ":7768,"æĸ°åŁİ":7769,"èģĶåĲĪä¼ļ":7770,"æĪªæŃ¢":7771,"éĹ¯":7772,"æĸ°åħ´":7773,"èĬ¬åħ°":7774,"åĩºç§Ł":7775,"1974":7776,"å°ıç¼ĸ":7777,"ä»»æķĻ":7778,"1948":7779,"ç²¾å¯Ĩ":7780,"éĶ»çĤ¼":7781,"äº§ä¸ļéĵ¾":7782,"æıĲåıĸ":7783,"æĺ¯ä¸Ģæ¬¾":7784,"çļĦçĽ®æłĩ":7785,"èµĶåģ¿":7786,"ç§īæī¿":7787,"èĤļ":7788,"ä½İæ¸©":7789,"è¯ķçĤ¹":7790,"èĳ¡èĲĦéħĴ":7791,"çļĦè´¨éĩı":7792,"çĥ·":7793,"æĺ¯ä½įäºİ":7794,"å¥¸":7795,"çĶŁæĹ¥":7796,"èĥ½åľ¨":7797,"åŁĥå°Ķ":7798,"å¤§æī¹":7799,"ç¼ĸæĽ²":7800,"çıĢ":7801,"èĬĤçº¦":7802,"ach":7803,"ä¸įåĪ©":7804,"åįļå£«åŃ¦ä½į":7805,"æ¼ĶåĶ±ä¼ļ":7806,"éĽķåĪ»":7807,"é©±éĢĲ":7808,"åĽłåħ¶":7809,"åºĲ":7810,"MA":7811,"åıĳçĶŁäºĨ":7812,"ä»ĸè¿ĺ":7813,"ä»ĸä¸İ":7814,"ä¸Ģä½ĵåĮĸ":7815,"éĶħçĤī":7816,"ä¸įè§ģ":7817,"Ð»":7818,"åıĬåħ¶ä»ĸ":7819,"äººä¸İ":7820,"æĿ°åħĭ":7821,"åº¶":7822,"æľ¬è´¨":7823,"æ±īè¯Ń":7824,"çļĦè¡Įä¸º":7825,"å®¢è§Ĥ":7826,"åįİçĽĽé¡¿":7827,"çŁ®":7828,"ä»ħä»ħ":7829,"åĨĽåĮº":7830,"çļĦå¸Ĥåľº":7831,"åī¯ä¹¦è®°":7832,"åĵ¥ä¼¦":7833,"åĬĽåŃ¦":7834,"æľīåħ³éĥ¨éĹ¨":7835,"è´«åĽ°":7836,"ç¼ºéĻ·":7837,"æŃ£éĿ¢":7838,"å¤ªå®Ī":7839,"1938":7840,"äº¤æĺĵæīĢ":7841,"ç¯®æĿ¿":7842,"pp":7843,"çķĻåŃ¦":7844,"æīĭç»Ń":7845,"è´©":7846,"çļĦåºĶçĶ¨":7847,"åºļ":7848,"èįīåİŁ":7849,"çĪ¸çĪ¸":7850,"ï¼īãĢģãĢĬ":7851,"1937":7852,"åĽ½ä¼ļ":7853,"com":7854,"è¿ĩåº¦":7855,"åľ¨æĹ¥æľ¬":7856,"èĲ¨åħĭ":7857,"ox":7858,"åı«åģļ":7859,"å®īä¸ľ":7860,"æĭĺ":7861,"å¾·åįİ":7862,"è¯´è¯Ŀ":7863,"åŁºæľ¬ä¸Ĭ":7864,"æģĲé¾Ļ":7865,"ç¾İå¥½":7866,"ç©¿è¶Ĭ":7867,"éĶ¥":7868,"é«ĺæĸ°æĬĢæľ¯":7869,"è±ĨèħĲ":7870,"åĴ½":7871,"æĺ¯æ³ķåĽ½":7872,"ç¼ĵè§£":7873,"éļıèĳĹ":7874,"çĦ°":7875,"æ°Ķæ¸©":7876,"èµ·æºĲ":7877,"æł¼å±Ģ":7878,"æĤĶ":7879,"æŀ«":7880,"æķ°çłģ":7881,"éģĵåħī":7882,"ä¹ĿæľĪ":7883,"åıĳéħµ":7884,"ĠéĻĪ":7885,"ä¾ĽçĶµ":7886,"____":7887,"ä»¥å¾Ģ":7888,"æłĳç«ĭ":7889,"éĩĳå±±":7890,"è¾£æ¤Ĵ":7891,"éĽĨåĽ¢æľīéĻĲåħ¬åı¸":7892,"ä¸ŃåİŁ":7893,"èµĮ":7894,"æ³»":7895,"èĴ¸æ±½":7896,"åĪļåĪļ":7897,"åıĳæĶ¾":7898,"æľĢé«ĺçļĦ":7899,"åıįèĢĮ":7900,"å°ĳè®¸":7901,"ç±»åŀĭçļĦ":7902,"å¸Ĥçº§":7903,"åħħçĶµ":7904,"å¤ļåĲį":7905,"æ±Łè¥¿çľģ":7906,"æııåĨĻ":7907,"ç¢Ł":7908,"AA":7909,"'s":7910,"é»ĳæļĹ":7911,"æĿĳåºĦ":7912,"æ¸¸æĪıä¸Ń":7913,"ãĥ¬":7914,"èĻŀ":7915,"å±ŀçļĦ":7916,"æ´ĽæĿī":7917,"äº¥":7918,"æł¼å¼ı":7919,"ä¹ĲåĽŃ":7920,"çŃīå¤ļç§į":7921,"éĺ®":7922,"çľĭæĿ¥":7923,"æĪĲç«ĭäºĨ":7924,"æ³¨åħ¥":7925,"å¤§çĲĨ":7926,"ä¸īäºº":7927,"æī©æķ£":7928,"æľ¨æĿĲ":7929,"ug":7930,"ä¹ĲåĻ¨":7931,"åĤ¬åĮĸ":7932,"å¿ĥçģµ":7933,"å¼ºåĪ¶":7934,"æ°¸ä¹ħ":7935,"æĭįåįĸ":7936,"ä¸Ĭå¸Ŀ":7937,"æĬ¥èŃ¦":7938,"åľ°å½¢":7939,"å¤§æ¦Ĥ":7940,"äº§çĶŁäºĨ":7941,"æłĩçŃ¾":7942,"åıĳçĶŁçļĦ":7943,"ä»¥åħį":7944,"éĵħ":7945,"åİ¿çº§":7946,"ä¸Ģæĸ¹éĿ¢":7947,"å¤§æķ°æį®":7948,"è¿Ļæ¬¾":7949,"åĽ½éĻħæľºåľº":7950,"éħ®":7951,"æĶ¹åĲįä¸º":7952,"å¹´åĪ°":7953,"å¥¢":7954,"æ²¿éĿ©":7955,"ä¼ĺç§ĢçļĦ":7956,"åħĭèİ±":7957,"ĠâĢĵ":7958,"åŃ¢":7959,"ï¼Įï¼Ī":7960,"å®ĪæĬ¤":7961,"æĦī":7962,"è¡Įé©¶":7963,"éĿłè¿ĳ":7964,"æĸ¹è¨Ģ":7965,"æľīåĬ©äºİ":7966,"ç»İ":7967,"æ¯ıåĳ¨":7968,"æľºéģĩ":7969,"éĤ®ä»¶":7970,"æĹłéĶ¡":7971,"ç¦»å©ļ":7972,"å¥īçĮ®":7973,"aw":7974,"ç»ĪçĤ¹":7975,"å¦ĤåĲĮ":7976,"çļĦåĦ¿åŃĲ":7977,"å®ŀä¹ł":7978,"å¿ĥä¸Ń":7979,"çĽ¸åĲĮçļĦ":7980,"çļĦå¤©":7981,"æľ¬ä½ľ":7982,"çī¹ç§į":7983,"éĩĩçĶ¨äºĨ":7984,"ç«ĭæĸ¹ç±³":7985,"æ´ĽæĿīçŁ¶":7986,"èĬŃ":7987,"æ¡©":7988,"åĮĹéŃı":7989,"éĩįåºĨå¸Ĥ":7990,"ï¿":7991,"ç§°ä½ľ":7992,"æĹ©åľ¨":7993,"1939":7994,"éķ¶":7995,"å¨¶":7996,"æĥ©":7997,"çĽ¸ç»§":7998,"èĬĤåº¦ä½¿":7999,"æĪĲç«ĭçļĦ":8000,"ä¸Ģå¼ł":8001,"åĿĩæľī":8002,"çİ«çĳ°":8003,"åı°åįĹ":8004,"åŃ¦æł¡çļĦ":8005,"ä½ĵèĤ²åľº":8006,"è½¬è®©":8007,"åĪĨåħ¬åı¸":8008,"CE":8009,"ä»ĸè¢«":8010,"éĿŀæ³ķ":8011,"Ġä¸ŃåĽ½":8012,"æ°ĳèĲ¥":8013,"åķĨåºĹ":8014,"éĺ²å®Ī":8015,"æī¿åĮħ":8016,"kg":8017,"åķ¤éħĴ":8018,"æłıçĽ®":8019,"ä¾¿äºİ":8020,"åĩºèĩª":8021,"ee":8022,"ST":8023,"æĸ°äºº":8024,"åľ°åĲį":8025,"ä»İä¸ļ":8026,"åį³ä½į":8027,"èµ£":8028,"ç¾İè§Ĥ":8029,"æĪĳæĺ¯":8030,"ç²¾èĭ±":8031,"å¿ħçĦ¶":8032,"ond":8033,"èĥĸ":8034,"è¯Ī":8035,"æĢ»é¢Ŀ":8036,"é¦ĸæī¹":8037,"çļĦæľĢ":8038,"æĢĢçĸĳ":8039,"çŁ³å¤´":8040,"åıĳæİĺ":8041,"ä¸ŃçŃī":8042,"åŁİåİ¿":8043,"ä¸Ģéĥ¨":8044,"æľ¬å±Ĭ":8045,"æ·±åĮĸ":8046,"æĤłä¹ħ":8047,"é¥ŃåºĹ":8048,"1947":8049,"1971":8050,"åħħåĪĨåıĳæĮ¥":8051,"æĬĵä½ı":8052,"å¤©æ´¥å¸Ĥ":8053,"èĶ½":8054,"ä¸¾åĬŀçļĦ":8055,"çĶµæ¢¯":8056,"ç¾½æ¯ĽçĲĥ":8057,"1943":8058,"åĽ¾å½¢":8059,"1942":8060,"èµ¢å¾ĹäºĨ":8061,"çī¹çļĦ":8062,"çļĦéĢīæĭ©":8063,"æľĪåºķ":8064,"ä¼ĬæľĹ":8065,"åĴ¬":8066,"å»ºè®¾çļĦ":8067,"æĽ²çº¿":8068,"åļ":8069,"æµ·å³¡":8070,"éĤ±":8071,"è®¢åįķ":8072,"è¶ħå¸Ĥ":8073,"å±Ĭåħ¨åĽ½":8074,"ãĤ¿":8075,"æĪĳæł¡":8076,"ç¥¯":8077,"æµĭå®ļ":8078,"åįĹæĺĮ":8079,"å½¢å®¹":8080,"å¿ĥéĩĮ":8081,"åı¶çīĩ":8082,"åİ¨æĪ¿":8083,"åĩºçİ°çļĦ":8084,"èº²":8085,"åĪĿä¸Ń":8086,"åħ¨ä¹¦":8087,"åĮĹç¾İ":8088,"éĩĳæĽ²":8089,"è¶ģ":8090,"æľīè¶£":8091,"éĺľ":8092,"æŃ§":8093,"ç«ĸ":8094,"èĨĢ":8095,"ä¿Ĺç§°":8096,"ä¸ºä½ķ":8097,"ä¹ĥèĩ³":8098,"ä¹Łå¾Ī":8099,"æĶ¾å°Ħ":8100,"å©ļç¤¼":8101,"ç¼ºçĤ¹":8102,"åħĭéĩĮ":8103,"æī¿åıĹ":8104,"åŃ©åŃĲä»¬":8105,"æŃĮè¯į":8106,"ç¦¹":8107,"å¸ĥèİ±":8108,"çģ«æĺŁ":8109,"åħ¨ç¨ĭ":8110,"æĭĨéĻ¤":8111,"ä¸ľåįĹäºļ":8112,"æĪĳä»¬åľ¨":8113,"å¹´ä»¥æĿ¥":8114,"çİ°åŃĺ":8115,"æĶ¾ç½®":8116,"å¹´ä»»":8117,"åĮºåĨħ":8118,"ç¾İä¸½çļĦ":8119,"ä¼ĺå¼Ĥ":8120,"åĪ¶ä½ľçļĦ":8121,"è¯ŃéŁ³":8122,"éĳ":8123,"iz":8124,"çļĦç¤¾ä¼ļ":8125,"è·Łè¸ª":8126,"ç²¾çģµ":8127,"åħ¨æĸ°çļĦ":8128,"å¿«æį·":8129,"çİ¯å¢ĥä¿ĿæĬ¤":8130,"ä½įçļĦ":8131,"æĶ¿åĬ¡":8132,"é¢ģåıĳ":8133,"Ġéĩĳ":8134,"çī¡":8135,"æĬķéĻį":8136,"åıĭè°Ĭ":8137,"ä¸ĭæ¸¸":8138,"ä¸Ģå±Ĥ":8139,"æ½ľåľ¨":8140,"åħĳ":8141,"æĹ¥ä¸ĭåįĪ":8142,"ãĤ¸":8143,"æ¿ĢåĬ±":8144,"1951":8145,"ä»ªè¡¨":8146,"å¼Ģå¿ĥ":8147,"èĬĤæĹ¥":8148,"ç®¡çĲĨå·¥ä½ľ":8149,"æ¬¡æķ°":8150,"è´Łæĭħ":8151,"æ¿Ģåıĳ":8152,"åĽºä½ĵ":8153,"æ»ķ":8154,"çºłçº·":8155,"çļĦåħ³éĶ®":8156,"æ¬§çĽŁ":8157,"çģ«è½¦ç«Ļ":8158,"é©¬ä¸Ĭ":8159,"Ġ7":8160,"åı£èħĶ":8161,"æµģåŁŁ":8162,"å¥³å£«":8163,"è¡·":8164,"æĺ¯éĿŀå¸¸":8165,"æ¯«æĹł":8166,"è¯įè¯Ń":8167,"ç²¾ç¡®":8168,"æį¢ä¹ĺ":8169,"ãĥŃ":8170,"æĺ¾çĦ¶":8171,"çļĦåİŁ":8172,"æĸ¹å½¢":8173,"åĪĴåĪĨ":8174,"è¦ģæ³¨æĦı":8175,"æ¼Ķè®²":8176,"ãĥŀ":8177,"èģĮç§°":8178,"âĢĿï¼ĮâĢľ":8179,"âĢĿï¼ī":8180,"éĩİçĶŁ":8181,"çīº":8182,"åĮºåĪĨ":8183,"æĪĺåľº":8184,"è°ĪåĪ¤":8185,"å®ªæ³ķ":8186,"ä¸Ģé¡¹":8187,"çĶŁæĦı":8188,"åħ¨çº¿":8189,"äººåĿĩ":8190,"åºĨç¥Ŀ":8191,"é«ĺå³°":8192,"çĽ¸ä¼ł":8193,"åĭ¿":8194,"è¾īçħĮ":8195,"çĶŁäº§çº¿":8196,"ä»¥åĮĹ":8197,"æĻ®æŁ¥":8198,"ä¹ĭæĹ¶":8199,"Cl":8200,"åĨ¢":8201,"ä¸ľæµ·":8202,"èĭ±è¶ħ":8203,"æĮ¯åħ´":8204,"ä¸ĢæľŁ":8205,"ä¸¤å¤§":8206,"ä¹Ļçĥ¯":8207,"æ¸ħçĲĨ":8208,"ä¸Ĭæ¸¸":8209,"å°§":8210,"è¿Ĳè½¬":8211,"èµ°è¿Ľ":8212,"å®¡åĪ¤":8213,"çĪµå£«":8214,"åĪ®":8215,"åľ°æĿ¿":8216,"åıįå°Ħ":8217,"è®¸åı¯è¯ģ":8218,"é³Ħ":8219,"éĩįç»Ħ":8220,"å¤ªå¤ļ":8221,"ä¸Ģéĥ¨åĪĨ":8222,"æľĪåľ¨":8223,"æĬĢæľ¯äººåĳĺ":8224,"èı±":8225,"äººéĹ´":8226,"ä½ıåľ¨":8227,"çļĦæīĢæľī":8228,"äº§åĢ¼":8229,"æĹ¶éĹ´åĨħ":8230,"âĪ":8231,"å¤©çĦ¶æ°Ķ":8232,"æľįé¥°":8233,"å®īåħ¨çĶŁäº§":8234,"æľīå¤ļ":8235,"çĽ¸éĤ»":8236,"æµ·åħ³":8237,"éªı":8238,"çĿ¡çľł":8239,"åı¯åĪĨä¸º":8240,"è¾ĥå¤ļ":8241,"åī§éĽĨ":8242,"å¯¼ä½ĵ":8243,"æĳĬ":8244,"æĬ¬":8245,"çİ°ä»Ĭ":8246,"è¿Ľè¡ĮçļĦ":8247,"éª¨å¹²":8248,"ä¹Ŀé¾Ļ":8249,"éĢĤå®ľ":8250,"åį°å°¼":8251,"éĽ¶ä»¶":8252,"æŃ¥è¡Į":8253,"æ´Ľåħĭ":8254,"çĳľ":8255,"ç²¾ç»Ĩ":8256,"è¶ħå£°":8257,"è·¯æ®µ":8258,"æ³¨å°Ħ":8259,"çļĦæĶ¯æĮģ":8260,"åĩºè¡Ģ":8261,"æ¯ķç«Ł":8262,"åıĭå¥½":8263,"èĲ¨æĸ¯":8264,"æ´½":8265,"çģ«è½¦":8266,"çļĦæĪĲç»©":8267,"åĪĨè£Ĥ":8268,"å¤ªéĥİ":8269,"æľīä¸Ģç§į":8270,"ight":8271,"ä¸»æµģ":8272,"åĪ¶èį¯":8273,"ãģĬ":8274,"å¤ļä¸º":8275,"éĺ²çģ«":8276,"çľĭçĿĢ":8277,"åįģäºĮæľĪ":8278,"é£İæļ´":8279,"æīĭæ³ķ":8280,"æĹ¥ä¸ĬåįĪ":8281,"èĦ±ç¦»":8282,"æĻĭåįĩ":8283,"çļĦä¸įåĲĮ":8284,"é«ĺçŃīåŃ¦æł¡":8285,"åİĨä»£":8286,"çļĦçĽ¸åħ³":8287,"æĮªå¨ģ":8288,"ä¸įä¸Ģæł·":8289,"å¸ĥæľĹ":8290,"ãģı":8291,"ä¸įæķ¢":8292,"èĽ®":8293,"ä¸İæŃ¤åĲĮæĹ¶":8294,"çļĦéģĵè·¯":8295,"è¾½å®ģçľģ":8296,"äºĨä»ĸ":8297,"ä¹¡è¯ķ":8298,"çº³ç¨İ":8299,"è¡ĮæĶ¿åĮºåĪĴ":8300,"çļĦåĽ½å®¶":8301,"æ³¢æĸ¯":8302,"ç¬¬ä¸īèĬĤ":8303,"çļĦåİŁåĪĻ":8304,"è§Ĩéĩİ":8305,"1930":8306,"é«ĺå±Ĥ":8307,"åĬ¨æ¼«":8308,"éĥ½æ²¡æľī":8309,"ç«ĭè¶³":8310,"ç³»æķ°":8311,"ä¸įè®º":8312,"æľįåĬ¡ä¸Ńå¿ĥ":8313,"è¯µ":8314,"æİł":8315,"éĴ®":8316,"VD":8317,"åįıä½ľ":8318,"æ²¥":8319,"æ³ķå®ļ":8320,"çĪ±åĽ½":8321,"èĲ½åľ°":8322,"åİ»éĻ¤":8323,"Ġin":8324,"èĤºçĤİ":8325,"ĠãĢĮ":8326,"her":8327,"æī©å»º":8328,"é¸Łç±»":8329,"åĩºåħ¥åı£":8330,"æĮ¯åĬ¨":8331,"è´¬":8332,"æī«æıı":8333,"æ·Ģç²ī":8334,"æĪļ":8335,"å¸Ĥåľºä¸Ĭ":8336,"èĽĽ":8337,"çļĦèĢģ":8338,"åĮºéĹ´":8339,"åįĥå¹´":8340,"çİĩåħĪ":8341,"åīįæľŁ":8342,"åľ¨ä¸Ń":8343,"åĲİåį«":8344,"Ġéĺ¿":8345,"åĬ¨èĦī":8346,"æİ¥ä¸ĭæĿ¥":8347,"åħ¶ä¸ŃåĮħæĭ¬":8348,"arl":8349,"ç§©åºı":8350,"éĵ¶å±ĳçĹħ":8351,"é£İåħī":8352,"æĢ»ä¼ļ":8353,"äºĮæ°§åĮĸ":8354,"æĬ¥èĢĥ":8355,"ãģ¡":8356,"èĢķåľ°":8357,"åĲĽä¸»":8358,"è¿ĩæĿ¥":8359,"æĬĢæľ¯åĴĮ":8360,"å½±åĵįåĬĽ":8361,"çłĮ":8362,"çļĦèĬ±":8363,"çī©ä½ĵ":8364,"å¥¥å°Ķ":8365,"åĢĴåħ¥":8366,"åľ¨åĨħçļĦ":8367,"ock":8368,"çļĦç¬¬":8369,"çļĦæĦŁè§ī":8370,"ç¤¾åĽ¢":8371,"çģ¾å®³":8372,"å¸ĺ":8373,"äºĳåįĹçľģ":8374,"è´¦æĪ·":8375,"æľīè®¸å¤ļ":8376,"ç¤¾ä¼ļçļĦ":8377,"ä¸Ĭå¸Ĥåħ¬åı¸":8378,"èł":8379,"æķĻå®¤":8380,"æ³ķå¸Ī":8381,"é¡½":8382,"çļĦç¥ŀ":8383,"ç»Ħéķ¿":8384,"è§ģåĪ°":8385,"çīºçī²":8386,"--------":8387,"éĿĴæµ·":8388,"æĲŃå»º":8389,"è¿ĺæ²¡æľī":8390,"1967":8391,"ä¸īçº§":8392,"æºĲèĩª":8393,"ore":8394,"éĳ«":8395,"å®ĺèĩ³":8396,"ä¿®è®¢":8397,"æīįä¼ļ":8398,"ä»¥ä¸ĭç®Ģç§°":8399,"è½¨éģĵäº¤éĢļ":8400,"éĴī":8401,"åħīåŃ¦":8402,"æĬ¥çº¸":8403,"åįĹæµ·":8404,"ä¸ļä½Ļ":8405,"æľŁè´§":8406,"ç»ŁçŃ¹":8407,"åĨħéĺģ":8408,"DNA":8409,"çĶ·åŃ©":8410,"çļĦåħ¶ä»ĸ":8411,"åľ¨æł¡":8412,"å¯¼åĲĳ":8413,"ä¼łæŁĵ":8414,"æĺŁçº§":8415,"åĩłåįģ":8416,"èĪĨ":8417,"æīĵè´¥":8418,"åĳĬçŁ¥":8419,"åĪĩæĪĲ":8420,"æ³¼":8421,"éķ¿å¤§":8422,"è¡¥è´´":8423,"ä»İå°ı":8424,"èĽĻ":8425,"âĢ¦âĢ¦âĢ¦âĢ¦":8426,"åľ°çĲĨä½įç½®":8427,"æŀķ":8428,"äººå¿ĥ":8429,"åį´æĺ¯":8430,"åĴĴ":8431,"åĬłåĪ©":8432,"æ¯ĶåĪ©æĹ¶":8433,"æĽ´å¥½åľ°":8434,"ä¸Ĭçº¿":8435,"çĻ»å½ķ":8436,"çļĦå¤ļ":8437,"çļĦèīºæľ¯":8438,"OR":8439,"å¤§åŃĹ":8440,"çĸ¾çĹħçļĦ":8441,"èĩªè¡Įè½¦":8442,"éĽ·æĸ¯":8443,"æķ£æĸĩ":8444,"MV":8445,"ãģ¦":8446,"ä¾ĿæĹ§":8447,"è¿½æº¯":8448,"è±ªåįİ":8449,"åĬłæĭī":8450,"ix":8451,"lay":8452,"ton":8453,"åħħè¶³":8454,"åĲĦçķĮ":8455,"å¸¦æĿ¥äºĨ":8456,"åĭĩå£«":8457,"ç»ıçºª":8458,"å®ļå±ħ":8459,"ç²¥":8460,"åĪ¹":8461,"åĲĳä¸Ĭ":8462,"æĹ¶ä»»":8463,"å°ıäºİ":8464,"éĶĤ":8465,"å°Ĩé¢Ĩ":8466,"å¯Ĩçłģ":8467,"æĪĳä»¬å°Ĩ":8468,"æĽ´å¤§çļĦ":8469,"æĳĶ":8470,"ç¥Ĳ":8471,"å®ŀçļĦ":8472,"çİĩä¸º":8473,"Mar":8474,"åĴĮå¤§":8475,"å®ļäºĨ":8476,"æ¢³":8477,"ä¸įåıĬ":8478,"è§£éĻ¤":8479,"è¿ĺåİŁ":8480,"ãģ¯":8481,"æľŃ":8482,"éģµå¾ª":8483,"è®¡éĩı":8484,"å¯¹ç§°":8485,"çĻ½çĻľé£İçļĦ":8486,"ber":8487,"ç½ĳçĲĥ":8488,"äº¦æĺ¯":8489,"æľĢéĩįè¦ģçļĦ":8490,"åħ¬åı¸åľ¨":8491,"åĢºåĪ¸":8492,"ç¨½":8493,"çŀ¬éĹ´":8494,"æ©Ħ":8495,"ax":8496,"ä»¶äºĭ":8497,"æķ°çĻ¾":8498,"çīĽå¥¶":8499,"è´®":8500,"åĽ½äº§":8501,"æĭħå½ĵ":8502,"ä¸ĵæ³¨äºİ":8503,"å½ĵäºĭäºº":8504,"æĸ°åįİ":8505,"åī§åĽ¢":8506,"çļĦæ°Ķ":8507,"æłĩåĩĨçļĦ":8508,"åĴĮåıĳå±ķ":8509,"ä»Ģä¹Īæĺ¯":8510,"åĴ³":8511,"æĺ¯ä¸Ģåº§":8512,"æŃ¢äºİ":8513,"æ²īç§¯":8514,"EC":8515,"ãĥ³ãĥ":8516,")ï¼ļ":8517,"é¡µéĿ¢":8518,"é«ĺåİŁ":8519,"160":8520,"å¤§éĺŁ":8521,"èº«é«ĺ":8522,"4000":8523,"æłĵ":8524,"äººæ°Ķ":8525,"å²Ĳ":8526,"å¤ĸçº¿":8527,"åĲĪåĶ±":8528,"æ¦Ĥè¦ģ":8529,"æľĶ":8530,"ä¹Ĵ":8531,"çī¹éĩĮ":8532,"æĽ¼èģĶ":8533,"åĩĳ":8534,"èļģ":8535,"çļĦåĲįåŃĹ":8536,"å¤§äºĭ":8537,"æĪĺéĺŁ":8538,"æ¸©é¦¨":8539,"ace":8540,"è¶³åįı":8541,"å¿ĥçĲĨåŃ¦":8542,"ä¸įåĬ¨":8543,"ä½ĵä¼ļ":8544,"å¸ĥå°Ķ":8545,"è¥¿ä¾§":8546,"æĮĳéĢī":8547,"ç§ĳæĻ®":8548,"ãĤ«":8549,"å°¼å°Ķ":8550,"ç»ĦæĪĲéĥ¨åĪĨ":8551,"æ¸Ŀ":8552,"æĪĺæľ¯":8553,"é¡¶çº§":8554,"HK":8555,"åı¸æľº":8556,"å²Ľå±¿":8557,"çĻĮçĹĩ":8558,"æ£Ģå¯ŁéĻ¢":8559,"åħīæĺİ":8560,"Î±":8561,"åĨķ":8562,"å®Įå·¥":8563,"äº¤çķĮ":8564,"éĹ¨çļĦ":8565,"åĸĬ":8566,"ç©¶ç«Ł":8567,"ç³ĸå°¿":8568,"åħ¨ä¸ĸçķĮ":8569,"æĻºèĥ½åĮĸ":8570,"æķ°æİ§":8571,"ç¡Ŀ":8572,"éļıåį³":8573,"åĪ¶éĢłåķĨ":8574,"å·¡åĽŀ":8575,"æļĤåģľ":8576,"å¥½åĥı":8577,"çª¦":8578,"äººéĥ½":8579,"ï¼ĮãĢĮ":8580,"éĥ½çĿ£":8581,"è®¤åĲĮ":8582,"è¿Ļåľº":8583,"åĨ¶éĩĳ":8584,"ä¹ŀ":8585,"ä¸įèµ·":8586,"ä¸īçŃīå¥ĸ":8587,"å¹´åĴĮ":8588,"èĺ":8589,"åİ¿çļĦ":8590,"ä¾Ľç»Ļ":8591,"æĿ¡æ¬¾":8592,"çīĻåĪ©":8593,"å°ıå§Ĳ":8594,"çļĦè¡¨çİ°":8595,"åĨħå¿ĥ":8596,"ç¨ĭåº¦ä¸Ĭ":8597,"æłħ":8598,"çŃīäºİ":8599,"æ½ľåĬĽ":8600,"åĶ¯ä¸ĢçļĦ":8601,"ä¸»å¯¼":8602,"åĪĩå°Ķ":8603,"âĳ¢":8604,"å¿ĥæĥħ":8605,"åħĭç½Ĺ":8606,"æ©Ħæ¦Ħ":8607,"åı·çłģ":8608,"å·®è·Ŀ":8609,"èĳµ":8610,"åīįéĶĭ":8611,"æ»¨æµ·":8612,"åĮĪçīĻåĪ©":8613,"æľīä¸Ģå®ļçļĦ":8614,"ä¸ºå¤§":8615,"æĪĲåŀĭ":8616,"ann":8617,"æĺ¯æĪĳ":8618,"åĴĮæĬĢæľ¯":8619,"è¯Ńæĸĩ":8620,"ä»Ķç»Ĩ":8621,"äºīå¤º":8622,"èį«":8623,"ç®¡çĲĨä½ĵç³»":8624,"çļĦéŁ³ä¹Ĳ":8625,"æŁĵèī²":8626,"ä»İæľª":8627,"å®¿èĪį":8628,"çĸ®":8629,"ç»¼èīº":8630,"åĽ¾ä¹¦ä¿¡æģ¯":8631,"é±¼ç±»":8632,"æŃ¦æľ¯":8633,"èĨ¨èĥĢ":8634,"te":8635,"çłĶç©¶ä¼ļ":8636,"åĲĦä½į":8637,"æīĭä¸Ń":8638,"åĪĨè¾¨":8639,"å¢©":8640,"ä¸ľä¾§":8641,"åĢ¾åĲĳ":8642,"æĪĳæĥ³":8643,"äº¬éĥ½":8644,"äºļåİĨå±±å¤§":8645,"ä¸ºä¸Ģä½ĵçļĦ":8646,"åĽĽåŃ£":8647,"åħ¸åŀĭçļĦ":8648,"èģļçĦ¦":8649,"äººä¹ĭ":8650,"éļ¾é¢ĺ":8651,"çĶµéĺ»":8652,"åħ³èģĶ":8653,"éĻ¤æŃ¤":8654,"å»ĸ":8655,"æħķå®¹":8656,"ä¸īæ¬¡":8657,"åĮĹå®ĭ":8658,"èĤĮèĤ¤":8659,"çº¿ä¸ĭ":8660,"çļĦæĦıæĢĿ":8661,"æ²Ļæ¼ł":8662,"ä¸Ńè¢«":8663,"æľºåºĬ":8664,"ĠåĪĺ":8665,"å°ıå¿ĥ":8666,"æį®è¯´":8667,"ä¸įæķĮ":8668,"æ³ķå®ĺ":8669,"çªŁ":8670,"èĨĿ":8671,"èĢĮå·²":8672,"ly":8673,"ä»Ĺ":8674,"ä¸ļä¸»":8675,"å½ĵåľ°çļĦ":8676,"è¿Ĳæ²³":8677,"ice":8678,"æĿĢå®³":8679,"ä¼ĺç¾İ":8680,"ies":8681,"éĤ»è¿ĳ":8682,"ä¹¦åĨĻ":8683,"è¾ĥå°ĳ":8684,"åħĪéĶĭ":8685,"è£¹":8686,"ç¬Ľ":8687,"ä¹ĺåĿĲ":8688,"åıĳè¨Ģ":8689,"æµ·åŁŁ":8690,"äº§çī©":8691,"åľ¨åīį":8692,"æ²Ĥ":8693,"å°¼åħĭ":8694,"èĲ¨å°Ķ":8695,"æ¼ĶåĮĸ":8696,"å®ŀä¸ļ":8697,"åįģä½Ļ":8698,"åįĹå®ĭ":8699,"åŁİå¸ĤçļĦ":8700,"äº®çĽ¸":8701,"åģ¥åħ¨":8702,"å¼ĢåıĳçļĦ":8703,"éĢģåĪ°":8704,"ure":8705,"æ³¢ç½Ĺ":8706,"âĹĭ":8707,"éķ¿åŃĲ":8708,"èĥĮåĲİ":8709,"åĨľåľº":8710,"EN":8711,"åĵ¥ä¼¦æ¯Ķäºļ":8712,"åĮħåĽ´":8713,"åĲŁ":8714,"çĦī":8715,"è£¸":8716,"âĺħ":8717,"çĶŁæ®ĸ":8718,"ç¬ĭ":8719,"åĲĮäºĭ":8720,"æĪĸåħ¶ä»ĸ":8721,"åıįé¦Ī":8722,"æĪĲäº¤":8723,"æĶ¹å»º":8724,"åİŁæĸĩ":8725,"æĦŁåĬ¨":8726,"æĪĲåĵģ":8727,"éĥ½è¢«":8728,"ç§įæĹı":8729,"åĲ¸éĻĦ":8730,"åĩºèī²":8731,"ä¸ĭæĿ¥çļĦ":8732,"è¾±":8733,"çĦļ":8734,"æĹ¶æ®µ":8735,"ç»ĵè®º":8736,"è¯¥æł¡":8737,"åıĪæĺ¯":8738,"åıĺä¸º":8739,"çº³ç±³":8740,"åįłæľī":8741,"èĥļ":8742,"æī¿åĬŀ":8743,"å»ºæľī":8744,"åľ£ç»ı":8745,"ä¿Ŀå®ī":8746,"æ¹¿åº¦":8747,"è¾¾åĪ°äºĨ":8748,"ç¬¬äºĮä¸ª":8749,"ä¸įæĺİ":8750,"æ¶ĪçģŃ":8751,"ç»ıéĶĢ":8752,"çļĦäººçĶŁ":8753,"æĢ¥æĢ§":8754,"æľīå®³":8755,"åĪĿçº§":8756,"ç»´æĸ¯":8757,"æİĴéĻ¤":8758,"ä¸ºä¸»é¢ĺ":8759,"çĶ¨èį¯":8760,"å¤©åĲİ":8761,"æ±¡æ°´å¤ĦçĲĨ":8762,"SP":8763,"æī¬å·ŀ":8764,"éĩī":8765,"ä¸ºä¸Ńå¿ĥ":8766,"åĥµ":8767,"ä»ĵåºĵ":8768,"éĽĨåĲĪ":8769,"åį¦":8770,"åİ¿å§Ķ":8771,"æ£±":8772,"ä¸įæ»¡":8773,"è¿Ļä¹Ł":8774,"æľºçĶµ":8775,"ç§įç§į":8776,"è£¤":8777,"çĽ´æµģ":8778,"æľīæķĪåľ°":8779,"çī¹æ®ĬçļĦ":8780,"ows":8781,"èĮµ":8782,"çĪ±å¿ĥ":8783,"å¤§åį«":8784,"åı¯èĥ½æĢ§":8785,"åįĬåľº":8786,"æĽ²çĽ®":8787,"åºŁæ°´":8788,"æł·åĵģ":8789,"éĶ¯":8790,"è¾¾å°Ķ":8791,"æĳ§":8792,"æŃ£ç¡®çļĦ":8793,"åĩºä¸Ģ":8794,"åĨħæ¶µ":8795,"èľ¥":8796,"ier":8797,"åľ¨é¦Ļæ¸¯":8798,"éĨĽ":8799,"èŃ¦æĸ¹":8800,"çĭ®åŃĲ":8801,"æ°´è´¨":8802,"çªĥ":8803,"æĹ¥æ²»":8804,"é¢ħ":8805,"é¸¦":8806,"æĭ¿ä¸ĭ":8807,"ï»":8808,"è·¯å¾Ħ":8809,"å¤´çļĦ":8810,"ç¼©çŁŃ":8811,"åľ¨ä¸Ĭ":8812,"çŃīå¤ļ":8813,"å¾·å°Ķ":8814,"çĭ¬ç«ĭçļĦ":8815,"äºĨè®¸å¤ļ":8816,"ä¸Ńå¤ĸ":8817,"èĩĢ":8818,"ç¿Į":8819,"å®ļä¸º":8820,"å¼¯æĽ²":8821,"å°½å¿«":8822,"1936":8823,"Ġä¸ī":8824,"äº¤ä»ĺ":8825,"é©¬æĸ¯":8826,"èĤĩ":8827,"ä¸¤åĽ½":8828,"åı¤åŁİ":8829,"å¹¶æľī":8830,"å¤įåĪ¶":8831,"ä»£è¡¨å¤§ä¼ļ":8832,"çļĦæĢ»":8833,"ä¸įæĥ³":8834,"ä»¥åįĹ":8835,"åĨľäº§åĵģ":8836,"å¹¶å¯¹":8837,"ä»ĸä¸º":8838,"æ®ĭçĸ¾":8839,"åĸľæ¬¢çļĦ":8840,"çļĦä¸»é¢ĺ":8841,"ç¼ħçĶ¸":8842,"èµĦæ·±":8843,"éĹ¨æĪ·":8844,"è°ĥåĳ³":8845,"è¯¥åºĦ":8846,"åįī":8847,"åıĳçİ°çļĦ":8848,"ä¹ĭæĦı":8849,"æīĢå±ŀçļĦ":8850,"éĻĲäºİ":8851,"éĻĮ":8852,"å¤«å¦ĩ":8853,"åģ¶åĥı":8854,"è®°å¾Ĺ":8855,"æģĭçĪ±":8856,"ç¯ĩå°ıè¯´":8857,"ä¹Łä¸įä¼ļ":8858,"çī©èģĶç½ĳ":8859,"çĶ³è¯·äºº":8860,"ä¼ļè¢«":8861,"åıªéľĢ":8862,"åĩºçīĪç¤¾åĩºçīĪæĹ¶éĹ´":8863,"åĪĻä¸º":8864,"çļĦå±±":8865,"åĪ¶ä½ľäºº":8866,"ohn":8867,"Ã¡":8868,"è¿ĩæķı":8869,"æ¢Ń":8870,"é¢Į":8871,"æ£ĴçĲĥ":8872,"åĵ¦":8873,"ãģĮ":8874,"ä¸Ńè¥¿":8875,"éļĲèĹı":8876,"ï»¿":8877,"æĲºæīĭ":8878,"åŃĶåŃĲ":8879,"å·¡æĬļ":8880,"çļĦæł¸å¿ĥ":8881,"ä¼¯çĪµ":8882,"å¹»æĥ³":8883,"åĴĮç®¡çĲĨ":8884,"ç»Ļä»ĸ":8885,"çİ©åħ·":8886,"å®¾é¦Ĩ":8887,"å¹´è½»äºº":8888,"çļĦé£İ":8889,"ç¼Ķ":8890,"é¢ĨåľŁ":8891,"æī¹åıĳ":8892,"è°£":8893,"çĥ«":8894,"æĺĨèĻ«":8895,"ç¤ģ":8896,"çŁ¥çļĦ":8897,"å¤įæĿĤçļĦ":8898,"å¡Į":8899,"ä¹ĭå¥³":8900,"ç¹ģèį£":8901,"çĥŃçĪ±":8902,"å§Ķåĳĺä¼ļå§Ķåĳĺ":8903,"åĬłåħ¥äºĨ":8904,"Sp":8905,"æľīä¸ª":8906,"åĪ°æĿ¥":8907,"æ¨¡çī¹":8908,"èĢĮéĿŀ":8909,"ç¥Ŀç¦ı":8910,"å½©èī²":8911,"å®ģå¤ı":8912,"ãģĤ":8913,"å®¹çº³":8914,"çļĦé«ĺåº¦":8915,"å¤Ħéķ¿":8916,"æĢĢåŃķ":8917,"åĤ¨å¤ĩ":8918,"åįĹéĿŀ":8919,"äº§ä¸ļåıĳå±ķ":8920,"ä¸ŃåĮ»èį¯":8921,"çģ¿":8922,"ational":8923,"112":8924,"åħ¶ä¸ŃçļĦ":8925,"ä¸¤åĲį":8926,"tern":8927,"å¤§éĺª":8928,"åħĥä»¶":8929,"å¾·çļĦ":8930,"è¿ĺåĮħæĭ¬":8931,"ä¸įåĩº":8932,"ç¥ŀçļĦ":8933,"èĲį":8934,"èħ¾è®¯":8935,"å¤ĸå½¢":8936,"ä¸ŃåĽ½äººæ°ĳè§£æĶ¾åĨĽ":8937,"å·®åĪ«":8938,"æĻ¶ä½ĵ":8939,"æķĻçłĶ":8940,"é²¸":8941,"å®īåħ¨æĢ§":8942,"ä½łåı¯ä»¥":8943,"å®ĥä»¬çļĦ":8944,"æĹ¶éĹ´çļĦ":8945,"èµĽä¸Ń":8946,"é©¬éĩĮ":8947,"æłĳæľ¨":8948,"å¹´æĹ¶":8949,"çļĦå»ºçŃĳ":8950,"åıĻè¿°":8951,"æľīåºı":8952,"åĻ¨å®ĺ":8953,"åĩłç§į":8954,"åĨľåİĨ":8955,"å©·":8956,"EM":8957,"é½¿è½®":8958,"å¼Ģå§ĭäºĨ":8959,"ä¿®æŃ£":8960,"éŀŃ":8961,"æ©ĺ":8962,"å®łçī©":8963,"å¤§å°ĨåĨĽ":8964,"çłį":8965,"èħķ":8966,"æŀľå®ŀ":8967,"æłĩè¯Ĩ":8968,"æĶ¿åºľçļĦ":8969,"è§£è¯»":8970,"æĽ¹æĵį":8971,"æĹ¥åĨħ":8972,"åĽĽåĳ¨":8973,"åĮª":8974,"äººåĳĺçļĦ":8975,"ç¼ºå°ĳ":8976,"å¿ħè¦ģçļĦ":8977,"éļıæľº":8978,"çĻ¾ç§ĳ":8979,"äººç§°":8980,"è·¨è¶Ĭ":8981,"æĿĥçļĦ":8982,"æľ¬èµĽåŃ£":8983,"éºĵ":8984,"åĩºè¡Į":8985,"ä¼ĺè¶Ĭ":8986,"æľĢæľī":8987,"åĨĽå®ĺ":8988,"ä¸Ģå¯¹":8989,"ç§»æ¤į":8990,"æĻķ":8991,"æ³ķåŃ¦":8992,"éªĦ":8993,"åĽ½æ°ĳåħļ":8994,"æ¬¡äºİ":8995,"åĽŀåĲĪ":8996,"éĽ·è¾¾":8997,"âī":8998,"åıĹåĪ°äºĨ":8999,"æĺ¯ä¸įæĺ¯":9000,"æ±ķ":9001,"åħ¬ç¤º":9002,"æ¼Ĥäº®":9003,"å®īç½®":9004,"ä¸½çļĦ":9005,"éķĳ":9006,"èĥ¡åĲĮ":9007,"æĶ¿åħļ":9008,"åĽłåŃĲ":9009,"ss":9010,"çļĦåıĮ":9011,"è®²åº§":9012,"èĲĥ":9013,"ãģĵ":9014,"ç¡ķå£«åŃ¦ä½į":9015,"ial":9016,"çļĦæľĭåıĭ":9017,"åĮĹäº¬å¤§åŃ¦":9018,"ç°§":9019,"åįıåķĨ":9020,"å¹¶è¢«":9021,"åĪ©æĸ¯":9022,"éĿ¢åĮħ":9023,"å¥ĸéĩĳ":9024,"äº¤å¾Ģ":9025,"èĶĵ":9026,"æĪĬ":9027,"ä¸Ńä¹¦":9028,"å½¬":9029,"å¤©ç©º":9030,"æľįå½¹":9031,"åħļæĶ¯éĥ¨":9032,"åħ°å·ŀ":9033,"æł¼æĭī":9034,"èĩªèº«çļĦ":9035,"åŃ£åĲİ":9036,"å¼ĢåĪĽ":9037,"çĪ±å¥½èĢħ":9038,"\"ï¼Į":9039,"ä¸¤æĿ¡":9040,"é¥¥":9041,"ç¦¾":9042,"åĸĦäºİ":9043,"æł·åŃĲ":9044,"ä½Ľç½Ĺ":9045,"çļĦåĽ½éĻħ":9046,"åį¡æĸ¯":9047,"åıĹçĲĨ":9048,"æĪĳä»¬åı¯ä»¥":9049,"åĪĨå¸ĥåľ¨":9050,"å¯¡":9051,"è¿Ļæ®µ":9052,"æĤĦ":9053,"å¼łå®¶":9054,"sp":9055,"ä¸¤å²¸":9056,"æłĩé¢ĺ":9057,"åĳ¨æľ«":9058,"èĩªä¿¡":9059,"è¾ĥå°ı":9060,"è¯Ĺè¯į":9061,"ä¸ŃæīĢ":9062,"åĴ±":9063,"ä¹ĭä¸ĢçļĦ":9064,"ï¼ĪãĢĬ":9065,"è¶³çĲĥè¿ĲåĬ¨åĳĺ":9066,"å¡Ķå°Ķ":9067,"æĹ¶åħī":9068,"æľįçĶ¨":9069,"éĺ²èħĲ":9070,"å¸¸çĶ¨çļĦ":9071,"éĽĨåĽ¢åħ¬åı¸":9072,"çī¹æĭī":9073,"æĺ¯çĶ¨":9074,"æĸĩåĮĸéģĹäº§":9075,"èĪªçıŃ":9076,"ick":9077,"ä»»åĳ½ä¸º":9078,"èĢĮåĩº":9079,"Un":9080,"å¨ĩ":9081,"åľ£è¯ŀ":9082,"ä¸įè¶ħè¿ĩ":9083,"æĮ½":9084,"å¥½äºĨ":9085,"å®¢äºº":9086,"éĥİä¸Ń":9087,"çļĦç»ıèĲ¥":9088,"âĢ¢":9089,"è£´":9090,"å®ĺç½ĳ":9091,"è½¿":9092,"ç¬¬åįģä¸Ģ":9093,"çĶŁçī©åŃ¦":9094,"ç¥Ńç¥Ģ":9095,"SS":9096,"èĢĥèĻĳåĪ°":9097,"ä¸ľæ±ī":9098,"æ¥ł":9099,"æĪ¿äº§":9100,"é©¬åħĭæĢĿ":9101,"UR":9102,"ä»ĸä¹Ł":9103,"æŃ£ä¹ī":9104,"åĲĮçĽŁ":9105,"åľºåĲĪ":9106,"èĬ±çĶŁ":9107,"å±ĢéĿ¢":9108,"ä¸Ģå¼Ģå§ĭ":9109,"app":9110,"åľ¨ä½¿çĶ¨":9111,"åĽŀåĽ½":9112,"å±ķä¼ļ":9113,"æªĲ":9114,"å®ĿçŁ³":9115,"ä¸įåı¯èĥ½":9116,"ash":9117,"åķĨäºº":9118,"å©ī":9119,"å¡ĳéĢł":9120,"è§ģçļĦ":9121,"ä¹ĭæīĢä»¥":9122,"éĩįè¿Ķ":9123,"åĲİè¢«":9124,"éĢīæĭĶ":9125,"çĿ¿":9126,"èļķ":9127,"ä¸ºä¸»è¦ģ":9128,"ä»ĸåĴĮ":9129,"ç£ħ":9130,"ç¾İæľ¯é¦Ĩ":9131,"å¥³çİĭ":9132,"åıĳæĢ§":9133,"å¹¶çĶ±":9134,"é¦ĸä½į":9135,"åħĭçļĦ":9136,"æľĪçĶŁ":9137,"å¾·æĭī":9138,"ç®ĢåİĨ":9139,"é¥²æĸĻ":9140,"åĪłéĻ¤":9141,"æ¸ħéĻ¤":9142,"åħĭå°Ķ":9143,"æ¯ıæľĪ":9144,"èµŀåĬ©":9145,"èħ¹éĥ¨":9146,"åĪĬçī©":9147,"çħ¤çŁ¿":9148,"AL":9149,"ä¾ĽåºĶéĵ¾":9150,"åĮĸå¦Ĩåĵģ":9151,"æĺ¯å¤§":9152,"éĶ¤":9153,"ä¸»è¦ģçĶ¨äºİ":9154,"æ¯ĶåĪĨ":9155,"æīĵè¿Ľ":9156,"è½¦éģĵ":9157,"æ°ĶçļĦ":9158,"çĶŁæĢģçİ¯å¢ĥ":9159,"ï¼Ĵ":9160,"ï¼ĮãĢĲ":9161,"è¿Ļä¸ĢçĤ¹":9162,"å±ħå§Ķä¼ļ":9163,"åĲĮåŃ¦ä»¬":9164,"çº¦å®ļ":9165,"å®½åº¦":9166,"åĢŁåĬ©":9167,"ĠãĢİ":9168,"æ°´éĩı":9169,"æĽ´å¤§":9170,"èŃ¦åĳĬ":9171,"çļĦæ¸¸æĪı":9172,"åĩºäºİ":9173,"è¡¥åĬ©":9174,"ç»įåħ´":9175,"1935":9176,"ä¸Ģä¹Ŀ":9177,"çĽ´å±ŀ":9178,"ä¸įä»ħä»ħ":9179,"å¯Įå£«":9180,"æ°¨åŁº":9181,"ç»Ļä½ł":9182,"æ¤Ń":9183,"ç¬Ķè®°":9184,"æĿ¥èĩªäºİ":9185,"æĸ¯é¡¿":9186,"éĺŁåıĭ":9187,"çļĦæ¦Ĥå¿µ":9188,"åĽŀæĬ¥":9189,"æĳ©æĵ¦":9190,"ä½Ĩä¸į":9191,"ç¬¬ä¸īæĸ¹":9192,"æ¼³":9193,"æŁĲä¸ª":9194,"éģŃåıĹ":9195,"çĦķ":9196,"å®¢åľº":9197,"è¿Ľåĩºåı£":9198,"åĭī":9199,"ç¥·":9200,"ä»ĸäºİ":9201,"çĽĪåĪ©":9202,"åįĥçĵ¦":9203,"åįķçº¯":9204,"ç»Īèº«":9205,"å¥³ä¸»è§Ĵ":9206,"å¤ĩæ¡Ī":9207,"åĪĨä¼ļ":9208,"ä¸ĭå±ŀ":9209,"æ¬§ç¾İ":9210,"åģľè½¦åľº":9211,"TO":9212,"å½ĵä»Ĭ":9213,"æĦŁåıĹåĪ°":9214,"å¿ĹæĦ¿èĢħ":9215,"æ½®æµģ":9216,"ĠAr":9217,"ae":9218,"å¯¼èĪª":9219,"åıĸåĨ³":9220,"ä¸Ģæĸ¹":9221,"åĪĨæĪĲ":9222,"ç²¾éĢī":9223,".ãĢĤ":9224,"åı¯è°ĵ":9225,"åĲīç¥¥":9226,"è§£æķ£":9227,"åĽ½åľŁ":9228,"ç¤¼ä»ª":9229,"å¿«çļĦ":9230,"ç²¾èĩ´":9231,"è¿ŀè½½":9232,"å¼Ĭ":9233,"éŁ¶":9234,"çĢĳå¸ĥ":9235,"%ãĢģ":9236,"éļĲæĤ£":9237,"éĢīä¸º":9238,"éĺ¶çº§":9239,"çĶ¨æĪ·çļĦ":9240,"çļĦæ¯ĶèµĽ":9241,"hy":9242,"åıĳä½ľ":9243,"æĮĩä»¤":9244,"ç¥ĸåĽ½":9245,"éķ¿åŁİ":9246,"å§Ĳå§Ĳ":9247,"çŁŃæļĤ":9248,"åľ¨ä»Ĭ":9249,"ä¹ĭåĨħ":9250,"ä»ĸå¯¹":9251,"è¿ĩæ¸¡":9252,"ä¸įå¤ª":9253,"éĢ®":9254,"æ°ĳçĶŁ":9255,"ä¸įåºĶ":9256,"éħ°":9257,"çĽĳçĿ£ç®¡çĲĨ":9258,"å¤ĸçķĮ":9259,"ç¼ĵæħ¢":9260,"ĠAl":9261,"å¯¹æİ¥":9262,"çĶŁæ´»åľ¨":9263,"æĹ¥åĲİ":9264,"çļĦçĶµå½±":9265,"éªļ":9266,"ä¸ĸçķĮåĲĦåľ°":9267,"åįģä¸ĢæľĪ":9268,"èµĭäºĪ":9269,"ary":9270,"è¡¨å½°":9271,"çļ±":9272,"åĪĨæł¡":9273,"ç³ĸå°¿çĹħ":9274,"å¤ĩçĶ¨":9275,"åŃĲå®«":9276,"çĶµç½ĳ":9277,"æįĲèµł":9278,"æĹ¥æŃ£å¼ı":9279,"æķ°çļĦ":9280,"åĩºåĵģ":9281,"å·ŀåºľ":9282,"ä¸ĭæĸ¹":9283,"éĴ¥":9284,"çĹ´":9285,"ç¬¬äºĮæ¬¡ä¸ĸçķĮå¤§æĪĺ":9286,"éľĢè¦ģçļĦ":9287,"æµªè´¹":9288,"ä¸ļåĨħ":9289,"åİĨç»ı":9290,"èİ·èĥľ":9291,"æ²Ľ":9292,"å¦Ĥæľī":9293,"éŀį":9294,"çī¡ä¸¹":9295,"çĸ¯çĭĤ":9296,"åĶ®åĲİæľįåĬ¡":9297,"æĢ»æĬķèµĦ":9298,"çīĽèĤī":9299,"å·´å°Ķ":9300,"åĻ¨ä»¶":9301,"åĲ«ä¹ī":9302,"çļĦæĸĩåĮĸ":9303,"Ġæľ¬":9304,"åľ¨åĽ½åĨħ":9305,"æİ¨åĩºçļĦ":9306,"ä¹¦éĿ¢":9307,"æĦŁåºĶ":9308,"å°½åı¯èĥ½":9309,"çĽ¸æľº":9310,"æ°ĳä¿Ĺ":9311,"æµģæ°´":9312,"å°ĳéĩı":9313,"çŃīé¢ĨåŁŁ":9314,"ç«ĭåĪ»":9315,"ç¬¬ä¸Ģä½į":9316,"å¾Ļ":9317,"å¯¹å¾ħ":9318,"Go":9319,"Ġ12":9320,"éĵİ":9321,"åįİä¸ľ":9322,"ä¸ĢçĽ´åľ¨":9323,"å»ºåĽ½":9324,"æıĲçĲ´":9325,"æ³¨éĩĬ":9326,"çģ¯åħī":9327,"ä¸Ĭåİ»":9328,"åĿŁ":9329,"å¹´ä¸ŃåĽ½":9330,"åĸĩ":9331,"åıĸåĨ³äºİ":9332,"è£Ļ":9333,"åķĨåŁİ":9334,"å®¶åĽŃ":9335,"è¯¥çīĩ":9336,"åĨ¥":9337,"ä¸ºæľ¬":9338,"ä¹ĭæĹħ":9339,"âĦĥï¼Į":9340,"Ġ8":9341,"ä¸įå®ľ":9342,"èķī":9343,"ç¥ŀå¥ĩ":9344,"Ġg":9345,"åĲīå°Ķ":9346,"åı£åĳ³":9347,"åŀ£":9348,"ç»´åŁĥ":9349,"ç»©æķĪ":9350,"èĭıä¸¹":9351,"ä¼ģä¸ļå®¶":9352,"æº¶è§£":9353,"å°¼äºļå·ŀ":9354,"åĢ¡å¯¼":9355,"æľĢç»Īç»ĵæŀľ":9356,"åİĤæĪ¿":9357,"æ¦´":9358,"çŁ¿çī©":9359,"åĨ³å¿ĥ":9360,"éģĹè¿¹":9361,"æīĢéķ¿":9362,"æ°´æĻ¶":9363,"èĲ½åĲİ":9364,"å¼ĹæľĹ":9365,"çľĭåĩº":9366,"ç»Ŀç¼ĺ":9367,"èĴĻçī¹":9368,"çļĦä¸ĢåĪĩ":9369,"äºĶå¤§":9370,"é¦ĸæĴŃ":9371,"æŃ»äºİ":9372,"å¬":9373,"çķ´":9374,"äº¤æ±ĩ":9375,"çļĦåŁİå¸Ĥ":9376,"å±ķåĩº":9377,"è½°çĤ¸":9378,"éļıä¹ĭ":9379,"æľĿéĺ³":9380,"çīŁ":9381,"åı£æĦŁ":9382,"ç®¡çĲĨåĴĮ":9383,"é¢Ħå¤ĩ":9384,"æķ£çĥŃ":9385,"æł¡åıĭ":9386,"ç¿°æŀĹ":9387,"ä¸Ńå¼ı":9388,"åı¯ä¾Ľ":9389,"æĪĲæķĪ":9390,"å®Įæ¯ķ":9391,"åĮĹæµ·éģĵ":9392,"ä¸Ģè¡Į":9393,"å¹³è¡Į":9394,"å¹¿éĺĶ":9395,"éĢļå¾Ģ":9396,"å§ĳå¨ĺ":9397,"èĬĤçĤ¹":9398,"æ¶¤":9399,"å±ĭé¡¶":9400,"ç²¤è¯Ń":9401,"æĿł":9402,"åĿŀ":9403,"æķ´å½¢":9404,"ä¸ºä¼ģä¸ļ":9405,"æł¼å°Ķ":9406,"æ³¨æĦıäºĭé¡¹":9407,"æİ¨è¡Į":9408,"ä¸įè¯¦":9409,"ä¸īæĺ¯":9410,"åī¯æķĻæİĪ":9411,"äº¤ç»Ļ":9412,"åģĩè®¾":9413,"å¤´åıĳ":9414,"èĥ½åĲ¦":9415,"çļĦçĪ¶äº²":9416,"æĹ©ä¸Ĭ":9417,"çŃīå·¥ä½ľ":9418,"åī©ä½Ļ":9419,"åİ¥":9420,"æĶ¾å¤§":9421,"çī¹åħ°":9422,"æĶ¾æĿ¾":9423,"è¾¹å¢ĥ":9424,"åĲįè¯į":9425,"éĿ¢ç²ī":9426,"ä»½é¢Ŀ":9427,"æ±Łæ¹ĸ":9428,"æ¨¡èĮĥ":9429,"æĸĩæľ¬":9430,"æĶ»æīĵ":9431,"ç¼´çº³":9432,"è½¬åħ¥":9433,"åĭº":9434,"orm":9435,"åĸĤ":9436,"åĮ¹éħį":9437,"äºļç§į":9438,"åĴĮå°ı":9439,"è¿ĺå°Ĩ":9440,"éĢļæĬ¥":9441,"æĭħä¿Ŀ":9442,"å¢ŀåĢ¼":9443,"æĹ¥è¯Ń":9444,"ç¤¾ä¼ļç§ĳåŃ¦":9445,"åĪ¶å¤ĩ":9446,"å¨ħ":9447,"ä¸¥è°¨":9448,"ç«¯çļĦ":9449,"æĩĪ":9450,"è¥¿åĮĹéĥ¨":9451,"age":9452,"\"ãĢĤ":9453,"1933":9454,"å¯ĨéĽĨ":9455,"åıĳå¸ĥçļĦ":9456,"ç«ŁçĦ¶":9457,"1200":9458,"çĻ½éħĴ":9459,"ãĢĢãĢĢ":9460,"ĠX":9461,"è¥¿æĸ¯":9462,"äºĭçī©":9463,"æ»¥":9464,"è®²å¸Ī":9465,"ç²ª":9466,"éĴ¾":9467,"æĴŀåĩ»":9468,"ä¸ĢåĿĹ":9469,"ith":9470,"è¿Ļå°±":9471,"å¤§éĹ¨":9472,"åĲįèªī":9473,"åīįèº«":9474,"å¤ıä»¤":9475,"åºıåĪĹ":9476,"æĺ¥åŃ£":9477,"ç»Ļäºº":9478,"é£ŁæĿĲ":9479,"æĺ¥å¤©":9480,"ire":9481,"æıĲåĩºçļĦ":9482,"Ġè¥¿":9483,"å¾ģæĶ¶":9484,"æļ´éľ²":9485,"æĭ¯":9486,"ä½¿çĶ¨äºĨ":9487,"äº²åŃĲ":9488,"çĸĳéĹ®":9489,"å§Ĳå¦¹":9490,"æķŀ":9491,"é«ĺéĵģ":9492,"åĻ¨æ¢°":9493,"é£İéĽ¨":9494,"åī§ä¸Ń":9495,"çļĦäººåĳĺ":9496,"èĻı":9497,"æħ¨":9498,"è¦ģåľ¨":9499,"æ°´ä¸Ĭ":9500,"äº«å¹´":9501,"åŃ¦éĩĳ":9502,"ç¬¬åįģäºĮ":9503,"éĤ£ç§į":9504,"éĩįè¦ģçļĦæĺ¯":9505,"åİŁæľī":9506,"åħīæ»ĳ":9507,"èĮ«":9508,"åĲĳåīį":9509,"é»Ľ":9510,"äº¤åĵį":9511,"çģ¶":9512,"çĿĲ":9513,"çĻ½äºĳ":9514,"å»ºçŃĳå¸Ī":9515,"éĴ¢ç®¡":9516,"é¢ĳç¹ģ":9517,"ä¸ĢæĹ¶":9518,"å¤§ä¸ĵ":9519,"è¿Ļæĺ¯ä¸Ģä¸ª":9520,"ä¸»é¢ĺæĽ²":9521,"ç§ĳæĬĢè¿ĽæŃ¥":9522,"æ£į":9523,"æ¸¸åĩ»":9524,"çİ¯çĲĥ":9525,"ä¾¿å®ľ":9526,"åĲİåľ¨":9527,"And":9528,"DP":9529,"å±±é¡¶":9530,"è¿ľç¦»":9531,"ish":9532,"åįĬå¯¼ä½ĵ":9533,"åĮĹä¾§":9534,"act":9535,"å¹¶ä¸º":9536,"æł¼éĩĮ":9537,"å¤ªæŀģ":9538,"åĲĮæĹ¶ä¹Łæĺ¯":9539,"ãĢĳï¼ļ":9540,"åĳĢ":9541,"å¼ĢåĬŀ":9542,"åĲĳåįĹ":9543,"çĶ¨äºĨ":9544,"çĶ¨äºº":9545,"è¿ģç§»":9546,"å£«é¡¿":9547,"è¿Ļä¸¤ä¸ª":9548,"PL":9549,"çĩĥæ°Ķ":9550,"åĩºèµĦ":9551,"çļĦè§Ĵèī²":9552,"åŁł":9553,"èº«å¿ĥ":9554,"è¦ģæľī":9555,"å¾ģæľį":9556,"iss":9557,"çī¹èī²çļĦ":9558,"å¯ħ":9559,"æīĭå·¥":9560,"åľ¨å¤ĸ":9561,"ä¸»æķĻç»ĥ":9562,"èİ¹":9563,"ä¸ºæł¸å¿ĥ":9564,"å°ĨæĿ¥":9565,"JR":9566,"ç¯Ĩ":9567,"æĭ¿åĪ°":9568,"æĹ¢æľī":9569,"ç¬¬ä¸Ģç«ł":9570,"140":9571,"åĪĥ":9572,"åĴĮé«ĺ":9573,"è§ģè¯ģ":9574,"å¦ĤæŀľæĤ¨":9575,"æĬĴ":9576,"æıĲåıĬ":9577,"æģĲæĥ§":9578,"æµģæµª":9579,"æĪıæĽ²":9580,"çĽ´åįĩ":9581,"ä¸įå¼Ģ":9582,"åħĭæľį":9583,"åıĺéĿ©":9584,"å¤§åĲĮ":9585,"çĹħåıĺ":9586,"éħįæĸ¹":9587,"åı°é£İ":9588,"æ²³çķĶ":9589,"å®ĮåĸĦçļĦ":9590,"å¹³ç¨³":9591,"å¢ŀå¤§":9592,"æ³¢åĬ¨":9593,"çĽ¼":9594,"ç»ĪæŃ¢":9595,"å¹¿æ³ĽåºĶçĶ¨äºİ":9596,"çļĦæ´»åĬ¨":9597,"åħ¬åĬ¡åĳĺ":9598,"æ¼Ķç»İ":9599,"åī¯ä¼ļéķ¿":9600,"æį§":9601,"éĿĻèĦī":9602,"æ½ľèīĩ":9603,"èĿł":9604,"éħ¥":9605,"å°ģä¸º":9606,"èĨ³":9607,"çļĦåľ°":9608,"å®ĭä»£":9609,"çģ°èī²":9610,"èħĵ":9611,"1934":9612,"è¶³çĲĥéĺŁ":9613,"è¿Ħ":9614,"ä¸Ńå°ıä¼ģä¸ļ":9615,"çľŁäºº":9616,"çº¢åĨĽ":9617,"è¡Įèµ°":9618,"indows":9619,"out":9620,"çĤ³":9621,"çłĶç©¶çļĦ":9622,"çļĦäººçī©":9623,"ern":9624,"RO":9625,"åľ¨æľ¬":9626,"éªĤ":9627,"åĩıèĤ¥":9628,"ä¸ĭä»¤":9629,"å®īå¨ľ":9630,"å°ĳå°Ĩ":9631,"éļıæĦı":9632,"æĹłçº¿çĶµè§Ĩ":9633,"åĩĿèģļ":9634,"ç¦ıå¾·":9635,"ä½£":9636,"ä¹°åįĸ":9637,"éĻ¤æŃ¤ä¹ĭå¤ĸ":9638,"éĥ½å¾Ī":9639,"ä½¿çĶ¨å¯¿åĳ½":9640,"ï¹Ĳ":9641,"æĳ©æīĺ":9642,"ä¸Ńåħ±åħļåĳĺ":9643,"å®ŀåľ°":9644,"ç§ĳæĬĢåĪĽæĸ°":9645,"éħ¸çĽĲ":9646,"ç»ĵå±Ģ":9647,"æł·æľ¬":9648,"ä¿Ŀå®Ī":9649,"æ²»æĦĪ":9650,"åıĺåĬ¨":9651,"ç¾İåĽ½çļĦ":9652,"åĩºéģĵ":9653,"ç¼Ģ":9654,"åįłæ¯Ķ":9655,"åĨĽäºº":9656,"éĤ¹":9657,"å®Įç»ĵ":9658,"æ¬¢ä¹Ĳ":9659,"æ¹¿åľ°":9660,"çº§èģĶèµĽ":9661,"éĿĴçĿĲ":9662,"ä»·åĢ¼çļĦ":9663,"å¤©æĸĩåŃ¦":9664,"åħīè°±":9665,"Ø§":9666,"æŁ¥çĲĨ":9667,"éĢļè¡Į":9668,"åı¦ä¸Ģç§į":9669,"äººä»¬çļĦ":9670,"Ġ2010":9671,"old":9672,"âĢ§":9673,"ä¸įåĲ«":9674,"ĠAn":9675,"å¾ħéģĩ":9676,"åĢĻéĢīäºº":9677,"åħ¥åŃ¦":9678,"à¤":9679,"æ±¶":9680,"ãĤŃ":9681,"åħ¬å¼ĢèµĽ":9682,"é¥²åħ»":9683,"å¸Ĥä¸Ńå¿ĥ":9684,"ä¼ļåĩºçİ°":9685,"æĿ¡ä»¶çļĦ":9686,"åľ£æ¯į":9687,"æĺ¯é¦Ļæ¸¯":9688,"çĲĨåŃ¦":9689,"æīĭè¡¨":9690,"æķ´æ²»":9691,"å®ŀè´¨":9692,"ment":9693,"ç»¸":9694,"æĢ§å¼º":9695,"ä¸įä½ı":9696,"é£İåĳ³":9697,"ĠæľĪ":9698,"è´Łèį·":9699,"å®£åĳĬ":9700,"èĥ½åĬĽçļĦ":9701,"çŁ¥åºľ":9702,"\\/":9703,"und":9704,"ä¸»äºĭ":9705,"æ°´å¹³çļĦ":9706,"å±ĤéĿ¢":9707,"æ¡ĥåĽŃ":9708,"æ¦Ĩ":9709,"220":9710,"éĹ·":9711,"LO":9712,"æķ°æį®æĿ¥æºĲäºİ":9713,"åĨłçĬ¶":9714,"å½ĵä½ľ":9715,"å·´åŁº":9716,"è½½ä½ĵ":9717,"çľ¼éķľ":9718,"æķĻèĤ²çļĦ":9719,"çĽĳçĭ±":9720,"å¹¢":9721,"åħļå§Ķä¹¦è®°":9722,"æľīåĬĽ":9723,"è¿ĻæĿ¡":9724,"è®¾åľ¨":9725,"æ£µ":9726,"æľĢæĹ©çļĦ":9727,"æķ°æį®ä¸ºåĩĨ":9728,"åİĭåĻ¨":9729,"ç¦»å¿ĥ":9730,"çİ¯å¢ĥçļĦ":9731,"å½ĵå±Ģ":9732,"æł¸éħ¸":9733,"çļĦåĬĽéĩı":9734,"ä¸Ĭæĸ¹":9735,"åĵº":9736,"åı¯çĶ¨äºİ":9737,"æ¿Ĵ":9738,"pe":9739,"ä¼ĺéĽħ":9740,"Ð²":9741,"äºĭè¿¹":9742,"çĦ¦çĤ¹":9743,"è¿ĩå¤ļ":9744,"åĿĲèĲ½äºİ":9745,"ä»İä¸Ń":9746,"ä»įåľ¨":9747,"æ¾ľ":9748,"æ³°å±±":9749,"åħ¨æĿĳ":9750,"ç§ĳå¤«":9751,"æı´åĬ©":9752,"åĪ©çī©":9753,"Ġé¦Ļæ¸¯":9754,"ç©Ĩæĸ¯":9755,"åĻªéŁ³":9756,"çļĦæłĩåĩĨ":9757,"åĪ¶åĨ·":9758,"ç§°åĳ¼":9759,"ost":9760,"æł¼æŀĹ":9761,"çļĦä¸ĢæĿ¡":9762,"ä¸ĩäº©":9763,"æľªç»ı":9764,"ä¸Ńçº§":9765,"åİŁæĿ¥çļĦ":9766,"ä¸ºä¸»çļĦ":9767,"ä¿¡èªī":9768,"èµ°äºĨ":9769,"åŃµ":9770,"åĪĨåī²":9771,"èĶļ":9772,"è¯¢éĹ®":9773,"ous":9774,"åľºä¸Ĭ":9775,"ãĤĮ":9776,"çıįçıł":9777,"ä¸ľé£İ":9778,"éĵ¸éĢł":9779,"è§£åĨ³äºĨ":9780,"æ¿ĳ":9781,"çŃīéĹ®é¢ĺ":9782,"æłĩè®°":9783,"èİ²èĬ±":9784,"éĩĳéĴ±":9785,"è§Ĩè§Ĵ":9786,"are":9787,"åĽŀå¤į":9788,"çĻ»ä¸Ĭ":9789,"éĺ²çĸ«":9790,"å¿«éĢĴ":9791,"åħ¬æŃ£":9792,"é£İæĥħ":9793,"å¸ĪèµĦ":9794,"çļĦå¥³åĦ¿":9795,"åħ¬ç¤¾":9796,"ç©¿çĿĢ":9797,"ä¸Ĭçº§":9798,"é£İäºĳ":9799,"ä»ħæ¬¡äºİ":9800,"çģµæĦŁ":9801,"èĩªç§°":9802,"å²Ľä¸Ĭ":9803,"è´¨çĸĳ":9804,"ç¼ĸåħ¥":9805,"å®¢è½¦":9806,"«çĹ":9807,"å°ıåŃ©":9808,"å¤ľéĹ´":9809,"éĻĩ":9810,"å²Ĥ":9811,"æĭ¼éŁ³":9812,"èĤĨ":9813,"åĬŁå¤«":9814,"ä¸Ńæµ·":9815,"è¿Ľåıĸ":9816,"é¢Ĩåľ°":9817,"è¯Ŀé¢ĺ":9818,"9787":9819,"ä¼Ĺäºº":9820,"ä¸Ńæ¯Ĵ":9821,"æĭ¦":9822,"ãĢĭï¼ĮãĢĬ":9823,"æŀģåħ¶":9824,"æĳĦåĥı":9825,"çĴĭ":9826,"çļĦä¼łç»Ł":9827,"æĪĳåľ¨":9828,"ĠSh":9829,"æľĢç»Īç»ĵæŀľä»¥":9830,"æľ¬çīĩ":9831,"åĪ¶åĬ¨":9832,"çĻ¾åº¦åľ°åĽ¾æķ°æį®ä¸ºåĩĨ":9833,"æķ°æį®æĿ¥æºĲäºİçĻ¾åº¦åľ°åĽ¾":9834,"æľĢç»Īç»ĵæŀľä»¥çĻ¾åº¦åľ°åĽ¾æķ°æį®ä¸ºåĩĨ":9835,"Ġ\"":9836,"çĶ¨ä»¥":9837,"é«ĺéĽĦ":9838,"åĲĵ":9839,"éķģ":9840,"åı¯çĪ±":9841,"å¦¨":9842,"çĲĨè´¢":9843,"å±±ä¸Ĭ":9844,"åĲİéĿ¢":9845,"åĲĪçĲĨçļĦ":9846,"è§£æŀĲ":9847,"éĵ¶æ²³":9848,"åºķéĥ¨":9849,"Th":9850,"æİ¥ç§į":9851,"æ°ĳä¸»åħļ":9852,"ä¸įåģľ":9853,"åºĵåŃĺ":9854,"èģªæĺİ":9855,"èħĮ":9856,"æŃĮåĶ±":9857,"1932":9858,"é¼łæłĩ":9859,"ç»ĵæŀĦçļĦ":9860,"ath":9861,"æľ¬æķ°æį®æĿ¥æºĲäºİçĻ¾åº¦åľ°åĽ¾":9862,"å®³æĢķ":9863,"åįĹä¾§":9864,"é¡µæķ°":9865,"çĪ±å¾·åįİ":9866,"æ¨Ĭ":9867,"ä¿Ŀåį«":9868,"æĻļæľŁ":9869,"èĬ±åįī":9870,"ĠãĢģ":9871,"é»ĳé¾Ļæ±Łçľģ":9872,"éģĵçĲĨ":9873,"åĺīåºĨ":9874,"æĺ¯çĽ®åīį":9875,"æĦļ":9876,"åĩłä½ķ":9877,"ä¿¡æģ¯çļĦ":9878,"360":9879,"åĳĨ":9880,"æĢ»äººåı£":9881,"åĨĻçļĦ":9882,"ä¿®éģĵ":9883,"æ°¨éħ¸":9884,"ç§ĳçļĦ":9885,"å¸¸å§Ķ":9886,"æ£ł":9887,"èĪ¬çļĦ":9888,"<\\/":9889,"åŁİå¢Ļ":9890,"èĬĿåĬł":9891,"è¡įçĶŁ":9892,"æľīä¸Ģå®ļ":9893,"èĩªåŃ¦":9894,"æ°ĳäºĭ":9895,"åįĥéĩĮ":9896,"å¼ĹéĩĮ":9897,"æĶ¹ç§°":9898,"ä¸Ģå¥Ĺ":9899,"åı·çļĦ":9900,"æľºæŀĦçļĦ":9901,"åĪ©çī©æµ¦":9902,"ç§ĳçĽ®":9903,"çĹħåĽł":9904,"å¹¿æ³ĽçļĦ":9905,"è½¬è½½":9906,"att":9907,"ä¸īä½į":9908,"ãģ§":9909,"ä¿ĦåĽ½":9910,"ide":9911,"ĠCom":9912,"ä¸ŃåĽ½ç§ĳåŃ¦éĻ¢":9913,"ç¾İåĨĽ":9914,"æĿĢäºº":9915,"æŀģå¤§":9916,"IM":9917,"èĥ½åĬĽåĴĮ":9918,"è¶³ä»¥":9919,"åħ´å¥ĭ":9920,"æ°´çĶµ":9921,"æ²¡æľīä»»ä½ķ":9922,"å£°ç§°":9923,"çĸ²åĬ³":9924,"èĬĿåĬłåĵ¥":9925,"ä½įäºİä¸ŃåĽ½":9926,"æ³¢å°Ķ":9927,"åĵģçīĮçļĦ":9928,"è¶ĬæĿ¥è¶Ĭå¤ļ":9929,"æ¸ħåįİå¤§åŃ¦":9930,"åĲİæĸ¹":9931,"çµ":9932,"èĲİ":9933,"äºĨä¸ĢäºĽ":9934,"çĿĢåĬĽ":9935,"èĭ±éķĳ":9936,"ä¸Ģä¸ªæľĪ":9937,"çľŁè¯ļ":9938,"åĿĩåı¯":9939,"ç©¿è¿ĩ":9940,"ä¿¡èµĸ":9941,"éĿĻçĶµ":9942,"åįļè§Īä¼ļ":9943,"è¢«èªīä¸º":9944,"ä¸ĢåįĬ":9945,"ç»Ħä»¶":9946,"æ²¾":9947,"éĻĦå½ķ":9948,"åĩĮæĻ¨":9949,"ä¿©":9950,"è¢«åĳĬ":9951,"ç¼ĸç¨ĭ":9952,"Pro":9953,"æĹłçĸĳ":9954,"ä¸įæĸŃçļĦ":9955,"éĩĮç¨ĭ":9956,"åħŃä¸ª":9957,"äºĨä¸Ģç§į":9958,"ä¹ĭç§°":9959,"ä½Ĩåį´":9960,"ç®¡çĲĨç³»ç»Ł":9961,"æ´»åĬ¨ä¸Ń":9962,"6000":9963,"æ¼Ķèīº":9964,"æĹłæķĪ":9965,"ä¸ľè·¯":9966,"æľĢåĲİçļĦ":9967,"ä¸ºå®¢æĪ·æıĲä¾Ľ":9968,"æĦŁåħ´è¶£":9969,"çº¿æĢ§":9970,"pt":9971,"åĲİåĨį":9972,"å®ĥåľ¨":9973,"çĲĨäºĭä¼ļ":9974,"ä¸Ńåľº":9975,"æ¢ĵ":9976,"ä¹¦åºĹ":9977,"ä½ıå®¿":9978,"æĮĩçļĦæĺ¯":9979,"å½ĵæĹ¥":9980,"Äģ":9981,"Ġn":9982,"åıĺæĪĲäºĨ":9983,"åī¯éĻ¢éķ¿":9984,"ä¸ľäºļ":9985,"æ²³éģĵ":9986,"æĬĸ":9987,"æµĬ":9988,"ç§ĭåŃ£":9989,"é«ĺæ¸ħ":9990,"åĬłæ²¹":9991,"è¯ł":9992,"æĺ¯æĪĳä»¬":9993,"çĶ¨æ³ķ":9994,"éģĵåħ·":9995,"ç¦§":9996,"ç§ĳå¤§åŃ¦":9997,"è¯Ľ":9998,"çĨ¬":9999,"åı¯ä»¥çĶ¨":10000,"æĺİæľĿæĶ¿æ²»äººçī©":10001,"åĿļåĨ³":10002,"EL":10003,"äº§èĥ½":10004,"æĹ¶ç©º":10005,"ãĤª":10006,"åĪĨå¼Ģ":10007,"ä½ĵéķ¿":10008,"ç²ĴåŃĲ":10009,"æº¶åīĤ":10010,"è¿Ń":10011,"âĢ¦âĢ¦ãĢĤ":10012,"å¤ļåªĴä½ĵ":10013,"åįİåįĹ":10014,"åĲīæŀĹçľģ":10015,"ä¸ļçļĦ":10016,"è¿ĳå¹´":10017,"åĪ¤åĨ³":10018,"èĥ°":10019,"åĲİåıĪ":10020,"ç¬ĥ":10021,"ä¼ļå¯¼èĩ´":10022,"çİ¯ç»ķ":10023,"åıĳçĥŃ":10024,"è°ı":10025,"ãĤ¨":10026,"è¿İæİ¥":10027,"ç¥ĸåħĪ":10028,"SA":10029,"å°±ç®Ĺ":10030,"é©¬ä¸ģ":10031,"åºŁéĻ¤":10032,"åħīä¼ı":10033,"åĮĹäº¬æĹ¶éĹ´":10034,"ä¸įå¤§":10035,"çľģéģĵåı°":10036,"ä¸»æľº":10037,"é£ŁæĢ§":10038,"æİĴè¡Įæ¦ľ":10039,"ä¸Ģæ®µæĹ¶éĹ´":10040,"åĽ¢éķ¿":10041,"è¯ĬçĸĹ":10042,"çľŁçĽ¸":10043,"å·©åĽº":10044,"ä»·åĢ¼è§Ĥ":10045,"è®½":10046,"äººæ°ĳæ£Ģå¯ŁéĻ¢":10047,"æ³ķåºŃ":10048,"å¤§èĦĳ":10049,"ä»ĸæĽ¾":10050,"æĸĩå¸Ŀ":10051,"çľģåĴĮ":10052,"ung":10053,"ä¸Ľä¹¦":10054,"åĲįåĪĹ":10055,"ä½įäºİæ³ķåĽ½":10056,"ãİ":10057,"æĬķè¯ī":10058,"äºĨå¾Īå¤ļ":10059,"å¥ĸç«ł":10060,"101":10061,"ãĤĴ":10062,"ç»¥":10063,"å¸ĥæĶ¿":10064,"çĸĹæķĪ":10065,"Ġæĺ¯":10066,"çļĦçİ°è±¡":10067,"è¯¸èĳĽ":10068,"åħ¬åŃĲ":10069,"æ´¾çļĦ":10070,"çľģçļĦä¸Ģä¸ª":10071,"çļĦå»ºè®¾":10072,"åĬłéĩį":10073,"çĽĳåĪ¶":10074,"Br":10075,"ĠZ":10076,"æŃ¤ç±»":10077,"ä¸Ģè¯į":10078,"åĩ¿":10079,"èĲ½æĪĲ":10080,"å°¼è¥¿äºļ":10081,"é«ĺåĵģè´¨":10082,"æ¥·":10083,"ame":10084,"è¢«è§Ĩä¸º":10085,"Ġãĥ":10086,"ä¸ľåĮĹéĥ¨":10087,"ãĤ³":10088,"æ¶Īè´¹èĢħçļĦ":10089,"æĶ¶ç¼©":10090,"å²ģæľĪ":10091,"ley":10092,"éĺ´éĺ³":10093,"åģ¥åº·çļĦ":10094,"çĶĺèĤĥçľģ":10095,"å°ģéĿ¢":10096,"å®¶çĶµ":10097,"æľ¬åħ¬åı¸":10098,"å®ŀä¾ĭ":10099,"éĻĦä»¶":10100,"å§ĭäºİ":10101,"æ²īæ·Ģ":10102,"åī¯ä½¿":10103,"äººæīįåŁ¹åħ»":10104,"åĽļ":10105,"ç»´å¤ļ":10106,"çº¸å¼ł":10107,"åłªç§°":10108,"éķ¿å®ĺ":10109,"Ġ9":10110,"æĢľ":10111,"æ²¦ä¸º":10112,"è§ģäºİ":10113,"çł´ç¢İ":10114,"ä¹īå¤§åĪ©":10115,"çļĦæ¨¡å¼ı":10116,"æĪĮ":10117,"çĤĸ":10118,"çĽ´éļ¶":10119,"çļĦç»ıæµİ":10120,"çºĤ":10121,"æĶ¹åĲį":10122,"PV":10123,"åĪĨåĮº":10124,"ory":10125,"çŁ³åĮĸ":10126,"å¸¦ç»Ļ":10127,"land":10128,"ä¸İä¹ĭ":10129,"ä¹ĭäºº":10130,"å°¼å¥¥":10131,"ç¤¼åĵģ":10132,"ç³Ł":10133,"æīĭçļĦ":10134,"ç»Ĩèĩ´":10135,"ä¸ºæľŁ":10136,"çĹĴ":10137,"amp":10138,"çĶ±æĿ¥":10139,"ä¸ĸçļĦ":10140,"åĻªå£°":10141,"ä»İæĿ¥":10142,"ç¬¬åįģä¸ī":10143,"å¥½å¥½":10144,"ĠSch":10145,"åºŁå¼ĥ":10146,"ä¿¯":10147,"çŁ³å®¶åºĦ":10148,"åĪĽéĢłäºĨ":10149,"ĠUn":10150,"æºī":10151,"åĲĳåĮĹ":10152,"CT":10153,"åĲĮè¡Į":10154,"æĽ´é«ĺçļĦ":10155,"æľ«æľŁ":10156,"se":10157,"çĶ¨çĶµ":10158,"ä¹ĭéģĵ":10159,"æĺİå¤©":10160,"æĢ»åĨ³èµĽ":10161,"æĪĺç»©":10162,"è¾ĥå¥½çļĦ":10163,"ç¬¬äºĮç«ł":10164,"æĹıèĩªæ²»":10165,"æ²¿çº¿":10166,"åĪĽä½ľçļĦ":10167,"åİķ":10168,"åĨįåĬłä¸Ĭ":10169,"ç¬¬äºĮå±Ĭ":10170,"ite":10171,"æ¿Ģæĥħ":10172,"èĬľ":10173,"350":10174,"ä¸įå¹¸":10175,"æĶ¾å¿ĥ":10176,"éħįéĢģ":10177,"èĢģå¹´äºº":10178,"åĴĮå°ļ":10179,"èİĵ":10180,"åĲĦæľī":10181,"æĬ¥ä»·":10182,"å´ĩç¥¯":10183,"ç¢°æĴŀ":10184,"ç¡®ç«ĭ":10185,"è¶³çĲĥä¿±ä¹Ĳéĥ¨":10186,"åĩıéĢŁ":10187,"èķĥ":10188,"å¸ľ":10189,"å¹³è£ħ":10190,"å¢ĥå¤ĸ":10191,"åĩłå¤©":10192,"ä¸īçĻ¾":10193,"éĹ¨åı£":10194,"åĴĮæĸ°":10195,"çĶµå½±èĬĤ":10196,"æľīä¸ĢäºĽ":10197,"å¤§çģ«":10198,"æĮ«":10199,"æĪĳåħ¬åı¸":10200,"ç²¾åįİ":10201,"éĿĴå±±":10202,"æ´Ľå¤«":10203,"æĺ¯å°Ĩ":10204,"è¥¿æ±ī":10205,"äººæĢ§":10206,"åħĪè¿Ľåįķä½į":10207,"1931":10208,"Ġw":10209,"åīįæ²¿":10210,"æĬ¥åĪĬ":10211,"æ¸©å·ŀ":10212,"æ¡ĥèĬ±":10213,"å°±è¢«":10214,"å·´æĭī":10215,"é¦ħ":10216,"ä½ľäºĨ":10217,"åı¯æĥľ":10218,"åĲĳä¸ľ":10219,"åıĤä¸İäºĨ":10220,"å¤§åİħ":10221,"å¿ħéľĢ":10222,"é¢ģå¥ĸåħ¸ç¤¼":10223,"è¹Ħ":10224,"å¦Ħ":10225,"å½¢çļĦ":10226,"å¤ªç¥ĸ":10227,"ä¿¡æģ¯æĬĢæľ¯":10228,"æĪĺä¸Ń":10229,"éħ±æ²¹":10230,"ä¹Łå°±æĺ¯è¯´":10231,"è¿Ľåº¦":10232,"å°ıæ¸¸æĪı":10233,"åĻ¨æĿĲ":10234,"ç»Ĩèħ»":10235,"è¿Ļä¸ªéĹ®é¢ĺ":10236,"ĠPro":10237,"éĺĢéĹ¨":10238,"æĨ¾":10239,"éº»çĥ¦":10240,"èµ·éĩį":10241,"éĢļè¿ĩäºĨ":10242,"ä¸ºä¾ĭ":10243,"å¤ĸè¯Ń":10244,"ä½¿çĶ¨èĢħ":10245,"åĥıæĺ¯":10246,"åĲįå®¶":10247,"å·²äºİ":10248,"æ¬§åĨł":10249,"æ¯ĹéĤ»":10250,"è¯¥é¡¹çĽ®":10251,"çŀ»":10252,"ä¸ŃåĴĮ":10253,"çĻ¾è´§":10254,"å¹½é»ĺ":10255,"æĻĸ":10256,"å¢ĥçķĮ":10257,"èĥĮé³į":10258,"Ġ2015":10259,"é¢Ĩå¯¼äºº":10260,"çļĦç»Ħç»ĩ":10261,"æķĻå®Ĺ":10262,"ä½ĵæ£Ģ":10263,"åħ¥åĽ´":10264,"ä¹¡éģĵ":10265,"çĨı":10266,"èĢĲç£¨":10267,"ux":10268,"æĪİ":10269,"æ¸ħçľŁ":10270,"åİŁä¸º":10271,"æ³¡æ²«":10272,"æīĢè°ĵçļĦ":10273,"çļĦå¼Ģ":10274,"ç§ĳæĬĢå¤§åŃ¦":10275,"ä»¿ä½Ľ":10276,"æĽĿåħī":10277,"è¿ĽåĮĸ":10278,"åĬłå¯Ĩ":10279,"å·´åŁºæĸ¯åĿ¦":10280,"Ġ2011":10281,"æİ§åĪ¶ç³»ç»Ł":10282,"æĽ¾ç¥ĸ":10283,"Ġ2016":10284,"çļĦçĬ¶æĢģ":10285,"æİ¥åĪ°":10286,"æľ¯è¯Ń":10287,"æľĪä»»":10288,"æ°ĳæĶ¿":10289,"çķħéĶĢ":10290,"æ·±çļĦ":10291,"Ġé»Ħ":10292,"ãģ£":10293,"105":10294,"èī°éļ¾":10295,"ä¸ļçķĮ":10296,"éĴ§":10297,"éĻ¨":10298,"åľ¨åĨħ":10299,"çļĦä¸Ģæ¬¡":10300,"erv":10301,"æ··ä¹±":10302,"åľ¨ä¸Ĭæµ·":10303,"å§ĵæ°ı":10304,"å¿ĺè®°":10305,"çĻ½çĻľé£İæĤ£èĢħ":10306,"Am":10307,"æĹłæīĢ":10308,"ä¼łæķĻ":10309,"åı¯è¡Į":10310,"æ²ĥå°Ķ":10311,"åľ¨éĤ£éĩĮ":10312,"ä¸ºå¤§å®¶":10313,"èĩªä»İ":10314,"çĲĥçļĦ":10315,"éĺ²èĮĥ":10316,"ä¸Ģä¹¦":10317,"åºĶåĬĽ":10318,"åįĩä»»":10319,"éģĵæķĻ":10320,"èµĽçļĦ":10321,"åĵªä¸ª":10322,"ç½Ĺä¼¯çī¹":10323,"å¹¶æĹł":10324,"èĪľ":10325,"çŁŃæľŁå¤§åŃ¦":10326,"ä¸İä¸ŃåĽ½":10327,"éĩĮåħĭ":10328,"åį³æĹ¶":10329,"è¯ºå¤«":10330,"äºĨä»ĸçļĦ":10331,"ç¤¼çī©":10332,"ãģĻ":10333,"ä¸ĸçºªçļĦ":10334,"æĩ¿":10335,"åĲįåı«":10336,"è¿Ľä¿®":10337,"ç¡¬åº¦":10338,"å¡«åĨĻ":10339,"å¯¹çħ§":10340,"çĶµè½¦":10341,"é¥¿":10342,"æľīä¸¤":10343,"åĲİåĭ¤":10344,"åıĬçĽ¸åħ³":10345,"åĳĺå¤ĸ":10346,"çº¿æĿ¡":10347,"çº¦çĳŁ":10348,"è¶³å¤ŁçļĦ":10349,"Ġ&":10350,"ä»¥è¥¿":10351,"IF":10352,"å¹³çŃī":10353,"å¼ºåĬ²":10354,"ç¿¡":10355,"çıłå®Ŀ":10356,"æ¡ĤæŀĹ":10357,"ool":10358,"å®īåİ¿":10359,"åįĹå®ģ":10360,"åı¯ä»¥è¯´":10361,"åħ¶ä¸Ńä¸Ģä¸ª":10362,"çİ©æ³ķ":10363,"åĲĪèµĦ":10364,"è¿ľçļĦ":10365,"è¢ľ":10366,"é£İæĻ¯åĮº":10367,"èĬĿéº»":10368,"è¿ĺåı¯":10369,"æľīä¸¤ä¸ª":10370,"çĲĨå·¥å¤§åŃ¦":10371,"å¿½è§Ĩ":10372,"èģĮä¸ļæĬĢæľ¯":10373,"èĬ¹":10374,"æĺ¯å¾Ī":10375,"åĲĪéĢĤçļĦ":10376,"è¿ģèĩ³":10377,"å¥³ç¥ŀ":10378,"CN":10379,"ä¼ļå±ķ":10380,"æĮīå¯Ł":10381,"èĥľåĩº":10382,"ä½ĵåŀĭ":10383,"å°ıéº¦":10384,"éĻĪåĪĹ":10385,"å¥¥æĸ¯åį¡":10386,"ãĤĤ":10387,"å»ĵ":10388,"çŁ«":10389,"åħ¥äºĨ":10390,"åıĸåĩº":10391,"æľīåħ³çļĦ":10392,"åħŃåįģ":10393,"èĪªçº¿":10394,"ç¡¬åĮĸ":10395,"ä¼łè¾¾":10396,"æĬķæīĭ":10397,"éĹ¨çªĹ":10398,"å¹´èİ·å¾Ĺ":10399,"éĹ´æİ¥":10400,"ä¾Ľæ°´":10401,"çķľçī§":10402,"ä¸ĭè·Į":10403,"åºŁæ°Ķ":10404,"Ġé©¬":10405,"åīįèĢħ":10406,"åı¤èĢģçļĦ":10407,"ä¸Ńå°Ĩ":10408,"åĵī":10409,"åİŁæĿĲæĸĻ":10410,"æĶ¿æ²»å®¶":10411,"çıłæµ·":10412,"å®ıè§Ĥ":10413,"ç´¯ç§¯":10414,"å¤§è¥¿æ´ĭ":10415,"ç¼©åĨĻ":10416,"åĢļ":10417,"ä¹ĭåĲİçļĦ":10418,"æĿĸ":10419,"ä½¿äºº":10420,"æĮīæĳ©":10421,"ç§ĳå°Ķ":10422,"ĠThe":10423,"çļĦç»ĵæŀĦ":10424,"é«ĺç§ĳæĬĢ":10425,"æ¶©":10426,"åĨ³è®®":10427,"æĹ¶éĹ´ä¸º":10428,"625":10429,"çļĦæĪĲåĳĺ":10430,"ç½Ĺå¾·":10431,"æĺŁç³»":10432,"585":10433,"åŁºéĥ¨":10434,"åįĹè·¯":10435,"æİ¢éĻ©":10436,"èģĮåĳĺ":10437,"éĿĴéĵľ":10438,"è®²è¯Ŀ":10439,"å¥½å¤Ħ":10440,"é»Ķ":10441,"ä¸ªåĪ«":10442,"æĶ¯æµģ":10443,"åķĨä¼ļ":10444,"ä½ĵèĤ²é¦Ĩ":10445,"ä¸Ģä¸Ģ":10446,"æĪĸèĢħæĺ¯":10447,"æĬĢèīº":10448,"åĨ¬å¤©":10449,"åį³æĺ¯":10450,"è´¯ç©¿":10451,"åºĶçĶ¨ç¨ĭåºı":10452,"äº¤éĢļè¿Ĳè¾ĵ":10453,"CR":10454,"é«ĺå±±":10455,"ä¸ĭè®¾":10456,"åİ¿æĶ¿åºľ":10457,"é¦Ļåĳ³":10458,"çĲĨäºĭéķ¿":10459,"æ»ĳéĽª":10460,"åŀ¦":10461,"èĩªçĦ¶ç§ĳåŃ¦":10462,"åĪ©çļĦ":10463,"å¼ĢäºĨ":10464,"åľ°è¯´":10465,"ä¸ĸä»£":10466,"å¹¶åıĳ":10467,"çĥŃçĤ¹":10468,"æªĢ":10469,"DVD":10470,"æĸ¯æĭīå¤«":10471,"è¦ģæ±ĤçļĦ":10472,"çº¦æľī":10473,"ä¾Ŀæ¬¡":10474,"yn":10475,"è¿İæĿ¥":10476,"çļĦå¤§å°ı":10477,"å¼ºçĥĪçļĦ":10478,"æĹ¥è®°":10479,"çĥŃéĩı":10480,"ood":10481,"Ġ2014":10482,"æİ¨åĩºäºĨ":10483,"ä¹Ŀå·ŀ":10484,"281":10485,"ear":10486,"çĭ¬èĩª":10487,"ä¿ĥä½¿":10488,"æ¸Ń":10489,"èĢĮæĪĲçļĦ":10490,"æīĭæĮĩ":10491,"æľĢå¤ļçļĦ":10492,"æĹĭå¾ĭ":10493,"Ġ2013":10494,"æķĻå¯¼":10495,"æ³ķå¾ĭæ³ķè§Ħ":10496,"çĶµåĬĽæľºè½¦":10497,"çĥĪå£«":10498,"å¼ĹéĽ·":10499,"åİŁåħĪ":10500,"çĶ¨éĩı":10501,"åĩºåħ¥":10502,"å³¡è°·":10503,"ä»ĬåĲİ":10504,"ç»ĻæĪĳ":10505,"æ¨¡ä»¿":10506,"çĥ¦æģ¼":10507,"åľ¨ä»ĸçļĦ":10508,"çĶ·ä¸»è§Ĵ":10509,"æĵ¢":10510,"è¡¨çİ°åĩº":10511,"Ġ2012":10512,"åĲĪä¼Ļ":10513,"äº¤äºĴ":10514,"æ³ķè¯Ń":10515,"æŃ¤äºĭ":10516,"æĹ¥æĻļ":10517,"åīįåĪĹ":10518,"åŀĦ":10519,"æ¬§éĺ³":10520,"Sc":10521,"åħ¶éĹ´":10522,"per":10523,"æĻĥ":10524,"ä¼Łå¤§çļĦ":10525,"çļĦæĹł":10526,"ä¸Ģåı·":10527,"ä¸ºæĸ°":10528,"çģĮæºī":10529,"ä½ľæĸĩ":10530,"ä¸ľåįĹéĥ¨":10531,"é²¤":10532,"åħ·ä½ĵçļĦ":10533,"æ²³è°·":10534,"ä»įæľī":10535,"èľĺ":10536,"CH":10537,"åĩºåı°":10538,"åŃĹæķ°":10539,"ç£Ĭ":10540,"æĳ§æ¯ģ":10541,"é«ĺæ¡£":10542,"éĵĿåĲĪéĩĳ":10543,"å¼ĺæī¬":10544,"ail":10545,"ä¸Ģéģĵ":10546,"èĢĮå¾ĹåĲį":10547,"åıªå¥½":10548,"éª¨éª":10549,"IV":10550,"æ²»å®ī":10551,"åĩĨåĪĻ":10552,"MB":10553,"é©¿":10554,"ä¸Ĭä¼ł":10555,"æ³ķæ¡Ī":10556,"çľģå¸Ĥ":10557,"è¿ĩåİ»çļĦ":10558,"æīĭåĨĮ":10559,"ç»ıåİĨäºĨ":10560,"å°ıéķĩ":10561,"æĶ¹èī¯":10562,"æ·¡æ°´":10563,"å±±åı£":10564,"éĩĳå¥ĸ":10565,"ç»ĺåĪ¶":10566,"èĢĮåĲİ":10567,"åįģä¸īå¹´":10568,"âĢĶâĢĶãĢĬ":10569,"å·²ç»ıæĪĲä¸º":10570,"æĶ¶åıĸ":10571,"è¿Ļå¯¹":10572,"çĽĨåľ°":10573,"åĪĨçļĦ":10574,"åı£ç¢ĳ":10575,"æĿĳçļĦ":10576,"æĲŃè½½":10577,"çķªèĮĦ":10578,"ÑĮ":10579,"è¿Ļæĺ¯ä¸Ģ":10580,"åħ¶ä¸º":10581,"åķĨè´¸":10582,"ĠæľĢä½³":10583,"Ġ2017":10584,"å¥ķ":10585,"å¹´ä¸Ń":10586,"æį®æĤī":10587,"å¤ļå°Ķ":10588,"æŃĮèĪŀ":10589,"åĿļå®ļ":10590,"ä¸įå¿ħ":10591,"æĻ®é²ģ":10592,"å®¦":10593,"èģĮä¸ļæķĻèĤ²":10594,"æĹłçº¿çĶµ":10595,"æľ¬é±¼":10596,"æĪĳè¦ģ":10597,"ï¼ĽãĢĬ":10598,"èį£èªīç§°åı·":10599,"æ±īåŃĹ":10600,"çĳļ":10601,"åµ©":10602,"åıĹæįŁ":10603,"æī¿è½½":10604,"æĬ«éľ²":10605,"åħ¥çĲĥ":10606,"ç»ĵæĻ¶":10607,"å¹´ç¾İåĽ½":10608,"éĽ¶éĥ¨ä»¶":10609,"æĺ¯éĢļè¿ĩ":10610,"ä½ľä¸ºä¸Ģä¸ª":10611,"åİĨåı²çļĦ":10612,"å¹´çĶŁ":10613,"äºĶéĩĳ":10614,"ä½ĵçİ°äºĨ":10615,"è¾ĥå¥½":10616,"æĹ§å¸Ĥéķĩ":10617,"éĥ¨éĥ¨éķ¿":10618,"åĿĲåľ¨":10619,"åĿĩè¡¡":10620,"ä½¿èĢħ":10621,"å¤ļå½©":10622,"ç»ĵç®Ĺ":10623,"èĬ±è´¹":10624,"è¥¿è·¯":10625,"çĭł":10626,"æĥħäºº":10627,"éĴ»çŁ³":10628,"èº«ä½ĵåģ¥åº·":10629,"æĺĵäºİ":10630,"ãĤ£":10631,"374":10632,"è´µå·ŀçľģ":10633,"èľĺèĽĽ":10634,"æľĪä¸Ń":10635,"ç¾Į":10636,"è¾ŀèģĮ":10637,"çºªå½ķçīĩ":10638,"åĲįèĥľ":10639,"çº¦æĿŁ":10640,"å£¬":10641,"èĭıç»´åŁĥ":10642,"èĴ¸åıĳ":10643,"å¹¿æĴŃçĶµè§Ĩ":10644,"GO":10645,"çĹ°":10646,"ä¾µçĬ¯":10647,"ä¸Ģåĳ¨":10648,"é«ĺåħ´":10649,"äºĮæľŁ":10650,"åħ³æĢĢ":10651,"åĸĺ":10652,"ç©Ĩæĸ¯æŀĹ":10653,"åį¤":10654,"âĶĢâĶĢ":10655,"å¤§èģĶçĽŁ":10656,"åħ¶ä»ĸçļĦ":10657,"TA":10658,"å¹²çº¿":10659,"çļĦçī¹":10660,"çĶ±ä¸ŃåĽ½":10661,"int":10662,"ç³»ç»Łä¸Ń":10663,"ç³¯":10664,"æļ´åĬĽ":10665,"çĽ´è¾ĸ":10666,"è§ĴéĢĲ":10667,"èĪªç©ºåħ¬åı¸":10668,"éĩıåŃĲ":10669,"è£ħéħį":10670,"æ±ĩæĬ¥":10671,"æĿĨèıĮ":10672,"åħ¨æ°ĳ":10673,"å°ĳæķ°æ°ĳæĹı":10674,"åĲĮåĲį":10675,"å¼ĢåıĳåķĨ":10676,"åģľéĿł":10677,"åĬłå°Ķ":10678,"æĦ¿æľĽ":10679,"æĬĬå®ĥ":10680,"åħ´èµ·":10681,"åĴĮä¸ŃåĽ½":10682,"æ°´éĿ¢":10683,"è¿Ħä»Ĭ":10684,"Hz":10685,"é«ĺçŃīæķĻèĤ²":10686,"ç»ıçĶ±":10687,"ä¹Ĳè¶£":10688,"èį§":10689,"åľ¨ä¸İ":10690,"å£ģçĶ»":10691,"æĸĩåºĵ":10692,"ç»ıæµİçļĦ":10693,"éľĸ":10694,"åħĥå¸ħ":10695,"æ°Ķæ°Ľ":10696,"è¯¸ä¾¯":10697,"åįİåĮĹ":10698,"è½§":10699,"è¢į":10700,"æķħæĦı":10701,"æľĽè¿ľ":10702,"ä»¥ä¸ľ":10703,"æŀģå¤§çļĦ":10704,"åĤį":10705,"åįİä¸º":10706,"çľĭæ³ķ":10707,"ä»ĵåĤ¨":10708,"Ð´":10709,"å½ķåĪ¶":10710,"ä¸ºæ³ķåĽ½":10711,"ä¸»èĲ¥":10712,"éĤ¢":10713,"åºĶè¯¥æĺ¯":10714,"é«ĺè´¨éĩıåıĳå±ķ":10715,"Ġ2018":10716,"å¤ļåĬŁèĥ½":10717,"å®¢æĪ¿":10718,"ç°¿":10719,"åĲİäºº":10720,"æĺİæ¸ħ":10721,"æĿ¯åĨłåĨĽ":10722,"ä»ĺåĩº":10723,"ä¸Ĭç½ĳ":10724,"é¥ª":10725,"Ľèµ·":10726,"èĥ¡æ¤Ĵ":10727,"èĿ´":10728,"ãĢĤ\"":10729,"ç¥Ľ":10730,"åģļåĩºäºĨ":10731,"uk":10732,"å¹´è½»çļĦ":10733,"æĭ¯æķĳ":10734,"èĢĥéªĮ":10735,"çĥŃéĹ¨":10736,"çŁŃä¿¡":10737,"èµ°åĩº":10738,"ogle":10739,"åĴª":10740,"çŃīèģĮ":10741,"ç»ĦçļĦ":10742,"ä¸Ńå¤®çĶµè§Ĩåı°":10743,"æĩĤå¾Ĺ":10744,"å·²åľ¨":10745,"æŀģéĻĲ":10746,"enn":10747,"åŃ¦å£«åŃ¦ä½į":10748,"å¹¶æŃ¢äºİ":10749,"æĿ¿çļĦ":10750,"è§£çŃĶ":10751,"å¤§åĨĽ":10752,"éħĴç²¾":10753,"ä¸ĢèĪ¬çļĦ":10754,"eam":10755,"å¤ĸæ±ĩ":10756,"ĠåįĹ":10757,"èĸĦèĨľ":10758,"æĤ¬æĮĤ":10759,"å¹´ä¸İ":10760,"è¦ģçĤ¹":10761,"ç¾İåĳ³":10762,"è¥¿åįĹéĥ¨":10763,"çĲĨæĢ§":10764,"äºĶçĻ¾":10765,"åĳ½ä¸Ń":10766,"ç»ıéĶĢåķĨ":10767,"åŃĲåŃĻ":10768,"åı²å¯Ĩ":10769,"ç¾İå¥½çļĦ":10770,"ä¸ŃåĽ½åħ±äº§åħļ":10771,"åıĳå¸ĥäºĨ":10772,"ris":10773,"Ġ2009":10774,"èĩªè§ī":10775,"å¤±åİ»äºĨ":10776,"éĺŁåľ¨":10777,"å¯ºéĻ¢":10778,"ä¸ªæĢ§åĮĸ":10779,"çĥĺå¹²":10780,"çĥ¹é¥ª":10781,"äºĭå®ľ":10782,"ç½®äºİ":10783,"åĴĮä¸Ń":10784,"æıĲè¦ģ":10785,"å¤ªå®Ĺ":10786,"æīĢä½ľ":10787,"æĮīéĴ®":10788,"çŃīçĽ¸åħ³":10789,"æ±¡æ³¥":10790,"æľ¬ç½ĳç«Ļ":10791,"æĦıåĽ¾":10792,"åŁŁåĲį":10793,"ä½İç¢³":10794,"ivers":10795,"åĬłåĪ©ç¦ı":10796,"åŃ£åĲİèµĽ":10797,"iel":10798,"è®©ä»ĸä»¬":10799,"åįĩé«ĺ":10800,"å³¨":10801,"æ¸ħæĸ°":10802,"åĽ°æī°":10803,"af":10804,"ä¹łä¿Ĺ":10805,"é¦ĸåıĳ":10806,"çļĦåħ¬åı¸":10807,"èĭĶ":10808,"ç½ļæ¬¾":10809,"èĿ´èĿ¶":10810,"åĨ¤":10811,"èĢĥè¯ģ":10812,"åĳµ":10813,"ä¾Ħ":10814,"çŁ¿ä¸ļ":10815,"å±ĢçļĦ":10816,"å®°çĽ¸":10817,"Ġå¤©":10818,"ä¸ºä¹ĭ":10819,"ä¹ĭå®¶":10820,"èµ«å°Ķ":10821,"ï¼Ļ":10822,"å°ĨæĪĲä¸º":10823,"æ±ŁæĪ·":10824,"èĭ±å¯¸":10825,"æħĮ":10826,"çŁ¿å±±":10827,"åĲ¬è¯´":10828,"æ¸¯åħĥ":10829,"çŁ¥åĲįåº¦":10830,"FC":10831,"çļĦçĪ±":10832,"ä¸Ĭåıĳè¡¨":10833,"çĽ´åįĩæľº":10834,"æĪĳå°±":10835,"ork":10836,"çļĦç¬¬äºĮ":10837,"ä½Ĩæĺ¯åľ¨":10838,"ä¹Įæĸ¯":10839,"éģįå¸ĥ":10840,"1928":10841,"è·ŁçĿĢ":10842,"åĮºåĴĮ":10843,"ç»Ļå¤§å®¶":10844,"åħ³ç³»çļĦ":10845,"çĲ¦":10846,"ãĥķ":10847,"èº«ä»½è¯ģ":10848,"çļĦæķĻèĤ²":10849,"æĢ§å¥½":10850,"ç»ĦæĪĲåĳĺ":10851,"æ²ģ":10852,"èįĶ":10853,"å¸ĥéĽ·":10854,"çļĦä¸Ģé¡¹":10855,"å¿ĥæĢģ":10856,"æŁł":10857,"çĭ©":10858,"è¯ķç®¡":10859,"èĢ¿":10860,"æĺ¯æĪĳåĽ½":10861,"çĲħ":10862,"ç¥ģ":10863,"èĥ¡èĲĿåįľ":10864,"çĽ´çº¿":10865,"ä¸Ĭå¹´":10866,"DC":10867,"çī¹å°Ķ":10868,"ä¼ģåĽ¾":10869,"æ²¿å²¸":10870,"è¡«":10871,"å¤įæ´»":10872,"ç¬¬ä¸Ģå±Ĭ":10873,"çļĦéĤ£":10874,"æĳĩæ»ļ":10875,"SEE":10876,"çļĦå¸Ĥéķĩ":10877,"å¹³ç±³":10878,"æ³¢å£«é¡¿":10879,"DS":10880,"ä»£è¡¨ä½ľ":10881,"æĿŀ":10882,"åĢ¾æĸľ":10883,"çļĦåıĳçĶŁ":10884,"éĴŀ":10885,"å®¤å¤ĸ":10886,"èĲ½åľ¨":10887,"å¹´æĪĲç«ĭ":10888,"å¾·æĸ¯":10889,"æľīåħ³è§Ħå®ļ":10890,"å²ļ":10891,"å·´æĸ¯":10892,"èĻĲ":10893,"çº¢æĹĹ":10894,"çļĦé£Łçī©":10895,"ç¨ł":10896,"çľŁæĺ¯":10897,"æļ®":10898,"åıĮåĲĳ":10899,"åı¯æł¹æį®":10900,"èĢħåĴĮ":10901,"èĳ£äºĭä¼ļ":10902,"æ²¹çĶ»":10903,"åħĭæŀĹ":10904,"ç¦ıéŁ³":10905,"ram":10906,"1929":10907,"åį³ä¸º":10908,"å½ĵåĪĿ":10909,"çī¹å®ļçļĦ":10910,"ç«ĻçĤ¹":10911,"ä¸įä¸Ĭ":10912,"åĩºèī²çļĦ":10913,"è¥¿éĩĮ":10914,"è¶¾":10915,"è¯¥åī§":10916,"å¥ĩè¿¹":10917,"UN":10918,"co":10919,"ä¹Łç§°":10920,"å¸ĤåľºéľĢæ±Ĥ":10921,"åŃĺæ¬¾":10922,"æ·¹":10923,"åıĹçĽĬ":10924,"Ġ11":10925,"ä¸īå±Ĥ":10926,"åı£å¾Ħ":10927,"BO":10928,"æĽ´å®¹æĺĵ":10929,"åħ¨åĽ½åĲĦåľ°":10930,"åħ¬ä¼ļ":10931,"æľ¬çĿĢ":10932,"èµ·åĪĿ":10933,"æĵĴ":10934,"æĸ¹ç¨ĭ":10935,"æķĪåĬĽäºİ":10936,"å°¸ä½ĵ":10937,"è¿ŀç»Ńåī§":10938,"åŃľ":10939,"èī²ç´ł":10940,"åĽŀé¡¾":10941,"é¢Ħçº¦":10942,"åºĹéĵº":10943,"èģļåĲĪ":10944,"å¹´åıĤåĬł":10945,"ä¹ĭå¿ĥ":10946,"å¤ļè¾¾":10947,"ä¼Łå¤§":10948,"åī¯å±Ģéķ¿":10949,"è¡Įäºº":10950,"åķ¸":10951,"ç«ĻçļĦ":10952,"æĴķ":10953,"éĤ£æĹ¶":10954,"ml":10955,"ä¼ĹçĶŁ":10956,"äºĮæĪĺ":10957,"æİĴåĩº":10958,"çŃ¾è¯ģ":10959,"åľĨæ»¡":10960,"åĴĮæ°´":10961,"å®µ":10962,"å¥¹æĺ¯":10963,"çļĦå£°éŁ³":10964,"è¡Įç¨ĭ":10965,"é©¹":10966,"ãİ¡":10967,"åħĭåĬĽ":10968,"ä¸»è¦ģä»İäºĭ":10969,"ä¸ĢèĪ¬æĿ¥è¯´":10970,"äºİä¸Ģä½ĵçļĦ":10971,"Ġh":10972,"åıĬä»¥ä¸Ĭ":10973,"ä¹Ĳè§Ĥ":10974,"éħĭ":10975,"èĩ³æŃ¤":10976,"æī¶æĮģ":10977,"æ³ķåħ°åħĭ":10978,"Ñĥ":10979,"åħ¶åľ¨":10980,"æĸ½è¡Į":10981,"ä¸įä¸Ģ":10982,"ç¬¬åĽĽèĬĤ":10983,"ä¸ĵèĳĹ":10984,"å®īåħ¨çļĦ":10985,"ç¾ŀ":10986,"å·¥ç¨ĭåŃ¦éĻ¢":10987,"æľīæĹ¶åĢĻ":10988,"ä¹ĭäºĭ":10989,"éŁ³ä¹ĲåŃ¦éĻ¢":10990,"åģĩæĹ¥":10991,"çĽ¸è¾ĥ":10992,"æ´ªæ°´":10993,"å½Ŀ":10994,"å¿«éĢŁå¢ŀéķ¿":10995,"èĢģåĮĸ":10996,"ence":10997,"åı¯æĮģç»Ńåıĳå±ķ":10998,"å¤įåį°":10999,"åĳ¨åĪĬ":11000,"ä¸ĩéĩĮ":11001,"rom":11002,"çĤİçĹĩ":11003,"æľĪçĲĥ":11004,"ical":11005,"èĦĵ":11006,"è®¾è®¡åĴĮ":11007,"ç½Ĺé©¬å°¼äºļ":11008,"ãĢľ":11009,"åľ°äºļ":11010,"åģļä¸º":11011,"åĽłæŃ¤åľ¨":11012,"INSEE":11013,"çģŃç»Ŀ":11014,"éªĨ":11015,"æŃ¼":11016,"åīįéĿ¢":11017,"æł¼éĽ·":11018,"æĻ¯èī²":11019,"ĠCl":11020,"äººå¯¹":11021,"1082":11022,"ç¬¬ä¸īç«ł":11023,"1927":11024,"æıī":11025,"å²ĽçļĦ":11026,"æī¾åĪ°äºĨ":11027,"æŃ£å½ĵ":11028,"æ¹ĸæ³Ĭ":11029,"åľ¨è¥¿":11030,"éĢ®æįķ":11031,"çİ¯å¢ĥä¸Ń":11032,"å¡ŀçº³":11033,"å¸ĪåĤħ":11034,"åı¤è¿¹":11035,"å¼ĢèĬ±":11036,"è½¦åİ¢":11037,"å¥³çĶŁ":11038,"çļĦåĲĦç§į":11039,"çļĦå®¶":11040,"æ¢ħèĬ±":11041,"ä¸įå½ĵ":11042,"å°Ķé¡¿":11043,"ç¿¡ç¿ł":11044,"ĠæĹ¥":11045,"æĽ¾è¢«":11046,"è¿ĽäºĨ":11047,"Ġä¸Ĭ":11048,"æµģä½ĵ":11049,"IG":11050,"åį¡ç½Ĺ":11051,"åħ»æĬ¤":11052,"éĿ¢éĥ¨":11053,"å±±åľ°":11054,"èĳ«":11055,"çĶĦ":11056,"çŁ³åĻ¨":11057,"mg":11058,"ica":11059,"çº¿è·¯åı£":11060,"ä¹ĭåĲį":11061,"è¿Ĳä¼ļ":11062,"æĪĳä»¬è¦ģ":11063,"ç³Ļ":11064,"çļĦæķĻåŃ¦":11065,"aur":11066,"èĽĭç³ķ":11067,"æĹ§åĿĢ":11068,"çŃ¹å¤ĩ":11069,"èºģ":11070,"çĭ¸":11071,"ä¸ĬåįĬå¹´":11072,"è·¯éĿ¢":11073,"æĤ£æľī":11074,"åįĩéĻį":11075,"éħĴåĲ§":11076,"ä¸ªäººçļĦ":11077,"å§¿æĢģ":11078,"Ġä¸ľ":11079,"äººæ¬¡":11080,"æľºä½ĵ":11081,"å½ĵä¸ĭ":11082,"ãĥĨ":11083,"æĽ¾æĺ¯":11084,"èĤ¡ä»·":11085,"ä¸§å¤±":11086,"éĽ¯":11087,"æ±Łå¸Ĥ":11088,"ä¸įåĲĮäºİ":11089,"ld":11090,"åįķä½įçļĦ":11091,"sk":11092,"æķħä¹¡":11093,"æī¶è´«":11094,"Ġ2008":11095,"è¾ĥå¼ºçļĦ":11096,"çĲĨæŁ¥":11097,"åİŁä½ľ":11098,"æľªæľī":11099,"çłĶè®¨ä¼ļ":11100,"åĬ¨åĳĺ":11101,"åĬ¨è½¦":11102,"è°ķ":11103,"æŁĲä¸Ģ":11104,"éĢīåĩº":11105,"ä¼ģä¸ļåĴĮ":11106,"èĢĮåıĪ":11107,"çĮ¿":11108,"åħ¼èģĮ":11109,"åİŁåŀĭ":11110,"ä¸ĸçºªåĪĿ":11111,"éĺĲè¿°":11112,"æ°Ķç®¡":11113,"ç¬¬ä¸ĢåĲį":11114,"æ¸ħåįķ":11115,"èĮĥçķ´":11116,"è§ģéĿ¢":11117,"æī§æķĻ":11118,"åĲİæĿ¥çļĦ":11119,"æ¸¸æĪıåĲįç§°":11120,"ä½Ļç¯ĩ":11121,"åį¯":11122,"ron":11123,"äºĨå¯¹":11124,"åŃĲåĴĮ":11125,"è½¬åĮĸä¸º":11126,"ç¥ŀåľ£":11127,"ĠSp":11128,"å½ĵä½ł":11129,"æ»¡æ´²":11130,"118":11131,"ä¼ģä¸ļç®¡çĲĨ":11132,"åĥļ":11133,"ä¸Ģä»¶":11134,"è½¬ä¸º":11135,"æ¸¸æĪıç±»åŀĭ":11136,"æľīçº¿":11137,"åıĤå±ķ":11138,"æĦıè¯ĨåĪ°":11139,"SO":11140,"æı½":11141,"è¿ŀç»ĵ":11142,"å¤§ä¸Ń":11143,"å®Įç¾İçļĦ":11144,"æĺŁåº§":11145,"æ·ĺå®Ŀ":11146,"è¯Ģ":11147,"å¾ĢæĿ¥":11148,"çĻ¸":11149,"åĪĻåľ¨":11150,"å¯¹ä»ĸ":11151,"æľīæľºä¼ļ":11152,"åı¸èģĮ":11153,"åĲīä»ĸ":11154,"ä¸ºä½ł":11155,"é©¼":11156,"çİĩåĨĽ":11157,"åºĦæĿĳ":11158,"çºªå¾ĭ":11159,"åı³ä¾§":11160,"æ°¸ä¹Ĳ":11161,"åİ¿éģĵ":11162,"çłĶç©¶äººåĳĺ":11163,"åĲįçīĩ":11164,"æµ·æ°´":11165,"æĪĲéĥ½å¸Ĥ":11166,"éĢīåĮº":11167,"æľĪèµ·":11168,"è´¨çļĦ":11169,"æ¸©åĴĮ":11170,"ç¾İäºº":11171,"APP":11172,"è¿ľè¿ľ":11173,"å¥ĸåŃ¦éĩĳ":11174,"åĨłçĬ¶çĹħæ¯Ĵ":11175,"ium":11176,"éħįæľī":11177,"ä»ĸè®¤ä¸º":11178,"åıĳè¡ĮçļĦ":11179,"ä¸»æ²»":11180,"æ°ĳçĶ¨":11181,"çļĦç©ºéĹ´":11182,"å·²çŁ¥":11183,"ä¿ŀ":11184,"å¼ķçĶ¨":11185,"è·ĳéģĵ":11186,"éħª":11187,"ç±»ä¼¼äºİ":11188,"ä¸Ģæ¬¾":11189,"èĢĥåħ¥":11190,"å¡ŀå°Ķç»´äºļ":11191,"æĸ°ç«¹":11192,"äºĨä¸ŃåĽ½":11193,"åŀ¢":11194,"åįķæīĵ":11195,"å¥³æ¼Ķåĳĺ":11196,"äº§ä¸ļåĮĸ":11197,"ç»´å¤ļåĪ©äºļ":11198,"ç»ħ":11199,"åħ³åį¡":11200,"ä¿¡å¿µ":11201,"æľĢå°ı":11202,"æķĻç§ĳ":11203,"é¢ĦèŃ¦":11204,"ä¸Ģé¢Ĺ":11205,"ä½ľé£İ":11206,"å·¨äºº":11207,"åį¢çĵ¦å°Ķ":11208,"åĴĮåĽ½å®¶":11209,"ç²¾åĬĽ":11210,"ç¡«éħ¸":11211,"åħļå»º":11212,"æĹĹä¸ĭçļĦ":11213,"äºĨè§£åĪ°":11214,"èģĺè¯·":11215,"ĠæĹ¥æľ¬":11216,"äººå®¶":11217,"ç¾İåŃ¦":11218,"åħ¬å¼ı":11219,"å·¥ç¨ĭå»ºè®¾":11220,"çĮªèĤī":11221,"çļĦæĢģåº¦":11222,"ä¸ĢéĿ¢":11223,"å¹´åĩºçĶŁ":11224,"äºİP":11225,"1900":11226,"åĲĮæ²»":11227,"çģ«éĶħ":11228,"æĻļä¼ļ":11229,"éĴ¢çŃĭ":11230,"ä¸įæĸŃåľ°":11231,"åĮºåĿĹ":11232,"èº¯":11233,"è¯ŃçļĦ":11234,"æİ¨çĲĨ":11235,"å¯ĮåĲ«":11236,"æ¯¯":11237,"å®«å»·":11238,"æ°¯åĮĸ":11239,"åı²æĸĻ":11240,"å¸ĥéĩĮ":11241,"æŃ¥æŀª":11242,"éĽķåĥı":11243,"è¿Ŀè§Ħ":11244,"æ¸Ķä¸ļ":11245,"åŃ¢åŃĲ":11246,"æī³":11247,"ä¸ºä¸Ģä½ĵ":11248,"çĤ¸å¼¹":11249,"åĹľ":11250,"ä½ľæĽ²å®¶":11251,"æĹ¥å¼Ģå§ĭ":11252,"108":11253,"å¦Ĥæŀľæĺ¯":11254,"èĳ«èĬ¦":11255,"çļĦé¡¹çĽ®":11256,"æª¬":11257,"çļĦå¤´":11258,"ä¸Ģåįĥ":11259,"å¤©åºľ":11260,"å¡ĳèĥ¶":11261,"åĮ»ç§ĳå¤§åŃ¦":11262,"ä¸īæĺŁ":11263,"æīĭåĬ¨":11264,"å¼łä¸ĵè¾ĳ":11265,"å§Ĭå¦¹":11266,"åĸĻ":11267,"éĴ¢ç»ĵæŀĦ":11268,"çıĬçĳļ":11269,"åįİå¤ı":11270,"Ġ+":11271,"èī²æ³½":11272,"é¢Ĩäºĭ":11273,"çīĪçļĦ":11274,"èĪ¹åıª":11275,"ãĢĤï¼ī":11276,"ä¸ĢæīĢ":11277,"ata":11278,"çī©çĲĨåŃ¦":11279,"è·¯æĺĵæĸ¯":11280,"ä¼ļå¯¹":11281,"äºĮå±Ĥ":11282,"åºĩ":11283,"å¼Ģè¾Ł":11284,"èģĶèµĽåĨłåĨĽ":11285,"è¿ĩåĲİ":11286,"çļ®èĤ¤çĹħ":11287,"åĲĮç±»":11288,"èĭ±éĩĮ":11289,"åľ¨å®¶":11290,"æĺİäº®":11291,"æ´ģåĩĢ":11292,"åł°":11293,"çľŁèıĮ":11294,"åħ«åįģ":11295,"åįİä¾¨":11296,"åĭĩæķ¢":11297,"åįģåħŃå¹´":11298,"äººç±»çļĦ":11299,"å¯ºåºĻ":11300,"EP":11301,"è¥¿éĹ¨":11302,"å®ŀè®Ń":11303,"é¦ĸçĽ¸":11304,"è¯įæ±ĩ":11305,"çľ¼åīį":11306,"æĳĨèĦ±":11307,"çļĤ":11308,"åŃĲéĩĮ":11309,"èĩ³ä¸Ĭ":11310,"ãĥī":11311,"æłĪ":11312,"AK":11313,"åıįåĩ»":11314,"åĨľèį¯":11315,"é¡¶éĥ¨":11316,"å¹´ä»¥":11317,"æ·Ħ":11318,"åıĳå±ķåĴĮ":11319,"åĬ¾":11320,"æ³ķåĪ¶":11321,"å¸¦å¤´":11322,"éĴ¢æĿ¿":11323,"è¯łéĩĬ":11324,"æĹ¶æĬ¥":11325,"ä¸ĩä½Ļ":11326,"è¿½è¸ª":11327,"æīĢéľĢçļĦ":11328,"min":11329,"åħ¬åı¸ç®Ģä»ĭ":11330,"çĬĢ":11331,"çĦ¦èĻĳ":11332,"èĤ´":11333,"èĤĭ":11334,"æ¨¡ç³Ĭ":11335,"æŁĶè½¯":11336,"ä¹ĵ":11337,"æķ°æį®æĺ¾ç¤º":11338,"æĽ´æĶ¹":11339,"åıĤçħ§":11340,"åľ¨åħ¨çĲĥ":11341,"å·¥åºı":11342,"éĺİ":11343,"æ¿Ģæ´»":11344,"è¿ĺéľĢè¦ģ":11345,"çģ«çĦ°":11346,"ä¼ļç¤¾":11347,"è°ħ":11348,"äº¦åı¯":11349,"å´Ľèµ·":11350,"ames":11351,"æ¢§":11352,"ä½Ĩä¹Ł":11353,"éĽħåħ¸":11354,"åı¸ä»¤éĥ¨":11355,"Î¼":11356,"éĢīç§Ģ":11357,"ç®¡çĲĨäººåĳĺ":11358,"äºĮçĻ¾":11359,"çļĦåīįæıĲ":11360,"äºĶä»£":11361,"åĲ¯åıĳ":11362,"æľĽè¿ľéķľ":11363,"çĶµåĬ¨æľº":11364,"ä¸Ĭæ¼Ķ":11365,"æĪ·éĥ¨":11366,"ç§ĳåŃ¦ä¸İ":11367,"ç£·éħ¸":11368,"ä¸ºä»ĸ":11369,"ä¸įçŃī":11370,"çīĪæ¬¡":11371,"åħ¬éĩĮçļĦ":11372,"é¸½":11373,"çŁ¿äº§":11374,"é¢Ĩå¯¼çļĦ":11375,"æľĢæĸ°çļĦ":11376,"æķ°åįĥ":11377,"çĥĽ":11378,"å¾Īé«ĺçļĦ":11379,"å°ĳçļĦ":11380,"èĦīåĨ²":11381,"åįĩæł¼":11382,"å¤ĩåıĹ":11383,"ä»¥å¤ĸçļĦ":11384,"é«ĺå°Ķå¤«":11385,"åĮĹè·¯":11386,"åħĪè¡Į":11387,"ç²īæľ«":11388,"çĶ¨å¿ĥ":11389,"2046":11390,"è§Ħç«ł":11391,"ä½łä¼ļ":11392,"Bl":11393,"Ð¹":11394,"çĶŁåĳ½çļĦ":11395,"çī¹åĮº":11396,"ä¸¾æİª":11397,"ä¸įæĦ¿":11398,"orn":11399,"æĹłåħ³":11400,"æĢ»è®¡":11401,"åŃĺåľ¨äºİ":11402,"Î²":11403,"æŃ£å¦Ĥ":11404,"é²¨":11405,"åĽ½è¯Ń":11406,"éĹµ":11407,"æīĢèĩ´":11408,"å·Ŀåİ¿":11409,"è½¬åĬ¨":11410,"æĬķæĶ¾":11411,"æķ°éĩıä¸ºP":11412,"DA":11413,"åĴĮä»ĸçļĦ":11414,"è¿ªå£«":11415,"æĩĴ":11416,"è¢«äºº":11417,"éĩįä¿®":11418,"æľ«ç«¯":11419,"å¤ıä»¤æĹ¶":11420,"æĹ¥æľ¬çļĦ":11421,"äººæĺ¯":11422,"åİŁåĽłæĺ¯":11423,"ä¸Ĭåľº":11424,"çŃīè¡Įä¸ļ":11425,"æĭľä»ģ":11426,"çľĭåĪ°äºĨ":11427,"èĭ±å°º":11428,"èĿĻ":11429,"åĨħéĻĨ":11430,"ä¹Įæĭī":11431,"æĸ¯åį¡":11432,"æ¯ıä¸Ģä½į":11433,"æīĢä»¥åľ¨":11434,"æ°Ķæģ¯":11435,"é¦ĸé¢Ĩ":11436,"å¹¶éĢļè¿ĩ":11437,"æĹ¥äºİ":11438,"æİ¥å£¤çļĦå¸Ĥéķĩ":11439,"å®«æ®¿":11440,"çķ¸":11441,"ä¾Ľå¥ī":11442,"1909":11443,"ä½ĨåĽł":11444,"åıĽä¹±":11445,"æĪĺæĸĹæľº":11446,"åĪ¶è®¢":11447,"ä¿¡æīĺ":11448,"éĹ¨åºĹ":11449,"125":11450,"èĿĻèĿł":11451,"èĤĽ":11452,"åĺ±":11453,"çļĦæ¯įäº²":11454,"æķ°åĢ¼":11455,"æ²³åı£":11456,"æľĪåĩºçĶŁ":11457,"æīĵåħ¥":11458,"å®¡ç¾İ":11459,"éª¨éª¼":11460,"çĶŁæŃ»":11461,"å¤ĸåĽ´":11462,"ä¾¦æİ¢":11463,"å°¼åı¤":11464,"Ġ2006":11465,"åľ¨åľ°":11466,"å°±ä¸į":11467,"éħī":11468,"éĢīé¡¹":11469,"å¹¸è¿Ĳ":11470,"........":11471,"å¹´åĬłåħ¥":11472,"èĩªæŃ¤":11473,"æĥħæĻ¯":11474,"åıĮæīĵ":11475,"æµ¸æ³¡":11476,"ä¹Ĵä¹ĵ":11477,"ä¸Ģåı°":11478,"é£İæł¼çļĦ":11479,"æŃī":11480,"æµ·åºķ":11481,"çĶ²åŁº":11482,"è¿ªå£«å°¼":11483,"æ²Ĳ":11484,"å·´å¡ŀ":11485,"Ġ2019":11486,"çģ¸":11487,"âĢĭâĢĭ":11488,"å¼Ģå°ģ":11489,"ç§°èµŀ":11490,"è®¨ä¼Ĳ":11491,"åĵºä¹³":11492,"104":11493,"æĬ¤å£«":11494,"åĨ·åĨ»":11495,"éĽįæŃ£":11496,"æīĢè¿°":11497,"æħķå°¼":11498,"åĲįå½ķ":11499,"ç³»åĪĹçļĦ":11500,"çīĩçļĦ":11501,"ä½ıæ°ĳ":11502,"å¢ŀå¤ļ":11503,"æĽ¾äºİ":11504,"ç¬¬äºĮå¤©":11505,"æĪĺè½¦":11506,"åıĺéĢŁ":11507,"çł´äº§":11508,"æŁ¿":11509,"åŃķå¦ĩ":11510,"æĢ»éĩı":11511,"åı°åĮĹå¸Ĥ":11512,"é¥±åĴĮ":11513,"ä¸ľäº¬éĥ½":11514,"çļĦåŃĺåľ¨":11515,"ï¼īï¼į":11516,"åıĮæīĭ":11517,"åıĳåħī":11518,"å¼Ģéĩĩ":11519,"æ´Ľæĸ¯":11520,"è½®èĥİ":11521,"æģ¶éŃĶ":11522,"å¾®ç¬ĳ":11523,"åĽ½åħ¬":11524,"è¡¨çİ°ä¸º":11525,"æ·«":11526,"äºĨèĩªå·±çļĦ":11527,"åĵ¨":11528,"åĪĽå»ºäºİ":11529,"ä¸Ńè¶ħ":11530,"ä¹ĭä½ľ":11531,"çİĭçļĦ":11532,"å¹´ä»£åĪĿ":11533,"ä¼ģä¸ļæĸĩåĮĸ":11534,"Ġ2007":11535,"John":11536,"SM":11537,"æľīçĽĬ":11538,"åıĺé¢ĳ":11539,"çªģåĩ»":11540,"æĮ£":11541,"äº®çĤ¹":11542,"ç¾İå¥³":11543,"åĬŁèĥ½çļĦ":11544,"åħ¨åĮº":11545,"yl":11546,"æĺ¯åı°æ¹¾":11547,"çĶŁæķĪ":11548,"ä¹ĭæĹ¥èµ·":11549,"ç±½":11550,"å·²å®ĮæĪĲ":11551,"çļĦåŃ¦ä¹ł":11552,"ä¿¡æģ¯åħ¬å¼Ģ":11553,"åĮĸåĴĮ":11554,"ç®Ģæ´ģ":11555,"éĩľ":11556,"åı¯éĿłæĢ§":11557,"è°ĥæİ§":11558,"æľīä¸ī":11559,"æ·ĭå·´":11560,"å¹ķåºľ":11561,"åĮºä¸ºUTC":11562,"å°Ħçº¿":11563,"å¤ĸåĩº":11564,"å®ŀéĻħæĥħåĨµ":11565,"ç£¨æįŁ":11566,"åįĹèĩ³":11567,"ãĥ£":11568,"ãģ¤":11569,"è¯¯å·®":11570,"ç»°":11571,"çĻ¾åĪĨçĤ¹":11572,"ä¸Ńè·¯":11573,"ä¸ĵåĮº":11574,"çªģåıĳ":11575,"æ°¸æģĴ":11576,"çŁ³çģ°":11577,"ons":11578,"èı²åĪ©":11579,"æĹ¶å¸¸":11580,"æ°´æºĲ":11581,"æĥħçļĦ":11582,"å·ħ":11583,"åĩºå±Ģ":11584,"åħ¨èĩªåĬ¨":11585,"è¾ŀåħ¸":11586,"æ¸´æľĽ":11587,"çĽ¸å¯¹äºİ":11588,"åĬ¨å·¥":11589,"ä¹Łä¸º":11590,"æŃ£å¾·":11591,"è°ĥåº¦":11592,"æŀģåħ·":11593,"INSEEå¸Ĥéķĩ":11594,"åģĩå¦Ĥ":11595,"ç¬¬åįģåĽĽ":11596,"åįģäºĶå¹´":11597,"å·¦ä¾§":11598,"BM":11599,"ä»¥ä¸ĭçļĦ":11600,"å¹´ä»ĸ":11601,"æĹ¶çļĦäººåı£":11602,"æķ´æĶ¹":11603,"å°Ĩä»¥":11604,"å¾®æ³¢":11605,"å¾Ĳå·ŀ":11606,"åĴ±ä»¬":11607,"è®²ç©¶":11608,"å¤§èĩªçĦ¶":11609,"åįģåĽĽå¹´":11610,"èĥİåĦ¿":11611,"ä¸Ģé¦ĸ":11612,"èĢĮæľī":11613,"ech":11614,"äºļå¤ª":11615,"çĻ¾åĲĪ":11616,"åľ¨æĪĳ":11617,"æľīæ²¡æľī":11618,"âĳ£":11619,"1901":11620,"å¾·åĨĽ":11621,"ç¬¬ä¸īæ¬¡":11622,"éĶ£":11623,"å°±å·²ç»ı":11624,"çļĦä¼ĺåĬ¿":11625,"åĭĴæĸ¯":11626,"Ġä¸İ":11627,"ç«ĭåľº":11628,"åĮ¿":11629,"çº¿ç´¢":11630,"è¯¥åĽ½":11631,"åĪĿå¹´":11632,"åĲģ":11633,"åľ¨èĭ±åĽ½":11634,"ä¸ĭæ»ĳ":11635,"æķĻèĤ²å±Ģ":11636,"å¼Ĺæĭī":11637,"åĨ°ç®±":11638,"éĹ´éļĶ":11639,"ç®¡çĲĨéĥ¨éĹ¨":11640,"è§ħ":11641,"éĢīæĭ©äºĨ":11642,"8000":11643,"çĻ½å¤©":11644,"çĶ°æĿĳ":11645,"æ¤°":11646,"æŁłæª¬":11647,"æ¼Ķåıĺ":11648,"æ±¾":11649,"åħīæ³½":11650,"å¯Ŀ":11651,"è´¿":11652,"éĹ¨è¯Ĭ":11653,"åį°åıĳ":11654,"æĸ¯æ´Ľ":11655,"æĸŃè£Ĥ":11656,"éŃĦ":11657,"æľīè¿ĩ":11658,"ä½Ľå±±":11659,"åŃ¦æľŁ":11660,"ä¸»è¦ģçĶ±":11661,"å¹¶ä¸Ķåľ¨":11662,"æħķå°¼é»ĳ":11663,"éľĦ":11664,"æ¥¼æ¢¯":11665,"è°ĥè¯ķ":11666,"INSEEå¸Ĥéķĩç¼ĸçłģä¸ºP":11667,":ï¼Į":11668,"åĽ´æ£ĭ":11669,"åĸĦèī¯":11670,"æĹģè¾¹":11671,"å¤§å®¶éĥ½":11672,"åľ¨åįĹ":11673,"å¤±ä¸ļ":11674,"å£®å¤§":11675,"ef":11676,"çļĦé£İéĻ©":11677,"å¤©çİĭ":11678,"åıĺåİĭåĻ¨":11679,"å®Ŀè´Ŀ":11680,"éĤ®æĶ¿ç¼ĸçłģä¸ºP":11681,"åĲĳè¥¿":11682,"å±±æĿĳ":11683,"éħļ":11684,"æį®äºĨè§£":11685,"çļĦäººæīį":11686,"é¡ºæ²»":11687,"åĢŁéī´":11688,"çļĦåĵģçīĮ":11689,"çļĦéĢŁåº¦":11690,"æŃ¤åī§":11691,"ä¾µæĿĥ":11692,"å¨Ħ":11693,"Qu":11694,"æĸ°é¢ĸ":11695,"çĻ½ç³ĸ":11696,"è£ħæľº":11697,"ä¸½èİİ":11698,"çļĦéĩį":11699,"éĴĽ":11700,"æµģçķħ":11701,"äººçī©ç®Ģä»ĭ":11702,"æ±¡æŁĵçī©":11703,"æ°´åŁŁ":11704,"äºĮåįģå¹´":11705,"çĥŁåı°":11706,"å¦¾":11707,"ç»ıæµİæķĪçĽĬ":11708,"åģ¶å°Ķ":11709,"Com":11710,"åı·ä¸º":11711,"çĶµè§ĨèĬĤçĽ®":11712,"ç¦ģåĮº":11713,"è¶£åĳ³":11714,"ä¿Ń":11715,"ä¸Ģæ¬¡æĢ§":11716,"å¯ĵæĦı":11717,"å±ķçİ°åĩº":11718,"å¤ļåħĥåĮĸ":11719,"ç§ĳå¹»":11720,"å¤ºåĨł":11721,"ä¸īç»´":11722,"ä½Ĩåħ¶":11723,"äºĮæ°§åĮĸç¢³":11724,"çļĦè½¦":11725,"çĨŁç»ĥ":11726,"åıĪåľ¨":11727,"ĠæŀĹ":11728,"ï¿¥":11729,"æĺ¯è¦ģ":11730,"ä¸Ńå°ıåŃ¦":11731,"éļĲç§ģ":11732,"Ġ2022":11733,"å¾®è½¯":11734,"æĹ¶çļĦäººåı£æķ°éĩıä¸ºP":11735,"å»ºè®¾å·¥ç¨ĭ":11736,"æ³īå·ŀ":11737,"ä¸»è¦ģåĮħæĭ¬":11738,"ç»ĨèĥŀçļĦ":11739,"å¹´åĩºçīĪ":11740,"åĴ¸ä¸°":11741,"1918":11742,"ÃŃ":11743,"éķ°":11744,"åĢª":11745,"åıĻåĪ©äºļ":11746,"çĶµè§£":11747,"äºĮæīĭ":11748,"ä¸ĩçī©":11749,"æĶ¹éĿ©å¼ĢæĶ¾":11750,"åĮĹèµ·":11751,"å·´èĲ¨":11752,"éĿ¢ç§¯P":11753,"çģ¾éļ¾":11754,"ä¸įä½³":11755,"æī§ä¸ļ":11756,"æ®ĸæ°ĳåľ°":11757,"æ°´åĩĨ":11758,"ç¬¬ä¸Ģæī¹":11759,"ans":11760,"çĶŁäº§åŁºåľ°":11761,"åĲ¸å¼ķäºĨ":11762,"é¢ģå¸ĥ":11763,"æĹ¶æľº":11764,"åĻ¨åĴĮ":11765,"ä¸įå®ī":11766,"éŁ³ä¹Ĳä¼ļ":11767,"è§£åĨ³éĹ®é¢ĺ":11768,"çļĦéĩįè¦ģæĢ§":11769,"å¿½çķ¥":11770,"ä¸īåįĥ":11771,"çĽĳçĲĨ":11772,"çī¹åĪ«æĺ¯åľ¨":11773,"äººæīĢ":11774,"æĪĸæĹ§å¸Ĥéķĩ":11775,"æ³īæ°´":11776,"åıĤè°ĭéķ¿":11777,"æķĳåĬ©":11778,"åŃ¦æĬ¥":11779,"åħµåĽ¢":11780,"QQ":11781,"çį":11782,"ç®¡æİ§":11783,"èĥĮéĿ¢":11784,"ç§ģç«ĭ":11785,"å°ıåĦ¿":11786,"éĤ£å°±æĺ¯":11787,"èĤłéģĵ":11788,"ä¹ĭç¾İ":11789,"æĹıçļĦ":11790,"é©¬è¾¾":11791,"å§Ķä¹¦è®°":11792,"ä»ĺæ¬¾":11793,"iam":11794,"åĩĢåĪ©æ¶¦":11795,"æ³£":11796,"ä½¿ä¹ĭ":11797,"èµĦæºĲçļĦ":11798,"æĪĺäºīä¸Ń":11799,"æµĵéĥģ":11800,"ç»ıæµİç¤¾ä¼ļ":11801,"çļĦäººä»¬":11802,"å½¢å¼ıçļĦ":11803,"æ¯Ķçī¹":11804,"åĪĩæį¢":11805,"ç§ĳåŃ¦çłĶç©¶":11806,"éĽĦåİļ":11807,"ä¸įæĸŃæıĲé«ĺ":11808,"æľªçŁ¥":11809,"æŃ¤åľ°":11810,"åĽĽä¸ĸ":11811,"æľ¬åĵģ":11812,"å¨Ł":11813,"å¢ŀéĢŁ":11814,"æĺŁçļĦ":11815,"æĻļå¹´":11816,"é¢Ĩåıĸ":11817,"çĶ°å¾Ħ":11818,"çŃīçī¹çĤ¹":11819,"å°±è¯»äºİ":11820,"æĸĩåĮĸåĴĮ":11821,"åı£ç½©":11822,"èĹī":11823,"æĹ¢çĦ¶":11824,"ä¸ŃæĸŃ":11825,"åħ±å»º":11826,"åħīçĶµ":11827,"å¤§æŃ£":11828,"è¿ĺæľīä¸Ģ":11829,"è°ĥæĸĻ":11830,"æ¥¼çĽĺ":11831,"ä¸ĬçıŃ":11832,"åĪ°ä½į":11833,"æĥ¹":11834,"èİ½":11835,"éĢīåĮºä¸º":11836,"èĪħ":11837,"æĺİå¹´":11838,"æ´»æ³¼":11839,"éĴĿ":11840,"çĥŃçĥĪ":11841,"éĶ¦èµĽ":11842,"æīİå®ŀ":11843,"rit":11844,"æİ¨æµĭ":11845,"ä¸ªçĻ¾åĪĨçĤ¹":11846,"çŃīå¤ļä¸ª":11847,"è¿ĽåĨĽ":11848,"è¢«æĿĢ":11849,"èģĬå¤©":11850,"æĺĬ":11851,"ï¼īãĢĬ":11852,"ãĢĭï¼Ľ":11853,"è°¨æħİ":11854,"ç¼©å°ı":11855,"è´¯å½»èĲ½å®ŀ":11856,"ult":11857,"éŁ³åĵį":11858,"åĽºå®ļèµĦäº§":11859,"æĮļ":11860,"æĶ¯çĲĥéĺŁ":11861,"ä¸İåıĳå±ķ":11862,"éĿ¢æĿ¿":11863,"è½»è½»":11864,"å¼Ģå±ķäºĨ":11865,"æĦŁæģ©":11866,"ä¸ºå¹¿å¤§":11867,"åħ¶åŃĲ":11868,"è¯¥çľģä»½":11869,"å®ĥåı¯ä»¥":11870,"Ġ2005":11871,"èµİ":11872,"åĲĪä¸Ģ":11873,"æ¸¸è§Ī":11874,"æīĢå±ŀçļĦçľģçº§":11875,"æīĢå±ŀçļĦçľģçº§éĢīåĮºä¸º":11876,"å¼ķèµ·äºĨ":11877,"ä½ıäºĨ":11878,"çļĦæľĢä½³":11879,"åľ¨åĽ½éĻħ":11880,"é²ľæĺİ":11881,"éĶħä¸Ń":11882,"æĹ·":11883,"åĮ¾":11884,"å¤§åħ¬":11885,"çĹħéĢĿ":11886,"ä¼ļè¯ķ":11887,"å°ģå»º":11888,"1919":11889,"äººä¸ºæľ¬":11890,"æĸĩçļĦ":11891,"çŃĶåºĶ":11892,"äººäºº":11893,"æĺ¯åı¯ä»¥":11894,"åªļ":11895,"åºĦä¸º":11896,"åľ¨èģĮ":11897,"ä¹¦çļĦ":11898,"æłĳæŀĹ":11899,"çľģçļĦä¸Ģä¸ªå¸Ĥéķĩ":11900,"é¦ĸåº¦":11901,"çº¢å¤ĸ":11902,"è¶³çĲĥèģĶèµĽ":11903,"ä¸įåŃĺåľ¨":11904,"èĲ¨æĭī":11905,"äººåı£æĻ®æŁ¥":11906,"å¹³åĩ¡":11907,"ï¹ĳ":11908,"æ³ķåħ°è¥¿":11909,"å»ºçŃĳå·¥ç¨ĭ":11910,"å®īæīĵ":11911,"äºıæįŁ":11912,"éĹ¨ç¥¨":11913,"çĶ¨æĪ·æıĲä¾Ľ":11914,"å®¢å®¶":11915,"ç´łçļĦ":11916,"ä¸Ģåħ±":11917,"åĲİæŀľ":11918,"å¾Ĺå¤ļ":11919,"è¥¿æ¹ĸ":11920,"å®īå¸Ĥ":11921,"å¤´çĹĽ":11922,"æ³¨æĺİ":11923,"æ¸©æŁĶ":11924,"æī§æĶ¿":11925,"ress":11926,"æĸ¯æīĺ":11927,"æ¯Ķå°Ķ":11928,"ç³»åĪĹäº§åĵģ":11929,"æĮĩæĮ¥å®ĺ":11930,"é©±éĢĲèĪ°":11931,"XX":11932,"å´ĩæĭľ":11933,"åħ¶ä¸Ńæľī":11934,"ä¸ĢçĽ´æĺ¯":11935,"éĢĤå½ĵçļĦ":11936,"æµģåħ¥":11937,"è®¤ä¸ºæĺ¯":11938,"æ¯ĴæĢ§":11939,"èµĽåĲİ":11940,"åľŁæľ¨":11941,"èĭ±æĸĩåĲį":11942,"AV":11943,"1924":11944,"ç»´ä¹Ł":11945,"ett":11946,"åĢ¼å¾Ĺä¸Ģ":11947,"çļĦåĽĽ":11948,"åıĳéŁ³":11949,"æİ¥åħ¥":11950,"åĲĥé¥Ń":11951,"2500":11952,"åĪĨç®¡":11953,"æŃ¥ä¼Ĳ":11954,"èīºæľ¯åĵģ":11955,"170":11956,"PE":11957,"æµ·åı£":11958,"åĻ¬":11959,"è½¬éĢŁ":11960,"æĺ¼":11961,"ç¨ĭåº¦çļĦ":11962,"çĭ¬å®¶":11963,"åįģä¸ĥå¹´":11964,"æ¦Ĥçİĩ":11965,"æįķæįī":11966,"åŃµåĮĸ":11967,"ä¸Ģå¤§":11968,"åĪĻæľī":11969,"æŃ¦æ±īå¸Ĥ":11970,"æĢ»æķ°":11971,"102":11972,"åį³ä¾¿":11973,"å¹´åĨħ":11974,"æľīä¸Ģå¤©":11975,"é©¬å¾·éĩĮ":11976,"å¤§éĢī":11977,"ä¸ĵçº¿":11978,"æľįåĬ¡äºİ":11979,"åī¯éĥ¨éķ¿":11980,"å®ĮæĪĲåĲİ":11981,"å¶":11982,"åĪ«çļĦ":11983,"åģĩæľŁ":11984,"åĲĽåŃĲ":11985,"å¤ĸè¡¨":11986,"åĩłæ¬¡":11987,"Ad":11988,"èģĤ":11989,"é£ŀè¡Įåĳĺ":11990,"å¾·è¯Ń":11991,"æĬķå½±":11992,"è¯ķåīĤ":11993,"æĽ¾ä¸º":11994,"ä½ľåĵģçļĦ":11995,"è¿Ļä»½":11996,"å¥ĩæĢª":11997,"çº³æĸ¯":11998,"ase":11999,"çļĦä¸ĭ":12000,"æľĪç»ı":12001,"äºĭä¸Ń":12002,"10000":12003,"æ¨ªåĲĳ":12004,"çļĵ":12005,"ä¼ļå½±åĵį":12006,"åĲİä¸ĸ":12007,"éķ¿ä¹ħ":12008,"çĶŁåĮĸ":12009,"çļĦå¯¹":12010,"çĿ¹":12011,"å¾®éĩı":12012,"åĺīä¹ī":12013,"ä¹ĭæĺŁ":12014,"SC":12015,"ï¼ļâĢĺ":12016,"è¶ħå£°æ³¢":12017,"åĪĨä¹ĭä¸Ģ":12018,"æĸ°äº§åĵģ":12019,"ä¸Ģç¾¤":12020,"æĸ°è¥¿åħ°":12021,"å¹ħåº¦":12022,"æĢªçī©":12023,"éĢłä»·":12024,"æĽ¿è¡¥":12025,"æľīèī²":12026,"èİº":12027,"æĭĽæĶ¶":12028,"å¤±è¸ª":12029,"å¯ĦçĶŁ":12030,"éĢģç»Ļ":12031,"áĢ":12032,"æıĲåĢ¡":12033,"æł¸ç®Ĺ":12034,"æľīæĿĥ":12035,"åĢ¦":12036,"é¢ĦåĳĬ":12037,"åħ¬çº¦":12038,"æľĪäº®":12039,"åıĺæį¢":12040,"æ¨Ł":12041,"æ¸¯æ¾³":12042,"æĢ»åħ¬åı¸":12043,"æĶ¯çº¿":12044,"æŃĮåī§":12045,"æĬĹæĪĺ":12046,"æİ§åĪ¶åĻ¨":12047,"çļĦåĪĨ":12048,"1922":12049,"åĭĩæ°Ķ":12050,"çĶŁäº§åĴĮ":12051,"éĺµåľ°":12052,"ç»ŀ":12053,"çıŃçº§":12054,"æį·åħĭ":12055,"çļĦæĹ¶åĮºä¸ºUTC":12056,"æĮģä¹ħ":12057,"å±Ģå±Ģéķ¿":12058,"æĵįçºµ":12059,"éģĹæĨ¾":12060,"èĹıä¹¦":12061,"åĬłæĸ¯":12062,"èĦĬæ¤İ":12063,"åħ¨æĹ¥":12064,"æ¸¸ä¹Ĳ":12065,"å¿łè¯ļ":12066,"æĶ¹è£ħ":12067,"éĻªä¼´":12068,"åħ¨éķĩ":12069,"æŃ¤å¤Ħ":12070,"çļĦéĩĳ":12071,"ç¬¬åĽĽç«ł":12072,"Ġ2020":12073,"çİĭä½į":12074,"æĭĵè·ĭ":12075,"çĤ«":12076,"è´¯éĢļ":12077,"å¾Ĺåĩº":12078,"åįĩä¸º":12079,"é¢Ŀå¤ĸ":12080,"æĹłç©·":12081,"åı²èĴĤ":12082,"å¯ĴåĨ·":12083,"æľīèĳĹ":12084,"èµĽè½¦":12085,"æ³¾":12086,"å½±åĵįçļĦ":12087,"æĻºåĬĽ":12088,"çŃīæĸ¹éĿ¢çļĦ":12089,"æĬķäº§":12090,"ä¸ŀçĽ¸":12091,"Â±":12092,"å®¶çĶ¨":12093,"çŃīåĪ°":12094,"ä¸ŃåĽ½äºº":12095,"åĳķ":12096,"åŃĺæĶ¾":12097,"è¯ĦåĪĨ":12098,"Le":12099,"ile":12100,"åľ¨æ°´":12101,"åŃ¦éĻ¢çļĦ":12102,"AB":12103,"çļĦèº«":12104,"åľ¨åĮĹ":12105,"éĥĿ":12106,"åĲĪä½ľåħ³ç³»":12107,"è¯ºè´Ŀå°Ķ":12108,"èģļä¼ļ":12109,"ä»²è£ģ":12110,"æ¯Ķéĩį":12111,"åĿļå®Ī":12112,"å¤ºåıĸ":12113,"ä¸»åĶ±":12114,"ç±»ä¼¼çļĦ":12115,"æĹ©æľŁçļĦ":12116,"ä¹ĭåĪĿ":12117,"è®©æĤ¨":12118,"åľ¨è¿Ļç§į":12119,"æł¼åĭĴ":12120,"å°Ĩæĺ¯":12121,"æıĲèµ·":12122,"Windows":12123,"ä¸ºé¦ĸ":12124,"åŃ¤çĭ¬":12125,"åıįæĺłäºĨ":12126,"åħ®":12127,"éħįæĸĻ":12128,"æķĽ":12129,"Ġä¼Ĭ":12130,"é¢ģåıĳçļĦ":12131,"èĢ»":12132,"ä¹Łæ²¡":12133,"æĸ°æĹ¶ä»£":12134,"æŃ£å¥½":12135,"æľįåĬ¡ä¸ļ":12136,"çıŃåŃĲ":12137,"èº«ä½ĵçļĦ":12138,"åıĪè¢«":12139,"åº§ä½į":12140,"åħħåĪĨåĪ©çĶ¨":12141,"ç¤¾éķ¿":12142,"ç©ºçĻ½":12143,"çľŁçĲĨ":12144,"çº³å¾·":12145,"IR":12146,"æĦ§":12147,"åıªéľĢè¦ģ":12148,"èĢģèĻİ":12149,"çĭŃçªĦ":12150,"çļĦæ¯ĶèµĽä¸Ń":12151,"å§¨":12152,"ä¿®éģĵéĻ¢":12153,"æĿ¥è®²":12154,"å¹³æĿ¿":12155,"åĮĸä¸º":12156,"æ§Ĳ":12157,"åĪĨè¾¨çİĩ":12158,"ç«Ļåİħ":12159,"å¹³å®ļ":12160,"å±±ä¸ĭ":12161,"åĪĩéĻ¤":12162,"ç¿ĺ":12163,"ð«":12164,"ç»´ä¹Łçº³":12165,"1925":12166,"çĽ¸è¿ĳ":12167,"é¾ļ":12168,"æĦ¤æĢĴ":12169,"å¸Ńä½į":12170,"çĽ®åīįçļĦ":12171,"ĠMar":12172,"ä¸īè§Ĵå½¢":12173,"æ´¼":12174,"å¤©å¤©":12175,"æ´ªæŃ¦":12176,"ãĤ°":12177,"åĩ»ä¸Ń":12178,"oll":12179,"æ°¨åŁºéħ¸":12180,"å¾Ĺå¥ĸ":12181,"111":12182,"ãĤµ":12183,"æĳ©å°Ķ":12184,"æĢİä¹ĪåĬŀ":12185,"å¹´ä»½":12186,"å¹¶èİ·å¾Ĺ":12187,"é¾ĻéĹ¨":12188,"ä¸Ģå®ļä¼ļ":12189,"åıĳçĶµæľº":12190,"PG":12191,"ç§ĳéĻ¢":12192,"ä»»æľŁ":12193,"åŁİéĻħ":12194,"åıĺè¿ģ":12195,"è¿Ľåħ¥äºĨ":12196,"è¯¥çľģä»½ä¸ºæ³ķåĽ½":12197,"éĺĻ":12198,"åĪĿå§ĭ":12199,"å°Ħæīĭ":12200,"çļĦåĲį":12201,"çŃīæĸ¹å¼ı":12202,"æ¬¡åŃĲ":12203,"ç½Ĺé©¬å¸ĿåĽ½":12204,"æ²¿çĿĢ":12205,"å»ºè®¾é¡¹çĽ®":12206,"ä¸įä»ħæĺ¯":12207,"é£Łåĵģå®īåħ¨":12208,"æĴ¤éĢĢ":12209,"fl":12210,"èĩªå¹¼":12211,"èĿī":12212,"æ¸ħçľŁå¯º":12213,"æĸ§":12214,"å¹´çºª":12215,"åįĹæľĿ":12216,"æıĲè®®":12217,"çģŃäº¡":12218,"æĺ¯åĲ¦æľī":12219,"åľ¨å¯¹":12220,"æŁ¥å°Ķæĸ¯":12221,"åłķ":12222,"æ¤ŃåľĨå½¢":12223,"çļĦæ¶Īæģ¯":12224,"å¸§":12225,"æĸ°ä¸Ģä»£":12226,"ä¿¡å¾Ĵ":12227,"ç²īç¢İ":12228,"çĽ¸éģĩ":12229,"çļĦè¥¿":12230,"åį«éĺŁ":12231,"æİīäºĨ":12232,"é«ĺè¡Ģåİĭ":12233,"éĢļè¿ĩå¯¹":12234,"ä½İåİĭ":12235,"æī§çħ§":12236,"è¸©":12237,"æŁ¬":12238,"éĩĳèŀįæľºæŀĦ":12239,"ä¿Ŀå®ļ":12240,"éĻ¤å¤ĸ":12241,"çĪ¶åŃĲ":12242,"ç¯ĩæĸĩç«ł":12243,"æıĴåħ¥":12244,"ï¼īãĢĭ":12245,"å®ŀæĪĺ":12246,"åľ°çĭ±":12247,"åıªä¸įè¿ĩ":12248,"1800":12249,"æĪĲä¸ºä¸Ģä¸ª":12250,"ç»Ħç»ĩå®ŀæĸ½":12251,"äºĮåįģåĽĽ":12252,"æĭīå¾·":12253,"åªĽ":12254,"è§¦æĳ¸":12255,"ä¸ļæľīéĻĲåħ¬åı¸":12256,"ä¸İå¤§":12257,"å¢ŀæ·»":12258,"ãĢıï¼Ī":12259,"ä¸Ģèĩ³":12260,"çĶŁå¯¼å¸Ī":12261,"å¹´æľ«":12262,"æºľ":12263,"lex":12264,"è®¾äºİ":12265,"ii":12266,"åľ¨äºĨ":12267,"æĿĢèıĮ":12268,"ä»ĸå°Ĩ":12269,"èĢħä¸º":12270,"æĮĩå¼ķ":12271,"å±ķç¤ºäºĨ":12272,"å·¥éĥ¨":12273,"ä¸ľåĮº":12274,"ä¸Ļçĥ¯":12275,"å¤ļä¼¦":12276,"éħįè§Ĵ":12277,"æŀģç«¯":12278,"å¤±æľĽ":12279,"èµļéĴ±":12280,"çļĸ":12281,"ä¼ģä¸ļåľ¨":12282,"çĹķè¿¹":12283,"ä¼łç»ŁæĸĩåĮĸ":12284,"èĥĮæĻ¯ä¸ĭ":12285,"ä¹ĭä¹±":12286,"åĨħåľ¨":12287,"åĮ¡":12288,"ç±³äºļ":12289,"åĨħå®¹çļĦ":12290,"æĮĩå¯¼ä¸ĭ":12291,"åİĨåı²æĸĩåĮĸ":12292,"å½°åĮĸ":12293,"æĹ¥å¸¸çĶŁæ´»":12294,"æ£®æŀĹåħ¬åĽŃ":12295,"æĮĤçīĮ":12296,"âĢĿ(":12297,"è¯´æľį":12298,"éĻĲå®ļ":12299,"å·§å¦Ļ":12300,"æİ·":12301,"è¿ĲåĬ¨çļĦ":12302,"æĪĳä¼ļ":12303,"æ½®æ¹¿":12304,"æ»ĩ":12305,"æİ¥æĽ¿":12306,"ä¸įå®¹æĺĵ":12307,"åĲİåĽł":12308,"èģĶåĨĽ":12309,"æ³¢çī¹":12310,"æ½į":12311,"é¾Ļç§ĳ":12312,"æ¯Ľæ³½":12313,"ä¼Ĭæĸ¯åħ°æķĻ":12314,"ä½¥":12315,"å¸Īéķ¿":12316,"ç«ŀéĢī":12317,"ä½įå±ħ":12318,"ç¦ıçī¹":12319,"éĺ»ç¢į":12320,"èī°èĭ¦":12321,"å»¿":12322,"çıįè´µ":12323,"ä¸»æīĵ":12324,"æķ°çĽ®":12325,"è®ºè¯ģ":12326,"olog":12327,"å¤įä»ĩ":12328,"é¥®çĶ¨":12329,"ä»Ĭå¤©çļĦ":12330,"ä½ıéĻ¢":12331,"ç¦»å¼ĢäºĨ":12332,"ä»·æ¯Ķ":12333,"ç®Ĺæĺ¯":12334,"ä¹Łä¸įæĺ¯":12335,"åºĶåľ¨":12336,"éĢļå¸¸æĺ¯":12337,"åħ¬ç«ĭ":12338,"èĭ·":12339,"çº³ç²¹":12340,"è¿ĩç¨ĭä¸ŃçļĦ":12341,"ç¬¬ä¸Ģéĥ¨":12342,"èı²å°Ķå¾·":12343,"ä¹ĭåīįçļĦ":12344,"æĪĳè§īå¾Ĺ":12345,"åįģåĩł":12346,"æ£º":12347,"å¢ŀè¿Ľ":12348,"èĥ½å¤Łåľ¨":12349,"åħ¬å¼Ģåıĳ":12350,"1926":12351,"èĥĮéĥ¨":12352,"ç²¾æ¹Ľ":12353,"æĸĻçĲĨ":12354,"çĥŃçļĦ":12355,"å¯¹æĪĳ":12356,"èĩªæĦ¿":12357,"éĹ¨å°Ĩ":12358,"çº¶":12359,"æľīæĦı":12360,"çĶ¨æīĭ":12361,"å°ıåĲĥ":12362,"å®¢æľį":12363,"åŀĦæĸŃ":12364,"å¤§èĥĨ":12365,"å¤ļäºĨ":12366,"åĬ¨çļĦ":12367,"ä¼ļè®¡å¸Ī":12368,"æĹ¶è£ħ":12369,"å³ª":12370,"240":12371,"åĨ²æ´Ĺ":12372,"ä¸Ģæł·çļĦ":12373,"èĻļæŀĦ":12374,"å®¶å±ŀ":12375,"æĹłæľº":12376,"ãĤº":12377,"çĬ¶åħĥ":12378,"çĮªç¬¼":12379,"åı¯ä»¥ä½¿çĶ¨":12380,"å¨¥":12381,"çŃīåĲĦç§į":12382,"eng":12383,"çļĦè¯´æ³ķ":12384,"åĲİä»£":12385,"éķĩåĮº":12386,"åīĤéĩı":12387,"åİŁæľīçļĦ":12388,"çļĦèº«ä»½":12389,"åĨħç§ĳ":12390,"ä¿Ŀå¯Ĩ":12391,"æķĻèĤ²æķĻåŃ¦":12392,"éĺ³æĢ§":12393,"çļĦéĤ®æĶ¿ç¼ĸçłģä¸ºP":12394,"ä¹Łä¸įèĥ½":12395,"éģĩè§ģ":12396,"æĺ¯ä¸ĢæīĢ":12397,"çļĦåı¤":12398,"æĸ°ä¸Ģ":12399,"éĥ¨éĹ¨çļĦ":12400,"åĪĨè¡Į":12401,"çľģæĶ¿åºľ":12402,"res":12403,"ä¼ļäº§çĶŁ":12404,"åĿĲæłĩ":12405,"å±ħä½ıåľ¨":12406,"==":12407,"ãĢĤãĢĤ":12408,"æİĴåĲįç¬¬":12409,"Ð¸Ñ":12410,"ä¸»æĴŃ":12411,"æĬ¥è¡¨":12412,"ale":12413,"MO":12414,"éĿ¶":12415,"çļĦçĲĨå¿µ":12416,"éĶ®çĽĺ":12417,"éĽĨä¸Ńåľ¨":12418,"ä½ĵè´¨":12419,"éĹ¨å¤ĸ":12420,"æĿĢæīĭ":12421,"ãĥĬ":12422,"æłĩå¿ĹçĿĢ":12423,"é©¬åĬĽ":12424,"ner":12425,"å¼ķäºº":12426,"çļĦéĢļçŁ¥":12427,"å¤®è§Ĩ":12428,"è¶Ĭé«ĺ":12429,"æĬĹä½ĵ":12430,"ä¸»è¦ģä¸º":12431,"çļĦåľ°åĮº":12432,"åıĹå®³":12433,"åĳİ":12434,"åĨ³èµĽä¸Ń":12435,"é¢ĨéĺŁ":12436,"åħ¶çĪ¶":12437,"å°Ĩè¿ĳ":12438,"èĦ±èĲ½":12439,"Ġå®ī":12440,"è¿Ľåİ»":12441,"éĩįçĤ¹æĸĩçī©ä¿ĿæĬ¤åįķä½į":12442,"äº¬å¸Ī":12443,"åĪĳéĥ¨":12444,"åĽĽæĸ¹":12445,"çī¹æľīçļĦ":12446,"å°Ĩä»ĸ":12447,"åħ±è¯Ĩ":12448,"æĬ¤æłı":12449,"èĩ´ä½¿":12450,"Ãł":12451,"é«ĺæŀ¶":12452,"åħīçº¿":12453,"çĮªç¬¼èįī":12454,"åĪĨå·¥":12455,"èĬ¸":12456,"åĩıå°ĳäºĨ":12457,"æµ¦ä¸ľ":12458,"ä¸ĢæĬĬ":12459,"è¦ģæĥ³":12460,"å¤©åŃĲ":12461,"é«ĺåľ°":12462,"æĿĳèĲ½":12463,"è¡Ĺå¤´":12464,"ä»¥äººä¸ºæľ¬":12465,"éŁ³é¢ĳ":12466,"åľ¨ä½į":12467,"çºªå¿µé¦Ĩ":12468,"1923":12469,"ï¼ĽâĢľ":12470,"è®ºè¿°":12471,"æĽ¿æį¢":12472,"èľĤèľľ":12473,"çĶ¨è½¦":12474,"æĽ¾å¤ļæ¬¡":12475,"ç»ĩçĶ°":12476,"1600":12477,"çļĦç¾İåĽ½":12478,"åĨĻåŃĹ":12479,"å¾·ç½Ĺ":12480,"æĥ³èµ·":12481,"æ¸©å®¤":12482,"åģ¶çĦ¶":12483,"æ£īèĬ±":12484,"çĶŁäº§ä¼ģä¸ļ":12485,"ver":12486,"ä¸ªäººä¿¡æģ¯":12487,"åī©ä¸ĭ":12488,"æ¯Ľæ³½ä¸ľ":12489,"çļĦçĻ½":12490,"æľĪå¼Ģå§ĭ":12491,"æĹłåı¯":12492,"åĨľæĪ·":12493,"çĿ¡è§ī":12494,"ç®¡çĲĨåĬŀæ³ķ":12495,"åĲĦæĸ¹":12496,"çŁ³åĪ»":12497,"åĴĮå¯¹":12498,"åĪĨçº§":12499,"åĪ«åĲį":12500,"åĽ°å¢ĥ":12501,"äººéĢł":12502,"ink":12503,"æģ¶åĬ£":12504,"åĬŀåħ¬åİħ":12505,"Açº§":12506,"åĽ½å°ı":12507,"ç»ıè´¸":12508,"ç´«èī²":12509,"çļĦåĪ¶ä½ľ":12510,"ç®¡åĪ¶":12511,"ç»´åħĭ":12512,"æİĪè¯¾":12513,"çºµæ¨ª":12514,"Ġ2021":12515,"åĪĨç»Ħ":12516,"ä»ĭåħ¥":12517,"è·¯çļĦ":12518,"å¥³åıĭ":12519,"ç¹ģåįİ":12520,"èļĬ":12521,"è¿ĻéĩĮçļĦ":12522,"æİ¥åıĹäºĨ":12523,"106":12524,"è¿·ä½ł":12525,"è®²è¿°äºĨ":12526,"æľ¬çº¿":12527,"åħĪå¤©":12528,"åĽŀåİ»":12529,"æķħå®«":12530,"è´Łè½½":12531,"åľ°ä¸Ńæµ·":12532,"æ¸¤":12533,"ä¹ŁåĽłæŃ¤":12534,"å°ıç±³":12535,"äººæ°ĳåĮ»éĻ¢":12536,"æĹ¶æľī":12537,"éĽĨç¾¤":12538,"æ±ĤèģĮ":12539,"ä¸Ŀç»¸":12540,"æĵįä½ľç³»ç»Ł":12541,"éĽı":12542,"åī¯ä½ľçĶ¨":12543,"è®¾ç«ĭçļĦ":12544,"æ®ĭçĸ¾äºº":12545,"è´ŁéĿ¢":12546,"å¹´ä¸ĸçķĮæĿ¯":12547,"å¾·å·Ŀ":12548,"æĸ¯åł¡":12549,"åĬ©æīĭ":12550,"ä¿®çĲĨ":12551,"å¤ľæĻļ":12552,"åĬĽæ±Ĥ":12553,"éĵĥæľ¨":12554,"ä¼¤äº¡":12555,"çļĦåħ·ä½ĵ":12556,"ç«¥è¯Ŀ":12557,"æĶ¹ç¼ĸèĩª":12558,"103":12559,"HO":12560,"äº§äºİ":12561,"å²Ľå¼ı":12562,"å±±åºĦ":12563,"æĢ»åħ±":12564,"ĠTh":12565,"çĻ«çĹ":12566,"æĦıçļĦ":12567,"æ¹ĸäºº":12568,"åį¡éĢļ":12569,"æ³ķä»¤":12570,"åħĭæĸ¯åĿ¦":12571,"çµ®":12572,"ys":12573,"èİ·å¾ĹçļĦ":12574,"æĹłå¥Ī":12575,"çĻ«çĹ«":12576,"çĶµåİĤ":12577,"è°ĥè§£":12578,"å«¡":12579,"äºĭåĲİ":12580,"åħ»æĪĲ":12581,"1912":12582,"åĽ¾ä¹¦çĽ®å½ķ":12583,"åºŁçī©":12584,"æĬµæĬ¼":12585,"æ½ľæ°´":12586,"æºĲå¤´":12587,"åħ¨éĿ¢çļĦ":12588,"åĬ³åĬ¨åĬĽ":12589,"åĮĪå¥´":12590,"èµ°å»Ĭ":12591,"Ex":12592,"çļĦé©¬":12593,"ç¥ŀç¤¾":12594,"æ¯ıä½į":12595,"åº§è°Ī":12596,"æŃ»åİ»":12597,"æĺ¯åĽ½åĨħ":12598,"å¨ģå°¼æĸ¯":12599,"æĸĩä¹¦":12600,"å»ºè®¾åĴĮ":12601,"å¹´ä¸º":12602,"èĩªåĬ©":12603,"çĸ¡":12604,"Ġ0":12605,"çľĭäºĨ":12606,"NO":12607,"åĻ¶":12608,"æĿ¥è¿Ľè¡Į":12609,"é¡¶å°ĸ":12610,"çŀĦ":12611,"å¹¶åĲĳ":12612,"çļĩé©¬":12613,"é©¬åħĭæĢĿä¸»ä¹ī":12614,"å°Ĩç»§ç»Ń":12615,"è¢«åıĳçİ°":12616,"ç½ĳæ°ĳ":12617,"107":12618,"æĻı":12619,"ä¸»è¦ģä»¥":12620,"åĺĽ":12621,"å°¤ä¸º":12622,"ä¸įéĢĤ":12623,"115":12624,"EE":12625,"æľīæľĽ":12626,"çłļ":12627,"éĥ½å¾¡åı²":12628,"æŀĦä»¶":12629,"å®¹ç§¯":12630,"ä¸Ģå°ı":12631,"åĳ³ç²¾":12632,"å¦ĩç§ĳ":12633,"å®ŀè·µä¸Ń":12634,"å¥´éļ¶":12635,"äººæł¼":12636,"éĢłèĪ¹":12637,"å¹³æ°ĳ":12638,"ç¼ĸç»Ħ":12639,"æ´Ĺæ¶¤":12640,"ä¹ĭæĥħ":12641,"æĹłåĬĽ":12642,"åĽ½éĻħåĮĸ":12643,"äºļé©¬":12644,"éĢłæĪĲäºĨ":12645,"éĺ²åį«":12646,"ä½Ĩè¿Ļ":12647,"çĪ±ä½ł":12648,"ank":12649,"Ã¨":12650,"é¦ĸå®¶":12651,"æĪĳä¸į":12652,"ï¼ķ":12653,"ä¸¥èĤĥ":12654,"éĵģçŁ¿":12655,"åįģåħ«å¹´":12656,"å¤ļä½į":12657,"çģ«åĬĽ":12658,"åĨħåŃĺ":12659,"ç§ĳå®¤":12660,"El":12661,"èºº":12662,"æķħå±ħ":12663,"ä»įæĺ¯":12664,"å·¥ç¨ĭæĬĢæľ¯":12665,"åľ°è¡¨":12666,"å¸Ĥäººæ°ĳæĶ¿åºľ":12667,"åĬĽäºī":12668,"å°±å¼Ģå§ĭ":12669,"é«ĺå®Ĺ":12670,"ç«ĭéĻ¶":12671,"åĲµ":12672,"èµ°åĪ°":12673,"éĶĢåĶ®é¢Ŀ":12674,"æĤ¼":12675,"çľĭä¼¼":12676,"åįıå®ļ":12677,"ç½ĳç«ĻçļĦ":12678,"æ§Ľ":12679,"åĬ³åĬ¡":12680,"è¡Ķæİ¥":12681,"ï¼ĮãĢĤ":12682,"éĻ¡":12683,"åŃ¦ç³»":12684,"æĸ°è®¾":12685,"èĢħåľ¨":12686,"å£¹":12687,"åĳĺå¤ĸéĥİ":12688,"è´¦åı·":12689,"ç¾¡":12690,"åº¦è¿ĩ":12691,"è¡¨æĥħ":12692,"çĹĺ":12693,"æĢ»å»ºçŃĳéĿ¢ç§¯":12694,"åĨľçĶ°":12695,"è¯Ĺæĸĩ":12696,"åĿļå®ŀ":12697,"ara":12698,"ä¸ºçĽ®æłĩ":12699,"èµ¦":12700,"äºļå½ĵ":12701,"å¢ŀè®¾":12702,"åī¯æł¡éķ¿":12703,"å¤ĦçĲĨåĻ¨":12704,"ï¼ĵ":12705,"åŃ¦åĽŃ":12706,"åĪ¶æĪĲçļĦ":12707,"ä½łæĺ¯":12708,"çłĶç©¶åĴĮ":12709,"åĽ½å®¶åħ¬åĽŃ":12710,"çĮ©":12711,"éºĴ":12712,"åı¯éĢļè¿ĩ":12713,"çĽ®çļĦåľ°":12714,"æĢ»éĥ¨ä½įäºİ":12715,"ç¾İèģĶ":12716,"ä¾¦å¯Ł":12717,"åŃļ":12718,"æ·ĩ":12719,"äºĴéĢļ":12720,"åĢºæĿĥ":12721,"ä½¿ä»ĸ":12722,"éĥ½éľĢè¦ģ":12723,"éĻĮçĶŁ":12724,"ä¸ĵä¸ļåĮĸ":12725,"æ°ĳèĪª":12726,"æłªå¼ı":12727,"æ¶īå«Į":12728,"Ã¼":12729,"è¯¥çī©ç§į":12730,"æĦŁçŁ¥":12731,"åĨĻéģĵ":12732,"åĲįè¿Ľå£«":12733,"æ°´ç¨»":12734,"æ¶²æĻ¶":12735,"åħĪåĲİåľ¨":12736,"åªĴä»ĭ":12737,"Ġa":12738,"ä¸Ģå¤Ħ":12739,"ãĥŁ":12740,"åľ°åĬ¿":12741,"åĩºå¢ĥ":12742,"ç«Ļå¼ı":12743,"ç§ĳåŃ¦çļĦ":12744,"äºĨä¸¤":12745,"æĬĢæľ¯åĪĽæĸ°":12746,"è®©å¥¹":12747,"ãĤĦ":12748,"æĹħç¨ĭ":12749,"å±Ĭä¸ŃåĽ½":12750,"ãģł":12751,"èį£èĢĢ":12752,"éĵ²":12753,"çļĦåı¯":12754,"è°İ":12755,"ç²Ł":12756,"èµ·æĿ¥çļĦ":12757,"æĸĩæ¡£":12758,"ä»£ä»·":12759,"æ¨¡æĿ¿":12760,"ä¸ĭåįĬ":12761,"éĻįä½İäºĨ":12762,"Ġä¸º":12763,"è¿ĲéĢģ":12764,"è¯ĳä¸º":12765,"ç²¾ç¾İ":12766,"è®©èĩªå·±":12767,"æĹĹå¸ľ":12768,"åı²å¯Ĩæĸ¯":12769,"èĥ½èĢĹ":12770,"åı£æľį":12771,"åİĨåı²æĤłä¹ħ":12772,"ä¸İä»ĸ":12773,"æīĵåĩº":12774,"å±ħå®¶":12775,"åĲĮä¸Ģä¸ª":12776,"é¢ĨåħĪçļĦ":12777,"ensis":12778,"æłªå¼ıä¼ļç¤¾":12779,"ime":12780,"æĺ¯ä»ĸ":12781,"åīĮ":12782,"æĸĩäºº":12783,"åı¯ä»¥æł¹æį®":12784,"æīĺé©¬æĸ¯":12785,"èĢ¶å¤«":12786,"Ð¾Ð²":12787,"å¸ĥæĶ¿ä½¿":12788,"åĮĨ":12789,"åħ¼å®¹":12790,"ä¸ĢèģĮ":12791,"å±ķåİħ":12792,"æµ·çĽĹ":12793,"åıĳå¸ĥä¼ļ":12794,"ä¼łéĢģ":12795,"æĴ¼":12796,"ç«ĭéĻ¶å®Ľ":12797,"èĬĭ":12798,"æĿŃå·ŀå¸Ĥ":12799,"ä¸¾æĬ¥":12800,"æĶ¹åıĺäºĨ":12801,"æĿĳå§Ķä¼ļ":12802,"æŃ»äºĨ":12803,"ç¥Ĥ":12804,"æ³¨æĦıçļĦæĺ¯":12805,"æ¬¡çļĦ":12806,"æ²¡æĥ³åĪ°":12807,"åįļå®¢":12808,"å¤±è¯¯":12809,"ä½Ļå¹´":12810,"ML":12811,"çŃ¾ä¸ĭ":12812,"èķĬ":12813,"åĵ©":12814,"å±±è·¯":12815,"ä»¥åıĬåħ¶ä»ĸ":12816,"èĢ¶å¾ĭ":12817,"ç¼´è´¹":12818,"éķ¿å¯¿":12819,"æİĢ":12820,"éĥ¨åĴĮ":12821,"éĤ¸":12822,"åº¦åĴĮ":12823,"ä¼ĺè´¨çļĦ":12824,"åľ¨é«ĺ":12825,"æĲľéĽĨ":12826,"åĽºéĨĩ":12827,"ä¸įçĦ¶":12828,"åĽ¢çļĦ":12829,"æ±Łåİ¿":12830,"çĽ®åīįå·²":12831,"ä¸ĭæĹ¬":12832,"èģĮåľº":12833,"è¶³èģĶ":12834,"æ²¹èĦĤ":12835,"æµıè§ĪåĻ¨":12836,"ä¸ºä»£è¡¨":12837,"æµ·æĬ¥":12838,"æ·±æ·±":12839,"ä¾µçķ¥":12840,"åįĹéĺ³":12841,"æĹłç¼Ŀ":12842,"çĽ´è¾¾":12843,"åľŁè±Ĩ":12844,"æ´¥è´´":12845,"çĽ¸å¤Ħ":12846,"åĪ°å¤Ħ":12847,"åĪ«äººçļĦ":12848,"å®ĭæľĿ":12849,"æ¯ģçģŃ":12850,"åłµå¡ŀ":12851,"çļĦå°±æĺ¯":12852,"çľģçļĦ":12853,"è´Ŀåħĭ":12854,"ä¸ĩå¹´":12855,"æĺ¾å¾®":12856,"èīºæľ¯çļĦ":12857,"è¡ĮæĶ¿æĿĳ":12858,"åľºéĿ¢":12859,"åĲĦå¼ı":12860,"æ¢ħè¥¿":12861,"ä¸Ńåįİæ°ĳæĹı":12862,"ç´«å¤ĸçº¿":12863,"éĢļä¿Ĺ":12864,"æł¼é²ģ":12865,"çĹħçĲĨ":12866,"è¶Ĭå¤§":12867,"é¢ĨåĨĽ":12868,"ä¸ĥåįģ":12869,"å¸Įå°Ķ":12870,"é©»åľ°":12871,"æģª":12872,"æ°ĶåĬ¿":12873,"åħµéĥ¨":12874,"å¤ĸè´¸":12875,"åĪĹåĩº":12876,"åı¤ä»Ĭ":12877,"ä¸ĵä¸ļæĬĢæľ¯":12878,"ä¸ªå°ıæĹ¶":12879,"æĺ¯åĽ½å®¶":12880,"æī¿æİ¥":12881,"å¼¼":12882,"æĪĳä¹Ł":12883,"è®¾è®¡ä¸İ":12884,"å·¡æ´ĭ":12885,"è¯¥ä¹¦":12886,"å®ĮæĪĲçļĦ":12887,"çľģå§Ķ":12888,"èĢĮæŃ»":12889,"æ¯Ķåĸ»":12890,"èµ·æºĲäºİ":12891,"åĤ»":12892,"åĵĪä½Ľ":12893,"æ¸¸æĪıä»ĭç»į":12894,"çī¹çĤ¹æĺ¯":12895,"çŁ³æĿĲ":12896,"æľįåĬ¡å¹³åı°":12897,"éĺ²çĪĨ":12898,"ä¼ĬåĪ©":12899,"åīĤçļĦ":12900,"çļĦæĸ¹åĲĳ":12901,"åīįä¸ī":12902,"çħ§å°Ħ":12903,"Ġfor":12904,"è®¨åİĮ":12905,"ç½ķè§ģ":12906,"æĦŁåĨĴ":12907,"ç»Ħè£ħ":12908,"å»ºç«ĭçļĦ":12909,"éĺ²ç©º":12910,"æĿĥéĻĲ":12911,"è®¾å¤ĩåĴĮ":12912,"çĲĨè®ºä¸İ":12913,"åľ¨å½ĵæĹ¶":12914,"é£İè²Į":12915,"èģļæ°¨":12916,"ä¸¥æł¼çļĦ":12917,"å·¥ä»¶":12918,"åįİè¯Ń":12919,"æģ¶åĮĸ":12920,"ç¾İæľ¯åŃ¦éĻ¢":12921,"å¤§çº²":12922,"å¼¹ç°§":12923,"å¹³å¸¸":12924,"å½°æĺ¾":12925,"æ¶§":12926,"æ±ĩéĽĨ":12927,"ä¼Ĭæĭīåħĭ":12928,"è¯¸å¦Ĥ":12929,"æĹ¶ä¼ļ":12930,"ç¼ª":12931,"çļĦéľĢè¦ģ":12932,"æ³Ĺ":12933,"ãĥĹ":12934,"å¥ĸæľĢä½³":12935,"roid":12936,"URL":12937,"éĩĮè¾¾":12938,"ä¸ľæĻĭ":12939,"è¡Įä½¿":12940,"---":12941,"æĪªåĽ¾":12942,"æ°Ķè´¨":12943,"å¤§ä½¿é¦Ĩ":12944,"æīĶ":12945,"éķį":12946,"åīįèº«ä¸º":12947,"è·³è·ĥ":12948,"æĢ§ä»·æ¯Ķ":12949,"ç®ĢåĮĸ":12950,"éĩĬä¹ī":12951,"éĿ¢æĸĻ":12952,"ä¸įäºĪ":12953,"èĢĮä¸Ĭ":12954,"åħīçļĦ":12955,"çºªå¿µç¢ĳ":12956,"åīįæĸ¹":12957,"ãĥł":12958,"ÙĦ":12959,"åıªä¼ļ":12960,"AG":12961,"åıĳæĶ¹":12962,"åħ¶æīĢ":12963,"ä¿®è¡Į":12964,"éĽĨåĽ¢åĨĽ":12965,"åħ¬éĩĮå¤Ħ":12966,"App":12967,"çİĭåĲİ":12968,"æĿĤè´¨":12969,"åĩºå¤Ħ":12970,"å£°èªī":12971,"åĵĪåĪ©":12972,"åĳĪçİ°åĩº":12973,"çļĦç¡®":12974,"çļĦæ¯Ķä¾ĭ":12975,"åı¶åŃĲ":12976,"åľ¨åı°æ¹¾":12977,"è½»æĺĵ":12978,"1905":12979,"ä¸ĭä¸ĢæŃ¥":12980,"åįİä¸Ń":12981,"ç¿Įå¹´":12982,"ä»ĸåıĪ":12983,"å®Įå¤ĩ":12984,"å¿ħé¡»è¦ģ":12985,"æļĹç¤º":12986,"è¶ĬæĿ¥è¶Ĭå¤ļçļĦ":12987,"å¾·çĶ²":12988,"æł¡èĪį":12989,"æĪĲåĥı":12990,"å¦Ĭ":12991,"å¸®å¿Ļ":12992,"ä»¥åĨħ":12993,"æľĢåıĹæ¬¢è¿İ":12994,"ç§ĳéķ¿":12995,"è£ħç®±":12996,"çħ²":12997,"åıįæĬĹ":12998,"èĳĹç§°":12999,"å®¡çĲĨ":13000,"è¤Ĵ":13001,"CM":13002,"éĻ¤å°ĺ":13003,"ç¬¬äºĮçĻ¾":13004,"åºĨåħ¸":13005,"åĮ»çĸĹæľºæŀĦ":13006,"åłĨç§¯":13007,"97875":13008,"æľīæ¯Ĵ":13009,"å¼Ģæ°´":13010,"æķ°æį®çļĦ":13011,"éī´åĪ«":13012,"éķĢéĶĮ":13013,"ä¸İç®¡çĲĨ":13014,"æľºåĴĮ":13015,"æĺŁéĻħ":13016,"ä¸įå·²":13017,"æľ«å¹´":13018,"OK":13019,"å¹´å¤ıåŃ£":13020,"æķķ":13021,"èĢĲå¿ĥ":13022,"èģĶåĬ¨":13023,"è´¹å°Ķ":13024,"ana":13025,"éľĨ":13026,"åı¤äºº":13027,"ç¬¬äºĮåŃ£":13028,"æ²Ļæ»©":13029,"æĦ¿æĻ¯":13030,"äº¤æµģéģĵ":13031,"ä¸Ģåı¥":13032,"è¿½ç©¶":13033,"æĹĹèĪ°":13034,"æģ¶æĢ§":13035,"åĽ½å®¶åĴĮåľ°åĮº":13036,"ics":13037,"ĠæĿ¨":13038,"åħ¨åľº":13039,"åħ³éĶ®è¯į":13040,"),":13041,"Fl":13042,"å½±éĻ¢":13043,"æĹıç¾¤":13044,"åĲıéĥ¨":13045,"å¤§å°Ĩ":13046,"åħ¥å¢ĥ":13047,"åľ£æ®¿":13048,"æĲŃæ¡£":13049,"èĩªçĦ¶ä¿ĿæĬ¤åĮº":13050,"å°¾å·´":13051,"1921":13052,"åįģè¶³":13053,"äº¤éĢļä¾¿åĪ©":13054,"9001":13055,"æ¹ĸå¹¿":13056,"ç®¡çļĦ":13057,"åħĥçļĦ":13058,"å¾·æĦıå¿Ĺ":13059,"anc":13060,"åĿĲèĲ½åľ¨":13061,"æį¢çĥŃ":13062,"æŃ£å¸¸çļĦ":13063,"çī§å¸Ī":13064,"åĮħè£¹":13065,"å¸Įçī¹":13066,"ç«¥å¹´":13067,"ä¹ŁæĽ¾":13068,"åħ¶ä¸»è¦ģ":13069,"å¾Ĺä¸»":13070,"rist":13071,"ä¸įç¬¦åĲĪ":13072,"åįĹå±±":13073,"èµ·æŃ¥":13074,"åŀĭä¼ģä¸ļ":13075,"ãĥĩ":13076,"èµ·ä¼ı":13077,"çĶ²çĬ¶":13078,"çĽ´è§Ĥ":13079,"é¦ĸåºľ":13080,"è¡Įä¸ºçļĦ":13081,"èµ·è¯ī":13082,"ç®Ģæĺĵ":13083,"çļĦä¸Ģéĥ¨":13084,"EX":13085,"å¹´äº§":13086,"ãĥģ":13087,"ä¹ĭæīĢ":13088,"åīįæıĲ":13089,"itt":13090,"æĪ¿åľ°äº§å¼Ģåıĳ":13091,"åĨħè®¾":13092,"æĻºåĪ©":13093,"è¿Ļæľ¬ä¹¦":13094,"ãĤ¦":13095,"æľĭåıĭä»¬":13096,"ĠåĮĹ":13097,"åı¯ä»¥éĢīæĭ©":13098,"å»ºçŃĳçļĦ":13099,"ign":13100,"æľ¬åĲį":13101,"éĿ¢åĽ¢":13102,"äºĨä¸Ģåľº":13103,"éŃĶæľ¯":13104,"çĲĲ":13105,"èº«äº¡":13106,"ald":13107,"é©¾é©¶åĳĺ":13108,"ç»Ŀå¤§å¤ļæķ°":13109,"æĶ¶è§Ĩçİĩ":13110,"æĦıæĢĿæĺ¯":13111,"çŃĽéĢī":13112,"çĬ¹å¦Ĥ":13113,"å¯ŀ":13114,"åĲĪè®¡":13115,"ç¬¬ä¸ĢæĹ¶éĹ´":13116,"âĢĻï¼Į":13117,"åĮ»éĻ¢çļĦ":13118,"æĺ¯æł¹æį®":13119,"æĸĩä¸Ń":13120,"åħ³çĪ±":13121,"çļĦéĺ¿":13122,"æľīå¤§":13123,"éĿ¢è²Į":13124,"âĢ»":13125,"åħµåĬĽ":13126,"ãĢĤâĢĿâĢľ":13127,"å»¶è¿Ł":13128,"ä¸ĺéĻµ":13129,"æķĻèģĮå·¥":13130,"ä¸ĸå®¶":13131,"çīĩæ®µ":13132,"åĪĽä¼¤":13133,"ç§»å±ħ":13134,"ek":13135,"åĴĢ":13136,"åĴĮä»ĸ":13137,"å°Ĩè¢«":13138,"çĶ»ä½ľ":13139,"æ´Ĺè¡£":13140,"æ£ķèī²":13141,"éĵģè·¯å±Ģ":13142,"è¿ĲèĲ¥åķĨ":13143,"èĩªæĿ¥":13144,"æĶ¹æŃ£":13145,"ç£ģåľº":13146,"æĻ®é²ģå£«":13147,"la":13148,"è¿ĺæ²¡":13149,"è¿ªäºļ":13150,"åīĳæ¡¥":13151,"è¡Ļ":13152,"åıĤåĨĽ":13153,"çļĦåľŁåľ°":13154,"å¹³æĪĲ":13155,"æĿĢäºĨ":13156,"çļĨä¸º":13157,"......":13158,"çļĦäº²":13159,"ä¸įæĩĪ":13160,"1911":13161,"ç¾²":13162,"æĸĳçĤ¹":13163,"ç²Ĺç³Ļ":13164,"åŃĹä½ĵ":13165,"æ±¤å§Ĩ":13166,"Ġï¼ļ":13167,"Ġ2004":13168,"åľ¨æ¬§æ´²":13169,"é¢Ĳ":13170,"å¾Ĺå¾Ī":13171,"å®ŀçī©":13172,"ä»£è¨Ģ":13173,"æµģå¤±":13174,"ä½©æĪ´":13175,"åħ·æľīèī¯å¥½çļĦ":13176,"æĬĳéĥģ":13177,"çļĦæĢĿæĥ³":13178,"åĪĩæĸŃ":13179,"æ¤įè¢«":13180,"å·®ä¸įå¤ļ":13181,"è¯¦æĥħ":13182,"ä¸»äººåħ¬":13183,"åĩºèµĽ":13184,"çĶ·ç¯®":13185,"450":13186,"åľ°å±Ĥ":13187,"ä»ĸä»¥":13188,"ä½įåĪĹ":13189,"åı£çļĦ":13190,"æĦŁæŁĵèĢħ":13191,"Ġåĳ¨":13192,"çĬģ":13193,"ild":13194,"çĥŁèįī":13195,"æľīæīĢä¸įåĲĮ":13196,"æĪĳå¸Ĥ":13197,"109":13198,"æ®µæĹ¶éĹ´":13199,"åı¬åĶ¤":13200,"å¡«åħħ":13201,"ï¼ħï¼Į":13202,"çļĦæĹ¥åŃĲ":13203,"ç¼ļ":13204,"èĺĳ":13205,"çģ¼":13206,"1903":13207,"çº¦çĳŁå¤«":13208,"ç³»ç»ŁåĴĮ":13209,"å³Ń":13210,"éĽĦæĢ§":13211,"ä¸ĸçºªæľ«":13212,"å·¡æ´ĭèĪ°":13213,"çļĦæľĢå¤§":13214,"é¦Ļæ°Ķ":13215,"çĿ¦":13216,"å½Ĵç±»":13217,"å¤Ħåľ¨":13218,"ç¢İçīĩ":13219,"ç»Īç»ĵ":13220,"å¥łå®ļäºĨ":13221,"æĸ°èĥ½æºĲæ±½è½¦":13222,"è¡Įè½¦":13223,"ä¸īå³¡":13224,"å²ĳ":13225,"çīµå¤´":13226,"æĲľç´¢å¼ķæĵİ":13227,"éĴ¥åĮĻ":13228,"è¯ĹéĽĨ":13229,"ç¬¬äºĶç«ł":13230,"çĽĳè§Ĩ":13231,"åºĦåĽŃ":13232,"1917":13233,"æīĢå¾Ĺç¨İ":13234,"éĩĳæĸ¯":13235,"å¨ł":13236,"æł¸åĩĨ":13237,"æĹıäºº":13238,"å¤įèĭı":13239,"æ®ĭçķĻ":13240,"ç¬¬åįģäºĶ":13241,"åĲįçīĮ":13242,"æ²³ä¸ľ":13243,"çĲĨæĥ³çļĦ":13244,"äºĴèģĶ":13245,"çļĦåĩºçİ°":13246,"éĻįéĽ¨":13247,"åľ¨ç¬¬":13248,"å¸ĮæľĽèĥ½":13249,"æ°´æĢ§":13250,"éĥ¨åĪĨçļĦ":13251,"Google":13252,"åħĥæľĿ":13253,"ç¤¼æĭľ":13254,"äºļç¾İ":13255,"ä½łè¦ģ":13256,"Ġ20":13257,"éĢĹ":13258,"è¿Ļåı¥è¯Ŀ":13259,"åľºé¦Ĩ":13260,"å®īå®ļ":13261,"åı²è®°":13262,"åħ¬åı¸æĭ¥æľī":13263,"ä½Ĩä»į":13264,"åĶ®ä»·":13265,"æ¶Ĥå±Ĥ":13266,"çŁ³å¢¨":13267,"åĲĪä½ľçļĦ":13268,"è¾Ľèĭ¦":13269,"éľ²åĩº":13270,"è´¢æĶ¿éĥ¨":13271,"å¹´éĻĲ":13272,"å¸¦çļĦ":13273,"æī¾åĩº":13274,"åĪĬçĻ»":13275,"NG":13276,"ä¼ļä½¿":13277,"èĤ½":13278,"æĶ¾åĪ°":13279,"å¸Ŀçİĭ":13280,"åķĨä¸ļéĵ¶è¡Į":13281,"åĲİäºİ":13282,"çĽ¸äºĴä½ľçĶ¨":13283,"Pa":13284,"Ġå±±":13285,"çİ¯å¢ĥä¸ĭ":13286,"ï¼ļï¿¥":13287,"ä¸ŃåĽ½åı¤ä»£":13288,"åı¯ä»¥çľĭåĪ°":13289,"æĺİçıł":13290,"æĬĬä»ĸ":13291,"çŁŃçŁŃ":13292,"åı£å²¸":13293,"åħīçº¤":13294,"ç¡®å®ļçļĦ":13295,"ä¸İäºº":13296,"å¤ĸèµĦ":13297,"ä»»å¤©åłĤ":13298,"åİĨæĹ¶":13299,"æĿ¿æĿĲ":13300,"åĢ¼å¾Ĺä¸ĢæıĲ":13301,"ç§ĳæĬĢæĪĲæŀľ":13302,"æ¬²æľĽ":13303,"æľĪè¢«":13304,"æĥĬåĸľ":13305,"UV":13306,"na":13307,"æĳ©æīĺè½¦":13308,"ä¸įæ¸ħ":13309,"åĪĨå±Ģ":13310,"å¯¹è¯¥":13311,"èĭ±åĨĽ":13312,"ç¥ĸç±į":13313,"åĢŁçĶ±":13314,"åĴĮä¸Ģä¸ª":13315,"åĨħç½®":13316,"ä»¥èĩ´":13317,"èĭĽ":13318,"åĢŁæ¬¾":13319,"é«ĺæīĭ":13320,"éĤ¯":13321,"çļĦä¸Ģå®¶":13322,"é¡¶ç«¯":13323,"éĢĨè½¬":13324,"å¹´æĪĲä¸º":13325,"ä¸ŃåįĹ":13326,"èĭŁ":13327,"è¿½æº¯åĪ°":13328,"èĩ³åħ³":13329,"éĢŁçİĩ":13330,"å¤©æĸĩåı°":13331,"å·³":13332,"æīĢç¤º":13333,"ä¸»ä¹īèĢħ":13334,"ç³¯ç±³":13335,"ä¸Ģæľ¬":13336,"æĹ¥çħ§":13337,"ä¹ĭä¹¡":13338,"ä¸ĸéĹ´":13339,"æ°Ķåİĭ":13340,"åī§çĽ®":13341,"æ¸¸æĪıå¤§å°ı":13342,"äº§ä¸ļçļĦ":13343,"ä»¿çľŁ":13344,"çľŁå®ŀçļĦ":13345,"èģļæ°¨éħ¯":13346,"RNA":13347,"åį°ç¬¬":13348,"HD":13349,"å¤©æīį":13350,"åĮħåĲ«äºĨ":13351,"åħīèį£":13352,"è±¡æ£ĭ":13353,"å¤§æµ·":13354,"çŁ³èĭ±":13355,"âĢ²":13356,"åŃ¦çłĶç©¶":13357,"æĹ¶éĴĪ":13358,"æĸ°æĿĲæĸĻ":13359,"åįİä¸½":13360,"æĽ¼åŁİ":13361,"ä¸ĩäººæ¬¡":13362,"ä¹Łåı¯èĥ½":13363,"è®³":13364,"ä¸Ńä¸ľ":13365,"æ°´äº§":13366,"éĩįåĬĽ":13367,"è®®é¢ĺ":13368,"éĻĨåľ°":13369,"æłĩçļĦ":13370,"çĳĻ":13371,"PM":13372,"è®¡åĪĴçļĦ":13373,"éĺ´è°ĭ":13374,"åĲ¦è®¤":13375,"æķħåĲį":13376,"æ½ĩ":13377,"ä¸īéĥ¨":13378,"æĸĻéħĴ":13379,"é¢Ĩè¡Ķ":13380,"å¤´è¡Ķ":13381,"èĬ±åºı":13382,"çĬ¶çļĦ":13383,"æº¶äºİ":13384,"çĭ¬åħ·":13385,"åĲĪä½ľç¤¾":13386,"ä»ĺè´¹":13387,"åħľ":13388,"ä¸ºé£Ł":13389,"åŃĲå¼¹":13390,"çİ°æľīçļĦ":13391,"éĢīè´Ń":13392,"è¾ĥæĹ©":13393,"èĴĻå¾·":13394,"å¿«éĢŁåıĳå±ķ":13395,"åľ¨æĪĳåĽ½":13396,"ä¸ĵå±ŀ":13397,"åıªæľīä¸Ģ":13398,"æĸ°å¹´":13399,"æİĮæİ§":13400,"éħ¿éħĴ":13401,"åµĮåħ¥":13402,"Ġéķ¿":13403,"ç³»çļĦ":13404,"åı·åı¬":13405,"æĬ½è±¡":13406,"ä¸Ĭå°Ĩ":13407,"ç»¼åĲĪå¾ģ":13408,"ä¹Ĵä¹ĵçĲĥ":13409,"æ³¨çĽ®":13410,"å¦Ĭå¨ł":13411,"éĿ¡":13412,"éĶ°":13413,"åĲĦéĥ¨éĹ¨":13414,"æ¸į":13415,"è±ļ":13416,"æĭĲ":13417,"æ°ĳåĬŀ":13418,"Ġç½Ĺ":13419,"ove":13420,"é©´":13421,"äº¬åŁİ":13422,"çĽĶ":13423,"åĩºåĽ½":13424,"æ³°åĭĴ":13425,"åĹ½":13426,"æĺ¨å¤©":13427,"æĪĳä»¬ä¼ļ":13428,"ins":13429,"ãĥ¥":13430,"ä¸¤ç«¯":13431,"å®¢æĪ·ç«¯":13432,"åĳ¼åĲģ":13433,"èĹ¤åİŁ":13434,"çĪ·çĪ·":13435,"çļĦèĩªçĦ¶":13436,"å¤§å¸Ŀ":13437,"ä¹ĭçİĭ":13438,"äº¬ä¸ľ":13439,"åıĮéĩį":13440,"æ°§æ°Ķ":13441,"åŃŁåĬłæĭī":13442,"å¯¹æĪĺ":13443,"éĩĳéĵ¶":13444,"å²Ķ":13445,"CS":13446,"åģļæĪĲ":13447,"è½¿è½¦":13448,"ä¸Ńä»ĭ":13449,"å¤ªå¤ª":13450,"å½ĵéĢīä¸º":13451,"åı¯ä»¥å°Ĩ":13452,"æĺ¾ç¤ºå±ı":13453,"éĻ¨çŁ³":13454,"1914":13455,"èįĢ":13456,"èĵ¬åĭĥ":13457,"å¸¸å¹´":13458,"åħĭéĽ·":13459,"æīĭæĮģ":13460,"å°ıç»ĦèµĽ":13461,"æ³Ħæ¼ı":13462,"çī©ä¸ļç®¡çĲĨ":13463,"èĮľ":13464,"ç´łåħ»":13465,"å¾Īå¼ºçļĦ":13466,"èį§åħī":13467,"åĽĽç§į":13468,"å¸ĥåħ°":13469,"åĨįè¡Į":13470,"å¹²é¢Ħ":13471,"åºķå±Ĥ":13472,"å·¥ä¸ļå¤§åŃ¦":13473,"æľĢåĪĿçļĦ":13474,"éĹ´éļĻ":13475,"åħĭåĪ©":13476,"åģļäºĭ":13477,"ãģĺ":13478,"æ±½æ²¹":13479,"ĠçĻ½":13480,"çļĦè§Ĵåº¦":13481,"åĲĦæł·çļĦ":13482,"123":13483,"è·¨å¢ĥ":13484,"ä¼º":13485,"è¯¥æĿĳ":13486,"å®£ç§°":13487,"åĽºåĮĸ":13488,"TS":13489,"è¿ĩå¾Ģ":13490,"æ±ĩèģļ":13491,"åľ°è²Į":13492,"ç§¯æŀģå¼Ģå±ķ":13493,"âĢķâĢķ":13494,"è¿Ļå®¶":13495,"çĶ²æĸ¹":13496,"å·§åħĭåĬĽ":13497,"æĸ¯èĴĤ":13498,"æŃ¦å£«":13499,"é»İæĺİ":13500,"åĪĩå°Ķè¥¿":13501,"äººçĶŁçļĦ":13502,"åŁºåĩĨ":13503,"æįı":13504,"åĿļåĽº":13505,"åħ±èµ¢":13506,"è´µéĺ³":13507,"mer":13508,"å¾ĹçļĦ":13509,"çĶ²éĨĽ":13510,"æĬķåħ¥ä½¿çĶ¨":13511,"ward":13512,"ä¸Ĭæĺ¯":13513,"é¢Ĩå¯¼ä¸ĭ":13514,"æĪĳéĻ¢":13515,"å«Įçĸĳ":13516,"åĢ©":13517,"å·´å·´":13518,"å¦Ĥæŀľæ²¡æľī":13519,"ance":13520,"eter":13521,"åŃ¦ä¸ļ":13522,"å¼Ģå§ĭåľ¨":13523,"æł¸æ¡ĥ":13524,"å¸¸åĬ¡çĲĨäºĭ":13525,"çŃīåĽłç´ł":13526,"åĲĮæĢ§":13527,"æĶ¯æŀ¶":13528,"çĶŁäº§ç»ıèĲ¥":13529,"çĶµçº¿":13530,"å®īéĿĻ":13531,"èģĶæīĭ":13532,"æĶ»åįł":13533,"åºŃéĻ¢":13534,"å¯»å¸¸":13535,"ãĢĤ<\\/":13536,"å®Įé¢ľ":13537,"æ°´åĴĮ":13538,"åĮĹæŀģ":13539,"åħĥä»£":13540,"é²ģæĸ¯":13541,"çļĦåįķ":13542,"çĶµæŀģ":13543,"åī¯æĢ»è£ģ":13544,"æ³¨åĨĮèµĦæľ¬":13545,"åį°ç¬¬å®ī":13546,"åįĹéĢļ":13547,"ä¸Ģè¯´":13548,"åıĤæ¼Ķ":13549,"äººæ°ĳä»£è¡¨å¤§ä¼ļ":13550,"åıĳå±ķè§ĦåĪĴ":13551,"äººæ°ĳç¾¤ä¼Ĺ":13552,"çĴ§":13553,"èıģ":13554,"å¤įåıĳ":13555,"å¤ıå¨ģ":13556,"è¡ĮæĶ¿åĮºåŁŁ":13557,"æ¦¨":13558,"å¼ĤæĢ§":13559,"çľ·":13560,"æľºæŀª":13561,"åī¯æĢ»ç»ıçĲĨ":13562,"æĲ¬è¿ģ":13563,"ä¼ļæīĢ":13564,"è°¢è°¢":13565,"ç§ŁåĢŁ":13566,"çļĦå®¶åºŃ":13567,"çİĭå®¤":13568,"çļĦéĿŀ":13569,"èĥ¤":13570,"ä¹ĭçĪ¶":13571,"æľºçŃī":13572,"æł¼æĭīæĸ¯":13573,"åıĤè§ģ":13574,"ä¸ĵä¸ļä»İäºĭ":13575,"çĽ®åħī":13576,"åľĨæŁ±":13577,"åİŁä½ıæ°ĳ":13578,"çĹħåİŁ":13579,"1400":13580,"ä¾§éĿ¢":13581,"åľ¨ä¸į":13582,"å¤ĸå£³":13583,"ãĥĭ":13584,"èī¾ä¼¦":13585,"éĢłå°±":13586,"åº§åłĤ":13587,"æ¿ĢåĬ¨":13588,"é¢Ŀå®ļ":13589,"ä¼´éļıçĿĢ":13590,"åĮ»çĸĹåĻ¨æ¢°":13591,"ä»ĸå°±":13592,"è°į":13593,"åħ¥ä½ı":13594,"å¸¸å§Ķä¼ļ":13595,"æ¢¦å¹»":13596,"æ°´æµģ":13597,"åĮ»æ²»":13598,"æĺ¯è°ģ":13599,"åıĺéĩı":13600,"é¢Ĩå¯¼å°ıç»Ħ":13601,"ãĢĤâĢĻ":13602,"åĬłåĪ©äºļ":13603,"Ġk":13604,"å®¢ä¸²":13605,"Cç½Ĺ":13606,"çļĦé¢ľèī²":13607,"å¾ĹäºĨ":13608,"æĪĳä»¬å°±":13609,"Ã³":13610,"èĪªæµ·":13611,"ä¸ĭä¸Ģä¸ª":13612,"å½±åĵįåĬĽçļĦ":13613,"èĶĹ":13614,"éĺ»åĬĽ":13615,"æ³ķåĪĻ":13616,"å·ŀåĮº":13617,"åįĬå¾Ħ":13618,"åĵĪæĭī":13619,"ä¸ļåĬ¡çļĦ":13620,"åħ«å¤§":13621,"äº¦ç§°":13622,"è£ħæľī":13623,"å´Ń":13624,"åĽ½äºº":13625,"äºĶä¸ĸ":13626,"å¯¹å¤ĸå¼ĢæĶ¾":13627,"æķ´é½Ĳ":13628,"æ·±å¤Ħ":13629,"ä¸»ä¹īçļĦ":13630,"ä½ĵæĵį":13631,"ç»Ļäºĭä¸Ń":13632,"eth":13633,"èĳĹä½ľæĿĥ":13634,"ä¸ĬéĹ¨":13635,"ä¸¾åĬŀäºĨ":13636,"ä¼łè®°":13637,"çĩĥæ²¹":13638,"èĭ¥æĺ¯":13639,"åĽ½å®¶éĩįçĤ¹":13640,"åĬ¨çī©çļĦ":13641,"ä¸»å¸ħ":13642,"ï¼Īï¼Ł":13643,"å¢Ł":13644,"åĽĽèĤ¢":13645,"ä»Ħ":13646,"ç»´æĭī":13647,"è¡°èĢģ":13648,"çĶ²çĬ¶èħº":13649,"å¹´çº§":13650,"å¤ıå¨ģå¤·":13651,"ä¹Łéĥ½":13652,"è¡Įä¸ļåįıä¼ļ":13653,"ç´§ç´§":13654,"åĩĢæ°´":13655,"é¢Īéĥ¨":13656,"å¤§æĸ¹":13657,"åľ¨å¤©":13658,"æĹłä¸į":13659,"æĬĹæĹ¥æĪĺäºī":13660,"åıĳæī¬":13661,"ç½ĳçļĦ":13662,"æ¸ħçĥŃ":13663,"èħ¥":13664,"å¯Įæ±Ĺ":13665,"çĻ»å±±":13666,"äº¤éĢļå¤§åŃ¦":13667,"ç¿»çĤĴ":13668,"å¼Ģåı£":13669,"éĵ¬":13670,"å¥³æĢ§çļĦ":13671,"æĦŁçļĦ":13672,"çĽĳä¼ļ":13673,"åĴĮä¸ªäºº":13674,"åīĶ":13675,"éĩĳçļĦ":13676,"é¹¦":13677,"åĬłå¼ºå¯¹":13678,"å¤§è´¥":13679,"æµ·æ»©":13680,"åİ¿éķ¿":13681,"åħļç»Ħ":13682,"ä¸ĥä¸ª":13683,"è°ĭæĿĢ":13684,"å¥ĸçīĮ":13685,"ç¾İåĽ½äºº":13686,"éĥĳå·ŀå¸Ĥ":13687,"åĨ°å·Ŀ":13688,"åľ°åĿĹ":13689,"èĲ¤":13690,"å±ķæľĽ":13691,"æĢģåĬ¿":13692,"ãģĳ":13693,"æ¾Ī":13694,"EV":13695,"æĪĲç«ĭåĲİ":13696,"æŁ´æ²¹æľºè½¦":13697,"IA":13698,"ler":13699,"æİ¥ç®¡":13700,"æ®µçļĦ":13701,"æł·å¼ı":13702,"å¯¼èĩ´çļĦ":13703,"è§ĦèĮĥåĮĸ":13704,"éĩįåŀĭ":13705,"æĺŁçĲĥ":13706,"çģµæķı":13707,"åī¿":13708,"ä½İçļĦ":13709,"æ¯«ä¸į":13710,"çĶ¨äººåįķä½į":13711,"åħħæ»¡äºĨ":13712,"ä¼ļé¦Ĩ":13713,"èĬ±æ¤Ĵ":13714,"æ°´ä½į":13715,"çºµåĲĳ":13716,"èģĮä¸ļæĬĢæľ¯åŃ¦éĻ¢":13717,"æ´»å¡ŀ":13718,"åıĺçļĦ":13719,"éª¨æĬĺ":13720,"éķ¿éĢĶ":13721,"ç®¡çĲĨåĪ¶åº¦":13722,"éĿ¢ç§¯ä¸º":13723,"è¿ĩå¤§":13724,"èĬ±çļĦ":13725,"å®¢æĪ·æıĲä¾Ľ":13726,"åĬłåĭĴ":13727,"æĤ¬æµ®":13728,"å¤ļä¼¦å¤ļ":13729,"é«ĺç¥ĸ":13730,"èĮ¹":13731,"æķĻèĤ²åİħ":13732,"æĪĲç«ĭä»¥æĿ¥":13733,"è¯ºæĽ¼":13734,"ä¸ĢéĹ´":13735,"åĮĹå¸Ĥ":13736,"å¸¸æĢģ":13737,"è¯´è¿ĩ":13738,"ros":13739,"é«ĺæĸ°æĬĢæľ¯ä¼ģä¸ļ":13740,"åĮĹåĮº":13741,"ç¡ķå£«çłĶç©¶çĶŁ":13742,"è¯¦ç»ĨçļĦ":13743,"ä¸Ģéĥİ":13744,"çļĦæķ°éĩı":13745,"è¿ĳä¼¼":13746,"äº¬åī§":13747,"éĤ®ç®±":13748,"åĩºå®¶":13749,"å¦į":13750,"ãĥĲ":13751,"ä¿¡æģ¯ç³»ç»Ł":13752,"å¯ĨçļĦ":13753,"å¹¸åŃĺ":13754,"éĢłçº¸":13755,"å¸¦åĪ°":13756,"æĴŃæĺł":13757,"å»ºæŀĦ":13758,"éĻ¤éĿŀ":13759,"æ£ĭåŃĲ":13760,"ä¸ŃçļĦä¸Ģ":13761,"åĬ¡å®ŀ":13762,"ä¹łæĢ§":13763,"ä¼¤åı£":13764,"red":13765,"å¥ĩå¹»":13766,"æī¹åĪ¤":13767,"ited":13768,"å®ļåĲĳ":13769,"é¦ı":13770,"å¤ĦåĪĨ":13771,"é»ĳèī²ç´ł":13772,"ius":13773,"éĥ¡çİĭ":13774,"å±ĢéĻĲ":13775,"çļĦå¼Ģåıĳ":13776,"å£°ä¼ĺ":13777,"IL":13778,"ãĥĵ":13779,"åįļå£«åĲİ":13780,"åħĪåıĳ":13781,"åĦ¿å¥³":13782,"æİ¢æµĭåĻ¨":13783,"æĺ§":13784,"ç¢³éħ¸":13785,"åĽŀå¤´":13786,"OL":13787,"ç»®":13788,"æ²Ļçī¹":13789,"çļĦä»·åĢ¼":13790,"èĩªåı¤":13791,"æ²¡æľīäºº":13792,"éŀĺ":13793,"çļĦçº¢":13794,"å®ļçĤ¹":13795,"å¼ºè¿«":13796,"è¯¥åľ°åĮº":13797,"èıł":13798,"çª¥":13799,"åħ¨æĹ¥åĪ¶":13800,"ĠåĲ´":13801,"çļĦæĪĲåĬŁ":13802,"ä¹ĭä½Ļ":13803,"èµ·é£ŀ":13804,"èº«æĿĲ":13805,"æĽ¾èİ·":13806,"æĽ¦":13807,"æİ¥åľ°":13808,"é£ŀèĪ¹":13809,"è®¸å¤ļäºº":13810,"å¸Īä»İ":13811,"åıĹä½ĵ":13812,"ç¤¼éĥ¨":13813,"èĢĲèħĲèļĢ":13814,"Gr":13815,"ä¸ĭè½¦":13816,"æĶ»åĿļ":13817,"ç¾ĬèĤī":13818,"TP":13819,"ä¸įè§ĦåĪĻ":13820,"ä¼¯æł¼":13821,"èĩĢé³į":13822,"åĴĮç¾İåĽ½":13823,"åŀĴæīĵ":13824,"æµ·é²ľ":13825,"æĸ¯åĽ¾":13826,"åĲĦçľģ":13827,"æĢ»åĢ¼":13828,"ç¬¬ä¸īå±Ĭ":13829,"åŃĺåľ¨çĿĢ":13830,"çŃīåĬŁèĥ½":13831,"åĨĻçľŁ":13832,"ä¸ŃåįĪ":13833,"åĴĮæĸĩåĮĸ":13834,"ç¬ł":13835,"è¿Ľåĩº":13836,"è·¯ç«Ļ":13837,"ä¸ĵèģĮ":13838,"èº«çļĦ":13839,"å°ıç¨ĭåºı":13840,"æģ¤":13841,"æĹłæ¯Ķ":13842,"éħ¸æĢ§":13843,"âĹĨ":13844,"åįĹç«Ļ":13845,"èĢĲçĶ¨":13846,"æĢ»ç®¡":13847,"ç¬ĶèĢħ":13848,"éĿĴå²Ľå¸Ĥ":13849,"åľ¨è¿Ļä¸Ģ":13850,"æıŃç¤º":13851,"è¾©è®º":13852,"ä¸Ĭè¯¾":13853,"åįĹæŀģ":13854,"éĩĮæĺĤ":13855,"åŁİåĨħ":13856,"ä¸¤å®¶":13857,"æĬ¤çħ§":13858,"è¡Įæĥħ":13859,"äºĭåħĪ":13860,"ä¿ĥéĶĢ":13861,"å¹¶æĪĲä¸º":13862,"æľ¨è´¨":13863,"çŁ¥åĲįçļĦ":13864,"åħĭåĬ³":13865,"åĨĻäºĨ":13866,"å¿ħé¡»åľ¨":13867,"éĩıä¸º":13868,"åıĪèĥ½":13869,"ãĤĪ":13870,"åį°åº¦å°¼è¥¿äºļ":13871,"åŃ¦åłĤ":13872,"æĪĲçĨŁçļĦ":13873,"æĶ¯æŁ±":13874,"è¿ŀèĥľ":13875,"ä¸Ģè¾Ĩ":13876,"åı£åı·":13877,"éĽĨåĽ¢çļĦ":13878,"ä¹Ļæĸ¹":13879,"çĽ¸è¾ĥäºİ":13880,"çļĭ":13881,"éĻįè§£":13882,"è¿Ļç§įæĥħåĨµ":13883,"å¹¶åıĳçĹĩ":13884,"äºļé©¬éĢĬ":13885,"ä¸ĢèĪ¬åľ¨":13886,"åħ¬ä¼Ĺåı·":13887,"ä¸įå¿ĺ":13888,"èĲ¥æĶ¶":13889,"éķĩåİĭ":13890,"æ£Ģä¿®":13891,"å®ĩæĸĩ":13892,"å¾Į":13893,"å¤§çİĭ":13894,"å¼Ģåħĥ":13895,"å¹³éĿĻ":13896,"ä¸ľåİ¿":13897,"éĿ¢ç§¯çº¦":13898,"æĶ¿çŃĸçļĦ":13899,"ç¨įå¾®":13900,"è¡Ģç³ĸ":13901,"å·²ç»ıåľ¨":13902,"åĳĺå·¥çļĦ":13903,"æ²¥éĿĴ":13904,"æ¯Ĵç´ł":13905,"äºĮåįģå¤§":13906,"æ´±":13907,"é¢Ħå®ļ":13908,"éģĩåĪ°äºĨ":13909,"ä¼ļè®®åĳĺ":13910,"çŁ©éĺµ":13911,"è¢«åĬ¨":13912,"åĲĳä¸ĭ":13913,"å·´èµ«":13914,"åĮħæĭ¬äºĨ":13915,"ä¸įæŃ¢":13916,"åıĤæĶ¿":13917,"éĻĲåº¦":13918,"éĵ¶çīĮ":13919,"è·¨åĽ½":13920,"æĽ´å¿«":13921,"æĬĵå¥½":13922,"åįĹåĮº":13923,"æŃ£ç»Ł":13924,"æŃ¦æĺĮ":13925,"åħ¸éĽħ":13926,"ç´§åĩĳ":13927,"ava":13928,"åĮºåĿĹéĵ¾":13929,"çŁ¥è¯ĨåĴĮ":13930,"å¹¿æĴŃçĶµåı°":13931,"èĢį":13932,"ä¸»æĸĻ":13933,"åĿ¯":13934,"æ¯Ķèµ·":13935,"çĦ¶åĲİåĨį":13936,"æĬĽåħī":13937,"ç¿°æŀĹéĻ¢":13938,"åįļä¼ļ":13939,"æ°´èµĦæºĲ":13940,"åĽłä¸ºå®ĥ":13941,"çł´è£Ĥ":13942,"çļĦåŃ©åŃĲ":13943,"320":13944,"ç»Ļåĩº":13945,"ä¸īä¸ªæľĪ":13946,"åĭ¤å¥ĭ":13947,"åĪĹä¼ł":13948,"ä½ľçĶ»":13949,"ìĿ":13950,"ä¸įåłª":13951,"å½ª":13952,"ä¸ĩæ¬§åħĥ":13953,"æĺ¾çİ°":13954,"èľĴ":13955,"èİ±èĮµ":13956,"åĺīåħ´":13957,"æŁĵèī²ä½ĵ":13958,"çĶ°ä¸Ń":13959,"æį£":13960,"åįĹçĵľ":13961,"eph":13962,"orld":13963,"oft":13964,"çļĦæĹ¶ä»£":13965,"æĻ¯è±¡":13966,"è¡¡éĩı":13967,"ä¼ļåĲĮ":13968,"æĸĩåĮĸèīºæľ¯":13969,"çļĦæĤ£èĢħ":13970,"å®ģåİ¿":13971,"æ¦Ĥæĭ¬":13972,"æĢ§åľ°":13973,"æĸŃå±Ĥ":13974,"ä»£è¡¨åĽ¢":13975,"ä¸Ĭéĥ¨":13976,"è½¶":13977,"æľºèĥ½":13978,"å¤ĸæĿ¥":13979,"åħīæºĲ":13980,"åħµåĻ¨":13981,"åŃĻåŃĲ":13982,"å¼Ĺåħ°":13983,"ma":13984,"èµĽåĮº":13985,"è°ĥä»»":13986,"èĬ±å²Ĺ":13987,"éļĶçĥŃ":13988,"æµļ":13989,"è¡ĮæĿİ":13990,"åŃĹç¬¦":13991,"å¯¹èĩªå·±":13992,"å®īè£ħåľ¨":13993,"åı°éĺ¶":13994,"ãģĪ":13995,"æŃ¦åĬŁ":13996,"çī©è´¨çļĦ":13997,"æ²³æµģåŁŁ":13998,"å¹²æĹ±":13999,"é»ĳçĻ½":14000,"æĹ¥ä¸¾è¡Į":14001,"é¦Ļæ¸¯éħįéŁ³":14002,"åĵĪéĩĮ":14003,"æĿĤäº¤":14004,"ount":14005,"é¢ĦçķĻ":14006,"é»ĺé»ĺ":14007,"æĢ§ä¸İ":14008,"çģĮæľ¨":14009,"æĶ¯éĺŁ":14010,"å¤ĸå¢Ļ":14011,"æ²³è¥¿":14012,"æ±ĩæĢ»":14013,"åĨħéĥ¨çļĦ":14014,"å¼¥è¡¥":14015,"åĨħæĪĺ":14016,"çĲĥéĺŁçļĦ":14017,"å¯¹ä¸ŃåĽ½":14018,"Â·Â·":14019,"æĢ§çĸ¾çĹħ":14020,"åıªåľ¨":14021,"ç¢ĺ":14022,"æĬĢæľ¯ä¸İ":14023,"ç¢Į":14024,"åįĴäºİ":14025,"æĺ¯èĭ±åĽ½":14026,"æ¡Ķ":14027,"èµ·çļĦ":14028,"æ±īä»£":14029,"èµĽé©¬":14030,"å¸¸å·ŀ":14031,"æĦıæĦ¿":14032,"ä¸¤åº§":14033,"ãĦ§":14034,"æī¹å¤į":14035,"èıľåįķ":14036,"åĲįé¢Ŀ":14037,"éĺ¿å¯Įæ±Ĺ":14038,"æ·®åįĹ":14039,"yst":14040,"åĮĹå¤§":14041,"ä¸Ģç»Ħ":14042,"æīĭä¸ĭ":14043,"ĠBl":14044,"Ð¼":14045,"æīĭæŀª":14046,"é»Ħå±±":14047,"ç´łæĿĲ":14048,"æ±īä¹¦":14049,"åıĳè¡¨äºĨ":14050,"æ§Ł":14051,"æĻ®éĢļçļĦ":14052,"èĩ´åĳ½":14053,"ç¬¬äºĮè½®":14054,"èĪªè¡Į":14055,"è½¦ç«Ļç»ĵæŀĦ":14056,"ps":14057,"Ġr":14058,"ä¸»çļĦ":14059,"åħīç¦Ħ":14060,"åĳ½åĲįçļĦ":14061,"CA":14062,"èĤĿèĦı":14063,"çļĦåĮºåŁŁ":14064,"ä¼¦æĸ¯":14065,"æľºæ¢°è®¾å¤ĩ":14066,"è½¨è¿¹":14067,"ç«ŀäºīå¯¹æīĭ":14068,"å¹´è¢«è¯Ħä¸º":14069,"å¯Ĥå¯ŀ":14070,"æĢ»ä¹ĭ":14071,"ãĢĤâĢĿãĢĬ":14072,"ä¸ĢèĪ¬ä¸º":14073,"ä½ľåĩºäºĨ":14074,"ç¨ļ":14075,"æŁĳ":14076,"äºĨä¸Ģç³»åĪĹ":14077,"æ¼ĶæĬĢ":14078,"å®Ĺå®¤":14079,"æ·»åĬłåīĤ":14080,"æĸ°åĨłèĤºçĤİ":14081,"æ³¸":14082,"éĹ¨åīį":14083,"é¦ĸå°Ķ":14084,"å·¦ç¿¼":14085,"åģľçķĻ":14086,"å²ŃåįĹ":14087,"è¯±åıĳ":14088,"å¢ĥåĨħçļĦ":14089,"å°Ħåħ¥":14090,"çĶ²ç»Ħ":14091,"éĤªæģ¶":14092,"åŃĲä¸Ĭ":14093,"å¢ĵèĳ¬":14094,"çļĦåĲįç§°":14095,"åı¤å±ĭ":14096,"è¿ĩæ»¤åĻ¨":14097,"éĻ¤åİ»":14098,"åħįçĸ«åĬĽ":14099,"æģ³":14100,"ä¼Ĺå¤ļçļĦ":14101,"é£İä¿Ĺ":14102,"çļĦä»»åĬ¡":14103,"åĵĩ":14104,"éľĢè¦ģåľ¨":14105,"åºĶèģĺ":14106,"æĦıçĶ²":14107,"åı¯ä»¥ä»İ":14108,"çłĶç©¶æĪĲæŀľ":14109,"å¥¶å¥¶":14110,"éģĵå¤«":14111,"çĥĥ":14112,"ä»ħä¸º":14113,"ç»§ä½į":14114,"ç»§ä»»":14115,"ç½ķé»ĺ":14116,"å¥³æİĴ":14117,"å£®æĹı":14118,"Ġï¼ī":14119,"è¯¥åħļ":14120,"èĸ°":14121,"å®ĩèĪª":14122,"ç¦ģå¿Į":14123,"åĬ¨è½¦ç»Ħ":14124,"1910":14125,"ç½Ĺæ±ī":14126,"äººä¹Ł":14127,"åĽĽéĿ¢":14128,"æķĻèĤ²åŃ¦éĻ¢":14129,"èĭŀ":14130,"é£ŁåłĤ":14131,"åĳ½é¢ĺ":14132,"çī¢åĽº":14133,"ÉĽ":14134,"ä¸įå®¹":14135,"åı¯ä»¥è®©":14136,"é±¼éĽ·":14137,"å¸ĪèĮĥåŃ¦éĻ¢":14138,"åĢ¼å¾Ĺä¸ĢæıĲçļĦæĺ¯":14139,"æ£Ģçĸ«":14140,"èīºæľ¯åŃ¦éĻ¢":14141,"æ¯ĶèµĽçļĦ":14142,"ä¼ļè®®å®¤":14143,"ç¡«åĮĸ":14144,"åĽ½ä¸Ń":14145,"å¸¸è¯Ĩ":14146,"çĻ¾ä½Ļ":14147,"ç»ıéªĮçļĦ":14148,"æ¹¿æ¶¦":14149,"æĹħå®¢éĵģéģĵ":14150,"ç»¼èīºèĬĤçĽ®":14151,"ç»ĵæł¸":14152,"ä¼Ĺè®®éĻ¢":14153,"è¶ħçº§èģĶèµĽ":14154,"å¹´æľŁéĹ´":14155,"è¡Ģæ¸ħ":14156,"æĬ¢æķĳ":14157,"Ed":14158,"è¦ģå¡ŀ":14159,"å®ģéĿĻ":14160,"æĬĢæ³ķ":14161,"é¾Ļç±»":14162,"æ³¨æĦıåĪ°":14163,"èĥļèĥİ":14164,"ãĥ¡":14165,"æĹ¶éĹ´åĴĮ":14166,"åĳĬåĪ«":14167,"å¹³æĸ¹åįĥç±³":14168,"å½Ĵå±ŀ":14169,"å¥¥æŀĹåĮ¹åħĭè¿ĲåĬ¨ä¼ļ":14170,"æĹ¶è¢«":14171,"å¤Ħå¤Ħ":14172,"å§Ķä»»":14173,"è¡¨éĿ¢çļĦ":14174,"åİķæīĢ":14175,"æĥ³åĥı":14176,"åŃ¦ä¹łçļĦ":14177,"ä¸Ģå¿ĥ":14178,"åŃ¦è¯´":14179,"çī¹äº§":14180,"æ·¤":14181,"çķĻå®Ī":14182,"èĥ¶åĽĬ":14183,"é¢ĩæľī":14184,"ä¸įéĶĻçļĦ":14185,"DD":14186,"åĩĦ":14187,"åĪĹå®ģ":14188,"éĽ¨æ°´":14189,"âĢĿâĢĶâĢĶ":14190,"åĴ³åĹ½":14191,"åĨħäºļ":14192,"æĪĸç§°":14193,"å·į":14194,"éĩįè¦ģä½ľçĶ¨":14195,"æ¹¾åĮº":14196,"çīĽæ´¥":14197,"é¥®æ°´":14198,"éĿĵ":14199,"å·²ç»ıè¢«":14200,"ç»ĵæĿŁäºĨ":14201,"åı¯ä»¥å¸®åĬ©":14202,"åĪĻä»¥":14203,"åºŀå¤§çļĦ":14204,"éĺŁä»¥":14205,"åĽĽå¤Ħ":14206,"è½¬è¿Ĳ":14207,"å£®è§Ĥ":14208,"åĪ©äºİ":14209,"ä¸´æ²Ĥ":14210,"åĺ²":14211,"çļĦåīįèº«":14212,"æºĥçĸ¡":14213,"Ġ2003":14214,"ç¬¬ä¸Ģå®¶":14215,"çĽ¸åħ³éĥ¨éĹ¨":14216,"åĴĮåįİ":14217,"å½Ĺ":14218,"ä¸ĬåįĬ":14219,"ä¸ªåĽ½å®¶":14220,"çĶµå½±çļĦ":14221,"æ±ķå¤´":14222,"å½±åĵįåĪ°":14223,"org":14224,"åħĭèĲ¨æĸ¯":14225,"è§ĨåĬĽ":14226,"å¥¥åı¤":14227,"å»ºçŃĳè®¾è®¡":14228,"çļĦèĩª":14229,"èĢĮéĹ»åĲį":14230,"çŁŃçīĩ":14231,"åı°ä¸Ńå¸Ĥ":14232,"ãĥĸ":14233,"è¾¹ä¸º":14234,"å¢Ļå£ģ":14235,"æŃ»åĪĳ":14236,"ĠBr":14237,"äººä»¬å¯¹":14238,"è¾Ĭ":14239,"ä¸´è¿ĳ":14240,"æķ¬ä¸ļ":14241,"ä½Ľç½ĹéĩĮè¾¾":14242,"çŀĦåĩĨ":14243,"æľīåĬĽçļĦ":14244,"å¨ģå°Ķå£«":14245,"iversity":14246,"èľ¿":14247,"ä¸ºæĤ¨æıĲä¾Ľ":14248,"è¶³æĢ»":14249,"åĪĴå½Ĵ":14250,"ä¸°çĶ°":14251,"å½©èĻ¹":14252,"çĬ¹å¤ªäºº":14253,"åľ¨æ³ķåĽ½":14254,"åı¯ä»¥è¯´æĺ¯":14255,"æµĭç»ĺ":14256,"ç´¢å°¼":14257,"æµ®éĽķ":14258,"ç¬¬åįģåħŃ":14259,"å¹´äºİ":14260,"ä¸ºåĽ½å®¶":14261,"ode":14262,"æľºçĲĨ":14263,"æµ·åĨħå¤ĸ":14264,"çķĻè¨Ģ":14265,"èĹıåĵģ":14266,"ower":14267,"ç¬¬ä¸Ģæ¬¡ä¸ĸçķĮå¤§æĪĺ":14268,"æľ¬éĥ¨":14269,"ä¸ĭæ°´":14270,"æŃ»èĢħ":14271,"ott":14272,"åħļç»Ħç»ĩ":14273,"èĪĴæľį":14274,"å¦ĵ":14275,"ä¿ĿåĬłåĪ©äºļ":14276,"åĪ¶éĢłçļĦ":14277,"ä»Ļäºº":14278,"ĠLe":14279,"ç»Łæ²»èĢħ":14280,"å®ļå¾ĭ":14281,"åĽłåºĶ":14282,"å¸®åĬ©ä¸ĭ":14283,"éº»éĨī":14284,"Ġ2000":14285,"åĨĽåľ¨":14286,"æĽ´è¿Ľä¸ĢæŃ¥":14287,"æİ¥èĳĹ":14288,"ç¬¬ä¸Ģä»£":14289,"åį´ä¸į":14290,"éĴĵé±¼":14291,"Êģ":14292,"æıĲæ¡Ī":14293,"æī¹éĩı":14294,"åıĳè¡¨è®ºæĸĩ":14295,"è¾¾æłĩ":14296,"135":14297,"åį´è¢«":14298,"æµģç»ı":14299,"ç¡®è¯ĬçĹħä¾ĭ":14300,"æ¶¡è½®":14301,"éĴ¢æĿĲ":14302,"çģŃçģ«":14303,"ä¸ĢçŃī":14304,"æĹ¥çĶ±":14305,"ä¸ĵæłı":14306,"å¨±":14307,"ç²īå°ĺ":14308,"çº¯ç²¹":14309,"éĤ®ç¥¨":14310,"å¹¼èĻ«":14311,"å¥ĳçº¦":14312,"å¯¹çŃĸ":14313,"è¯£":14314,"åĴĮä½¿çĶ¨":14315,"ä¸İç¤¾ä¼ļ":14316,"çıŃä¸»ä»»":14317,"å¾Ģè¿Ķ":14318,"å°ıæıĲçĲ´":14319,"å°Ĩä¸º":14320,"åłĢ":14321,"æĺ¯çĶ±äºİ":14322,"ä»¥æĿ¥çļĦ":14323,"æĿ¥ä¸´":14324,"äºĮç»´":14325,"æĿ¡çº¹":14326,"åĸľçĪ±çļĦ":14327,"æĭĽåĭŁ":14328,"ä¾µèļĢ":14329,"own":14330,"æ¸¤æµ·":14331,"ä¸Ģåı£":14332,"æĿ¥çľĭçľĭ":14333,"ä¸Ńåħ±ä¸Ńå¤®":14334,"åĪ¶çīĩäºº":14335,"é«ĺä¸½":14336,"æĹłæĦı":14337,"è¯Ħå®ļ":14338,"å°±æ²¡æľī":14339,"èĩªå·±åľ¨":14340,"èĤ¡å¸Ĥ":14341,"æĥ©ç½ļ":14342,"ä¹ĲæĽ²":14343,"å¥¶æ²¹":14344,"èĳ¬äºİ":14345,"ube":14346,"éĽĨè£ħç®±":14347,"ç¼ĵåĨ²":14348,"åľ¨ä¸ŃåĽ½å¤§éĻĨ":14349,"æĭħå¿§":14350,"ç¯·":14351,"éī´äºİ":14352,"çļĦåľ£":14353,"å¤©ä½ĵ":14354,"è½¦ä½ĵ":14355,"ãĤı":14356,"çļĦåıį":14357,"åĲįå°Ĩ":14358,"æĹ¢æĺ¯":14359,"æįĲæ¬¾":14360,"åįĬåĨ³èµĽ":14361,"åĺİ":14362,"å®¶åįıä¼ļä¼ļåĳĺ":14363,"æľĪä¸ŃæĹ¬":14364,"æĸĩéĽĨ":14365,"çĻ¾å®¶":14366,"çĲīçĴĥ":14367,"æķĻç¨ĭ":14368,"æĸ¯åĴĮ":14369,"æĦıä¹īçļĦ":14370,"èĢ¸":14371,"å²±":14372,"å¾·å·ŀ":14373,"åħĪåīį":14374,"114":14375,"å²ģä»¥ä¸ĭ":14376,"æĶ»åħ¥":14377,"æ®ī":14378,"åĽ¢è´Ń":14379,"ç²¾çĽĬ":14380,"è¿ľå¾ģ":14381,"æĭ¿çł´":14382,"å±±è°·":14383,"åı¤ç±į":14384,"280":14385,"è¿Ļä¸ĢåĪĩ":14386,"çĿĢæīĭ":14387,"æŃ¥åħ¥":14388,"ç©Ĩç½ķé»ĺ":14389,"ï¼ī-":14390,"èĢ³æľµ":14391,"1906":14392,"éħįéŁ³åĳĺ":14393,"æĻ®æĭī":14394,"åĲĮæł·çļĦ":14395,"åĤ¬åĮĸåīĤ":14396,"\"ãĢģ":14397,"äºļçĽ®":14398,"åĨħå®¹æıĲè¦ģ":14399,"å¡«è¡¥":14400,"åı¯è¡ĮæĢ§":14401,"çŃĿ":14402,"ä¾Ī":14403,"åįİå±±":14404,"å¾®åŀĭ":14405,"æĴŃç§į":14406,"çıįæĥľ":14407,"çĹħçĹĩ":14408,"èĩªçĦ¶èµĦæºĲ":14409,"åĽ½å®ī":14410,"çĶ·åıĭ":14411,"åįĥåħĭ":14412,"åĸ·æ¶Ĥ":14413,"åĲ¯ç¤º":14414,"ç£º":14415,"æ´ĭèĳ±":14416,"åªĴä½ĵçļĦ":14417,"èı©æıĲ":14418,"èĶĵå»¶":14419,"åįĩæł¼ä¸º":14420,"è°ĥåĬ¨":14421,"è¯ģåĪ¸äº¤æĺĵæīĢ":14422,"å¨ĥå¨ĥ":14423,"è¯¡":14424,"éĹ¨æ§Ľ":14425,"åı¤å¸ĮèħĬ":14426,"å±ħçĦ¶":14427,"log":14428,"æĪĺè´¥":14429,"æĤį":14430,"èĻĶ":14431,"å°¼æ³Ĭ":14432,"ä¸ŃæĹ¥":14433,"æĽ´èĥ½":14434,"æīįæľī":14435,"é»Ħçĵľ":14436,"ä¸»åĬŀçļĦ":14437,"å·¥åľ°":14438,"è¿ģå¾Ļ":14439,"ãģ²":14440,"æĶ¯éħį":14441,"çīĪçº¸":14442,"åĲīåĪ©":14443,"ä¸įé«ĺ":14444,"En":14445,"çļĦè¯Ńè¨Ģ":14446,"ç¼®":14447,"çłĶç©¶æĸ¹åĲĳ":14448,"æĶ»åĬ¿":14449,"ä¼¦çĲĨ":14450,"åĪ©æģ¯":14451,"è¥Ħéĺ³":14452,"æĸ¯éĩĮ":14453,"çłĶç©¶å®¤":14454,"èİ±åĿŀ":14455,"ç¨³æŃ¥":14456,"ç¬¬åħŃç«ł":14457,"æĽ´åĲį":14458,"æ¦ķ":14459,"åĨ·æ°´":14460,"Co":14461,"åĪĨéĴŁåĲİ":14462,"åı¯ä½¿":14463,"æľ¬åī§":14464,"çļĦçŁ³":14465,"èµŀèªī":14466,"æµĵç¼©":14467,"åŁİéĹ¨":14468,"æķĪèĥ½":14469,"ä¸įçĽ¸":14470,"æ³ķæ²»":14471,"å½±è¯Ħ":14472,"å¥ĳæľº":14473,"ç¢±æĢ§":14474,"åºĦä¸ºéĤ»":14475,"æ·±åİļ":14476,"æ´ŀç©´":14477,"çļĦæĿĲæĸĻ":14478,"èĬ¥":14479,"æĭĨè¿ģ":14480,"åŁĶå¯¨":14481,"ä¹ĭå¹´åı·":14482,"åĽĽäºº":14483,"ç¼ĸç»ĩ":14484,"æĵįæİ§":14485,"åįĹäº¬å¸Ĥ":14486,"ä¸İä¼ļ":14487,"ä¾ĭå¤ĸ":14488,"è¿«ä½¿":14489,"æ¾İ":14490,"æĭ¿çł´ä»ĳ":14491,"åĪĨåĮĸ":14492,"èĢĮçĶŁ":14493,"æĮĩæİ§":14494,"åĩłä¸ªæľĪ":14495,"è½¯æĿ¡":14496,"Ġst":14497,"åı¯æĢķ":14498,"ç¦»ä¸įå¼Ģ":14499,"ä¸¢å¤±":14500,"æ°´æ·±":14501,"ç»ŃéĽĨ":14502,"å¯Įè£ķ":14503,"åĪĺå¤ĩ":14504,")ï¼Ī":14505,"Fran":14506,"VIP":14507,"pl":14508,"åĥµå°¸":14509,"ä¸¤è¾¹":14510,"å¤ªå¤§":14511,"ç¼ĸèĳĹ":14512,"åĪ¶çº¦":14513,"æĹħé¦Ĩ":14514,"æķ¦çħĮ":14515,"åĩºåħ·":14516,"åĵģå°Ŀ":14517,"zh":14518,"æ¸ħæĺİ":14519,"åıĺå¼Ĥ":14520,"ç´¢å¼ķ":14521,"æĽĻ":14522,"åıĳæĶ¹å§Ķ":14523,"è¿½åĩ»":14524,"çļĦæľĢåĲİ":14525,"æ¡¦":14526,"å°ıæĹ¶åĨħ":14527,"æŁ¬åŁĶå¯¨":14528,"æīįåįİ":14529,"å±ħäºİ":14530,"ä½Ľåĥı":14531,"çŃ¾åĲį":14532,"åħ¶å®ŀæĺ¯":14533,"VR":14534,"inux":14535,"è½»å¾®":14536,"å¯Įè´µ":14537,"èµ°åĬ¿":14538,"Tr":14539,"æĿ¥å¾Ģ":14540,"é«ĺé¢ĳ":14541,"åħ¨åı°":14542,"ä½ľä¸ºä¸Ģç§į":14543,"ä¿ĺèĻı":14544,"ä»Ģä¹Īæł·çļĦ":14545,"è´¨åľ°":14546,"æĶ¶åĽŀ":14547,"å®¡è®®":14548,"å¿ĥè¡Ģç®¡":14549,"åĤ¨èĥ½":14550,"çļĦåĨ³å®ļ":14551,"åħ¬äº¤è½¦":14552,"éĵľçīĮ":14553,"æĮ¤åİĭ":14554,"çİĽä¸½äºļ":14555,"çļĦä¿ĿæĬ¤":14556,"æĪĳåĴĮ":14557,"åįĥäºº":14558,"çļĦå¤§éĥ¨åĪĨ":14559,"åĽ½ç±į":14560,"ä¸ľä¸´":14561,"è®°ä½ı":14562,"çĶŁåīį":14563,"ä¼łæİĪ":14564,"å¸½åŃĲ":14565,"éĤ£å°±":14566,"æĻ®ç½Ĺ":14567,"å¿įèĢħ":14568,"è¿ĻæĦıåĳ³çĿĢ":14569,"å¹³åĿ¦":14570,"çİ¯æ°§":14571,"å¿ħå®ļ":14572,"èģļåĲĪçī©":14573,"äººå¤§ä»£è¡¨":14574,"çļĦä¸Ńå¿ĥ":14575,"ï¼ļ\"":14576,"åıĳå±ķæĪĺçķ¥":14577,"èĢģé¼ł":14578,"é¡¹çĽ®å»ºè®¾":14579,"å¢ĵå¿Ĺ":14580,"åı°ä¸Ĭ":14581,"é¢ĺçĽ®":14582,"128":14583,"ç¿ħèĨĢ":14584,"xx":14585,"ä¸ºåĲį":14586,"æľĪåĪĬ":14587,"æķ°ä¸º":14588,"NHK":14589,"å®¶åĴĮ":14590,"çĥŃéĹ¹":14591,"åĽ½æĹĹ":14592,"éĥ¨ä¸ĭ":14593,"æ¸¸è®°":14594,"åıĳå±ķæĪĲä¸º":14595,"æĶ»åħĭ":14596,"æĬĹåİŁ":14597,"çļĦçĲĥåĳĺ":14598,"æľīæĹł":14599,"èĤ¥èĥĸ":14600,"éĢĥç¦»":14601,"ç¥Īç¥·":14602,"Ġå¯¹":14603,"æĺ¯å¦Ĥä½ķ":14604,"åĴĮçĶŁæ´»":14605,"æĪĳè®¤ä¸º":14606,"éĿŀåĩ¡":14607,"çĶŁäº§èĥ½åĬĽ":14608,"å¹ķåĲİ":14609,"èľ¿èľĴ":14610,"è¡ĹéģĵåĬŀäºĭå¤Ħ":14611,"çº¢æ¥¼":14612,"å½±åĵįäºĨ":14613,"7000":14614,"Ġç¾İåĽ½":14615,"å¹³åİ¿":14616,"æµģæĦŁ":14617,"çļĦä¸Ģä½į":14618,"æ·±åĪ»çļĦ":14619,"ä¸ľå±±":14620,"çļĦä¸Ģèĩ´":14621,"éĥ½å°Ĩ":14622,"å·ŀéķ¿":14623,"åĽ½å®¶æłĩåĩĨ":14624,"å¤§åŃ¦æķĻæİĪ":14625,"ä½ķæĹ¶":14626,"ç§Łéĩĳ":14627,"æ¶¦æ»ĳæ²¹":14628,"èī²è°±":14629,
[...]
